FD1B
FE1E
FD30
FDDB
FF5A
0166
013D
01AA
FFD7
013F
FF1D
FD42
FD05
001D
00B1
FDF0
0136
0145
00C6
FD1F
FDCD
FED4
FDB1
FF1C
FD43
FFEE
FD3A
FE06
00F5
FF1C
FDDA
FF07
010A
FF0C
01F6
FDBC
FE6A
FDDF
FF91
019A
FD64
FDD8
FFF2
0011
009E
0166
FF07
FFF5
FE6E
FE06
013A
00BC
FF41
00A0
00D2
00E4
010E
00CA
FDBB
FE40
FD4F
FF94
0003
FDC0
0281
FD36
FDEF
FDA7
0174
FFF8
FDA1
01F2
FD0E
0025
00DE
FE3E
FE63
FFBE
00D0
009F
00C9
FD92
FD07
FDBF
00BF
00EF
009B
FE35
0125
FF5E
FE14
FE0E
00EE
FD65
00F1
0175
FE29
FE20
FD1E
FDB4
FD80
0152
FFDA
FE15
FF0C
FDF6
FDDA
FD98
FD06
FF31
FE97
FE26
00EB
0092
FDDD
FE0A
0126
00B9
007B
0114
FDDA
00C2
FDB4
0153
0150
0150
00D8
FD97
012B
FD54
0119
01BC
000B
FD0E
013E
01ED
031B
FD7A
FDB6
0109
FDAE
FD86
FFDC
00AD
01DB
FD94
0020
FDE6
FFEF
00EF
FD26
00C2
FEAB
FE35
0168
FD4A
FDF0
FE75
FD95
FCF8
FDC1
FCEA
FD9A
FD83
FDAC
FD81
00A0
00BA
FE22
FE5A
FD78
FDC9
01A2
FDA0
00D5
00C1
01A3
FE33
016B
FE2F
FF09
FEF9
00D0
00A8
FF44
016F
010B
FDA2
011E
FE1D
FE3D
0144
FDD5
FD5F
0162
FE05
FD88
FDB7
FD1D
FCEA
FD0C
FD39
FF0F
FDDD
FD50
011F
FE08
FFC6
FDFA
00E7
FD52
FCF4
01B6
014A
FD07
00DF
FDFE
FE18
00B4
0192
012B
FD59
0129
FDE0
0158
FD30
FF59
FCE4
FD97
00C2
0109
FDD9
FEFD
FF6F
FE07
FEB3
FF35
00A4
FD4E
FD4A
FF8D
FE43
FD78
FD7E
FD2C
00CE
FD9F
FDA4
FE02
0101
FDA8
016F
FE01
FF90
FD9D
FDF5
