0097
01BE
0052
0025
0020
0044
0105
0314
0012
000A
00EC
0060
0399
00AC
FFF3
005B
00A7
00F6
00AD
00FC
0303
FFEF
0321
FFD0
0059
0035
0130
02FE
02A3
009D
FFF7
02BB
0325
0069
0042
0337
0042
0331
0089
001E
0001
02F8
000E
FFE7
0077
0003
FFEA
0055
033D
02E4
00DF
02D0
009F
00C9
0047
FFD6
0070
0306
002A
00B1
0092
0342
0049
0067
002B
002F
009C
0073
00BE
02B9
0303
0090
0026
00CC
FFF6
00B6
0007
0022
0054
00BA
00B7
FF9A
001E
0076
00A2
010B
00C1
02BC
00E9
003D
0081
FFD9
0032
00A3
00EA
00D7
02F4
0032
FF07
00CB
FFF1
00BB
009B
011B
0118
01A3
02EF
002B
0094
0297
0103
00E5
00AD
00E7
00C6
0002
0069
FEC4
02DC
009E
02FD
00D3
00B4
0081
0351
00BA
0029
0065
01D2
0043
009A
00C6
00E4
01CD
0099
00AF
0016
034A
00B1
FFB2
034E
FFB9
0084
0024
0064
FFD7
00F5
030E
00C7
0038
02FE
0075
002C
02E9
FFFD
007A
0306
005F
02F4
FEFF
0017
0069
0373
0312
00DC
FFDC
00BF
02F1
0041
0005
FFF9
0001
02D5
00ED
02F2
01D7
FFDE
0330
006F
0025
FFF8
0138
004F
0013
FFD3
00EC
0360
00A4
FFE9
002A
0043
006D
0064
FFF9
FFF3
0022
0330
0300
00C5
0303
FFE6
001C
FFFB
0024
006C
0073
0331
FFFB
FFFC
0086
02A8
0097
0096
00A8
0098
00F3
00D6
FFC0
009B
0126
0098
009C
003C
006F
02EE
00C0
00A4
00D3
02D2
0028
02CA
0043
0061
0076
00D2
006E
FEAF
0099
0307
0097
006F
00BE
00C2
00A0
00D9
005B
02EE
0025
FF9E
0316
006A
001F
0098
0002
00E0
00B6
