FEEA
FED2
FF18
FEE8
00F4
FF18
0076
00B3
0090
FEF1
FF3C
FEC8
00BA
00F4
FF1D
0096
FF40
00E3
FF4F
FEFC
FF4D
0072
0107
00C3
0106
FF59
00A1
00A4
FF5F
0102
007B
FF62
FEF7
00DF
006B
00BE
FF0E
FEFB
0090
00D4
009F
00A5
0104
FF5E
00D3
00F9
00EB
FEE7
0105
00AB
00C2
00DB
FF01
FF39
FF43
FED7
00BD
FF2A
00B4
010A
FF35
00C5
FF38
FF3F
0101
FF70
0101
FF2B
00FE
0083
0089
FF54
FEE4
FEF3
FF47
0083
FF12
00EF
00BD
FF5F
FEDD
0068
00D2
00FF
FF10
FF02
FEE6
00E4
00EF
00EC
00A8
FF38
00AF
FF03
006F
FF41
0082
FEDD
FF62
FF3D
FF58
FED7
00D3
FF3A
00F3
00B4
FF35
0107
FEE1
FF2F
0073
0092
FF2F
0096
0070
008D
FEFE
00ED
FEF7
00E7
00C0
FF11
00BB
0073
FF5E
FF61
FF1B
FF6A
0099
FF16
FF48
FEF4
FF38
00C0
00BC
00EE
FF40
00C1
00E4
00B8
00DC
FF4F
FF28
FF07
00C7
00ED
FED1
00F6
00B3
FF6A
FECF
00EC
FF17
FF13
0068
FEF6
00DA
FF38
FEFA
00FD
FEDC
FEF1
00FF
FEFC
FF2E
FF5E
0080
FEE7
FF1E
00CA
FF0E
009C
FF55
FF02
FF21
0098
00B8
FEF1
FEE1
FF29
0069
00EF
006A
00DC
0099
006B
016C
00EB
00E8
FEF4
00B6
FF57
00AB
00BD
FF6A
00B8
FF52
00EA
FF66
FF2F
007F
FF11
0086
FF10
00C7
FF59
0091
FF0F
009F
0094
FF11
00FD
FF34
0078
FF1E
008F
FF4A
00B7
FF51
FF54
00C4
00EC
007D
00C6
FF6E
FF07
FF09
00BB
00B0
00F0
FEFB
FEC7
FEF8
FF0E
FF2C
00AA
0065
FEEA
FF16
FF31
0076
00D9
FF14
FF0A
FF33
00D2
FF63
00F2
FF17
00C2
FF36
00DD
0069
0155
FF40
FF3B
