FF05
0005
FF15
FF45
FF3D
FEE4
FEE1
0160
FF36
FF07
FECC
FF83
00C7
FF0C
FF11
FF18
FED9
FEF2
FF3D
FEE8
0138
FF29
011D
FF5D
FF7F
FF3C
FFE1
00D9
002A
FF30
FF43
000F
00FA
FF2E
FF0B
0162
FF76
015C
FF21
FF96
FEC0
0155
FF58
FF46
FF74
FF0E
FEEF
FF2A
0173
00D4
FF92
0131
FF04
FEE4
FF72
FF4A
FF23
011A
FF1C
FF65
FF36
0132
FF7F
FF7B
FF54
FFD9
FF28
FF0C
FF2C
0096
00F8
FEF4
FF60
FF23
FFFE
FF46
FEF6
FFB2
FF2B
FF22
FF61
FFBC
FF48
FF0E
FFE2
FF1E
004A
FFDA
FEB1
FEB2
FEEA
FEC3
FF45
FF58
FFCC
FEBB
011D
FF02
0001
FF4D
FF34
FF0D
FEDD
FF5D
FEFC
FFC3
0125
FF94
FE9B
003C
FF5C
FF02
FF2E
FEA9
FF51
FF70
FF1A
FF7F
0162
FF28
0147
FEF7
FF45
FEF7
015F
FF4C
FF0C
0051
001A
FFB0
FF7E
FF78
FEF9
00F1
FF6F
FF73
FE9E
0081
FF13
FF86
014A
FFF6
FF65
FFBA
FF36
FF77
FF0B
00F9
FF7C
FF79
0142
FF80
FF90
00FB
FECC
FF7F
016E
FF40
00EA
0092
FF38
FF00
0181
0095
FEF1
FF7B
FF69
00E7
FF1C
FF44
FED3
FF05
0037
FEE2
010B
0078
0067
012A
FF25
FF2C
FF43
FEC7
FF5E
FF18
FF49
FE9E
011D
FEDC
FF05
FF32
FEBE
FF4F
FF3B
FF59
FEFB
FF65
0160
0181
FF47
0106
FF02
FF2A
FFCD
FF21
FECC
FF14
0160
FF56
FF5A
FF19
0176
FF56
FEFE
FED8
FF0D
FF39
FF65
004E
FF3A
0006
FF29
FF0E
FED0
FEC9
00C9
FF36
FF85
FF08
009F
FFAA
00DC
FFAA
FF6D
FE91
FF4E
FEE8
0132
FF23
00AE
FF15
FF30
FF18
FE93
FF76
FF5D
FEFF
00B8
FF05
FF8E
00EF
FEA8
FF8C
FE84
FF0B
FF73
FF79
FEDC
FFA6
FF2B
FF27
FED7
FF18
FF19
017C
FF26
FF1D
FED1
FEEB
00C5
FF49
FF2D
FF37
FF06
FEF7
FF37
FF2F
011B
FF34
018D
FF1B
FF01
FF82
FF8D
010F
0013
FEFF
FEF9
FFB4
014F
FF23
FF18
014F
FF13
014F
FF1D
FF57
FF04
011D
FF66
FF6F
FF15
FEAA
FF68
FF43
01AF
00BF
FF49
00B3
FF55
FE9A
FF23
FF1A
FF1D
00FD
FF76
FF25
FEF8
0127
FF27
FF15
FF80
006C
FF47
FEF3
FE7C
0050
0133
FEB3
FF9A
FF21
FFC2
FF53
FEDA
FFAD
FF8A
FF3E
FF88
FF6D
FF4D
FF36
FF7C
FFCA
0025
FFB9
FF08
FE99
FF5B
FECE
FF05
FF32
0015
FEEE
0149
FF1E
001F
FF18
FF05
FF38
FF4B
FF83
FEA9
FF53
013C
FF71
FEDA
0027
FEFF
FF30
FEC7
FF1C
FF06
FF10
FEF1
FF8C
0138
FEFC
00F4
FF17
FF57
FF39
01BF
FF0A
FF04
0071
003C
FF7B
FF52
FF3E
FEAC
006C
FF1E
FF17
FF16
00E7
FEB6
FF50
0189
FFCE
FEFD
FF95
FF3E
FFA3
FEC3
00AA
FEDD
FF2A
0161
FF38
FF40
010F
FEC1
FF64
00F0
FF49
00B2
008C
FF55
FF17
0189
0058
FEC3
FF72
FF73
011A
FF19
FECE
FEE6
FEF9
FFE7
FF4B
00F6
00AE
0092
0161
FF46
FEF9
FF01
FEEE
FF94
FF78
FEE0
FEB8
0131
FF2A
FF2D
FF36
FF08
FF56
FF17
FF36
FECA
FFA2
013C
00E7
FEDC
00F2
FF34
FF18
FF5A
FED4
FF10
FFA3
0161
FF6E
FEF4
FF7B
0149
FF0B
FEF4
FED4
FEBD
FF88
FEEC
000E
FF4D
FFD4
FF1B
FF3B
FF3A
FEE9
015D
FEDE
FF65
FF57
0051
FF1A
00EA
FF1B
FF6D
FED6
FF1D
FF62
011D
FEDE
002C
FEDE
FF3E
FEFF
FEE0
FF23
FF83
FF5E
00CC
FEED
FFBA
00CA
FE8E
FF31
FEDA
FF3E
FF28
FF6D
FF2C
FFCD
FF60
FF0F
FED5
FE7A
FF65
018F
FEB2
FEBC
FF2F
FF11
00B2
FEF1
FEFF
FF3B
FE6E
FEB8
FF48
FEF4
0145
FEFE
01A6
FF12
FF49
FF09
FF42
0071
00A3
FEDB
FF5C
0056
0159
FED3
FF5C
0159
FF0D
014F
FF6A
FF2D
FEBB
00EC
FF1A
FF4F
FF59
FEB1
FEDF
FF2E
0139
013C
FF3C
0150
FF92
FF2C
FF34
FF26
FEE1
0102
FEDF
FF78
FF4C
013D
FF4B
FF6E
FF14
FFC3
FEFF
FF53
FEB4
0069
0163
FEB1
FF6B
FF2C
FF3D
FF33
FEF3
FF46
FF7F
FEE5
FF53
FF85
FF79
FF1E
FFBB
FF7A
FFDB
FFBC
FE6D
FE79
FEC7
FF23
FF52
FF27
0031
FE93
0146
FEE2
FF86
FEC9
FF24
FF57
FEBC
000E
FE71
FF76
0153
FF70
FEDB
0069
FF27
FF02
FF1A
FE9D
FEFF
FF5C
FEF3
FFC3
015E
FF1E
012E
FEF6
FED7
FF2D
016A
FED1
FEA1
FFBB
007B
FF2D
FF5C
FF2A
FEEC
013D
FF6A
FF01
FF02
0079
FF13
FF7E
01B3
0050
FF26
FFB9
FF0A
FF9A
FE42
0109
FF1A
FF1A
014A
FF00
FF39
014E
FEE6
FF2B
0188
FF40
0151
FFCE
FF9E
FECC
01D4
0116
FF64
FF0C
FED6
00BC
FECF
FEDB
FEF1
FF0C
0089
FEFA
015D
0128
006B
013D
FF06
FEE4
FF57
FEE5
FFA3
FED1
FEDC
FEB5
01CF
FEDE
FF5C
FF35
FEA8
FF1E
FF2C
FFE4
FE8D
0019
01D7
014F
FF00
00E8
FEE6
FEE0
FF6A
FE99
FF13
FF62
0133
FF28
FF36
FF2E
01D4
FEBF
FEF4
FED2
FEF2
FF3F
FF35
FF77
FEFA
FFD5
FF47
FF21
FF0D
FE60
00C9
FEC1
FF5F
FF2E
011C
FF4E
0129
FF09
FF7E
FEC3
FEF8
FF3A
020A
FEE4
00D0
FE83
FF1D
FF1C
FE75
FED3
FF89
FF86
00DC
FF0D
FF57
0104
FEAD
FF79
FEAC
FF41
FF81
FF06
FED1
FF73
FEFB
FF34
FEF6
FEC2
FEB8
012E
FECA
FEBF
FEAF
FF22
0119
FF41
FEE9
FF01
FE56
FE2C
FF39
FECF
00EC
FF27
0186
FF03
FF27
FF5F
FF45
0085
0038
FEF7
FF5F
FFF1
016A
FEC8
FF56
0197
FF13
0182
FF1B
FF83
FEBB
00D3
FECC
FF5F
FF68
FF3B
FEE7
FEDB
0178
0068
FF45
00D0
FF54
FE92
FF27
FF72
FEEF
011D
FEEB
FFA0
FF58
016E
FF56
FF02
FF15
004C
FF23
FF52
FEE7
008D
011D
FEA2
FF50
FF5B
0006
FED1
FEE9
FF4E
FF2D
FEB4
FF12
FF3E
FF12
FEF0
0009
FF62
FFD6
FF6D
FE47
FEC1
FEA7
FEB9
FF0A
FF21
FFBF
FE2E
00C5
FE9D
FFD9
FF33
FF3E
FF52
FEE9
FFE1
FE83
FFAB
01BC
FED8
FEBB
0047
FF1F
FEF5
FECA
FEA4
FEB0
FF39
FEBD
FF70
00C6
FEFA
010A
FEF4
FEB3
FEE6
0135
FECA
FEFE
0045
0094
FEF6
FF7A
FF17
FE98
0154
FEFB
FEBD
FEA0
00F3
FE90
FF73
0169
001D
FF0E
FFB0
FF69
FF15
FE71
0080
FF1C
FF36
00EF
FF08
FF0C
012F
FF02
FF37
013B
FF68
0131
000B
FF34
FF29
016C
0140
FEA1
FEFC
FF05
004F
FEAB
FF34
FF48
FF58
005D
FF42
010F
0100
0024
0152
FEB0
FED6
FF53
FF5F
FF6B
FECB
FF08
FEAD
018B
FEAE
FF44
FEFD
FEE9
FF1C
FF84
005B
FF11
0029
0178
018A
FF1C
0057
FF58
FEDB
FF86
FEFF
FEAD
FF14
0182
FF0B
FEAF
FF46
0159
FEBB
FF26
FF46
FEA7
FF22
FED1
FF3C
FEB7
001A
FEBB
FEAE
FF1D
FEA5
00EF
FEBF
FF2F
FF73
00AF
FF07
010A
FF26
FF7E
FF00
FF2B
FF1C
01C7
FF23
003F
FE91
FF19
FF27
FED9
FF58
FF16
FF4A
008A
FF15
FF58
013E
FEA2
FFD2
FEE1
FF3D
FF75
FF22
FEEA
FECD
FF63
FF44
FE9A
FF18
FF3F
0144
FF03
FED3
FF3E
FF67
013F
FF79
FECF
FF58
FE4A
FE82
FF51
FEC7
00C6
FF4A
01BD
FF0B
FF53
FF6B
FF4A
002D
FFA0
FF70
FF11
FF74
01E2
FF49
FF6A
0194
FF44
01A0
FF16
FF54
FEA4
00F1
FF6F
FF22
FF28
FEC9
FF1C
FEE2
0216
0067
FFAB
00C3
FFBB
FF39
FF57
FF9A
FEF3
0139
FF67
FF47
FEAB
0178
FF3E
FF50
FF1A
004C
FEFE
FF99
FEEC
FFE8
00CC
FECF
FF21
FF71
FF9B
FF23
FF2A
FFB4
FF35
FF0F
FF97
FF2F
FF78
FF43
0016
FFAC
FFFB
FF10
FE88
FEB3
FEF4
FF62
FF7A
FF8F
0004
FE71
015C
FEF7
FF9B
FF51
FEE1
FF19
FF4A
FFA8
FE85
FFB7
011E
FF4C
FEAD
FFC8
FF16
FF67
FEEB
FF0A
FF07
FF81
FF25
FFAD
00E6
FE9F
0036
FF34
FF7F
FF21
016D
FF25
FEDA
0081
0059
FF8E
FFA5
FF4A
FEDC
015C
FF54
FE8A
FF02
00DA
FEB6
FF98
01DC
0002
FF70
FF3B
FF64
FF68
FE96
0003
FF1E
FF0C
0122
FF54
FF9A
0197
FEFB
FF33
00C6
FF75
0018
FFE4
FF62
FF53
01F1
0037
FEE3
FF17
FF43
00DB
FF06
FF18
FF2D
FF15
FFDA
FF61
0136
00E1
0084
01C2
FEED
FEF0
FEE3
FF23
FF29
FF6E
FEF3
FE90
0189
FF38
FF44
FF59
FEBA
FF1B
FF10
FF50
FF10
0004
018F
00B0
FEFE
00C4
FF0B
FF5D
FF5E
FF3D
FEF1
FF75
01D0
FF4C
FF25
FF30
017C
FE9E
FEFC
FEE5
FF23
FF40
FEF5
FFB2
FF17
0068
FF55
FF5C
FEB3
FE9E
00E2
FF6D
FF53
FF5F
0025
FF5C
0095
FF20
FF5A
FF1C
FEF6
FED9
016D
FF40
FFBC
FF13
FF84
FF3B
FE9C
FF35
FF84
FF3B
0031
FF2A
FF76
FFFF
FE94
FF7E
FE85
FF6B
FF51
FF3A
FEC4
FEEB
FF19
FF3F
FEA1
FEDA
FF04
015B
FEE2
FEB4
FF2F
FED2
0199
FF4B
FEBF
FF11
FEAE
FE5F
FF7C
FEFC
00A0
FED2
01B2
FF5D
FF5A
FF93
FF21
FFFA
FF86
FF0D
FF6D
FFA6
01B0
FF3F
FEE6
0175
FF30
0168
FF57
FFA2
FEBE
00D5
FEE3
FF6B
FFAA
FF01
FF29
FF12
01FA
FFE8
FF19
0088
FF8B
FF1E
FF63
FF32
FF3E
0102
FF2B
FF78
FEF9
01DE
FF49
FF1D
FF46
FFE4
FEFD
FF56
FEFA
FFE9
0022
FEED
FF90
FF69
004D
FF58
FF10
FFC0
FF90
FF0D
FF7D
FF20
FFB5
FF3F
FFE4
FFA5
FFED
FF28
FE3A
FEAE
FEFF
FF41
FF12
FEFE
FFF4
FE3B
0156
FEC9
FFFE
FF37
FF49
FF52
FF07
001B
FE98
0007
0078
FEEE
FEBE
FFD6
FF9C
FF3A
FEA5
FEB3
FEC5
FF64
FF04
FFC4
0058
FED9
FFA9
FF2C
FF32
FF0D
01AD
FF00
FE99
00A1
007E
FF25
FF23
FF98
FF06
00EC
FEDC
FEF2
FE95
016C
FF15
FF6B
01B9
FF73
FF3B
FF9A
FF34
FF9F
FE5B
FF90
FEE6
FF92
0127
FF64
FF2F
0131
FEE7
FF86
007B
FF76
FFF0
FFB8
FF37
FEE4
0193
FFF0
FEB6
FF20
FEE7
004A
FEFF
FF78
FF25
FF41
FF80
FF33
0142
00C9
FFB4
01AC
FF14
FF05
FF6A
FF30
FF49
FF29
FED6
FEA7
01D2
FF0A
FF91
FF70
FEFF
FF42
FF55
FF4C
FEE6
FFF4
0193
0044
FEA9
0002
FF7B
FF70
FF1F
FF1D
FE8A
FFAE
01B7
FFA3
FF13
FF14
014A
FEFC
FECA
FEDF
FF24
FF94
FEC9
FFED
FF25
00A9
FEE0
FF43
FF04
FE50
00AC
FEF1
FF80
FF00
0047
FF2A
006A
FF20
FF29
FEA7
FF44
FF16
0109
FEC7
FF79
FED5
FF38
FF46
FE91
FF14
FF8C
FF48
FFEB
FF1F
FF8B
000F
FED5
007D
FEE1
FF5B
FF92
FF1A
FF1E
FEA9
FF2C
FEF9
FEA2
FE98
FF05
012E
FEA5
FEDC
FEE3
FF07
0171
FF74
FF2E
FEEB
FEB0
FE32
FF43
FE9F
00DF
FF0C
0192
FF5E
FEED
FF22
FF06
0009
0018
FF4C
FF19
FFD1
01E4
FF06
FEFE
019A
FEFF
0173
FF6B
FF52
FEDC
0119
FF29
FF04
FF39
FF21
FEE0
FEE4
01AD
00A7
FF19
0093
FF6C
FF0D
FF1F
FF46
FF26
00C5
FF65
FF58
FEC2
0216
FF24
FF66
FF2D
FFF8
FECC
FF70
FE86
0029
00C2
FEAB
FF11
FF36
FFD6
FF14
FF0C
FF63
FF16
FEE4
FF32
FF8C
FF6F
FF25
FFF9
FF96
000C
FF31
FE48
FEEB
FF31
FEDC
FF6D
FF62
000E
FE9A
016D
FEAD
FFBA
FEFA
FF4E
FF69
FF12
001E
FE8D
FF66
013C
FEEE
FE68
0022
FF2A
FF5D
FE9E
FEEC
FED9
FF1E
FF25
FF53
00EF
FEAB
FFF3
FEF2
FEE1
FEAF
01A1
FEF5
FE8B
0030
0102
FF8E
FF6B
FF59
FEDE
01CA
FF20
FEE4
FF00
014A
FECA
FEF6
0194
000D
FF17
FFA8
FF15
FF6E
FE5A
FFEA
FEE1
FF88
00EB
FF58
FEE2
011C
FEC4
FEEE
00C2
FF2B
007A
FFC3
FF61
FF3E
01EA
0060
FF13
FF36
FF61
00A5
FEA2
FEED
FF4E
FF5B
FFFE
FF7C
0102
0163
008B
01B0
FECD
FF75
FF07
FF3E
FF3D
FF3E
FF35
FEBC
01E9
FEB8
FF32
FF63
FEA9
FF52
FF68
FFF9
FE9C
001E
01CB
00A4
FECC
006B
FF05
FF5E
FF2A
FF0B
FED4
FFB5
01F5
FFA5
FEDF
FF2F
0171
FED1
FF08
FE73
FEDC
FF0D
FEBC
FF98
FEF2
00AD
FF70
FF1A
FEF6
FEED
00A8
FEC4
FEFB
FF01
007C
FF42
00C0
FF09
FF2D
FF0C
FECB
FEC8
015A
FF32
FF94
FEC7
FEFF
FEF6
FEB7
FF25
FFBA
FF3F
000C
FF6B
FF34
004F
FECE
FFAB
FEEB
FF41
FF86
FEE2
FECF
FEE4
FF17
FEC3
FF0C
FEE2
FF23
0137
FF3A
FEFE
FED5
FF34
01CF
FF61
FF0D
FF20
FE73
FEA9
FEFB
FEB4
010B
FF3B
01B6
FF2C
FF2D
FF56
FF73
FFD8
0040
FF00
FEEB
FFC5
0194
FEE9
FF37
01FF
FF67
0216
FF8F
FF6B
FF22
0131
FED9
FF14
FF8A
FF06
FF4D
FF29
021D
00BC
FF94
009C
FF8B
FED2
FF1A
FF32
FEF3
016B
FEDA
FF29
FED1
01FD
FEF0
FF3C
FF02
0016
FF2D
FF77
FE5C
0025
00A7
FECB
FF8C
FFAD
FF4B
FF7B
FEAE
FF33
FF73
FEDA
FF15
FF44
FF15
FF03
FFA7
FFD5
004D
FEB8
FEF2
FE92
FF5C
FEC6
FF49
FF5E
FFCB
FE97
012D
FED3
FF59
FF4D
FEC7
FF67
FF2F
FFFC
FE93
FFAD
00CD
FF10
FE7E
FFD0
FF91
FF36
FE81
FEA2
FEE0
FEEC
FF2B
FF2B
0112
FE6E
FFEF
FF4A
FEEB
FF07
01ED
FF26
FE84
FFE0
00C4
FF15
FF39
FF33
FF19
0156
FF35
FE74
FF00
00F8
FEB9
FF0D
01C7
FFFA
FEEC
FFAA
FF81
FF0C
FE92
FFC2
FF5F
FF6B
0127
FEF7
FF50
0164
FF07
FEFD
00B3
FF23
0021
FF80
FF9B
FF5B
021C
0037
FEE4
FED4
FEDB
004F
FEEA
FF52
FF30
FEDF
FFEF
FEF8
0193
0140
010C
01B3
FF28
FF08
FEC3
FEFB
FF19
FF4D
FEE4
FEAD
0216
FEE3
FF14
FF2F
FF0A
FF03
FF61
FF7D
FE8B
001F
020D
00D9
FED7
0074
FF5D
FF5C
FF6B
FF04
FEED
FFC2
01F6
FF10
FEEB
FF67
0134
FE99
FF5D
FEC5
FF06
FF46
FF03
FFA7
FF42
0075
FF5D
FF33
FEFD
FED4
0110
FEDE
FF48
FEC1
0045
FF7D
006A
FF42
FF8B
FE7E
FEEF
FEE6
0190
FEF8
FF0D
FE76
FF1D
FF27
FEDA
FF23
FF4C
FFA2
005F
FF3E
FF1E
0028
FEB7
FF68
FE8A
FF85
FF71
FEEA
FF32
FEB6
FF6C
FF4B
FEAD
FEC3
FF45
011C
FF42
FF09
FF2E
FEE8
014E
FF3D
FECE
FF0B
FEA2
FEE0
FF6E
FEA5
00FA
FF33
01AA
FF5C
FEFA
FF27
FF4C
FFC1
0022
FF0F
FEE7
FF99
01D4
FF2C
FF29
018F
FEFD
018D
FF71
FF15
FF27
0106
FECA
FF88
FF6D
FEA5
FEE5
FF54
020F
0077
FFA4
0090
FF3A
FF45
FF1B
FF34
FF41
012B
FF08
FEE5
FEB3
01D9
FF28
FF71
FF15
0039
FF22
FF7D
FED2
0029
0044
FEE5
FF02
FF99
FF8C
FF59
FF00
FF9F
FF90
FF5C
FF60
FF35
FF6C
FF2B
FFCE
FFE3
0004
FEDB
FEF7
FED6
FF04
FF35
FF10
FEFE
FFDC
FE5D
015B
FF0D
FF9F
FF55
FF2C
FF4D
FF01
FFD1
FEB9
FF77
0117
FEF7
FEF1
FFED
FF58
FF76
FE54
FEBD
FF1E
FF13
FF6D
FF16
00CE
FEA9
FFB2
FEFD
FF41
FED3
01B9
FF17
FE86
0034
0094
FF18
FF1D
FF28
FEDF
01A3
FF57
FEE8
FEAD
0172
FEEE
FEFE
01DB
FFBF
FEF9
FFAE
FF03
FF80
FE65
0008
FF54
FF88
016A
FEF9
FF05
0162
FE9F
FEF6
00CF
FF14
001E
0037
FFAF
FEDD
01DD
004B
FEE5
FEFD
FF5C
0053
FEE7
FF02
FF21
FEF7
FFF6
FF1A
014F
013E
00AA
0178
FF48
FF79
FED8
FF3A
FF59
FF2A
FEB1
FE86
01C2
FF15
FF07
FF30
FED8
FF08
FFA3
FF75
FF5A
0006
0208
0078
FEFF
007F
FF16
FF58
FF3C
FF38
FE9F
FFBC
020E
FF97
FF35
FF4C
0115
FE8B
FED3
FEE9
FF6D
FF10
FEEA
FFB6
FEFC
0096
FEF2
FEE6
FF1D
FE80
00B3
FF4F
FF13
FF62
008F
FF71
009E
FF48
FF17
FEB9
FF14
FF27
0191
FF48
FF62
FEDC
FF6C
FF1D
FEA2
FF51
FF61
FF76
003F
FEE2
FFAD
003D
FE7A
FF57
FE81
FF38
FFA4
FF14
FF0C
FF1A
FF18
FF3C
FEFE
FE77
FF5F
0106
FECD
FEF3
FF23
FECF
012E
FEFB
FF15
FECE
FEAA
FE9B
FF39
FE8A
00C2
FF15
01E3
FF2D
FE7C
FF30
FF29
000B
FFF0
FF15
FF03
FFBE
01E9
FF19
FEBD
01B0
FF0B
019A
FF03
FF8B
FEA3
00D3
FEEB
FF35
FF70
FEE8
FED0
FED9
020C
0057
FF2E
005A
FF91
FF06
FF29
FF8B
FF57
00FE
FF2E
FF33
FF0A
01A1
FF1E
FF03
FEDA
FFC5
FF3F
FEFC
FEC8
0000
00AB
FEC3
FF81
FF56
FF7F
FF20
FEFD
FF4E
FF87
FF2F
FF22
FF42
FF2D
FF26
FFB8
FFC2
FF89
FE6D
FE91
FE8E
FF5E
FEE3
FF18
FEDB
001D
FE61
0154
FEB7
FFC6
FEC2
FF0D
FF29
FF0F
FFF5
FE64
FFC9
0139
FF25
FE76
FFF1
FFD1
FF1A
FEEE
FE40
FEC8
FEE4
FF69
FF6C
008D
FE90
FFF0
FF0F
FEE4
FEFD
0218
FF27
FED9
FFEF
00FD
FF4C
FF94
FF61
FEFD
0163
FF25
FE98
FE94
00EC
FEBF
FED7
01AF
FFDD
FECA
FF7E
FF53
FEFE
FEA1
0009
FF1F
FF43
00E7
FECC
FEE7
0114
FEA4
FF43
0086
FF26
009A
FFF6
FF8F
FED6
01CC
0068
FF1F
FF2B
FF4E
0066
FF03
FF13
FF00
FEFB
0041
FF57
0144
0134
00EC
01BC
FECA
FF3B
FF0B
FF67
FFA7
FF09
FF47
FE36
01BF
FE9C
FEE9
FF4C
FEE4
FF06
FF4E
FF9F
FED4
FFE4
01C9
0082
FF12
001E
FEF5
FEF7
FF19
FE8C
FE75
FFC0
01CD
FF31
FF48
FF53
00F9
FEF0
FEF1
FE96
FEF9
FF78
FF12
FF31
FF25
0069
FF36
FF09
FEC0
FE5D
00BA
FF27
FF31
FEFB
00A2
FF45
00DB
FF6F
FF2C
FE9E
FF1D
FEA4
01CF
FEAE
FF9C
FE6A
FEFC
FEEC
FEAF
FF47
FF7E
FFAB
FFE8
FF13
FF1F
0077
FE55
FF85
FE4A
FF7D
FF14
FF3B
FEBF
FF2D
FF36
FF74
FEA0
FE92
FF5B
0109
FF18
FED0
FF22
FF49
015D
FF0E
FEDB
FF2E
FE4A
FE80
FF82
FECC
0084
FEE4
020D
FF59
FED3
FF94
FF2E
FF9A
FF49
FF48
FF2E
FF02
0226
FF1A
FEE1
01F2
FF8C
01FF
FF31
FF3D
FEE4
0092
FF53
FFA5
FF22
FF25
FF21
FED3
0222
FFEF
FF45
FFE0
FFC2
FF1E
FF30
FF27
FF2B
00ED
FF20
FED9
FEFD
01DF
FF93
FF0E
FF73
0003
FF22
FF5B
FE99
FFD7
FFF7
FEDB
FF5A
FFBE
FF53
FF6F
FEFC
FFC9
FFA3
FF23
FF2E
FF7B
FF9D
FEFA
FFD0
FFE2
0049
FE59
FEA1
FEC2
FF19
FF5F
FF81
FF21
0033
FE22
016F
FE81
FFA1
FF51
FF2A
FF12
FF5E
000C
FE43
FFB6
00AE
FF17
FEA7
FF3D
FF53
FF6C
FED2
FEAA
FF30
FF6C
FF6B
FF72
008E
FE7F
FF60
FEC6
FF4E
FF1A
01FE
FF6C
FEF3
0033
00BB
FFAF
FFCA
FFC6
FF29
0165
FF0E
FEA2
FE98
019C
FEB4
FF1B
0191
FF93
FF4D
FF6F
FFA1
FF3C
FE9F
FF7D
FF85
FF34
0163
FF32
FF80
0174
FF18
FF2C
0079
FFC8
FFD5
FFF9
FF90
FF13
01F5
FFFC
FF26
FF02
FF30
FFEA
FF0F
FEE6
FE9C
FF09
FF7E
FF2C
0119
00F4
0054
01A5
FEF5
FF3F
FF25
FF37
FF1D
FEFC
FF24
FE25
01CD
FEE2
FF7B
FF6C
FEC1
FEE9
FF94
FF81
FF18
0014
016E
0035
FF20
FFBF
FF2D
FF77
FF1D
FEB0
FEBA
FF9E
01B5
FF5C
FF53
FF95
00EC
FE79
FF40
FE93
FF21
FF35
FF24
FF7E
FF5B
00BC
FF64
FEB1
FEE1
FEAD
0086
FF0D
FF74
FF06
FF95
FF87
FFED
FF2C
FF8B
FE74
FF0A
FF05
0109
FEBD
FF18
FE8A
FF1E
FF1C
FEEB
FF85
FFD4
FF3E
FFD8
FF68
FF39
000E
FE8E
FFE3
FEC2
FFA1
FFA1
FF2A
FF28
FEA6
FF5B
FEEE
FEB2
FF03
FF12
0125
FEF5
FED7
FF4C
FF24
01E5
FF69
FF01
FF02
FEC0
FE78
FF71
FED9
00C2
FF4B
01B4
FF2C
FE87
FF69
FE9E
FFC2
FF20
FF16
FF3B
FEEC
01D9
FF69
FF3F
01F0
FEEE
01E7
FF5A
FF50
FF3C
00D5
FF51
FF95
FF98
FF4E
FF01
FEE6
023B
FFB5
FF8C
FFAD
FFE7
FF59
FF84
FF80
FF22
00C7
FEE9
FEDA
FEE8
024B
FF2F
FF1D
FF8E
0049
FF07
FF22
FEB5
FF5E
FFD7
FEA8
FF95
FF9A
FF46
FF5D
FEBF
FF46
FF3E
FF09
FF53
FF64
FF5A
FEF1
FFC4
FF97
FF89
FDF8
FE98
FE9A
FEE2
FEEC
FF10
FF78
FFC6
FE63
00F5
FF05
001F
FF1F
FF2B
FF5B
FF10
005E
FE49
FF99
001D
FF88
FECF
FEC5
FF84
FF33
FE64
FE75
FF56
FF19
FF7E
FFD4
0053
FEC5
FF7C
FF0C
FECE
FE83
01B9
FF5B
FEB2
001B
00FD
FF5C
FF65
FF7F
FF54
01B9
FF3B
FE8E
FEEA
00D1
FEC4
FF74
0212
FF96
FF18
FF93
FF8E
FF73
FE6E
FEFA
FF1F
FF35
017E
FF61
FEBE
0177
FECA
FF1D
005C
FF8C
FF3F
FFF5
FF29
FED8
01FC
FFB0
FF14
FF45
FEE3
0052
FEAD
FF35
FEE9
FEFD
FEAE
FEF0
00ED
0186
00EF
01A9
FF64
FEFA
FF4E
FF12
FF60
FF47
FEED
FE85
024F
FEF3
FF3F
FF39
FEC7
FEEA
FF3C
FFB3
FEDC
001A
01D2
FFCB
FF34
000D
FF17
FF9B
FF6C
FEF9
FEF7
FF90
0241
FF8F
FEE3
FF36
0054
FED2
FF4A
FEA2
FEF1
FF7A
FF06
FF95
FF41
FFF9
FF67
FF0F
FEEC
FEE2
000C
FF5D
FF54
FEC8
FF1C
FF8B
FFA7
FFAC
FF5F
FE80
FEDE
FED9
00E7
FF0E
FEA6
FEDC
FF59
FF0B
FEA4
FF26
FF5D
FFAD
FFED
FF47
FF95
FF36
FECC
FFAC
FE76
FF9B
FF85
FF48
FF04
FEF9
FF4E
FED6
FE86
FECA
FEDD
0137
FF1C
FEEA
FF4E
FF0B
014D
FF69
FF09
FED5
FE32
FE36
FF6E
FEBD
00F0
FEE9
01C4
FF0A
FF36
FFA1
FEC8
FFEC
FF61
FF2C
FEDE
FEEA
01EE
FF2B
FF64
018F
FF32
0210
FF12
FF92
FED8
0109
FEE2
FF68
FF6C
FECE
FEEC
FF4D
0208
00BD
FF7B
FFEE
FF8B
FEFF
FF4C
FF56
FEE5
014E
FF4D
FF3A
FE4E
01FD
FEFB
FF6D
FF9E
001E
FF1E
FF72
FE82
FFE1
0069
FEB6
FF07
FFBB
FF3C
FF1A
FE8D
FF68
FF40
FEE6
FF8D
FF0C
FFD7
FF3E
001F
FF91
0030
FE46
FEA7
FECC
FEF4
FF07
FF6E
FF24
FFC2
FE53
014C
FEC8
FFFD
FF07
FF0A
FEDD
FF49
FFB0
FE62
FF39
0059
FF7D
FEAB
FF0D
FF7D
FF95
FEB7
FE64
FF4B
FF52
FF11
FFB8
00F3
FE75
FFC1
FF01
FF2B
FEBC
0217
FF5F
FEFE
0046
00C5
FFAC
FF5A
FF58
FF3E
0195
FF51
FE66
FEF2
0123
FE69
FF62
018D
FF7F
FED8
FFCB
FF75
FF32
FEB2
FF1A
FF62
FF4F
014A
FEF0
FF88
016D
FF3F
FF1D
006C
FF85
FF7D
0025
FF8E
FEF5
01EB
001B
FF1B
FEF9
FF67
0047
FED7
FF22
FEC9
FF12
FF1F
FF09
0116
0131
00A8
01E4
FF0D
FEE9
FF3E
FE87
FF6A
FF31
FEEA
FE82
0229
FEBF
FF67
FF16
FEE4
FF46
FFC6
FF86
FECD
FFB4
01B0
0047
FEEA
000A
FF02
FF4D
FF3A
FED8
FECD
FF4B
022B
FFAF
FF00
FF78
008F
FE80
FEDE
FEA5
FEE5
FF5B
FEC4
FFFE
FF25
009B
FF14
FF28
FEC9
FEAD
0112
FF63
FF21
FEE3
FFB1
FF16
0039
FFA5
FF2D
FEFA
FF0F
FF1D
0187
FF43
FEEF
FE83
FF2C
FEF5
FE88
FF71
FFB6
FF9A
005D
FF40
FF60
FFC8
FED1
FF92
FECA
FF53
FF5D
FF4D
FEA6
FFBA
FF27
FF58
FE86
FE91
FF1A
0103
FEDC
FF63
FEFB
FF58
0117
FF5E
FEA0
FEEF
FE08
FE3F
FF32
FE9C
009F
FF10
0131
FF26
FEE2
FFBF
FED1
0019
0044
FEFE
FEE7
FFDB
0185
FEF2
FF47
0107
FF52
0190
FF28
FF40
FEA2
009D
FF0F
FF43
FF8E
FF29
FF5A
FEE8
0187
00ED
FFB8
00C8
FF2B
FE77
FF1F
FF74
FF46
013F
FF31
FF9B
FE9B
019B
FF9F
FF5D
FF2C
0015
FF4F
FF1C
FEF9
00C7
0187
FEFA
FF51
FFC1
FFE9
FF8B
FE93
FF88
FF94
FEB1
FF6D
FF86
FFAF
FF05
000D
FF69
003A
FE99
FEA5
FEAF
FF46
FF1C
FEF3
FF2D
FFE7
FE4B
0119
FE99
004B
FF2C
FF11
FF91
FF5D
FF39
FE3F
FF6F
016C
FF49
FE71
FFFC
FF00
FFA7
FEBB
FEC6
FF32
FF0E
FF47
FFBA
0098
FEC6
0100
FF1A
FEB6
FF61
016D
FF13
FE8A
003D
008C
FF42
FFBB
FFB3
FEF8
0162
FF02
FEEF
FED4
00F7
FEF3
FF56
0138
FFE3
FED4
FFFF
FF8D
FF3E
FE91
00DB
FF10
FF1B
0112
FEFC
FF6E
0143
FEDD
FF6D
0191
FF69
00CF
0047
FF59
FF20
0176
00F1
FF0E
FF63
FF6E
0061
FED2
FF4E
FF08
FF59
FFFB
FF2C
0127
00D8
006A
013A
FF31
FF64
FF21
FEED
FF74
FEE8
FF46
FE75
010A
FED5
FF3F
FF1B
FEA7
FF44
FF75
004E
FF51
0027
011D
0136
FF03
0085
FF31
FFA5
FF19
FEEE
FE9A
FFD8
0193
FF45
FF1D
FF58
01DF
FEAE
FEB3
FF11
FF04
FF53
FF10
FFD8
FEEC
0019
FF36
FF31
FEA7
FE5F
00EA
FEB7
FF14
FF80
00FE
FF12
00E2
FF6D
FFBC
FEDD
FF5D
FF04
01A9
FEDD
0081
FE7C
FFA3
FEED
FEC5
FFB5
FF78
FF92
00AF
FF5D
FF14
00E3
FE8E
FFF6
FE59
FFB7
FF47
FEE6
FED2
002F
FF4D
FEE0
FEAD
FEB2
FECE
015D
FEFB
FF32
FEC4
FF29
0113
FF85
FEC5
FF2D
FE38
FE72
FF02
FEAC
00F6
FEE1
0109
FF61
FF23
FF54
FF01
00F2
0056
FEE1
FF1B
002E
0197
FF11
FF39
016A
FF44
016D
FEF4
FF78
FEB8
0194
FEFB
FF70
FF41
FEB3
FF29
FEE5
01B9
0177
FF3B
0121
FF29
FEA2
FF50
FF39
FEF0
015D
FEEB
FFA8
FECE
0146
FF3B
FEFF
FF26
FFEE
FF07
FF3E
FED7
00BA
019C
FED0
FF6C
FF3F
FF79
FF1E
FEBC
FF93
FF80
FEB3
FFA0
FF27
FF6D
FF35
FF97
FF5C
0011
FF2E
FEF4
FE7B
FEE1
FEC4
FF32
FF4F
FFB1
FED5
0188
FEBA
FFB6
FEEC
FEB0
FF3D
FEEA
000B
FE56
FF2D
0177
FF4E
FE6F
0048
FF42
FF5A
FE8B
FEDD
FF21
FF0C
FED9
FFC4
0166
FEA2
0154
FF37
FEFC
FF3A
01A1
FF29
FE83
005A
009D
FF60
FF9A
FF4C
FF2C
00A6
FF0C
FEA2
FEDC
00C9
FEC4
FF3C
0123
FF9B
FEBD
FF7A
FFA4
FF4C
FE73
00DA
FF2C
FF62
0135
FF1A
FF34
0130
FF10
FF7D
01B0
FF94
0158
0092
FF9E
FF2D
013B
00AE
FEBF
FECE
FEF2
011D
FEBF
FEFB
FF10
FF06
0054
FF82
0130
0071
00C7
0176
FF03
FF66
FF36
FF4C
FF5C
FEEA
FECD
FE7C
0139
FED2
FF1A
FEFD
FEAA
FEDB
FF92
FF61
FEE5
FFD5
0141
017F
FECA
00F1
FF00
FF5B
FF1D
FF21
FEA0
FF7A
01A4
FF5F
FECE
FF79
0198
FEE8
FF31
FEEC
FF56
FF7B
FF43
FFDD
FEF5
FFFE
FF4E
FF12
FEFF
FE7E
0190
FF17
FF31
FF67
013C
FF86
017B
FF81
FFA4
FEC9
FF3C
FEFB
01E4
FEBF
00CE
FE72
FF77
FEC4
FEBB
FF9A
FFB8
FFC5
0123
FF1B
FF2D
013B
FE73
FF2E
FEC5
FF7A
FF48
FF0A
FF3E
0005
FF89
FF3E
FEC3
FEC5
FF43
0152
FF37
FEED
FEE5
FF48
0129
FF9C
FF01
FEED
FE3B
FEF2
FF34
FEA6
0158
FED3
017F
FF68
FEFB
FF3B
FEE1
0164
0046
FF6F
FF66
FFF9
011A
FF05
FF11
013A
FF44
0199
FF0C
FFC0
FECA
011D
FF06
FF80
FF9C
FEAA
FF0A
FEF0
0114
012D
FF59
0113
FF2C
FEC4
FF85
FF47
FF60
013A
FF08
FF3C
FEC7
012F
FF3B
FF0C
FF33
0058
FF0A
FF0A
FE71
0042
010D
FEAA
FFC0
FF82
FF8F
FF4B
FE98
FF4C
FFC8
FED2
FF36
FF9C
FFC1
FF7B
0000
FF3D
000C
FF93
FEEF
FED1
FF56
FF23
FF0A
FEEE
FFEF
FE6E
014E
FEEB
0050
FF5E
FED5
FF50
FF25
FF95
FECE
FF69
0108
FF15
FE82
0090
FF36
FF59
FE8E
FEA3
FF53
FF75
FF27
0049
0121
FF24
0170
FF51
FF29
FF18
0173
FF24
FEE0
0041
FFBD
FF43
FF74
FFAC
FF49
006B
FF0D
FEA3
FEB6
00EA
FE6F
FF72
00F0
FF29
FF2E
FF50
FF23
FF9A
FEDB
00A5
FF4F
FF69
010F
FF6C
FF61
00F3
FEB5
FF5D
017F
FFA1
010D
006A
FF70
FF4D
012F
0113
FF1E
FEE3
FF10
011C
FEEA
FEDD
FEB9
FEFF
0027
FF1C
0147
0010
002A
0111
FF69
FF96
FF63
FE88
FFCC
FF36
FF35
FE60
0121
FEEE
FF05
FF4F
FE9C
FF22
FFA8
FF55
FF29
FF99
0157
010A
FEF8
0100
FF16
FF8B
FF99
FEA5
FF1A
FF69
013B
FF86
FEDE
FF1C
01D8
FEDD
FEF4
FE9E
FF5B
FF85
FF64
FFF0
FF10
000B
FF37
FF32
FE9E
FEEF
011B
FF17
FF12
FF2A
011A
FF1A
013D
FF31
FF65
FE8C
FF2A
FF12
0096
FEFF
009A
FE86
FF86
FF42
FE94
FF55
FFA1
FF58
01A2
FF42
FF92
00DE
FEDB
FF42
FE6B
FF7A
FF95
FF25
FECB
0026
FF1B
FF72
FEB5
FF0E
FF6B
0169
FF1B
FF03
FF3B
FF1F
00FD
FF4F
FEA6
FF66
FE47
FE7F
FF50
FE88
0177
FEF0
014E
FF4F
FF3F
FF82
FED8
0171
00C2
FF21
FEFA
0001
0123
FF01
FF30
012F
FF3C
0154
FF83
FF2F
FEF3
015C
FF6D
FF82
FF15
FEC9
FF11
FF21
0105
019B
FFA6
0174
FFB4
FF02
FF0D
FF39
FF66
0112
FF55
FF1F
FED8
014D
FF62
FF65
FF3F
002D
FF07
FF29
FED0
0068
016C
FEF1
FFAC
FFAD
FF97
FF59
FED6
FF47
FF46
FF41
FF8B
FF93
FFCC
FF61
FFB6
FF35
FFFB
FFB2
FE64
FE9E
FF75
FF11
FF55
FF07
0008
FED3
01A0
FF11
0072
FF75
FF39
FF1E
FF2E
FF87
FE67
FF6E
0159
FF79
FED2
00C4
FF3E
FF1A
FEB8
FE8D
FEEE
FF5A
FF3B
0017
015C
FEF3
011E
FF11
FEEE
FF4F
013B
FF02
FEC4
0048
002A
FF77
FF77
FF73
FEDB
002A
FF9B
FF2B
FF33
0094
FEC4
FF3C
00E8
FEF1
FF14
FFAB
FF4E
FFCD
FEA8
0127
FF2B
FF6F
012C
FF06
FF4F
00A4
FF45
FF27
01AA
FF6C
0160
006B
FF53
FF1A
0140
00EF
FF06
FF16
FF38
0117
FF2E
FF62
FEC9
FF41
0079
FF21
0188
0010
008F
0141
FF5F
FF3C
FF1C
FEDD
FF32
FF13
FEBF
FEC6
011C
FEDF
FF5A
FF63
FF27
FF6B
FF57
FF5F
FF10
FFF7
0160
0151
FEE2
0133
FF3F
FF68
FF88
FED1
FEC1
FF56
017E
FF39
FF55
FF1A
01CD
FEA5
FF22
FEB4
FF3E
FF58
FF25
0000
FF1D
FFED
FF4F
FF2D
FF0A
FF08
019B
FF44
FF58
FF51
0141
FF4C
0162
FFA4
FF24
FEF0
FF73
FF7E
0122
FF12
011E
FE6D
FF70
FF1D
FEA7
FF77
FF6E
FF7D
0129
FF00
FF8D
011D
FEED
FFB9
FEFA
FF7B
FF58
FEF0
FF1D
0165
FF27
FF51
FED5
FEFE
FF34
00FA
FF08
FF43
FEBA
FF5E
006F
FF57
FF3A
FF08
FEA7
FE83
FEE8
FE89
00D1
FF08
009B
FF62
FF2E
FF91
FE84
011A
0133
FF42
FF5A
0075
00DA
FF19
FF5F
00F5
FF75
00AD
FF45
FFB3
FEA1
0164
FEDA
FF4D
FF23
FED5
FF83
FF1E
0139
0164
FF7D
0205
FF9B
FEC6
FF67
FEF3
FEF5
016B
FEE5
FFB1
FF76
0144
FF43
FF6C
FF35
0031
FF0B
FEE5
FEF7
00DE
0202
FF63
FF74
FFBC
FFD3
FF42
FEF5
FF62
FF40
FECD
FF89
FF4F
FF4B
FF15
FFBA
FF08
FFE0
FFED
FE79
FEA4
FECD
FF1D
FF61
FF39
FFB7
FE91
0121
FE9F
0080
FE99
FF49
FF41
FF16
FF42
FE2C
FF28
021C
FEE8
FE7A
00D7
FF2E
FF59
FF25
FE96
FEAE
FF3C
FF03
0059
01A4
FF6B
0180
FF53
FEC0
FF0A
00AD
FF27
FEBE
008B
007A
FF12
FF34
FF66
FF4B
000B
FF52
FF02
FF39
0048
FEF2
FF58
0105
FF76
FF16
FF35
FF1C
FF8A
FEB3
017C
FF17
FF0F
0163
FF10
FEC6
009F
FE9F
FF37
0261
FF5B
01F0
00C8
FFA5
FF44
00E1
01AA
FF46
FF69
FF2A
014D
FEFF
FF80
FECD
FF49
0113
FF2A
0158
0021
FF9F
0122
FF37
FEFC
FF2C
FF54
FF8B
FED6
FEFF
FE7D
00AC
FEA0
FF14
FF00
FF1B
FF21
FF7A
FFCF
FF26
FF71
0103
01FD
FF37
013A
FF1B
FF42
FF66
FF02
FEB8
FF76
011C
FF44
FEF4
FF4C
0255
FF0A
FF22
FF7A
FECB
FEDC
FEFB
FF4D
FF3F
FF71
FEF8
FF37
FEA9
FEBA
0159
FE92
FF43
FF37
01E7
FEFB
018C
FF05
FF5F
FEBB
FEE4
FF21
012C
FEDC
0173
FE9B
FF03
FF1C
FEA5
FF20
FF50
FFA2
018E
FF1A
FF19
01BE
FEA4
0018
FE76
FF62
FF60
FE9A
FEC6
0123
FEF5
FED1
FECE
FEF2
FF03
0111
FF0A
FF17
FF20
FF1C
0096
FED0
FED1
FEF1
FE9B
FEA1
FEC3
FF13
00FA
FF12
00A5
FF0F
FF05
FF4D
FEB1
00E1
00F7
FF16
FF67
0109
007E
FEF3
FF20
0172
FF2E
00FA
FEE6
FF06
FEC7
0152
FEFA
FF76
FF67
FF07
FF17
FF4F
0112
017A
FF59
01AA
FF48
FEA8
FF4B
FF01
FF5D
00E7
FF1F
FF68
FFB2
00C2
FF64
FEEB
FF80
005E
FEC0
FF2A
FF42
017B
01D2
FF27
FF70
FF46
FF95
FF1F
FEF1
FF53
FF8F
FEF5
FF3A
FF36
FF02
FEDF
FF9C
FF37
FFFC
FFCC
FEAF
FF22
FF2A
FEB9
FF0E
FEC6
FF8A
FE68
0164
FEA6
00BE
FEC0
FEC1
FF70
FF0F
FF68
FE24
FEEA
0246
FEF0
FEC0
0119
FEC4
FF37
FF5B
FEBF
FECD
FEE4
FEFD
009C
0172
FF03
01D1
FEC2
FEED
FF61
0114
FEEA
FE8A
0046
000D
FF4C
FF16
FF8D
FF02
0066
FEF5
FF5C
FF0F
FFCB
FEF0
FED8
0114
FF96
FEC5
FF92
FF35
FF5D
FEA4
0166
FEEB
FF6B
011E
FEC4
FED3
003D
FED8
FF01
0258
FEE4
0208
00E7
FEFD
FF53
011C
01C5
FEFE
FF0C
FF17
017F
FEAA
FF50
FF17
FEFF
00FE
FF12
01A7
FFE8
002E
00C4
FEDA
FED5
FF3F
FEDA
FF52
FF43
FF2E
FEAD
00C3
FE87
FF15
FF0A
FE95
FF44
FF55
FFF7
FF18
FFF2
0174
0208
FF4D
014C
FF46
FEE7
FF06
FF05
FEAF
FF49
00BC
FEF4
FF39
FED2
0270
FF0F
FEC7
FF35
FF22
FF03
FED4
FF87
FF09
FFF2
FF31
FECE
FF08
FE93
019B
FF01
FF5F
FF01
021A
FEE9
0181
FF74
FF33
FEB6
FF1B
FEE4
00FB
FF18
0175
FE6F
FF65
FF12
FE5E
FF3A
FF4E
FF33
016E
FF1E
FF60
01C7
FE88
FF3B
FE6F
FF59
FF5B
FEA8
FEED
00FC
FEE0
FEF5
FEC7
FE88
FEF5
0159
FEAB
FED2
FF06
FF03
004A
FF5E
FEDD
FEC1
FE45
FE93
FF07
FE92
015E
FF54
0104
FF6E
FF3E
FF06
FF17
013A
00EB
FF15
FF8D
00E1
00C6
FEFD
FEF6
014C
FF08
0126
FF08
FF3A
FF00
01CB
FED6
FF61
FEEF
FF04
FF57
FEF0
0129
01CB
FF37
0203
FF01
FEB4
FF3C
FF10
FF15
01B0
FF37
FF47
FF3E
0171
FF32
FF35
FF5B
FFE2
FF31
FF17
FEDE
0118
01CD
FF51
FF5F
FF86
FFE2
FF4D
FEB1
FF22
FF3F
FED3
FF6A
FF55
FEF9
FED3
FFCE
FEE8
FFEB
003A
FEEC
FE9E
FF0C
FF20
FF0F
FF26
FFEB
FEC6
01D1
FEB6
0089
FED2
FF0E
FF7C
FF0E
FF25
FE11
FF6A
01BE
FF38
FE65
0150
FEFA
FF44
FEEE
FEAC
FF43
FEEB
FEFE
004A
01F4
FF3B
01EC
FF18
FF3D
FF4E
00FD
FF3A
FE84
002B
001D
FF0F
FF86
FF63
FEF5
002D
FF41
FF53
FF08
FFF9
FED0
FEE0
0117
FF4B
FEE8
FF8E
FF3A
FF3F
FE5F
017D
FEDB
FF65
0176
FF12
FF68
0064
FEE7
FF64
01F0
FF5B
022A
00D9
FF22
FF20
0156
01AE
FF24
FF67
FF1E
01DA
FEDF
FF25
FEC3
FF49
0137
FF21
01B6
001E
007E
011B
FEC2
FF34
FEFE
FE9D
FF98
FECC
FF1D
FE62
0123
FF07
FEE9
FF68
FF00
FEE8
FF8E
FF97
FF39
FFB4
01BC
01FE
FECC
01AC
FF5A
FEE5
FF8C
FF2B
FE8A
FF67
0128
FF67
FECF
FEF9
0232
FF45
FF24
FF04
FEE6
FF23
FF09
FFA7
FF28
FF91
FF42
FF24
FF0A
FE4B
021A
FF11
FF26
FF28
01E6
FF4E
01E4
FF4D
FF22
FEA9
FEE9
FF31
011B
FED0
0177
FEE2
FF11
FEA1
FE9C
FEFB
FF8A
FF66
0227
FF6A
FFAE
018A
FEB5
FF18
FE6D
FF10
FF47
FEA7
FEFF
0162
FEE3
FF25
FF0B
FEDA
FF06
0120
FF2A
FF3D
FF43
FED0
0021
FED6
FED0
FF15
FE31
FE4D
FF0C
FEC2
0178
FF60
00C3
FF40
FF1E
FF46
FEE1
0191
0182
FEA6
FEF0
00CC
006A
FF2A
FF30
0194
FF49
00AD
FF4A
FF5A
FF2C
01E4
FF05
FF6C
FF38
FEFA
FF57
FEC2
00CD
0242
FF74
0225
FF0B
FF0E
FF3E
FEFC
FEBC
01A9
FEE7
FF3C
FFF0
012F
FF09
FED3
FF14
006B
FF30
FED9
FF12
0135
027C
FF33
FF7C
FF45
000A
FF56
FEEA
FF26
FF42
FF24
FEE3
FF03
FF57
FEB7
FF8D
FEF6
FFC6
0037
FE51
FEB3
FF40
FF25
FF04
FF47
FF7D
FE89
01C4
FEC7
007E
FE8E
FEAB
FF0F
FF1F
FF9A
FE42
FF32
026D
FF62
FEBB
0182
FF11
FF62
FF33
FE31
FEBE
FF34
FEC9
0040
020E
FF38
0204
FF0B
FEA3
FF5B
00E6
FEC1
FED0
0034
0004
FF5C
FF6F
FF5E
FF29
0068
FF46
FEFF
FF06
FFC7
FF10
FEF2
00D5
FF81
FECB
FF5A
FF51
FF8E
FEB8
01B3
FECA
FF64
01F6
FEFA
FF51
0023
FEF8
FED1
0231
FF4C
01F4
00ED
FF6B
FF34
00E2
021A
FF11
FF51
FEB9
01D7
FEE0
FF32
FEBB
FF25
0169
FF0C
01CA
FFEA
0064
011C
FF3C
FEF1
FED5
FF02
FF6C
FEB5
FF15
FE6E
00C9
FEF3
FEFA
FEFF
FE8C
FEF1
FF79
FFF1
FEB3
FFCF
01B5
022F
FEB8
01B9
FEF7
FF62
FF0B
FF23
FE8B
FF05
0131
FF3D
FEF4
FEF2
024B
FF53
FEA9
FF10
FEBD
FF11
FECF
FFBB
FEEE
FFC9
FF11
FF1D
FE7C
FEDB
0227
FF14
FEAF
FF58
01D8
FF45
0195
FF45
FF1C
FEF5
FF2E
FF0B
00D2
FE93
0189
FE84
FF29
FEDE
FECF
FF6A
FF1C
FF7B
021B
FF0B
FF6E
01C3
FE5E
FF58
FE5B
FF24
FF03
FEC0
FEBD
0153
FEF8
FEB2
FF01
FE4B
FEE0
012E
FEB3
FEBC
FE85
FEDA
0016
FF20
FEAB
FEB1
FE2B
FE54
FEB1
FEEF
0171
FF25
00DA
FF57
FF14
FF63
FE8B
01EA
0145
FF13
FF7F
00F9
00F3
FEDB
FF21
016F
FEC5
00B5
FF0F
FF9F
FEE2
01E8
FF34
FF9A
FF1B
FF42
FF3D
FEC4
0118
0287
FF6F
01F1
FF3B
FE9A
FEC0
FF7E
FF2C
018B
FEF9
FF26
FFCC
00C4
FEDE
FEDA
FF30
0031
FF02
FF2D
FF50
0142
027C
FEE4
FF6A
FF11
FFBC
FED7
FE92
FF8D
FF1F
FEC5
FF14
FF24
FF52
FF00
FFA1
FE98
FFC4
004D
FE2A
FEA1
FEB6
FEB0
FEE6
FEDB
FFB0
FE26
0212
FEFD
009C
FEFC
FEA6
FF22
FEB8
FF30
FDFD
FF07
0229
FF18
FE34
0133
FED5
FF66
FF3D
FE57
FE82
FF37
FF23
00BC
028B
FF04
0205
FEA1
FE93
FF38
011C
FEE6
FE6B
005A
FFD9
FED2
FF56
FF85
FEC6
002A
FEF8
FEE8
FF03
003D
FF16
FEF2
0109
FF3B
FEF3
FF53
FEF4
FF76
FE99
01DD
FEB9
FEF7
0187
FF4D
FF5E
00A1
FEDF
FECA
0250
FEDB
023A
0108
FF46
FF45
011C
023C
FEED
FEF2
FEB7
023D
FF0B
FF16
FEC0
FF52
0161
FF42
01EA
FFFC
00AE
0116
FF2B
FEE5
FF43
FEBD
FF7C
FEBE
FEF1
FE38
0122
FEBE
FF10
FECD
FEED
FEF6
FF82
FFA9
FECA
FFA6
01C2
0248
FF25
020E
FF23
FF4F
FF22
FEFE
FEC5
FF6B
0128
FF7A
FEE2
FF47
0263
FF6C
FF24
FED5
FF01
FF44
FEF7
FF5C
FF27
FF77
FEA9
FEE1
FED2
FE5A
0221
FEBE
FED2
FF75
01F7
FF53
019F
FF01
FEFA
FEB7
FEF3
FF1E
010F
FEA1
0188
FE51
FEC8
FF06
FE94
FF74
FF6A
FF6D
0279
FF0B
FF8D
0246
FE50
FF3D
FE23
FF27
FF54
FEA4
FF0D
012B
FED3
FF07
FF21
FE7C
FEB6
01C3
FEF7
FEDD
FED5
FECB
002B
FF60
FF03
FF16
FE83
FE2A
FF00
FEFB
019F
FF02
00E2
FF28
FEF3
FEFF
FEE5
01B5
00D5
FEDB
FF4D
010D
0120
FED9
FF07
0148
FF5B
00F9
FEED
FFBB
FF30
01F5
FF34
FF51
FF71
FEF3
FEFE
FF12
00F4
0273
FF94
01C6
FF0A
FF20
FF54
FF7F
FF2F
0210
FEE1
FEF3
001B
00CF
FF17
FEDA
FF6A
0010
FEEA
FF50
FEE5
00FD
0207
FF22
FF76
FF48
003D
FF14
FED0
FF9E
FF38
FF00
FF27
FF94
FF54
FEE7
FFBB
FF0F
FF69
FFF1
FE9C
FE92
FEC0
FEB0
FF47
FF26
FFEA
FE64
01E8
FF28
007B
FE92
FEC8
FF36
FF2F
FF30
FDB6
FF47
0219
FF75
FE81
0103
FEB4
FF24
FEE6
FE8A
FF14
FF37
FF46
009C
0245
FF22
01EC
FEC6
FF18
FF5D
00E9
FF36
FEB5
0027
FF73
FEEA
FF5C
FF1E
FF2A
0037
FEE8
FEDE
FED2
FFE1
FEC5
FF54
0120
FF51
FF15
FF82
FEEC
FF5E
FE00
01D4
FF2F
FF37
0231
FF2E
FEC2
009B
FEEE
FF0E
022E
FF04
022E
009E
FF2B
FEE2
0116
01F5
FEE1
FEF4
FF14
0261
FEA3
FF7F
FF05
FF4D
00D4
FE77
0275
FFC5
003F
014E
FF2C
FEF3
FEEB
FE88
FFA7
FF55
FF5F
FE51
00C0
FEE8
FF53
FEF9
FEED
FEE8
FF86
FF6B
FEA8
FF77
01FF
0263
FF21
0219
FF58
FF58
FF27
FECE
FE59
FF53
0181
FF0A
FF39
FEE6
025E
FF62
FF16
FEDA
FEB6
FF19
FECD
FF1E
FF2F
FF64
FF07
FEEA
FE74
FEA5
0261
FEF9
FEC5
FEE4
01C6
FF61
01B8
FF3F
FF51
FE71
FF19
FEBF
00D8
FEEF
01B1
FEB2
FF26
FEAA
FEF4
FF74
FF90
FF7B
022A
FF34
FFB5
01CD
FE96
FFDF
FEA9
FF64
FF18
FEB3
FF04
0158
FED9
FF49
FEEC
FEE3
FF2E
0194
FF2C
FEE0
FEED
FEA3
0089
FF28
FE82
FF0A
FE2C
FE6B
FF09
FF27
01C3
FEFD
0117
FF5E
FEF8
FF03
FEEE
0192
008D
FEB6
FF4B
0072
0117
FEAB
FF59
017F
FEF2
0126
FED8
FF82
FF08
0228
FF07
FF7C
FF47
FEB7
FF34
FF28
00E3
026E
FF11
01DC
FF55
FEC0
FF2F
FF46
FF0B
022D
FF1C
FED6
0045
0135
FF42
FF62
FF22
0053
FF39
FF3E
FF29
0080
0204
FF05
FEEF
FF15
FFC9
FF3E
FEEC
FF1A
FF30
FF16
FF68
FF34
FF4E
FEB7
FF73
FEB4
FFA8
002C
FE3D
FE8A
FF21
FF1B
FEF2
FEE7
FFA1
FE86
022F
FE97
0091
FED6
FF2A
FF08
FEDD
FF7A
FE78
FF89
021F
FF35
FEAA
010E
FEF7
FF13
FF49
FE2A
FEAF
FEDE
FF1C
0023
0237
FF1C
01F0
FEEC
FEFE
FF7F
00E4
FF26
FE75
0025
FF7B
FF4B
FF51
FF6F
FF1A
000F
FF4D
FF48
FF13
FFE0
FF0D
FF4B
00D9
FF5E
FEE8
FF4A
FEFC
FF7E
FE40
01C3
FF09
FEE2
020C
FF1B
FF3E
00B3
FEB4
FF2D
022D
FF40
0210
006C
FF21
FEE9
010A
01F6
FEB5
FF34
FF31
023E
FEDD
FF3D
FEE1
FF17
009F
FEA2
0227
FFF8
0068
00D0
FF19
FEEE
FECD
FE33
FF43
FED3
FF28
FE2C
012C
FE93
FF24
FEF2
FEA6
FEB2
FF4E
FF80
FEFA
FF78
01D5
01DA
FF09
025F
FF34
FF3B
FF29
FEC2
FE6F
FF5B
0125
FF00
FEE8
FF62
01FA
FEEA
FEB5
FEFA
FEB0
FF45
FECD
FFDF
FF36
FF45
FF3D
FEE1
FEAC
FE95
023B
FF38
FED0
FEA3
0192
FED6
0193
FEF6
FEE6
FEFE
FEC9
FF1E
00F3
FF19
013E
FEA0
FF24
FF12
FEA8
FEFC
FF3A
FF6A
029E
FF0C
FF2F
01DA
FE83
FF3F
FE4F
FF19
FF12
FED1
FEE4
011E
FED1
FF06
FECB
FE69
FED3
0184
FEF9
FEED
FEF9
FED5
004A
FEC2
FE8A
FEF9
FE21
FE31
FECF
FEFD
0198
FEE8
0122
FEDD
FF1E
FF53
FECB
0233
009D
FF22
FF0A
0093
0118
FEAB
FF3C
0160
FF01
0153
FF08
FF80
FEE3
0213
FEAC
FF7B
FF02
FEBD
FF4A
FEC0
0110
0255
FF34
017E
FF6B
FEC1
FF01
FF57
FEE4
0232
FEB4
FEC1
008C
014B
FF06
FED4
FF11
FF7A
FEE5
FF37
FF07
00A3
025F
FF1C
FF37
FF8D
FFD0
FF32
FE8E
FF42
FF42
FE76
FF52
FF40
FF1E
FF11
FFD1
FECB
FFC0
006D
FE5E
FEF5
FEDF
FF03
FEF9
FED7
FFF0
FE5E
01EE
FE93
008D
FEAF
FF26
FECB
FF37
FF75
FE27
FFB5
01FA
FECF
FEBC
00B6
FEA9
FF8B
FED4
FE16
FE91
FED2
FF36
FFEC
02CF
FF07
023F
FEA3
FEAE
FF52
00E8
FF07
FE75
FFBA
FF55
FEE1
FF83
FF0C
FEBF
0019
FEA2
FEF8
FE98
0045
FF18
FF05
012C
FFC5
FECE
FEEF
FF56
FEE5
FE41
017E
FEBC
FF04
0223
FF11
FF45
0086
FE98
FEF5
0257
FF84
01C4
006B
FF5D
FF50
0100
01C0
FEA3
FF47
FE83
026D
FEA5
FED5
FEBB
FF2D
00B2
FED6
022E
0027
FFEF
0173
FF05
FEE3
FEF2
FE35
FF6C
FEDA
FF2B
FE55
012C
FE61
FED9
FF3F
FEC0
FEAE
FEE7
FFD5
FE9E
0004
01E9
01EF
FED0
0243
FF01
FEFE
FF1D
FEBE
FE5C
FF17
0123
FEDB
FF2E
FF18
025C
FF3D
FEA0
FEF7
FEC6
FF36
FEE9
FF59
FE8F
FF93
FEE3
FF1C
FE83
FEAE
0273
FEC5
FEDF
FEFB
01A6
FED9
01C9
FF26
FECC
FE88
FF1F
FEB7
00BF
FEFB
016C
FE31
FED2
FE7D
FE81
FF2F
FF17
FEF0
0269
FF32
FF15
018A
FEA3
0037
FE4C
FF20
FF29
FEBF
FEA8
00FF
FF06
FF2D
FEE8
FEA9
FF18
0180
FF2B
FF1A
FEE1
FEE4
0039
FF10
FEC6
FEB2
FE60
FE5B
FF2D
FEB7
01D6
FF5D
00CF
FF3B
FF10
FEFB
FEBF
01ED
006E
FF06
FF70
005F
00FB
FF2A
FF4A
0146
FF18
00EE
FF6C
FF11
FEB7
0235
FF48
FF5C
FEE2
FEBD
FED7
FEC9
0152
028F
FF51
01B6
FEEB
FEF6
FF0C
FEF4
FEFD
01FF
FEF1
FEC4
0026
013A
FF48
FF6F
FF37
0023
FF58
FEF2
FECE
0071
019E
FF23
FF08
FF0E
FF6E
FEFF
FEE3
FF79
FF42
FF0F
FF22
FF15
FEFA
FF03
FFAF
FEDC
FFB1
006B
FE3D
FEC1
FF0E
FF37
FECD
FEE4
FFA8
FE97
01B0
FF0D
00A2
FEA8
FEC2
FEEB
FED9
FF47
FE08
FF8A
01A9
FF12
FE73
00A5
FF1C
FF55
FEEF
FE7C
FEE6
FEF9
FF0D
0042
0225
FF1D
0232
FF01
FEF1
FF7F
0110
FF25
FE85
0012
FF88
FEF1
FF24
FF08
FF0F
FFF8
FEED
FF60
FF12
0061
FE9A
FF6A
00C3
FF72
FEE0
FF50
FEE0
FF07
FE70
013F
FEC4
FF81
021F
FF48
FF94
00F0
FEBD
FF0F
023A
FF69
015D
002F
FF13
FEC0
00BE
01AE
FF02
FF3D
FF42
01FB
FEFD
FF40
FF20
FF66
0069
FE60
0228
FFF7
0081
00F3
FEE6
FEF7
FF2F
FE4F
FF79
FF31
FEEE
FE28
00E3
FEDD
FF15
FF3D
FED5
FF14
FF38
FF84
FEEF
FF85
0182
01BC
FF2A
0248
FEFD
FF06
FEFB
FF20
FEF6
FF1A
00E8
FF71
FF1C
FF3A
0227
FF54
FF04
FF20
FF01
FF23
FF1D
FFE8
FEFF
FF90
FEC6
FEC3
FEFD
FE74
0291
FEC2
FEFF
FED4
0170
FF0F
00FD
FF68
FED8
FF01
FED7
FEB9
00F8
FEDB
0181
FE78
FEF9
FEC0
FEEA
FF46
FF54
FF7B
0295
FF59
FF20
0180
FE6A
FFD2
FEB8
FF2D
FF3E
FEEA
FEFD
0135
FEA8
FED2
FEF4
FE66
FE9F
0194
FEB0
FEB3
FF0F
FEC3
0073
FF50
FF1C
FEBD
FDFB
FE50
FEBA
FF03
0146
FF39
0104
FF1C
FEAB
FF09
FEE1
01B1
0032
FEEE
FF4F
0035
00C4
FF08
FEE6
00DF
FEE8
00CB
FF0C
FF76
FE96
023C
FF39
FF52
FF1E
FEC5
FF38
FF45
00D1
026A
FEEC
017B
FF68
FE90
FF03
FF2E
FF0D
01B1
FF40
FEED
009B
0124
FEF3
FED1
FF3B
FFB8
FEDB
FED9
FF25
0050
01DD
FF3F
FF4F
FF02
FFB8
FF4A
FF19
FEE2
FF3B
FF13
FF45
FEEE
FF21
FF19
FFE6
FEAD
FF92
004F
FE13
FECE
FF2E
FEC3
FF48
FF2F
0008
FE94
01B3
FEA5
0094
FE90
FEB2
FEC6
FEE3
FF2D
FDCA
FF31
020A
FEDD
FEE4
00A7
FF1F
FF39
FF36
FE28
FEEB
FF02
FEF6
003A
0272
FEDC
01E5
FED5
FEE6
FF2A
0102
FF12
FEBB
0011
FF78
FECB
FF4B
FF43
FE86
0054
FF0B
FED3
FEAD
0082
FF42
FF43
00E8
FFD8
FED9
FF6B
FF1E
FF69
FDF3
0188
FF3B
FF07
01C3
FF29
FEED
0063
FF15
FEDD
01C7
FF6C
0166
0071
FEE1
FF47
00CC
01D9
FF1C
FF2E
FEB3
022D
FEAB
FF06
FF29
FF17
0083
FEB2
01DA
0051
0046
00C1
FF2B
FF44
FF21
FE2B
FF6D
FEAE
FED5
FE8E
00C9
FE5E
FF1B
FF2A
FE82
FECA
FF5B
FFE8
FE8C
FFC1
018E
01C2
FF1C
01BA
FEF4
FF57
FF33
FEF6
FECD
FF30
010D
FF54
FEFA
FED7
020E
FF10
FEB1
FF13
FEB2
FECE
FED4
FF64
FECE
FF7E
FEC3
FF29
FED6
FE5D
0269
FEDD
FF11
FE8E
0153
FEE3
0161
FEE1
FEFD
FEF6
FF33
FEE5
0169
FF0B
010A
FE97
FF26
FEFF
FE9B
FF32
FF43
FEF4
028A
FF1D
FEF7
0195
FEE4
003E
FE8B
FF18
FF19
FE8C
FEAF
00D8
FEC6
FECC
FF0E
FE56
FF03
0191
FEF6
FF4C
FF42
FF03
0044
FF21
FF39
FEC0
FEAC
FE5E
FF42
FEC2
0157
FF1E
00F9
FF68
FEB1
FEE6
FF0B
014C
0042
FF16
FF95
FFA4
00F9
FEB3
FF58
010F
FF15
00D5
FEDF
FF8C
FEAD
01FF
FF2D
FF94
FF2A
FF52
FF3F
FEE0
0123
0203
FF3F
00FD
FF1F
FED5
FF27
FF70
FEE1
0192
FF03
FEE3
0021
00E4
FF30
FEE2
FF59
000A
FEFA
FF42
FF18
0013
01DE
FF01
FFA7
FF90
FFB3
FF6C
FEE5
FF1A
FF66
FEE3
FF4F
FF37
FF8E
FF2B
FFA0
FEFA
FFA9
0044
FE7B
FE81
FF2A
FEC1
FF42
FF33
0001
FEC1
01F0
FEF1
00A3
FEE7
FEC9
FF08
FEEA
FF8C
FE48
FF80
0166
FEE4
FE85
FFEC
FECD
FF74
FF4E
FE50
FEF2
FEF6
FF0A
0081
0206
FF03
01C2
FEE8
FEAD
FEEA
0166
FEE5
FE6A
FF72
FF92
FF39
FF31
FF3B
FEF5
FFE4
FF0F
FEEB
FEB1
001E
FED7
FF3E
0135
FF63
FF1C
FF7A
FF72
FEFC
FE46
00EE
FF2E
FF2C
018D
FEEA
FF1F
0101
FF06
FF25
018E
FF0F
012F
008F
FF09
FF12
00DC
0178
FF43
FED1
FEB2
020C
FF13
FF11
FF18
FECF
FFF5
FED2
0186
FFBE
0015
00E4
FEFF
FEF0
FF3F
FE78
FF8E
FF25
FF3B
FE56
00FF
FE8C
FF3F
FEE1
FED7
FF24
FF9F
FEFE
FEE0
FFAC
0130
0199
FF32
015E
FF91
FED5
FF1E
FF1E
FEBC
FF1B
016B
FF4B
FF59
FF4F
01E9
FF42
FEB2
FF46
FEF2
FF57
FEE7
FF38
FEE4
FF92
FEB6
FEF3
FE81
FE93
0205
FEB9
FEE7
FEE2
010F
FEFB
00EB
FF19
FF33
FE9E
FF2D
FF10
00E6
FF26
0111
FE5C
FF5D
FEC6
FE80
FF48
FF81
FF10
0233
FF35
FFB3
0138
FED0
FFC0
FE50
FF0F
FF0D
FEDE
FF1F
FFE0
FF5C
FF4B
FED4
FED0
FF54
015F
FF38
FEB5
FF2E
FEE6
00F5
FF07
FF03
FEE6
FECD
FF05
FF34
FF10
0132
FEE5
00F8
FF00
FF4B
FF1F
FFEE
0125
0100
FF3B
FF48
00D2
0149
FED6
FEE9
0184
FF39
0119
FEE1
FF28
FF42
010B
FF06
FF69
FF75
FEF2
FF59
FEDF
0192
0101
FF10
0139
FF63
FEC7
FEF6
FF37
FF57
0140
FF2D
FF70
FF59
015E
FF5E
FF43
FF55
001D
FEF4
FF0E
FF00
012A
018F
FF19
FF06
FFB6
FFEB
FF10
FED9
FF1A
FF11
FED0
FF62
FF8C
FF7D
FEFD
FFF2
FFA1
FFCF
FFEF
FEDC
FF2A
FF1E
FF20
FF5A
FF6F
FFCB
FE90
0101
FF05
FFD1
FF37
FF41
FF85
FF18
0003
FEC9
FFE4
01AC
FEE7
FF13
009F
FF0E
FEF3
FF24
FEBA
FF15
FF67
FF13
FF94
00EC
FE9A
0149
FEE2
FF52
FF15
0160
FF0B
FEDC
0061
00CF
FF2E
FF52
FF42
FF0C
00C9
FF64
FF2D
FF0E
0076
FF01
FF57
0173
FFE3
FEC9
FF9E
FF31
FF26
FEEF
0118
FF55
FF41
00E6
FF12
FEFF
0106
FEEA
FF71
0181
FEEA
017D
002C
FF6A
FF7C
01A3
0133
FF0D
FF05
FF37
014F
FF46
FF61
FF08
FF7E
00E9
FF40
00F8
009A
0035
00FF
FEDD
FF5C
FEF3
FF29
FF31
FF69
FF1B
FE96
0163
FF1A
FEEE
FF05
FEEB
FF0E
FF5A
FFD5
FF40
FFEF
0124
019A
FEC2
012F
FF45
FEF5
FF80
FEC1
FED5
FF45
013C
FF49
FF19
FEED
01F1
FEE3
FF52
FF3A
FF1B
FF1D
FF44
FF83
FEF3
0016
FF45
FF1D
FEE3
FF18
011D
FF3D
FF21
FF35
0105
FF46
0192
FF66
FF15
FEB9
FF0F
FF5C
0182
FF23
008B
FE94
FF6E
FEE0
FED9
FF23
FF0E
FF13
00C2
FEE2
FF1B
0136
FF2A
000F
FF05
FF17
FF48
FEF1
FF0D
FFB6
FF0A
FEE6
FF23
FEDF
FEEF
0155
FF25
FEBC
FEBB
FF56
00A2
FEFB
FEC2
FF37
FEAD
FEA4
FF18
FEF8
0131
FF38
0133
FF35
FF72
FF4D
FF7F
0097
009E
FF0B
FF0C
00AC
0181
FF23
FF62
014B
FEEC
016E
FF1A
FF6B
FF14
0133
FEFB
FF7F
FF5D
FED0
FEF7
FEDB
0147
00A5
FF69
012E
FF48
FEE8
FF45
FF69
FF44
00D3
FF62
FF08
FF1F
0131
FF77
FF6A
FF3E
FFF9
FF65
FF1B
FF02
0118
015A
FE8E
FF25
FF37
FF76
FF04
FF18
FF7F
FF84
FEEF
FF74
FF84
FF44
FF30
FFDD
FF8C
0009
0011
FE81
FF22
FF66
FEED
FF66
FF24
0051
FEEC
0102
FEFC
FFEA
FF00
FF13
FF60
FEFE
FFCB
FEDE
000D
013D
FF40
FEF3
006E
FF5E
FF1F
FF29
FED2
FF26
FEFD
FF32
FFDF
00B4
FF10
00C4
FEE8
FF55
FF2F
0133
FF53
FEE0
0043
00BA
FF71
FF50
FF57
FEEE
00C9
FF06
FEE7
FECB
00D0
FEA8
FFAC
014B
FFEC
FF3B
FF93
FF32
FF53
FE88
00CA
FEF8
FF56
0152
FF2E
FF7C
0149
FF09
FEF7
0163
FF48
0133
FFF5
FF25
FF5A
0163
00E9
FEBF
FF5B
FED5
0134
FF55
FEF3
FED5
FF84
00A5
FF58
00E9
0072
0005
015B
FEE6
FF33
FF64
FEE6
FF62
FF5B
FF30
FEB3
018C
FEB8
FF0B
FF79
FEB1
FF40
FF4D
FF53
FF73
FFED
0124
0133
FEE8
0102
FF0C
FF42
FFA7
FF1B
FEDE
FF8A
00EC
FF26
FF1A
FEEC
020C
FEAC
FF47
FEE8
FEFE
FF83
FEFA
FF73
FF00
0039
FEF4
FF18
FF20
FEB2
00F5
FF51
FF14
FF47
0139
FF6C
012B
FF60
FF6E
FEE2
FF37
FF66
00F2
FF42
009B
FEB1
FF34
FEE1
FEEC
FF60
FF67
FF76
00BB
FF0A
FF48
011F
FE95
0001
FEF4
FF39
FFAD
FEF1
FED6
FF62
FF4C
FF57
FEFB
FEB6
FF0D
0121
FEB9
FEF8
FEF4
FF1B
00B1
FF2A
FF15
FF74
FE8E
FE7D
FEEC
FED0
0114
FF0E
0137
FF37
FF01
FF0C
FF76
00B5
00CD
FF45
FEFB
0059
0150
FF38
FF96
01A9
FF5F
0121
FF39
FF7E
FF45
012B
FF27
FFC1
FF7E
FF54
FEE8
FF5A
0155
00B0
FF61
00CE
FFAD
FEE7
FF59
FF93
FF55
00E0
FF65
FF22
FEBD
010A
FF8D
FF47
FF79
FF89
FF75
FF77
FEA6
0076
015E
FEE6
FF6D
FF87
FF37
FF56
FEE2
FF73
FF22
FF51
FF2F
FF9E
FF70
FEFF
FFB3
FFD4
002C
FFF6
FEDA
FF03
FF45
FEDC
FF74
FEF1
0070
FE4F
0150
FF21
FFCD
FF03
FEC8
FF60
FF21
FFCC
FEE3
000E
0196
FF96
FE6F
003D
FF68
FF24
FEB6
FE9A
FEE3
FF52
FF72
FF87
0139
FF52
00E0
FEED
FF4A
FF0C
01A2
FF3E
FEEA
0057
004C
FF60
FF60
FF53
FF60
012B
FF8D
FEC6
FEE8
0055
FECA
FF1F
0146
FFD3
FF42
FF60
FF2F
FF84
FEBB
00D0
FF57
FF43
00F6
FF1B
FF62
010F
FF37
FF0D
018F
FF03
0104
0030
FFA6
FF63
01C9
006F
FF49
FF18
FF37
011B
FECB
FF05
FEC9
FF15
00DA
FF26
016A
00FD
0023
0142
FF5D
FF23
FF63
FF0C
FF82
FF5C
FF28
FED3
0129
FF38
FF26
FF0B
FED6
FF16
FF3D
FF39
FF80
FFF5
019F
012E
FEB6
00CB
FF05
FF12
FFA7
FEC6
FF39
FF54
0161
FF86
FED3
FF99
0193
FF15
FF58
FF0D
FF5E
FF8B
FF3D
FFEE
FED9
0022
FF67
FF4C
FF04
FE86
00E3
FF12
FF97
FEE6
010D
FF7A
0124
FF42
FF95
FE91
FF6E
FF4A
0149
FF6E
0093
FEF8
FF91
FF06
FEFC
FF85
FF0F
FFBE
0085
FF82
FF84
00F2
FEF2
FFD5
FEB8
FF7A
FF50
FF0B
FEF2
FF42
FF23
FEF3
FF03
FE9E
FF65
0140
FF1A
FEC0
FF85
FF10
00EC
FEF0
FF2E
FF42
FECD
FE81
FEF0
FEDF
0151
FF2C
01C1
FF70
FEF2
FF62
FF12
005A
0097
FF63
FF33
003E
01CB
FF2D
FEE4
01C7
FF61
015E
FF45
FF86
FEF3
00F5
FECF
FF9D
FF8F
FEF0
FF33
FEF5
01A9
0081
FF7A
00E4
FFA5
FF29
FF4D
FF20
FF2A
0105
FF20
FF53
FEF4
015B
FF18
FF4F
FEF1
001A
FF19
FF11
FEA7
00AA
013E
FEE7
FF52
FF30
FF96
FF51
FF2C
FF27
FF3B
FF52
FF28
FF66
FF84
FEF3
FFF3
FF82
0016
FF4A
FE77
FEBF
FF12
FF07
FF24
FF04
002E
FE9E
0110
FEC3
FF3F
FF09
FF08
FF37
FF6C
FFE1
FEB0
FFE0
01B4
FF10
FEF6
00A5
FFAA
FF3F
FEE5
FE8A
FF19
FF0E
FF55
FFAA
0115
FECA
00B7
FF0E
FF2B
FF08
016E
FF14
FF15
0010
00D4
FF3D
FF7A
FF79
FEED
013B
FF8D
FEC0
FE96
00F5
FF0E
FF8E
01AB
0058
FF27
FFA1
FF5F
FF39
FEC0
00A8
FF60
FF3D
012E
FEEB
FEE9
0119
FECA
FEE6
01AB
FF62
0107
FFD3
FF71
FF54
01E2
00B2
FF34
FEE9
FF1B
00BD
FEAB
FEEC
FEEF
FF72
008D
FF24
011F
0146
00F7
016C
FF37
FF75
FF20
FF3E
FF73
FEF1
FF3F
FE46
01FE
FEFD
FF28
FF1D
FEC0
FF1E
FFA6
FFB9
FF2C
001B
01A1
0172
FEC9
010E
FEFE
FF0C
FF5D
FF0F
FF23
FFA6
018E
FF52
FF47
FF89
01C7
FEAB
FF08
FF0C
FEDE
FF4C
FECE
FF4E
FF5C
000B
FF3E
FF10
FF29
FE96
00A7
FEC6
FF1F
FF1B
00BB
FF42
0156
FF8B
FF57
FE92
FF06
FECE
015C
FEDE
0040
FE77
FEFA
FF01
FEC6
FF45
FF21
FF5C
0078
FF7B
FF81
00DD
FE8A
FF6A
FEE0
FF2B
FF80
FF06
FF58
FEB9
FF2C
FEEF
FF35
FF07
FEDF
012C
FF32
FEFF
FEF7
FF3D
00EA
FF19
FF53
FF62
FEEA
FEAD
FF05
FE92
009C
FF2E
01D5
FF56
FED0
FF71
FF3D
0053
009A
FF6D
FF37
0063
014D
FF20
FF1D
01BE
FF6D
0179
FF77
FFB1
FF40
00F7
FEEB
FF3D
FF3D
FEBB
FF4D
FEDB
0189
0039
FF49
0101
FFA7
FEF2
FF32
FF45
FF0B
00CF
FF43
FF1B
FEE0
017E
FF6B
FF8E
FF84
0013
FF3F
FF18
FF2D
0081
00C2
FEF2
FF75
FFBF
FFF0
FF17
FEA7
FF57
FF68
FF28
FF1B
FFAB
FF4C
FF0C
FFD5
FFD6
FFC3
FF85
FEFB
FEC4
FF49
FF00
FF78
FF88
0030
FEA3
0103
FEDE
FFC8
FF79
FF61
FF82
FF47
002C
FE9F
0025
014D
FF25
FEA3
0079
FF84
FF04
FF1C
FEDA
FEE2
FF85
FF1D
FF94
00F1
FED4
0065
FED2
FF4C
FF26
0155
FF1D
FEBA
008A
0072
FFA3
FF98
FF45
FEC2
0179
FF62
FF29
FECA
0137
FF04
FF38
01A4
FFA5
FEFB
FF55
FF26
FF92
FED6
FFF0
FEF3
FF3B
00E9
FF67
FF6A
0180
FF23
FF13
0121
FF28
00DA
FF72
FF8B
FF69
01BD
0037
FF33
FEE0
FEF7
00B6
FEBC
FF21
FF21
FF15
0024
FF21
0148
0127
0050
0142
FF64
FF27
FF03
FF56
FF8C
FF18
FF34
FE5B
0161
FEF9
FF60
FF14
FF0C
FF1A
FF9F
FF8D
FF4D
FFE4
01B8
00E7
FF14
00CD
FEFE
FEF3
FFA9
FED7
FF28
FF5F
01D0
FF95
FEE4
FF17
0189
FF02
FF27
FF32
FF36
FF78
FF55
FF7B
FF1E
0068
FF43
FEF8
FECB
FF03
00BA
FF4A
FF08
FF12
009D
FF59
00D5
FF22
FF6F
FF03
FF48
FF34
0112
FF5B
FF6E
FEDA
FF20
FF4C
FEB8
FF57
FFA6
FF61
005B
FF2A
FF78
0087
FE8C
FFFF
FE96
FF77
FF64
FF29
FF2B
FE9F
FF62
FF41
FF00
FE82
FF46
014B
FEB6
FEAF
FF28
FEDE
016C
FF3A
FEDE
FED3
FE9A
FE67
FED9
FEB9
009E
FF6E
01D9
FF58
FEDF
FF5A
FF1B
000B
0088
FF11
FEF0
0016
016D
FEE4
FEE0
01D0
FF8E
01A8
FEE8
FF52
FEF0
00C2
FEE5
FF36
FF61
FEF6
FF20
FF41
01A0
0084
FF71
00B8
FFAB
FF24
FF19
FF04
FED2
0112
FF4B
FF0B
FE9F
01DD
FF27
FF3C
FEF6
FFEC
FECC
FF28
FE60
007B
0094
FEDE
FF16
FFDF
FF97
FF84
FF0C
FF89
FF1D
FEBE
FF98
FF2C
FF82
FF07
004F
FFA5
0034
FF3B
FE83
FEE3
FF1E
FF29
FF3D
FF61
0001
FE7B
0158
FE6C
FF96
FF32
FEE7
FF48
FF71
002E
FE54
FFB7
00F6
FF17
FE5C
0073
FF7F
FEF9
FE8B
FE7B
FF45
FF11
FF68
FFDE
009F
FE8C
FFF7
FF42
FED8
FF1C
01E6
FECB
FED6
0095
010C
FF93
FF2C
FF72
FEDA
0111
FEF4
FEA5
FEEC
012A
FE92
FF94
01F4
FFBF
FF39
FF90
FF69
FF6F
FE7E
FFF8
FF18
FF9F
0145
FF4A
FF5C
00FD
FEFA
FF41
00D5
FF1C
007A
FFB0
FF3A
FF54
0190
0003
FEBD
FF08
FF11
0042
FF21
FF4B
FEC9
FF89
00CB
FEE7
0153
0085
FFB3
0180
FED8
FF5C
FF49
FF8A
FF27
FF4F
FF5D
FE59
01E4
FEF8
FF86
FF76
FEDF
FF57
FF34
FFC1
FEBF
FFAA
01B1
0078
FF1A
0069
FF72
FF50
FF4E
FEFE
FF19
FF91
01B3
FF87
FF1E
FF05
015A
FE67
FF19
FED7
FF02
FF56
FF2E
FFD2
FEF5
00FA
FF45
FF31
FEC4
FE73
00E5
FF51
FF43
FF45
00F8
FF12
00E8
FF54
FF33
FE75
FEEE
FF3A
00B8
FEC1
FF77
FE87
FF04
FEEA
FEE9
FF96
FFAC
FF83
0018
FF53
FF83
0075
FE91
0008
FEC8
FF7F
FFAE
FEF3
FF4D
FECB
FF2D
FF31
FEC6
FED3
FF1D
010D
FEF7
FEED
FF00
FF4F
0156
FF1F
FEE2
FF40
FE95
FE92
FF5B
FECE
00D3
FF2A
017E
FF26
FEC3
FF6E
FF80
FFB4
006E
FF5E
FF0C
0020
01C8
FF47
FF26
01B1
FF25
01AA
FF54
FF50
FF0B
00C9
FEF6
FF3B
FF77
FF39
FF10
FF43
01A8
FFF7
FF69
00EE
FF92
FF65
FF22
FF2B
FF29
013E
FF19
FF1F
FEC3
021B
FF73
FF2D
FF46
0042
FF3F
FF7C
FEE5
00A7
00AC
FE90
FF7B
FF96
FF46
FEDF
FF2F
FF68
FF68
FF00
FF0A
FF5A
FF5E
FEDE
0028
002A
FF65
FEE3
FEEE
FEC7
FEE7
FF1F
FF7C
FF68
0019
FE9D
00DC
FECF
FFAF
FEE2
FF0F
FF62
FF02
006B
FEB8
FFD5
00E5
FF7E
FEE7
0038
FF9F
FF09
FE8F
FE71
FF56
FF5D
FF05
FF3E
00D8
FEB6
0012
FF53
FEF5
FECD
0233
FEEF
FE8A
FF95
00EA
FF32
FF3F
FF6C
FF47
00F3
FF25
FF30
FEF1
00F7
FEED
FF7E
0207
FFF6
FF4B
FF4F
FF09
FF62
FE76
FFED
FF2F
FF2A
0104
FF09
FEA3
01B2
FECA
FF3E
00C6
FF87
0041
FFDA
FFAA
FF2C
024F
007E
FF0B
FF06
FF62
0097
FED0
FEFE
FF17
FF22
000F
FF73
00FA
00EF
00E6
0179
FF13
FF13
FEF6
FF66
FF8D
FF1D
FEE3
FE6E
01A9
FEE0
FF86
FEF2
FEC6
FED5
FF2E
FF80
FEC5
003E
01EF
00D8
FECD
006A
FF09
FF71
FF62
FECF
FEAE
FF79
01BB
FF3A
FF33
FF05
00EE
FF1A
FF4F
FF1A
FF2A
FF4C
FF02
FF96
FF4A
0020
FF6E
FED1
FF06
FF05
00D0
FEC7
FED7
FF37
00C5
FF22
0074
FF5E
FF5A
FEA9
FF18
FF37
011B
FEF6
FF2E
FEED
FF2D
FF06
FF1A
FF10
FF75
FF73
0032
FF64
FFA6
0033
FEBD
FFC7
FEE0
FF68
FF28
FF43
FE95
FEC3
FF15
FF0B
FF17
FEA5
FECD
0142
FF41
FECB
FEFE
FF65
0174
FF73
FF0D
FED3
FE47
FE60
FF63
FEDE
0095
FF30
0191
FF29
FF21
FF94
FF66
FFB7
00EC
FEDD
FF03
00A2
01CC
FEAC
FEE7
0175
FF7C
01D4
FF3B
FF72
FF28
00A6
FEE5
FF7D
FF32
FEEC
FF46
FECA
01AC
0040
FF2F
00E1
FF89
FE7F
FEF5
FF2F
FF07
00EB
FF25
FF76
FEDE
01A7
FF71
FF2E
FF5F
0028
FEC9
FF37
FEDC
00CD
00A0
FEAD
FF24
FFA4
FFF7
FF30
FF20
FF7A
FF17
FEA4
FF6F
FF55
FF47
FEF6
0040
FFCF
0034
FF4B
FEDB
FEAD
FF32
FF12
FF40
FF64
002A
FE6F
00D3
FECB
FFD1
FF58
FF48
FFB9
FF38
001C
FE4B
FF8A
0138
FED5
FEBF
0094
FF83
FF4B
FF05
FE83
FF1B
FF22
FEF2
FF41
005E
FE9C
0036
FED2
FEC4
FF41
01DB
FF4F
FF0A
FFFF
0140
FF8A
FF19
FFBC
FEF8
011F
FF65
FF03
FEFB
012B
FEC6
FF7A
0175
FFC3
FF0D
FF74
FF84
FF19
FEB4
0050
FEF1
FF72
00E0
FF0E
FF7A
010C
FED4
FF47
012B
FF44
00B7
FF9F
FFA6
FF0D
0186
00C9
FEBD
FF0B
FF26
0047
FEF9
FF1A
FF05
FF55
00FD
FF1A
0113
00EB
0017
017A
FED6
FED7
FEE2
FF6B
FF98
FEFE
FEF6
FE9E
0196
FEF9
FF28
FF3C
FEA2
FEDB
FF30
000B
FED8
FFDA
01CC
00E1
FF01
00AA
FEF5
FF27
FF58
FEE2
FEED
FF6E
01AD
FF4A
FF02
FF1D
01A1
FEA2
FEB8
FEEF
FEEE
FF68
FF22
FF83
FF34
00E9
FEDC
FEA7
FF07
FEE0
0092
FEC2
FF09
FF28
00EE
FF33
012D
FF74
FEF9
FE89
FF70
FF05
011D
FF0F
FFC9
FE8E
FF7F
FEEE
FE6B
FF5D
FF60
FF80
004E
FF4E
FF94
00BE
FEDF
FFD7
FE6E
FF93
FF93
FEF9
FF0F
FEAD
FEE7
FEFC
FEF0
FEAA
FF45
0169
FEFC
FF34
FEC8
FF66
010E
FF15
FED4
FEB4
FE72
FEC7
FEEA
FEA8
00B0
FEF7
0187
FF03
FF5C
FF80
FF69
002D
00DB
FF09
FF18
00AE
0173
FEBA
FF41
017A
FF2E
01CA
FF72
FF31
FF18
00BE
FED7
FF65
FF8F
FF47
FF55
FF22
01B3
0060
FFAB
0141
FF7D
FEF5
FF0A
FEEC
FF0E
0134
FF31
FF5F
FEF3
01F1
FF2F
FF69
FEE3
FFB8
FF18
FF64
FED3
0149
012D
FF0A
FF23
FF46
FF91
FF37
FEDC
FF31
FF73
FF08
FF1C
FF83
FF65
FF2D
FFC2
FF90
FFD9
FF2C
FEA0
FF01
FEC5
FEFE
FF53
FF20
002A
FEE1
0136
FEBD
FF96
FEE4
FF15
FF61
FF2A
0002
FE39
FFA7
013F
FF11
FEC8
00AD
FF68
FEF8
FE81
FE98
FEE7
FF24
FEFB
FF7C
009F
FEB8
0092
FEDD
FEE9
FF1A
016D
FF11
FEE9
003A
0117
FEFB
FF3F
FF40
FEF8
0188
FF49
FEB3
FEAE
0122
FEA2
FEED
01E8
FFE8
FF13
FF42
FF56
FF47
FE99
002D
FF7B
FF4F
0153
FF63
FF58
015B
FEE9
FF6B
0109
FF67
013D
FF81
FF62
FEEE
0202
0076
FECC
FF33
FF58
008C
FEC2
FF1C
FF15
FF19
0165
FF46
013C
014A
002B
014A
FEEA
FF54
FF5F
FF87
FF42
FEF7
FED4
FE6D
0174
FF12
FF13
FF1B
FEFE
FED6
FF69
0006
FF38
FFC9
01C1
013D
FEC7
0028
FF3D
FF57
FF2F
FF27
FECA
FF57
0161
FF4B
FF47
FF4C
013C
FEA3
FF03
FEA5
FF2F
FF82
FEF4
FFC7
FF0D
00AF
FEEF
FED4
FF17
FE72
00DD
FEE0
FF48
FF69
0135
FEFD
0155
FF68
FF7A
FE89
FF43
FF55
01AB
FF32
0024
FECF
FF6E
FF0A
FEF1
FF39
FFB6
FF78
0005
FF5C
FF78
0128
FE7F
FFE9
FE66
FF98
FF7F
FF54
FEEA
FE83
FF5D
FF17
FEB3
FF14
FF69
0141
FECC
FF3D
FF5F
FEF9
0143
FF43
FF26
FEF0
FEA3
FED4
FF74
FECB
00F7
FF6C
01C3
FF21
FF1D
FF89
FF8B
FFEC
0059
FF6B
FED6
0076
015A
FF35
FF0D
0202
FF77
0183
FF8E
FF52
FF15
00D0
FF3E
FF17
FF27
FF12
FF20
FEED
01F7
00A6
FF83
0109
FF79
FF3F
FEFE
FF07
FF07
0124
FEF3
FF5C
FEC0
0210
FF65
FF68
FF96
0040
FF46
FF35
FE75
0073
00A3
FE7E
FEEF
FF3D
FF48
FF3C
FEF6
FF71
FF0C
FF44
FF70
FF76
FF3F
FEDB
FFEF
FFB2
002C
FE9C
FEAD
FE98
FEFE
FF61
FF1A
FF85
FFFF
FE5E
0109
FEC4
FFB3
FF1D
FF33
FF6B
FF41
003B
FEB8
FFAF
012B
FF95
FEF2
0047
FF97
FF3A
FE67
FEC0
FF66
FEFB
FF16
FF53
0089
FECA
FFE1
FF44
FF14
FEBD
01F9
FF07
FEC6
0026
00C5
FF2A
FFBE
FF4F
FEE6
016E
FF96
FEB1
FEA0
0160
FE88
FF75
01DD
FFD2
FF15
FF6F
FF47
FFAB
FEFC
FFDC
FF35
FF8A
0123
FF23
FF89
0129
FEDF
FF6B
0107
FF85
00F3
FF5F
FF6F
FF74
0235
004D
FF23
FF49
FF0F
00B7
FEC0
FEE1
FF21
FF20
00A4
FEF3
0103
0134
00B7
015C
FF61
FF65
FF03
FED5
FF41
FF2E
FF2A
FEBA
01B7
FEE2
FF4F
FF80
FEE5
FEFB
FF85
FFAF
FF06
FF9A
01C2
00C9
FF0A
0032
FEFE
FF1D
FF39
FF36
FF34
FF79
0196
FF2F
FF2E
FF14
0179
FEAC
FF0F
FEE6
FEE5
FF60
FEE5
0003
FF30
00DA
FF8B
FF18
FF06
FE79
00EF
FEFC
FF03
FF29
007D
FF81
009E
FF9A
FF1A
FED0
FF38
FEFE
0119
FF53
FF96
FEF1
FF37
FF55
FEDC
FF8C
FF4A
FF0E
0040
FF14
FF99
0059
FED4
FFA2
FECE
FF84
FF92
FF40
FF11
FEBE
FF51
FEE3
FEAF
FED7
FF27
0166
FEAD
FF2C
FF00
FF54
01F8
FEE8
FF3F
FED3
FE33
FE59
FF2B
FE52
008B
FF0A
0231
FF56
FEA6
FF3C
FF6E
FFB5
0056
FEFF
FF7A
FFD9
01E5
FF0B
FF3C
024C
FF4B
01DA
FEEF
FF33
FECB
00A1
FF26
FF99
FF28
FF24
FF35
FEF0
0219
FFF2
FFA5
00DA
FF9D
FF16
FF20
FF40
FF0C
0122
FEF3
FF59
FEB8
01D8
FEFB
FF28
FF74
FFF9
FF18
FF89
FE61
00B5
0009
FEC2
FEFA
FFBF
FF6E
FEF9
FECC
FF5A
FFA3
FEEB
FEF7
FF90
FF89
FEFB
FFB0
FFD4
FFAE
FE73
FEA3
FE8C
FF1A
FF1D
FEE5
FF2D
0026
FE9C
0183
FE9C
FF5E
FEB5
FF00
FF49
FF41
FFF1
FE2A
FF7A
00DD
FF3B
FE81
FFCB
FF59
FEE8
FEE1
FE77
FF34
FED0
FF5C
FF19
00A0
FEA7
FF56
FF61
FEC9
FEFD
024F
FEDE
FE83
FFD4
0127
FF4A
FF27
FF51
FEC4
013F
FF20
FE72
FEEC
0187
FE9C
FEF8
021A
FFF7
FF21
FFB5
FF83
FF0C
FED7
FF69
FEEE
FF5C
010A
FF57
FECD
0152
FEF6
FEEE
009C
FF61
007B
FFA9
FF93
FED0
0210
005E
FF3C
FF24
FF58
0033
FE8F
FEE4
FEC2
FEE0
0044
FF06
0109
0174
00CD
01C4
FEF9
FF04
FF21
FF67
FF36
FF00
FF07
FE6C
0208
FEA6
FF6A
FF5E
FE8F
FF49
FF14
FFC8
FEE9
0062
01FD
004B
FF2E
0026
FEFC
FF5E
FEFE
FEEF
FEA4
FF26
01F2
FF3F
FF4C
FF00
00CE
FECE
FEF8
FED6
FF1D
FF39
FF0B
FF17
FF55
00CE
FF4B
FEDC
FEDC
FE76
0097
FED7
FF32
FECC
008B
FF25
0059
FF29
FF46
FEF9
FEEA
FEB0
014A
FED0
FEF0
FED4
FF09
FED3
FEA7
FF70
FF3A
FF56
FFDF
FEE4
FF22
0028
FECC
FF56
FEE9
FF7D
FF18
FED6
FEE6
FE59
FF53
FF34
FF0E
FEF6
FF59
0121
FF1D
FF49
FF42
FF6F
01CB
FF76
FEF1
FF4C
FE7E
FEC7
FF89
FE8D
0078
FF41
01A2
FF80
FF2A
FF5F
FEC9
FF81
0009
FEFE
FEFE
FF00
01E5
FF6F
FF14
01E8
FF15
0215
FF3B
FF10
FEE6
00AF
FF58
FFAC
FF52
FF17
FF50
FF3E
0216
FFD8
FF80
FFEC
FF7A
FF25
FF38
FF2B
FF49
0117
FF1F
FED7
FE94
0208
FF14
FF5A
FFAE
001A
FF21
FFA7
FEA0
001B
FFE7
FEB9
FF0B
FF59
FF75
FFA0
FEF5
FF59
FF64
FEF8
FF21
FF13
FFB3
FF48
FFBA
FF9D
003D
FE62
FE82
FEB4
FEFF
FEDE
FF14
FEFF
003C
FE7F
0142
FED8
0016
FEF9
FF4A
FF70
FF82
FFFD
FE27
FF78
001F
FF94
FEBE
FF51
FF83
FF9D
FE6E
FE63
FEF8
FF40
FEFE
FFDE
003A
FED2
FF55
FEE7
FF40
FEF4
01F5
FEEB
FF15
0070
00C8
FF5C
FF49
FF65
FF13
0170
FF55
FE9F
FF1B
01B4
FE71
FF18
01A0
FF49
FF07
FF40
FF26
FF6A
FE9F
FEEF
FF70
FFA2
0156
FF3B
FF8B
0174
FF4B
FF24
0036
FF8D
FF6A
FF77
FF1E
FF2E
01C5
FFDB
FF0D
FF17
FF77
0002
FF33
FEFA
FEA2
FF7E
FF88
FF11
0103
0103
0021
020E
FF4A
FF62
FEFD
FEF9
FF47
FF30
FEC1
FE6B
0223
FEE3
FF59
FF95
FF30
FEF7
FF7F
FF55
FEF1
FF8E
020E
003B
FEAB
0044
FF31
FF64
FF2F
FF39
FEF6
FF90
023D
FFD6
FF5E
FF5B
0108
FEB3
FF4A
FEC7
FF42
FF45
FEF9
FFE4
FF4F
00FA
FF71
FEFF
FF08
FF0C
001C
FF1F
FF86
FF14
FFE5
FF78
0051
FFBE
FF6A
FEAC
FF63
FF44
00D4
FF66
FE8B
FEF1
FF89
FEDB
FEE9
FF69
FFC9
FFA8
0014
FF52
FF99
FFEF
FEE9
FF84
FF01
FF4A
FF29
FF54
FED2
FF42
FF04
FF7B
FF02
FEAF
FEC5
017C
FEB8
FF19
FEC5
FF2B
0115
FF11
FED5
FF06
FE6B
FEA8
FF80
FEA8
0075
FF2C
0194
FF8D
FF1E
FF55
FE89
FFE9
004D
FF41
FF55
0014
0192
FEE9
FF30
015F
FF08
0181
FF59
FFA2
FEE5
00AB
FF2E
FF91
FFAE
FF75
FF48
FEF9
0189
0041
FFB9
00CA
FF85
FEC5
FEE6
FF02
FF2C
012E
FEFE
FF25
FE8D
01AE
FF95
FF05
FF15
004B
FF3D
FF65
FE9B
008E
0094
FEF7
FF40
FF5E
FFD8
FF80
FEB8
FFD2
FFA9
FED8
FFA2
FF34
FF85
FF1A
FFF3
FFBF
0051
FE3F
FE59
FE84
FF23
FED7
FF1E
FF66
000D
FED1
0168
FEB6
FFD4
FF50
FF1A
FF27
FF3F
FFDF
FE35
FF4B
0175
FF6B
FE6C
001A
FF5C
FF75
FEFE
FEB0
FF0A
FF29
FF1F
FFCA
00AC
FEE0
0063
FEE1
FEE7
FF06
0156
FF3D
FE8C
0084
0112
FF3A
FF40
FF99
FE9A
012E
FEEE
FE99
FF08
016D
FEF1
FF4B
0132
FFA3
FEB7
FFD6
FF24
FFA8
FE6C
0017
FF60
FF35
00F5
FF5B
FF5D
0167
FEEE
FF9A
010E
FF66
00AF
000D
FFA6
FF5B
0188
00CF
FF08
FF58
FF68
00AC
FF19
FF5A
FEE3
FF4C
006C
FF94
0120
011E
001A
0146
FED1
FEF6
FF47
FF7D
FF98
FF2E
FEEE
FE4C
015A
FEED
FF27
FF2F
FF2B
FF4A
FF93
FFEE
FF32
0006
0149
00AB
FEB6
0044
FF6A
FF1C
FF0C
FEAF
FF15
FF73
0196
FF4E
FF38
FF49
017B
FEA7
FEE8
FEBA
FF03
FF64
FEE6
FFAC
FECC
0065
FF3D
FF26
FEB9
FE9D
0058
FF11
FF75
FF21
0084
FF7E
00FD
FF2D
FF6B
FE82
FF6C
FEE4
0115
FEA0
FFDA
FEC1
FF64
FF08
FE54
FF51
FFA4
FF8B
005C
FEF9
FF5A
0090
FEB1
0015
FE9A
FF4C
FFAA
FEF7
FEFE
FFB5
FF23
FEEE
FEE7
FEDF
FEE3
0182
FEB7
FEB6
FF13
FF08
0116
FF57
FEE1
FEF7
FE95
FE55
FEF8
FE96
00E0
FF3E
013D
FF08
FF43
FF9E
FECE
00EE
00C2
FF31
FF3C
0084
015B
FEFF
FEF3
01CF
FF27
01CF
FF4F
FFA4
FECC
00EE
FF3E
FF22
FF6B
FE9B
FF68
FED1
01C3
014F
FFA4
0158
FF38
FE92
FF53
FF51
FF0B
0150
FF58
FF5A
FE80
018A
FF55
FF38
FF38
0017
FF2E
FF60
FEB8
0102
0130
FE71
FF61
FFA0
FF90
FF26
FEB2
FF44
FF9F
FEC7
FF2B
FF6E
FF47
FF4B
0035
FFA7
001D
FEF1
FE94
FE98
FF3E
FEB9
FF36
FF17
006B
FE77
0134
FE6D
FFD4
FF0A
FEA4
FFAD
FF57
FFE1
FE3D
FF96
0173
FF85
FE6E
0049
FF2E
FF21
FE91
FEC2
FF11
FF05
FF17
FF16
015E
FF25
00D7
FF01
FEFF
FEC5
0164
FF22
FE6E
005B
008E
FF44
FF24
FF49
FF33
010A
FF69
FF01
FEF7
0099
FEE0
FEE9
0140
FF7A
FF5E
FFB3
FF28
FF4B
FE6E
00E8
FF6B
FF5F
0121
FEEB
FF4A
010F
FF05
FF60
013D
FF5A
00F2
0054
FF22
FF2B
017C
00A9
FF0E
FED8
FF64
00B4
FEE4
FF1E
FE70
FF21
00ED
FF0F
0163
010D
00B1
0131
FF2B
FF53
FEDE
FEF8
FF4E
FEF4
FED1
FEAF
0191
FF04
FF23
FF4E
FEB4
FF26
FF81
FF96
FEFC
0003
01A9
0110
FEE5
00BA
FEB4
FF0D
FF6F
FEDE
FEDD
FFCC
01A2
FF59
FEE0
FF16
01D0
FEA8
FEC9
FF11
FF30
FF8C
FF55
FFEC
FED8
001E
FF65
FF3F
FEE3
FED1
014B
FF34
FF05
FF29
0127
FF4E
018E
FF7B
FF78
FEBA
FF74
FF29
01AC
FEFE
005D
FEB9
FF51
FEFD
FEB1
FF34
FFCB
FF8A
00A3
FF43
FF11
00FD
FE6F
FFA6
FED3
FF76
FF51
FF01
FEEE
FFDB
FF1D
FF8A
FEF1
FEE3
FECC
0128
FEC7
FEF4
FEFC
FEFB
00DF
FF7C
FEFD
FEE3
FEBE
FECE
FF26
FEC3
0141
FEF1
0126
FEE8
FF03
FF81
FF19
00F9
0108
FEFE
FF15
006C
010C
FF62
FF2A
0104
FF9D
010B
FF80
FF83
FEAE
0162
FF77
FF21
FFA7
FF18
FF95
FF1E
0166
0144
FFCD
015E
FF93
FEB0
FF3C
FF04
FF12
00DC
FF83
FEE5
FF22
017E
FF65
FF33
FF3D
FFE4
FF40
FF1A
FE89
0104
0191
FEC4
FF72
FF83
FFB9
FF8B
FE89
FF56
FFA1
FEEC
FF57
FF76
FF83
FF22
0016
FF40
FFC5
FFA0
FE5E
FECC
FF66
FF64
FF25
FF5D
003C
FE53
015C
FEAC
005D
FF52
FF5D
FF40
FF2A
FF60
FE79
FF70
01E3
FF51
FEF0
0077
FED6
FF8F
FEAC
FEA5
FF41
FF53
FF8F
FF9E
0110
FEF7
0191
FEF5
FF11
FE9A
0156
FEEC
FEAC
0091
0001
FF20
FF35
FFDB
FEEF
0063
FF82
FECA
FF10
00B6
FEE1
FF12
011C
FEFB
FF78
FFCC
FF67
FF7A
FECC
00F8
FF23
FF7F
016B
FF21
FF72
00E4
FEB4
FF26
01A1
FF77
013E
005B
FF8E
FF80
00F5
0112
FF40
FEFB
FEF3
0153
FE9B
FED1
FF0D
FF9D
0102
FF3B
0155
004B
FFE8
00FB
FF62
FF5D
FEBD
FF39
FFB4
FF5F
FEFD
FE61
0139
FF17
FF44
FF6F
FF32
FEEE
FF6B
FF59
FF41
FFBE
0155
01BC
FEE1
0171
FEF5
FF2B
FF8A
FF39
FEE3
FF6A
0117
FF90
FF45
FF8F
01F2
FF03
FF5B
FE6D
FF19
FF3C
FF2C
FFEF
FF10
00A6
FF47
FF53
FF09
FE8B
0138
FEEE
FFB1
FF3C
017E
FF1F
012B
FF82
FF5A
FEB0
FF79
FF62
00B3
FEDD
00E5
FEC3
FF22
FEDD
FEC5
FF86
FF57
FFAC
0154
FF32
FF70
0192
FE7C
FFDD
FE78
FF8F
FFC0
FF5D
FF21
00A4
FF21
FF47
FF0E
FF02
FF03
00E2
FEE7
FF00
FEAB
FEF9
00B8
FF8F
FEF4
FF00
FECF
FE9D
FF4D
FEB3
00F5
FF63
00DC
FEF9
FF40
FF70
FEF4
0139
0133
FEC0
FF54
012A
010C
FF57
FEF0
0152
FF11
0120
FF52
FF97
FECC
015D
FF03
FF29
FF8D
FEAD
FF1B
FF69
0109
0142
FF9F
020C
FF4C
FF03
FF74
FF4D
FF1C
0153
FF32
FF5F
FF3B
015B
FF24
FF7E
FF68
0012
FF5B
FF2C
FECA
011F
020C
FF3B
FF5E
FF4C
FFD0
FF12
FF1B
FF7B
FF58
FEC0
FF87
FF68
FF9D
FF65
FFB4
FF3A
FFA1
FFA3
FE6B
FF24
FF5F
FF04
FF55
FF1C
0029
FE65
018F
FE99
0042
FEC5
FEE2
FF49
FF71
FF3F
FE97
FF26
01D0
FF02
FED4
016D
FEE6
FF7B
FF05
FEBB
FF2A
FF1C
FF47
FFDB
0132
FF22
01C7
FEEB
FEB3
FF06
0123
FF04
FEA5
00B4
0069
FF2B
FFAB
FFC0
FF31
0046
FF45
FED9
FEE9
0060
FF00
FECC
00FF
FF47
FF01
FF82
FF56
FF50
FE65
01AB
FF4E
FF2F
011B
FF76
FF2E
008C
FEA3
FF69
0204
FF9C
01E7
00A5
FF63
FF52
017D
0157
FED4
FF1C
FF2E
0168
FF29
FEE4
FEDF
FF5A
0173
FF2D
0112
0095
004C
014B
FEE5
FF5A
FF20
FF64
FF5D
FF6A
FEB1
FE6E
0125
FEE9
FF1C
FF53
FEA2
FF4C
FF4C
FFEF
FF02
FFFD
0193
01A6
FED4
015D
FEFA
FFAB
FF3B
FEF5
FEF5
FF51
00E3
FF4E
FEAD
FF4F
0228
FEA3
FF32
FEEC
FF32
FF64
FF07
FFD8
FEE1
0019
FF49
FF50
FF27
FF09
01A1
FEB1
FF1C
FF49
018A
FF4A
01C5
FF40
FF3D
FED9
FF28
FF47
0159
FEB9
0125
FE80
FF59
FEEA
FE73
FF1D
FF89
FF61
0186
FEEB
FEED
01D3
FE88
FFD3
FED3
FF88
FF66
FF01
FEB5
00C3
FF51
FF02
FEFD
FECE
FEF7
0116
FE95
FEDB
FED8
FF03
00AB
FF45
FECB
FEB6
FE0B
FE4D
FECB
FE4F
0116
FF2A
0115
FF2F
FECA
FF44
FEC5
0192
01BF
FEE8
FF87
0123
00B5
FEDA
FF53
0160
FEFA
010D
FF31
FF4F
FEB9
01AE
FF0C
FFB9
FF29
FEFF
FF88
FF38
00FA
01A7
FF8D
021E
FF0F
FEFB
FEF3
FF1A
FED6
0195
FEBD
FFA5
FED2
016D
FF6A
FEFA
FF48
0018
FF5F
FF55
FF0C
01C3
0230
FF16
FF67
FFA7
FFD6
FF51
FEB8
FF60
FF50
FEE0
FF77
FF6D
FF44
FEF8
FF87
FF11
FF5F
FFB1
FE6D
FEBE
FF36
FEEE
FF1E
FF2F
FFFC
FE53
0174
FEDE
005A
FF3B
FF3A
FF7B
FF3F
FF78
FE85
FEDF
0258
FF4B
FE89
017C
FEFD
FF03
FF60
FEC1
FEBC
FEF5
FF60
000C
0178
FEC9
01E8
FF53
FEB0
FF30
00F8
FF64
FEBB
0043
003D
FF5C
FF11
FF80
FED1
00C0
FF49
FF42
FF15
FFA6
FF16
FF24
0125
FFBB
FF35
FF32
FF1C
FF7E
FE65
0183
FF3B
FF41
010D
FF05
FF12
00B9
FEC8
FF7E
02A2
FF5E
020C
00E9
FF75
FF52
0158
01C9
FF18
FF1E
FF0C
01A5
FE7A
FF4D
FED3
FF19
017E
FF79
014A
00BB
0025
00F6
FEF7
FEFF
FEFB
FF26
FF80
FEB1
FEFB
FE68
0108
FEDD
FF4F
FF22
FE81
FF2C
FFDA
0041
FECC
FFD4
017B
021F
FF0E
019D
FF4D
FF46
FECC
FEB8
FEF0
FF6F
013F
FF27
FED0
FF28
024E
FEE8
FF35
FF0C
FF47
FF1F
FF05
FF81
FEC4
FF3D
FEC8
FEB6
FE80
FE91
016D
FF3A
FF6E
FF23
023C
FF56
0225
FF49
FF22
FEC5
FF02
FEE8
01A5
FE99
01A5
FEB2
FF15
FF27
FE4F
FF4A
FF3C
FFBC
0161
FF4D
FF1F
021F
FE8B
FF4E
FEE9
FF8B
FF40
FEAE
FEF4
0107
FF2B
FF44
FEDC
FED2
FF1B
00EC
FF15
FF04
FEC7
FF3F
0065
FF7B
FEF8
FEE4
FE41
FEF4
FF02
FEBD
0169
FF3A
011A
FF6D
FF23
FF76
FF0B
0137
015F
FF0C
FF29
00AC
0120
FF59
FEE5
0149
FF7C
00C2
FF0D
FF97
FEA0
0175
FF5F
FF91
FF6B
FEA6
FF3C
FF4C
0117
0154
FF22
01E1
FF82
FF0E
FF27
FF34
FF22
018C
FF1B
FF7E
FEB3
0154
FF3D
FEFA
FF65
0056
FF3D
FF01
FEE4
0187
0227
FF29
FF49
FF40
FFD6
FF70
FEB0
FF87
FF34
FEE2
FF2C
FF3D
FF74
FF2B
FFA6
FF08
FFE1
FFE8
FED0
FEE2
FF11
FEE9
FF0D
FEF1
FFE5
FEA5
013A
FEE3
004C
FEE9
FED0
FF81
FF69
FF95
FE62
FF20
022F
FF22
FE84
014C
FF6A
FF30
FEE9
FEA6
FF0B
FF28
FEFC
0021
01EF
FF39
01AE
FEF0
FF0E
FF75
0105
FF3D
FE97
0082
0068
FF3D
FF09
FF24
FEB4
004E
FF24
FEFE
FEC7
00A3
FF02
FEFE
00C2
FF81
FEF2
FF55
FF76
FF58
FE71
014F
FEE2
FEFC
0139
FF54
FF22
0076
FEB6
FF7E
01E4
FF87
0219
008A
FF7B
FF0A
0110
016C
FF03
FF81
FF38
01BD
FED5
FF22
FF0E
FEF7
0124
FF4B
018D
0067
003A
0129
FF5C
FF18
FF0B
FF3B
FF51
FEEA
FF03
FE77
00DF
FED9
FF53
FEF6
FED2
FF66
FFB5
FF68
FF2D
FF63
011E
019D
FF25
01A6
FF23
FF31
FF79
FF40
FF37
FF0A
00E7
FF57
FEC0
FF35
0282
FF26
FEDC
FF12
FF3D
FF11
FF2D
FF73
FEF5
0019
FEC6
FF4D
FEBB
FED1
01AB
FEF4
FF06
FF3D
0207
FF53
01A5
FF4E
FF1D
FEEE
FEDA
FF2F
013A
FECC
0158
FE81
FF61
FF0B
FEA4
FF0E
FFB8
FF38
013F
FF02
FF2C
01DE
FEA9
FFC3
FEDE
FF92
FF71
FF20
FEBC
010C
FF3A
FF4C
FEB8
FE75
FECA
00FB
FF25
FECF
FEA6
FEE9
0066
FF00
FED0
FEF4
FE9B
FEA0
FF26
FEFD
00F4
FF64
00FA
FF20
FF60
FF08
FF04
017C
0122
FEDD
FF03
0154
00AD
FED5
FF43
016E
FF22
00F4
FF0A
FF3F
FE99
01C2
FF36
FF56
FF7C
FED5
FF5B
FF2D
00FC
01B1
FF8A
021A
FEF3
FF15
FF64
FF25
FF29
0153
FF0F
FF70
FF3E
012D
FF5C
FF19
FF03
005D
FF07
FEDA
FEF7
019B
0208
FF07
FF10
FF34
FFE7
FF10
FF1E
FF78
FF51
FEB9
FF42
FF68
FF36
FEC2
FF9A
FEC6
0027
0013
FE94
FECB
FED7
FEC4
FF48
FF30
FF80
FE55
01C4
FE8F
00D2
FEBA
FEF1
FF1F
FF41
FF8D
FE29
FF39
0203
FF36
FE6C
0131
FF03
FEF2
FF1A
FE85
FF2F
FEF5
FED0
007A
022F
FF10
0237
FF07
FF2E
FF15
0112
FF25
FE99
006F
0021
FF47
FEFA
FF92
FF0C
0007
FEEB
FEE9
FF11
001B
FF18
FF3C
012C
FF42
FF07
FF61
FF49
FF4E
FE83
01AD
FED4
FEEE
013C
FF5E
FF73
0080
FECB
FF2B
0243
FEDD
022F
00E2
FF47
FF56
00E7
018A
FF08
FF76
FEFE
01DA
FEC9
FF25
FF1B
FEEF
0146
FF56
0173
0024
0040
00EC
FF4D
FF4B
FEDA
FEEC
FF53
FF43
FEC0
FE6A
0110
FEB6
FF0B
FF6A
FECF
FF1D
FF72
FFBA
FEE1
FF79
0172
0235
FEF2
01C5
FF56
FF3B
FF14
FF25
FEA6
FF8D
0157
FF11
FEC6
FF64
026B
FF30
FF2C
FEE8
FECA
FF61
FED8
FFD4
FF39
FF9B
FEB2
FEDA
FEEE
FEDB
0207
FF3D
FEDE
FF6A
020B
FF0D
01CD
FEEF
FF86
FEA5
FF3A
FF29
0159
FF06
01AE
FE9B
FF64
FF30
FE48
FF82
FF8B
FF23
01C4
FEFD
FF2A
01F0
FEC9
FF02
FE76
FF26
FF69
FF27
FECE
0181
FEE3
FF22
FF2A
FE73
FEFD
0141
FEC5
FED8
FF32
FEF7
FFF8
FEFB
FEA3
FF34
FE38
FE5E
FF2F
FE97
0137
FF0A
006B
FF5E
FED2
FF63
FEC9
019F
0160
FED4
FF1E
0127
00C7
FF41
FF70
0152
FF0C
007A
FF6B
FF64
FEA6
020E
FF54
FF98
FEF2
FF49
FF4C
FEF2
0107
024B
FF6F
01D0
FF67
FEE9
FF6A
FEF0
FEC8
0168
FF0B
FEFD
FFCB
010F
FF3D
FF5F
FF61
002C
FED2
FF48
FF48
0162
01F8
FF56
FFB6
FF72
FFEE
FF41
FEAB
FF62
FF09
FEDA
FF84
FF0C
FF48
FF4D
FF9F
FF2F
FFE0
FFB8
FE86
FE81
FF28
FF3E
FF08
FEFF
FFD3
FEA0
01D5
FE9E
009B
FEEC
FEB3
FF5D
FEFC
FF43
FE0F
FF58
027F
FF53
FE75
0197
FEEA
FF41
FF10
FE98
FF1B
FEFF
FEFB
0035
021D
FF36
01FD
FEF0
FEF7
FF3E
012B
FF49
FE9C
0020
FFFC
FF4D
FF2F
FF8E
FECE
FFFB
FF18
FEE8
FECF
0027
FEE1
FF1D
011A
FF4C
FECC
FF99
FF47
FF89
FE96
01C2
FF32
FF3F
01E7
FF4B
FEEE
0074
FE9F
FF65
02B7
FF74
0244
00EA
FF09
FEE6
010B
01F1
FEF8
FF23
FF0A
0226
FE99
FEF5
FEB3
FF3D
019C
FF29
0208
FFCA
0005
009F
FEE9
FF0A
FEC7
FF09
FF4C
FF28
FF23
FE3A
0105
FE7E
FF89
FF11
FE9E
FEEE
FF56
FF8B
FF1E
FFD8
017B
025A
FEFA
0201
FF76
FF07
FF19
FEE7
FEA5
FEEC
0110
FF87
FF16
FF5C
0259
FEEE
FEA1
FED1
FF46
FF50
FE98
FF75
FEDC
FFA6
FEF7
FF0C
FED3
FE57
01CA
FF1F
FF07
FED0
0209
FEFA
01BB
FF2A
FF45
FF04
FEEF
FF13
0090
FED8
01C4
FE6F
FEE2
FEE7
FEDB
FF5F
FF81
FF89
0242
FF54
FF99
0223
FE4F
FF77
FE9B
FF05
FF49
FEC7
FEA9
0150
FF0E
FF05
FF00
FE85
FF22
01C9
FF1D
FEA9
FF2B
FEF0
00CA
FF14
FEBC
FEEF
FE4B
FE82
FF57
FE93
01C5
FEF5
010F
FF2B
FEC8
FF7D
FED3
01BD
00F5
FEE3
FEED
00F7
00D4
FF2C
FEEE
01AE
FF40
00CD
FF2A
FFA3
FEAA
027A
FF18
FF84
FEDC
FEFF
FF76
FEEE
00E7
02C9
FF8A
0231
FF18
FEBC
FF29
FEF1
FF37
01C9
FF14
FED6
FFFC
00DE
FEDF
FF79
FF26
FFF6
FF1D
FF31
FF67
0117
020D
FEE5
FF2F
FF1A
FFB6
FF3A
FEDC
FF31
FF04
FEAF
FF5E
FF04
FF1A
FECC
0015
FF4F
FF64
001B
FE36
FE92
FEC4
FEC7
FEE1
FED2
FFAF
FE5B
0253
FEAD
00A7
FEDD
FEBC
FEC5
FF05
FF29
FDE9
FF15
0216
FF52
FED2
0121
FEF0
FF84
FF04
FE81
FEF4
FEEA
FF52
0030
0293
FEDA
01EF
FEDE
FF20
FF2F
0102
FEDA
FF0D
FFFF
FFB6
FF04
FF53
FF4A
FEE7
004A
FEEC
FEE5
FED8
003C
FF14
FEF7
0163
FFC8
FEFE
FF2E
FF54
FF35
FE5E
019B
FED1
FF09
0236
FF4E
FF04
00BA
FF16
FF43
029D
FF27
0267
FFFD
FF5A
FF70
014A
01BD
FEE0
FEFC
FE9E
02A1
FF1A
FEDD
FF38
FF0C
011A
FEDF
0287
FFFB
000F
015C
FF0F
FF4B
FF34
FEB9
FF73
FF1E
FF29
FE9A
0133
FE93
FED8
FEE1
FE98
FF09
FF04
FF77
FEEA
FFDC
019A
0266
FF14
027F
FF72
FF46
FF68
FF07
FE96
FEF2
0100
FF14
FEC2
FF2F
0267
FEF4
FECB
FF49
FF2A
FF4C
FE7C
FF70
FF20
FFAF
FF0B
FED3
FE8D
FEA7
0285
FEF0
FF54
FEB0
01F5
FF0F
01CD
FF29
FF10
FEF9
FEC1
FF34
00E6
FEDD
0179
FEC7
FF58
FF37
FE7B
FF2E
FF41
FF43
0223
FEF6
FEE7
01BA
FEA5
0038
FE89
FF4A
FFA4
FE9B
FEEF
0136
FF46
FF2F
FEDA
FEAD
FEE3
01F3
FEB2
FF3E
FEED
FEC4
00AA
FF31
FE99
FF0C
FE4C
FE76
FF3C
FEE6
01F3
FED2
00A7
FF01
FEF8
FEF5
FED1
0255
0132
FF45
FF6F
0120
00E2
FEBB
FEFE
015B
FF64
00F1
FF51
FF38
FF26
0223
FEDE
FF79
FF24
FF3A
FEE3
FEFF
0132
028E
FF27
01FB
FF38
FF30
FEF2
FF8B
FEE7
0223
FF2F
FEF7
004E
013C
FF20
FF5D
FF5E
002C
FF1C
FF37
FF6A
0113
024D
FF8D
FF9D
FF39
FFBA
FF76
FEFA
FF79
FF76
FEB3
FF15
FF21
FF6F
FF0C
FF97
FED8
FFEF
004F
FE84
FF00
FF31
FEBD
FF4B
FF04
FF7B
FECE
0259
FEFC
00CD
FEC5
FF23
FF0E
FF29
FF05
FE11
FF64
0208
FF4F
FEC9
0109
FEA8
FF16
FF42
FE8F
FEF8
FF14
FF24
0079
0264
FEFD
0254
FF4C
FEFC
FFAB
0176
FF44
FEAC
0040
FF6F
FF12
FF78
FF9A
FED1
0057
FEFF
FF12
FF09
000C
FF0F
FEDF
016E
FFB3
FF3B
FF6B
FF7A
FF89
FE3F
018F
FF33
FF44
01F6
FF29
FEFF
005C
FEE5
FF42
021F
FEE9
024A
00AD
FF37
FEE3
012F
025E
FF0C
FF0F
FEB6
0276
FF29
FEEE
FF35
FF55
0165
FEBD
0201
FF67
FFF0
00DD
FF03
FF4C
FED9
FE98
FF59
FF3D
FF29
FE3C
0138
FEE3
FF26
FF1D
FF12
FF25
FF83
FF60
FEEE
FF45
01CB
0227
FEE7
0283
FF69
FF6D
FF58
FEB8
FEEF
FF03
0114
FF5F
FF56
FF5E
022E
FF3D
FEC5
FF4F
FF0D
FF2D
FEF0
FFDF
FEFB
FFF5
FF33
FF0F
FEB0
FE95
0279
FF00
FEDB
FE92
01DD
FF63
01A2
FF4D
FF5F
FF17
FEC3
FF16
0070
FECA
01A1
FEC6
FF50
FEF9
FEED
FEEA
FF10
FF15
029D
FF1F
FF9F
021E
FEF4
FF59
FEB3
FEE9
FEF4
FECD
FE87
01C1
FEE3
FF0A
FEBC
FE52
FEB9
0191
FEEF
FF03
FEE8
FE9A
007A
FEC1
FEE5
FF2D
FE82
FE9A
FEEA
FEBA
01F9
FF08
00EE
FEF0
FF7E
FEC4
FEC2
01E5
0134
FE93
FF79
0182
0077
FEBC
FF4A
01E6
FF3E
00D8
FECA
FF89
FEAE
022C
FF1C
FF47
FEEC
FF0A
FF02
FF16
00C5
02AD
FF17
024F
FECB
FEDC
FF24
FF26
FED3
0218
FF07
FF51
FFE3
00B1
FF20
FF2E
FF71
0055
FEB3
FEB4
FF61
017C
02B8
FF46
FF5B
FF17
FFC0
FEB2
FEF9
FF3E
FF48
FE9D
FECB
FF66
FF1A
FEDA
FF72
FE88
0061
FFAB
FE8B
FEDC
FEF1
FEE5
FEF4
FEA1
FF6F
FEA4
026B
FED9
0056
FE98
FE98
FF22
FEA5
FF19
FE2A
FF4B
0295
FF33
FEAB
01DB
FEC2
FF2E
FF6D
FE7E
FED3
FF2E
FEDA
0009
02B3
FF9F
02A3
FEC3
FECD
FF93
0125
FF08
FE6A
003A
FF8D
FF31
FF27
FF3A
FE58
009E
FEF6
FF5A
FE7C
FFFA
FF7A
FF24
0165
FFB2
FEC8
FF24
FEFA
FF25
FE4F
01E4
FF14
FF25
025C
FEBE
FF7B
0085
FE75
FED4
0300
FF41
0292
00C7
FF27
FF11
011C
0274
FEF9
FF25
FEAB
027F
FF0A
FFAE
FF50
FEE5
01C9
FF0F
02B7
FFFE
00A7
0137
FF2F
FF4C
FF34
FEE4
FF1A
FEF6
FEC2
FE76
0140
FE91
FF2B
FF15
FED2
FEF1
FF57
FF8B
FEA3
FF2B
01C6
02AD
FE7E
0293
FF6E
FF07
FF5F
FE87
FEBA
FEE9
0106
FF74
FEFA
FEE8
0233
FF68
FF0E
FF76
FEE3
FF16
FE69
FFEA
FED7
FF83
FEA9
FED8
FEF8
FE69
029F
FEC1
FEC1
FF3C
022B
FF5E
01D8
FEF0
FF45
FE6D
FEB8
FEBA
0126
FEBB
0207
FEB2
FF1D
FEF9
FE4D
FF42
FF5D
FF07
0253
FF25
FFA6
0262
FECE
FF41
FEAD
FF4B
FF54
FED4
FE97
0160
FED7
FEE1
FEAD
FEBD
FE95
01A2
FED3
FF37
FE7A
FF16
00A2
FF30
FECB
FEB7
FE6D
FE39
FEFA
FEA6
01D7
FF1E
0138
FF26
FE92
FF14
FED4
024E
00E5
FECA
FF38
00F0
00E1
FEBB
FF0B
012D
FF52
012C
FED9
FF9E
FF14
027B
FED1
FF47
FEE6
FEFF
FF54
FECC
0144
02CA
FF00
021B
FF66
FECF
FF20
FF10
FF39
023C
FED4
FEB9
002F
011B
FEC1
FF08
FF11
0018
FF24
FECF
FF48
012F
0271
FF1B
FF2C
FF68
FFB2
FF0B
FF20
FF5A
FF4F
FF01
FF56
FF4B
FF77
FE99
FFCF
FEFA
FFA3
002E
FE65
FE74
FECB
FF1B
FED0
FF27
FF7F
FE6E
0244
FEBE
0079
FEC5
FEDC
FECB
FED5
FF45
FDE5
FF21
0246
FF19
FEB0
0124
FE6D
FF0F
FEA9
FE7F
FE93
FF22
FF39
004D
02D8
FF13
021A
FEC6
FEE0
FEFA
0101
FF11
FE7E
0007
FFF8
FF4D
FF75
FF62
FF00
0041
FEDE
FECF
FE9E
FFEC
FF25
FF1A
014C
FF6F
FF25
FF63
FF19
FF18
FE57
017C
FEA3
FF18
0219
FF29
FF25
00EB
FEDA
FF2E
029A
FF52
01DB
0089
FF1A
FECD
00F3
01E5
FEEA
FF37
FF0E
02BE
FE87
FF81
FEFE
FF2E
0102
FF0B
0270
FFBF
0067
0119
FEE7
FF11
FEF5
FE5E
FF60
FE9E
FF07
FE0E
0143
FEB3
FF83
FF1B
FE5D
FF1A
FF07
FF3B
FEE3
FF65
01B2
0253
FF0E
022E
FF6F
FEE4
FF14
FE86
FE6C
FF39
0166
FF00
FF36
FF1E
026E
FF11
FEC8
FF32
FEC3
FEE8
FEDE
FFB4
FED7
FF5B
FEEE
FEFA
FEC2
FE61
0266
FF19
FEAC
FE9B
020A
FF2A
01CA
FECD
FF45
FEB6
FF34
FF14
0091
FF0D
01AF
FE78
FF3C
FEC0
FED0
FF0B
FF10
FF92
0278
FEC2
FF3C
01E2
FEA5
FFBA
FE5A
FF57
FF1D
FEA7
FE9A
01AA
FF0D
FEE2
FE92
FE8D
FED4
01B5
FF2E
FF08
FF07
FF1C
0089
FF35
FEF6
FEAC
FE7B
FE5E
FF18
FEC6
01C8
FEDF
0094
FF0D
FEF7
FF12
FE95
022F
0112
FEC5
FF80
011D
013F
FEF4
FF4A
0166
FF3A
0108
FF59
FF58
FEE6
024F
FEFA
FF73
FF3C
FF25
FEC9
FF3F
00FE
02CE
FF78
0228
FF4B
FEDC
FF0D
FF67
FF02
0235
FF12
FED1
FFEC
011F
FF00
FF4E
FF0D
0027
FEC5
FF32
FEBD
00FC
0227
FEDD
FF1E
FF67
FFCA
FF06
FF1B
FF62
FF09
FF16
FF5D
FF4B
FF1E
FEBB
FF5F
FE95
FFDA
0047
FEB4
FEA9
FEF9
FEC3
FEED
FF25
FFEA
FE75
0202
FE80
00AE
FEAA
FEF5
FF05
FF16
FF0E
FE35
FF45
0201
FF22
FE7E
0127
FE70
FF6C
FF37
FE8D
FEF6
FEF1
FECA
005D
02B0
FF5C
026C
FEA9
FEBE
FF36
012B
FF45
FE7A
FFCF
FF57
FEE1
FF56
FF6F
FE76
005E
FEFF
FF49
FEAE
001E
FED8
FF11
0158
FFA6
FEDD
FF94
FF54
FF3B
FE5B
017D
FEA9
FF33
0208
FF0E
FF0A
006C
FEFF
FF4F
0287
FF04
0215
00E6
FF28
FEDC
014B
0223
FEB6
FF1C
FEF2
0231
FF0F
FF6C
FF03
FF3E
00F7
FEE6
0231
FFB4
0023
00F3
FF06
FF0A
FECB
FE88
FF1A
FF39
FED4
FE79
00C9
FEE8
FF8A
FEE5
FE6C
FEB0
FF68
FF88
FF0A
FFAB
01F4
0292
FF32
01FA
FF74
FEF3
FF4E
FE87
FE5D
FF45
0159
FF22
FF51
FF0E
01EA
FED2
FEFB
FED3
FEB8
FEB8
FEA8
FF79
FF34
FF60
FF29
FEC5
FE86
FEAB
0265
FF28
FE93
FEFD
01AD
FF2E
0184
FF43
FF57
FEC2
FF3A
FF20
00AE
FF33
01B5
FECB
FF04
FE8E
FE58
FEEE
FF78
FF0F
0294
FED8
FFCA
01B7
FE36
FF7D
FE9A
FF11
FF17
FEB4
FE7A
01DB
FEC6
FF32
FECF
FE62
FED2
0184
FEE3
FF45
FE9D
FF31
0065
FF2C
FF2F
FEBC
FEA2
FE0A
FEDB
FEBF
01D7
FF40
00B6
FF61
FEB3
FEE4
FE82
0199
0170
FEDF
FF8E
00D4
0074
FED4
FEE6
0112
FEBF
0109
FECB
FF86
FECD
025A
FECB
FF7B
FF41
FF47
FF3E
FF3A
008E
0298
FF37
01FF
FF43
FF10
FF52
FF25
FF4D
01BD
FEED
FF1C
0020
00E8
FF0B
FED2
FEF0
FFF4
FEE7
FF3E
FF65
014E
02A7
FF3A
FF79
FF6A
0027
FF3D
FEF4
FEFE
FF2F
FF0B
FF31
FF02
FF48
FEC8
FF6B
FF0B
FFDB
FFDC
FE2C
FEEC
FEE9
FEEB
FED3
FEA9
FF91
FEB4
0201
FEC6
010C
FEF0
FEC2
FF1F
FF3B
FF21
FDE2
FF4A
022A
FF17
FE9D
016C
FE8A
FF1C
FF3E
FE1A
FE8B
FF00
FEBB
00C3
029F
FF7E
02A7
FEB9
FE97
FF42
00F5
FEDA
FECA
006A
0008
FF14
FF65
FF46
FF25
0033
FECD
FF49
FEF8
FFC5
FF23
FF5F
012B
FF75
FEB9
FF2C
FEE5
FF31
FE63
0192
FEE5
FF02
01C2
FF2B
FF10
0036
FF03
FEDF
024F
FF3C
0252
00C4
FF67
FF11
008F
0226
FED9
FF0B
FED1
026D
FF05
FF1D
FF37
FF28
0104
FECB
0219
FFC8
FFF7
00F3
FEB9
FF40
FF62
FF1D
FF33
FF11
FEF2
FE43
00FD
FEB5
FF34
FEF2
FEC1
FED7
FF70
FFD3
FEFB
FF5A
01B0
02A9
FEA3
0209
FF5D
FF3C
FF85
FEAD
FEA2
FEF2
0103
FF0E
FF4A
FEC8
0248
FF4A
FE85
FF4B
FF29
FEEA
FE8D
FF34
FF16
FF94
FF2B
FEBB
FEC3
FE7E
0297
FE97
FEAA
FF1B
0229
FEF3
01BF
FF4E
FF5D
FEEF
FEDA
FEDF
0100
FF1E
01EE
FE77
FF26
FEFC
FE88
FEF9
FF1D
FF7B
0228
FF48
FF9F
024C
FE80
FFFB
FE91
FEDE
FF07
FEE6
FEF2
0185
FEFF
FF32
FE9F
FEBA
FE5B
01A2
FEFD
FEE1
FE77
FEFF
003F
FEF6
FEF0
FE9F
FE39
FE4A
FE90
FEE8
0196
FEEC
009A
FF5B
FF27
FEC9
FEEC
01AC
00AB
FEE4
FF7C
00C0
0108
FE8B
FEC3
00F2
FEEF
0107
FF05
FFA8
FE92
0223
FEAC
FF24
FEE7
FEF4
FF11
FE94
00F0
025A
FEF7
01B0
FF2C
FE40
FF1D
FF29
FEE6
0204
FF22
FF37
FFBD
00DF
FEEC
FF11
FF72
0030
FEB7
FF28
FECB
0103
0232
FEFA
FF60
FF15
FFDC
FEED
FF1A
FF2C
FF07
FE76
FEDF
FF80
FF1F
FEE4
FFA4
FEA5
FFE4
007B
FE40
FE73
FF0E
FEC7
FEC3
FEA0
FF6B
FE66
01D2
FE9B
00DD
FEEA
FED1
FEE0
FF2D
FF2B
FE3C
FEEF
020A
FF6C
FE4E
00F6
FED6
FEF5
FF22
FE8A
FEA3
FEEC
FEFB
004B
0294
FEEF
0246
FEC8
FED7
FF2C
0122
FEFC
FEA4
002C
FFB3
FF55
FF07
FF24
FEBB
0028
FF1C
FF5B
FF17
FFF1
FED0
FF42
0128
FF12
FE88
FF08
FF08
FF8A
FE27
01A8
FE9D
FF49
021A
FEC6
FF18
00D1
FEC1
FF48
0276
FF43
0201
00E8
FF0D
FF0F
0141
01EB
FED0
FF23
FEC0
0200
FEE3
FF72
FEE5
FF42
011C
FEAB
0210
FFCB
0057
012C
FEDE
FF0C
FED9
FEC7
FFA0
FF38
FEC4
FE60
012C
FEE2
FF66
FF5B
FE81
FEE2
FF39
FF4D
FECE
FFAE
017C
021C
FEDF
0216
FF35
FEE8
FF54
FED1
FEA5
FF77
00E3
FF2C
FEB6
FF06
0245
FF27
FE97
FF2C
FF12
FEA6
FEDB
0008
FEB9
FF88
FE8F
FEF7
FEDA
FE2D
0250
FEC1
FF1B
FF0E
0191
FF1F
01C5
FEEF
FF66
FEC3
FE87
FF06
016D
FEA7
0137
FE77
FEBC
FE73
FE9F
FEEB
FEEE
FF6A
0249
FEFB
FFA0
01D1
FEB0
FF27
FE84
FF36
FF3C
FEC9
FF1B
016F
FF20
FEE8
FF1E
FEA9
FF3C
0134
FEC4
FEE7
FF33
FF44
0016
FEFA
FF2D
FECC
FE7B
FE45
FED5
FF06
0146
FEEF
00BB
FF8B
FEC4
FEFA
FF39
01C0
00B1
FF2B
FF79
0006
00DE
FF55
FF45
00FE
FECC
00FF
FF11
FFB9
FEBE
01FF
FEE7
FF69
FF41
FF61
FEEE
FF02
00F8
020C
FEF4
0144
FF1D
FE9D
FF01
FF72
FEFC
01FF
FF11
FEA3
0042
00EA
FF35
FF2E
FF70
0011
FEED
FF72
FEEF
00C2
01C7
FF21
FF7F
FFA1
FFE3
FED0
FF25
FF6C
FEEC
FEBC
FF3C
FF1A
FF07
FF34
FFE2
FF00
FFDD
0060
FE82
FF14
FF0F
FED4
FEFB
FEDC
FFAA
FE83
01E3
FEB5
00CF
FF23
FF39
FF0B
FECE
FF69
FE18
FF82
01CD
FF2A
FEFF
00AE
FF04
FF6A
FF04
FE70
FF49
FF21
FF2B
007A
024C
FF7D
01AA
FF5F
FEFC
FF7C
00BC
FF36
FEC8
FFEA
FF0E
FF1D
FF3C
FF6B
FEEF
FFC9
FEFE
FF39
FEB1
0047
FF4E
FF2E
00E2
FF68
FF03
FFA8
FF63
FF9C
FE59
00F6
FF25
FF5B
01A4
FF35
FF3A
00EA
FECB
FECA
01EB
FF3C
0154
0087
FF66
FF23
00CA
01F9
FF14
FF49
FF45
0233
FEE3
FF75
FF63
FEF1
00C2
FEB9
01D6
FF60
005F
0085
FF25
FF13
FF2A
FE94
FF56
FEDB
FF43
FE38
0099
FEE4
FF13
FF1C
FECF
FF08
FF2C
FF6B
FF04
FF6B
0117
01D8
FF59
0193
FF77
FF00
FF67
FF35
FEA4
FEFF
00CE
FF3D
FF45
FF87
01CE
FEFE
FEF4
FF0B
FF32
FF2A
FEDB
FF64
FEE3
FF52
FEF3
FED1
FEB0
FE89
027B
FEFF
FF39
FE82
012C
FF2B
0193
FF62
FEF7
FED6
FF3A
FEF6
00A2
FEDA
011E
FE54
FF3B
FF16
FE76
FF3C
FF1A
FFA7
0272
FF61
FFB1
017D
FF09
FF8D
FE9A
FEE3
FF73
FED0
FECE
FF7E
FF69
FEF2
FEAB
FF24
FF6A
0147
FF36
FEE6
FECF
FEE3
011B
FF50
FED8
FF2B
FED0
FE8C
FF75
FEB7
00E0
FEE6
0162
FEFD
FF68
FF49
0002
011F
0085
FF20
FF40
007F
00F1
FEE1
FF09
01DA
FF1D
0156
FF0D
FF59
FEFC
0166
FF30
FF16
FF13
FEC6
FF4F
FEE7
016D
012F
FF09
0185
FF83
FF08
FF1D
FEF4
FF6C
00F2
FF18
FF16
FF39
0159
FF1A
FF2A
FEFE
FFE4
FF5B
FF31
FEC0
00BE
0103
FEBB
FEEB
FF64
0007
FEEE
FEC4
FF19
FF05
FED9
FF96
FF8E
FF32
FF4A
0038
FF8C
FFF4
001D
FE9D
FECB
FF76
FF24
FF5A
FEF3
FFE7
FE7D
0184
FECA
0003
FF32
FF47
FF06
FF51
FFD0
FF21
0018
0186
FF8A
FEB9
00C9
FF33
FF3E
FF1E
FECB
FEFC
FF21
FF82
001A
0153
FE94
0119
FF5F
FF2C
FEA3
0152
FF73
FEF4
0087
001A
FF91
FF1F
FF8A
FF47
00CA
FF02
FEE8
FF19
0077
FEE0
FF46
0195
FFC2
FF16
FF44
FF9A
FF4A
FEBC
00E3
FF18
FF19
013F
FF3E
FF19
00EA
FF50
FF1C
0126
FEFF
011A
FF89
FFA9
FF79
01CC
00DC
FF17
FF15
FF0A
0135
FEF5
FF47
FEAB
FF6E
011B
FF2F
0169
00AE
FFB4
0164
FEF6
FF70
FF49
FEEB
FF25
FF46
FF32
FF0B
0129
FEFE
FEF6
FF67
FF47
FF2D
FF5A
FF64
FEC4
FFF8
01C8
0100
FF49
0114
FEF3
FF1F
FF55
FEFA
FF21
FF62
0121
FF95
FEF6
FF6E
0202
FEC3
FF36
FEFC
FEF1
FF4C
FF11
FFB9
FF03
0032
FF47
FECB
FEFF
FF2D
010A
FF2C
FF1A
FEF2
0116
FF56
0150
FF7B
FF64
FEFD
FF30
FF02
011D
FF40
00A6
FF1F
FF21
FF0E
FF15
FF8D
FF95
FF42
0126
FF0E
FEF2
00EB
FEC8
0015
FEC4
FF67
FF8D
FF06
FF31
FFC9
FEDF
FEFD
FEF2
FEE6
FF48
013D
FF0C
FF1F
FF33
FF35
00E6
FF14
FEDE
FF4D
FEA4
FE8E
FF07
FEFA
015E
FF4E
0162
FF52
FF15
FF77
FF99
00A0
00B2
FF03
FF48
011B
01A1
FF3A
FF50
017F
FF26
0127
FF4D
FF2F
FEB9
016A
FEFC
FF71
FF6D
FEE0
FF06
FF5C
019D
0140
FF10
01BD
FF43
FEE2
FEE1
FF5D
FF21
00F7
FF0C
FF83
FF00
0170
FF60
FF65
FF58
0042
FF62
FEFD
FE86
0147
016D
FEC6
FF8D
FFA2
FF96
FF55
FEB4
FF55
FF0F
FF05
FF49
FF55
FF38
FEEE
0033
FFEF
0068
FFDA
FF12
FEBD
FEE6
FEE0
FEFE
FF07
000A
FEA4
0169
FEC0
FF29
FF32
FEF1
FF4E
FF35
FFD0
FEE3
FFE8
01C1
FF37
FE88
0137
FF52
FF35
FEFD
FE69
FF1A
FF70
FF21
FF2B
012C
FECE
00D1
FEF0
FEF6
FEFB
01D4
FF0F
FF1A
0037
0078
FF59
FF41
FF85
FEED
013F
FF49
FE99
FEE5
00C4
FECE
FF5E
01C8
0088
FF51
FFA0
FF27
FF2A
FE8F
00DC
FED8
FF51
016F
FED7
FF60
017E
FEB3
FEEC
0168
FF36
0127
0067
FF9E
FF51
01F0
00DD
FF52
FF5A
FF06
0115
FF29
FED6
FEB6
FF0A
0109
FF5F
014B
010E
0049
014A
FF15
FEEE
FEF1
FF70
FF95
FF06
FEDE
FEAE
0164
FF20
FF43
FF22
FF01
FF43
FF4E
FFCF
FF2E
FFF9
01B3
0178
FF0A
0158
FED4
FF18
FF60
FF0B
FF2D
FF49
0130
FF08
FF1A
FF29
0206
FF26
FF17
FEA4
FEFC
FF98
FED4
FFFB
FEED
0002
FF12
FEC6
FEF2
FE6E
00F8
FF50
FF41
FF16
0173
FF71
016E
FF64
FF1A
FE77
FF65
FF05
017E
FF05
00DB
FF15
FF4D
FF3B
FE7F
FEDE
FF4C
FF73
0104
FF3A
FF68
0125
FEFF
FF1D
FE91
FF57
FF5D
FED1
FF06
FF6D
FEF2
FF55
FEE3
FECD
FF18
00F5
FEB4
FF05
FF38
FF5F
00F7
FF5F
FEDE
FF42
FEC8
FEC8
FF73
FEA0
00B7
FF71
0113
FEF0
FF4D
FF2D
FFA7
007E
00EE
FF1B
FF6B
00DB
0185
FF06
FF8B
01A9
FF6C
0144
FF14
FF48
FF3B
012B
FF49
FF3C
FF35
FF3C
FF37
FF61
016E
00E9
FFBA
0128
FF40
FEE0
FF48
FEF1
FF0B
00F7
FF6C
FF32
FF19
014F
FF58
FF07
FF12
FFC6
FF23
FF11
FEDA
0148
013C
FE80
FF82
FF84
FFA2
FF27
FF14
FF65
FF3B
FF14
FF33
FF6A
FF42
FF36
0013
FF91
001E
FFA2
FEB0
FF36
FF23
FF05
FF7D
FF56
0057
FE80
00F8
FEAC
FFA3
FF4F
FEE4
FF11
FF34
FF8F
FEED
003C
0197
FF18
FEB5
00CB
FF4A
FF40
FEE5
FED5
FF0D
FF32
FF52
FFC2
0126
FEEF
009B
FF53
FEFC
FEFC
0136
FF0E
FF32
001F
006D
FF2B
FF29
FF5A
FEFD
00BF
FF54
FEBF
FEE2
00CE
FED0
FF89
0195
0002
FED3
FF37
FF90
FFA4
FECB
0067
FF5F
FF7E
00F5
FEF6
FF44
010A
FF4B
FF7B
0113
FF5D
0104
FFE3
FF5A
FF82
01A7
008D
FED8
FF34
FF42
00C0
FEE9
FED8
FF2E
FF6F
00E6
FF2B
00E7
00E1
FFF4
0143
FEEB
FF3B
FEED
FF0C
FF26
FF67
FF2A
FF06
0142
FEB8
FF5A
FF2C
FF07
FF62
FF91
FFC7
FEE8
FFDD
0172
00F8
FEE6
0122
FF45
FF3F
FF80
FEFB
FEF8
FFA9
014E
FF75
FEC7
FF3A
01C2
FE91
FEC7
FEAC
FF36
FF9A
FEC9
FF85
FEFA
0028
FF27
FF2E
FED4
FED9
00DE
FF42
FF2F
FF59
0172
FF71
016F
FF4C
FF49
FEB9
FED8
FF01
0112
FEE4
009F
FF18
FF6D
FEBD
FF19
FF66
FF4B
FF34
0098
FEF2
FF12
010F
FF22
FFD8
FEB6
FF68
FFA6
FF28
FF35
FF03
FF8B
FF11
FEF4
FEFF
FF2C
00FE
FF39
FECD
FF34
FF10
0161
FF35
FECC
FF17
FEB5
FEBD
FF35
FECB
00D4
FF11
013E
FF14
FF69
FF88
FF94
0077
00C4
FEFC
FED7
00B8
015F
FF15
FF87
0198
FF28
01C3
FF5D
FF27
FEDB
011F
FF57
FFB3
FF4A
FEC0
FF3D
FF2B
0158
0092
FF40
00E0
FF44
FF2E
FF4D
FF4D
FF14
00F2
FF47
FEFC
FF07
0193
FF95
FF82
FF35
0027
FF12
FF34
FF00
00CB
00E3
FF10
FF5F
FFDE
FF8C
FF36
FF0D
FF92
FF5A
FF47
FF86
FFA4
FF98
FEF7
FFCF
FF86
0019
FFB8
FEF1
FED2
FF27
FF65
FF90
FF3A
0085
FEFC
0130
FF1F
FF89
FF31
FF35
FF64
FF39
FFB0
FE8B
FFC4
0173
FF55
FEE9
0078
FF80
FF0E
FEBA
FF22
FF55
FF54
FF24
FF54
012C
FF2E
006C
FF07
FF52
FEEF
01BB
FF73
FEF8
0067
0070
FF28
FF8E
FF99
FF01
0116
FF68
FF21
FF26
00B2
FF2D
FF68
01A1
FFE8
FF79
FF5E
FF4A
FFB2
FEC4
00BF
FF58
FF7B
011A
FEF5
FF26
0102
FEEF
FF52
0126
FF90
011E
FFE7
FFAF
FF3C
01A8
0065
FF56
FF04
FF39
010F
FF31
FEC8
FE98
FF9A
010D
FEF5
00EF
00C9
FFF9
0185
FF10
FF49
FF5F
FECB
FF64
FF10
FF0C
FEDE
017F
FF4B
FF8D
FF6C
FEE3
FF58
FF57
FF00
FF86
FFDC
01D4
00EF
FF17
00E2
FF48
FEF1
FFC1
FECB
FF5C
FFB1
0134
FF40
FF39
FF3B
015B
FF46
FEFF
FED9
FF20
FF22
FF69
FFE4
FF64
006B
FF7E
FEE5
FF61
FEC7
0095
FF30
FF21
FEDD
010E
FF12
013E
FFB4
FF59
FECE
FF96
FF11
00C7
FF70
0061
FEE1
FF15
FF4B
FEA3
FF75
FF74
FF97
00AF
FF98
FFCF
00CB
FED6
FFE6
FF1C
FF9C
FF5A
FEFD
FF20
FE8E
FF3B
FF25
FEA9
FE96
FF7E
014C
FED0
FF1A
FF73
FF0D
0102
FF8E
FF42
FEE7
FE6A
FEAE
FF4B
FEB6
0125
FF57
01A1
FF66
FF21
FF4B
FF5F
005E
012D
FF68
FF64
00E4
0159
FF67
FF10
01C5
FF45
0195
FF1D
FF15
FF1D
011B
FF5E
FF16
FFA0
FEE8
FF28
FF58
019A
0080
FF3F
0172
FF52
FF4E
FF17
FF8F
FF20
00D9
FF5C
FF4A
FF56
0185
FF01
FF4F
FF28
FFE4
FF1F
FF55
FEC6
00CC
0110
FEF5
FF8A
FFAD
FF9B
FF17
FEFB
FFA9
FF83
FEF3
FF1F
FFB3
FF28
FF56
FFEC
FFDC
0072
FF3A
FF1E
FF09
FF65
FF57
FF49
FF50
0056
FED7
0114
FECA
FF53
FF10
FF48
FF92
FF6E
001C
FEBD
FFD7
0149
FF2C
FF05
00B5
FF9D
FF8F
FEC3
FE9F
FF5E
FF68
FF27
FF7C
00A1
FEAB
0095
FF4C
FF35
FF42
016D
FF33
FF0A
FFEC
00B2
FF59
FF4A
FF82
FF4A
010B
FF91
FEE2
FECF
010D
FEA8
FF99
015A
0009
FF6B
FF5A
FF94
FF3B
FEC9
0026
FF1F
FF63
0117
FF65
FF32
0106
FEDA
FF81
0126
FF79
011B
FF6A
FFBE
FF3E
01D7
00BF
FF5F
FF6C
FF74
005E
FF38
FEFA
FEC3
FF0F
011A
FEEE
0167
0121
00A2
0137
FF55
FF78
FF0B
FF15
FF03
FF52
FED0
FE83
01B4
FEE6
FF3C
FF72
FF1F
FF2E
FF89
FFD2
FF33
FFD9
01B4
0116
FF3E
00D3
FEE4
FEF8
FF5A
FF48
FEEC
FF3C
01BA
FF37
FEDF
FF0E
016A
FF05
FF47
FEB9
FF50
FF99
FF6C
FF9C
FF28
001A
FF61
FF54
FEE2
FF06
009F
FF3F
FF69
FF4D
0104
FF05
013A
FF65
FF2C
FEED
FF3D
FEF7
00E9
FF78
FFBE
FEEB
FF5E
FF2E
FEE6
FF52
FF64
FF9E
005B
FF0D
FF1C
0097
FF0C
FFDE
FECE
FF8F
FF8A
FF18
FECE
FED4
FF61
FED3
FE94
FEC2
FF44
017E
FE9C
FEC7
FF3C
FEB1
01BA
FEF8
FEA0
FF2A
FE9E
FE9A
FED8
FEDE
0114
FEA5
019E
FED5
FED6
FEE9
FF78
0028
011B
FEEB
FEEA
00C8
01D7
FF1A
FF41
0201
FF35
01C4
FF57
FF4A
FF1F
0148
FF16
FEFA
FF4F
FED9
FEB3
FF0A
019E
00A7
FFA5
011A
FF4A
FF24
FEF9
FF1F
FEBC
0158
FF01
FF65
FF23
020C
FEE5
FEEA
FED2
0036
FF02
FF31
FEFE
00E9
0111
FEE3
FF63
FF85
FF25
FED7
FEB9
FF19
FF27
FF17
FF19
FF08
FF2F
FEF9
FFDD
FFF8
FFC7
FF29
FF1C
FEAD
FED5
FEF0
FF47
FEB2
0023
FEA6
0169
FED1
FF22
FEB5
FF14
FF3F
FECD
008E
FEC5
FFDC
0132
FF2D
FEC1
00F3
FF85
FF3E
FEF8
FE5A
FF0E
FF2C
FF27
FF3A
00A4
FEB9
0027
FF44
FF39
FEB5
0230
FF46
FE72
FFB2
012C
FF20
FF49
FF1D
FF33
0184
FF0D
FE9C
FED7
007E
FE9D
FF26
020F
0039
FF21
FF41
FF4C
FF36
FEB1
0041
FEB9
FF14
012A
FEE4
FEDA
012E
FEEA
FED5
0165
FF1B
012C
FF8F
FF02
FEAB
0221
005B
FF5B
FED6
FEC4
005E
FEC1
FF04
FEEA
FF33
0100
FF7B
0174
018F
0061
016E
FF06
FF45
FEC5
FFB8
FF4A
FED3
FEB4
FECD
01AF
FEEA
FF3D
FF1E
FED2
FEDF
FEEF
FFE2
FEAD
0016
01E5
0135
FEA8
00E7
FEDB
FF43
FF09
FED6
FE91
FF69
0190
FF69
FE92
FF3D
0164
FE9E
FE9A
FEC1
FEF6
FF7A
FF22
FF52
FEDB
FFF9
FF0B
FF0C
FE96
FED2
00AB
FF05
FF26
FF87
0153
FEE4
014F
FF68
FF44
FEB4
FF3B
FE9A
0183
FEFE
FFF5
FEA9
FF51
FF02
FEC2
FF0E
FF7F
FF5C
0074
FEB1
FF2E
00C6
FE4E
FF0F
FE81
FF59
FF35
FEF0
FEA9
FE5D
FF1D
FEFD
FE95
FEC2
FF02
00E3
FEFC
FED5
FED9
FF5A
0178
FF75
FEFF
FEB6
FE5F
FE9F
FF13
FF14
00F8
FF21
016A
FF6D
FF5B
FF30
FFF3
FFEE
00E7
FEE9
FEFD
0100
01E7
FECF
FF57
01E7
FF5E
0190
FF52
FF67
FEE4
00E6
FEF4
FF5D
FF1B
FF4F
FF56
FF1C
01AE
007B
FFB0
00C8
FF94
FF17
FED8
FEED
FF49
0111
FEE5
FF14
FEB4
01DA
FF80
FF50
FF06
0014
FF0B
FF63
FEBD
00FB
007B
FEC1
FF65
FFAC
001E
FF02
FEAB
FF35
FFAA
FF0A
FF26
FF90
FF5C
FF3A
0047
0003
FFF9
FF69
FE95
FEA4
FF20
FF02
FEE7
FEEA
FFEB
FEC3
0125
FE9A
FFCB
FED1
FED4
FF1C
FF61
0062
FEC4
FFB1
014C
FF0F
FEB0
007A
FFB7
FF6B
FE82
FED5
FEDF
FF1C
FF54
FF39
008C
FEF6
0003
FEC9
FF2B
FF18
01E5
FF24
FE9A
0012
0122
FF21
FF36
FF98
FEA9
012F
FF56
FEF4
FEF5
0140
FEE3
FF0B
01E5
FF9B
FF50
FF90
FF65
FF2B
FE91
003F
FED6
FF79
0144
FF0D
FF87
01A2
FF3B
FF2F
00DA
FF9E
00AD
FF6E
FF30
FF03
020F
0005
FEB5
FF32
FF19
0069
FEA4
FF19
FEF2
FF29
0133
FF3C
0113
00D9
0009
01BF
FF4E
FF78
FF00
FF31
FF1C
FEF2
FF4F
FE78
0198
FEC6
FEF3
FF5F
FEDA
FECE
FF8E
FF2C
FEDE
FFC6
018D
0076
FF34
00AB
FED7
FF4B
FF19
FF33
FF2E
FF57
01DD
FF56
FF1E
FF2E
0100
FEC2
FEBE
FE63
FED0
FF40
FEE8
FF63
FEF9
0097
FF60
FEAF
FEEC
FEC7
0092
FEC9
FF2B
FF1F
0126
FF0E
0149
FF79
FF9C
FEBC
FF46
FF39
010F
FEC4
FF71
FEFD
FF40
FF28
FEBA
FF3A
FF9E
FF8B
FFD3
FF10
FF6B
00E8
FEEA
0038
FEC8
FF49
FF6A
FF41
FEBD
FEE7
FEDC
FF44
FEE8
FEF5
FEFC
00F4
FEFB
FF00
FEDF
FF58
0193
FF77
FEF5
FEFB
FE5D
FEE8
FF22
FEF1
00B9
FF60
0178
FF28
FEC4
FF2B
FF89
0001
00BD
FF0D
FEDE
00A2
01C5
FEC6
FF41
01C0
FF69
017E
FEEB
FF28
FF17
0124
FF14
FF2E
FF6B
FEAD
FF79
FF5D
01FA
007E
FFAD
0114
FF50
FF03
FF11
FF8F
FF3D
0130
FF09
FF27
FEA2
0177
FF6B
FF1F
FEFA
0013
FF60
FF0D
FE91
011B
0091
FED1
FF9D
FFC8
FFB5
FF91
FEDF
FFD3
FF40
FEF6
FF97
FF1A
FF60
FEF9
FFEA
FFBE
FFEA
FF6A
FED7
FF03
FF5B
FF4E
FF6F
FEFD
FFF9
FE7B
0170
FE7E
FFA8
FF51
FEBF
FF1C
FF42
001E
FED9
FFCB
016A
FF29
FE77
007C
FFCA
FF32
FEFC
FE79
FEE3
FF75
FEE2
FF4F
008E
FEA1
002A
FF5D
FF2E
FEB6
01AA
FED8
FEE0
000C
00AC
FF5D
FF21
FFCB
FED8
00D1
FF7F
FF17
FEAE
017C
FE95
FEE8
01E5
FF87
FEE3
FFB9
FF34
FF28
FEA6
FFCF
FF22
FF98
0113
FEF9
FEEE
01B5
FF2F
FEFE
00B1
FF83
0097
FFC8
FF40
FF7A
01D3
000B
FF02
FF6F
FEE7
0083
FED5
FED1
FE97
FF2D
0122
FEF1
0106
0056
FF58
0177
FF02
FEFD
FECB
FF34
FF84
FEDA
FF1C
FEBD
020E
FF09
FF12
FEF9
FEF7
FED4
FFB8
FF91
FF74
0024
019E
00CF
FF22
00B1
FF1C
FF75
FF08
FF2B
FEFC
FF6F
017D
FF6C
FF49
FF03
0127
FEE9
FF46
FEC5
FF3A
FF8B
FEFE
FFCF
FEFE
00AA
FEDF
FF36
FF04
FEE9
006E
FED9
FEF6
FF1C
009D
FF74
010D
FF62
FF86
FEC4
FF0C
FF45
00B7
FED2
FF7A
FEAC
FF82
FF35
FEFA
FF91
FF50
FFAE
FFF5
FF54
FF2B
00A7
FECA
002A
FEDA
FF38
FF4E
FEDB
FEA5
FF4D
FF0A
FEF5
FE9C
FEAC
FF0D
0155
FF40
FF0A
FED7
FED6
011A
FF3D
FEDC
FEF6
FE62
FEA5
FF01
FED2
00CE
FF62
0175
FF7D
FF31
FF2F
FFA9
0038
0171
FF2A
FF2B
0137
0147
FEAF
FF11
01BF
FF6A
015C
FF54
FF4F
FF0C
010D
FF2C
FF26
FF89
FED4
FF05
FF26
017D
00A5
FF92
0161
FF5E
FED5
FEE1
FEFF
FEDA
010E
FF18
FF4D
FF26
016D
FEEE
FF5D
FF6C
FFE4
FF44
FF0A
FEBE
0131
0162
FEBE
FF77
FF6A
FFA8
FF27
FEE6
FFA9
FF46
FF18
FF1C
FF3E
FF6D
FF1E
002E
FFA1
0031
FF2C
FECA
FECB
FEFC
FF27
FF0B
FF3D
0046
FE4A
00FD
FEEA
FF11
FF05
FEC4
FFAF
FF34
FFC4
FE9F
FFED
0173
FF1E
FEA6
011C
FF2D
FF75
FEA1
FEA2
FF0B
FEE6
FED1
FF41
00B2
FEBA
0053
FF31
FEDF
FF5A
01D8
FEE2
FF07
FFFC
014B
FF58
FF84
FF79
FF25
0192
FF5F
FF28
FEED
0166
FEE9
FF3B
01D3
FFE4
FF14
FF36
FF66
FF2B
FEE2
00DC
FF1B
FF4A
00B7
FF01
FF2E
0136
FEB8
FF15
0142
FF6E
01A1
FF8B
FF30
FF0B
01C7
00CE
FEF2
FF18
FF38
0045
FF0B
FF49
FF0C
FEF1
0152
FF8D
00E8
0189
0092
01B4
FF43
FF39
FED0
FFD9
FF91
FEE4
FECD
FED1
01A1
FEAA
FF2D
FF49
FE98
FF48
FF81
0025
FF23
0055
01CC
00FB
FEAD
0032
FF49
FF4C
FF14
FF1F
FEED
FF6C
01C1
FF61
FF52
FF20
01D2
FEDA
FEDB
FF0C
FEBE
FFB4
FF13
FF65
FF18
0078
FF1C
FEB0
FEE8
FED0
0062
FF27
FF70
FFAC
0167
FF40
018E
FF51
FF43
FE9D
FF4B
FECD
010A
FF38
003D
FEB0
FF85
FF0B
FEF6
FF30
FF5B
FF28
0036
FEE0
FF8A
0170
FEF8
FFC6
FED0
FF39
FF33
FF44
FEB3
FF2E
FECD
FF46
FEAF
FEB5
FEDB
0156
FF1C
FEFA
FEE3
FF36
0177
FF03
FEBC
FE96
FE3A
FE7E
FF2A
FEA8
00BD
FF6D
0188
FF59
FF39
FF4A
FFE7
FFA8
00D0
FF23
FF24
0126
0148
FED1
FF4B
01C6
FF36
019A
FF66
FF8F
FF1C
0100
FF5B
FF78
FF60
FF32
FF20
FF38
015F
0072
FF53
01B8
FF4C
FE73
FF39
FF57
FEB5
00E4
FEB1
FF7A
FECD
01EB
FF18
FEE8
FF31
FFDB
FEE9
FF57
FEF4
017E
0133
FEC5
FF63
FF67
0008
FF5F
FF15
FF4B
FF6E
FEE8
FF37
FF10
FF39
FEFC
0056
FFEA
0027
FEF9
FEB5
FED7
FF3B
FEF9
FF02
FF1D
FFF0
FE8D
0113
FEDD
FF3C
FF39
FED9
FFD5
FF79
FFD8
FEC0
FFD4
01BC
FEEE
FEC8
012D
FF6B
FF1A
FEF5
FEAC
FF2B
FEFA
FF14
FFAA
00CD
FEA2
0028
FEA9
FF32
FF19
01DD
FF16
FEF5
000F
0153
FF31
FF93
FF8A
FE83
0116
FF1E
FF09
FE96
0155
FF01
FF1E
01CC
FFFE
FEC8
FF27
FF64
FF94
FEC1
0076
FF59
FF0F
00C4
FF14
FF67
012A
FECD
FF29
00EF
FF81
00F0
FF72
FFA5
FF46
01AC
009B
FED5
FEE7
FEE5
0097
FF02
FF28
FEC9
FF16
0133
FF38
011A
010C
FFF6
0199
FF38
FF1D
FEFC
FFB2
FF9A
FF3A
FEE9
FE46
01E9
FE90
FF0D
FF1B
FECF
FEBE
FF26
FFE7
FEF7
001B
0192
00CB
FF10
0078
FF14
FEF7
FED6
FEAA
FE9A
FF23
0145
FF0C
FF08
FF63
016B
FECF
FED4
FEDA
FEE7
FF8C
FF33
FFC6
FEE4
00DC
FF26
FED1
FE9C
FED3
0093
FF2D
FF62
FF1E
013A
FF02
0180
FF74
FF79
FECB
FF74
FEEB
0120
FE94
0006
FEFF
FF1E
FEAB
FEEF
FF5C
FF67
FF3B
000B
FF08
FF5A
00F9
FEBF
FFDE
FE7D
FF60
FF38
FF0F
FEFD
FE9E
FF42
FF77
FF27
FEA4
FEB2
0124
FEF2
FF3F
FF09
FF07
01F2
FF40
FF6B
FF25
FEAC
FE4F
FF65
FE81
008C
FEDD
0214
FF13
FF2A
FF1C
FF7F
FF7D
00C9
FF3E
FF22
FFE7
0224
FEDE
FF2F
01D4
FF21
020B
FF61
FF56
FF5E
00E7
FF46
FF42
FF32
FF6B
FF12
FEE7
01AB
0011
FF52
0062
FF5B
FECF
FF38
FF2D
FF18
0095
FEE4
FEFC
FF03
01E2
FF4C
FF14
FF68
001A
FF46
FF55
FEDA
007B
0071
FEE8
FF4A
FF4E
0006
FF54
FF74
FF62
FF3A
FEAC
FF10
FF55
FF88
FF07
002F
FFD6
001B
FEDB
FEDA
FE95
FEDD
FEEA
FF31
FF46
0065
FEA6
012F
FEEF
FFC6
FF1D
FEFD
FF61
FF2D
001C
FEA6
FFE3
0095
FEF1
FE8A
001F
FF8F
FF51
FEE1
FED9
FF03
FEED
FF59
FFAB
0037
FF01
FF27
FEDA
FF25
FF3F
01B2
FF07
FE7D
00C3
0117
FF6D
FF5D
FFB2
FEE6
0061
FF70
FEC3
FE97
0186
FEB7
FF3A
01B5
FF43
FEF4
FF78
FF3A
FF5E
FE82
FF69
FF29
FF1D
00CF
FF27
FF51
01A3
FEE1
FF31
0072
FF40
009C
FF5A
FF17
FF30
01DA
FFB8
FEF7
FEF2
FF14
004F
FED9
FF25
FF61
FF7B
000F
FF70
014C
0095
FF96
01C8
FEC5
FECB
FF60
FF6E
FF92
FF51
FF52
FE70
0203
FEE2
FF39
FF20
FEC9
FEF1
FF49
FFB6
FED6
FFD2
01B1
001E
FE8F
002B
FF6B
FF83
FF08
FF28
FE8C
FF8C
019A
FF77
FF0B
FF2F
00FF
FF0A
FEC0
FEF2
FF01
FF6A
FEE9
FFF6
FF08
00F6
FF39
FEE9
FF04
FE96
0060
FF20
FF2A
FF36
00AA
FF25
007F
FEFB
FF11
FE75
FEDD
FEA8
006E
FF18
FF54
FEEA
FF8F
FF39
FEEE
FF65
FF33
FF2D
FF98
FF44
FF7F
006B
FE95
0026
FEB6
FF97
FF14
FEDC
FED5
FEEB
FEC9
FEC5
FEEE
FF13
FF2F
018B
FEE3
FF0C
FEAB
FECD
014F
FF69
FF07
FF28
FE36
FE7E
FF10
FE9D
0125
FF29
018E
FF44
FF27
FF74
FF58
0022
0082
FEF3
FF6B
00BA
01B1
FF12
FECE
0206
FEF2
021E
FF33
FF32
FEA2
00E0
FEED
FF76
FF0C
FF40
FF20
FF50
01B6
0086
FF4E
0162
FF4D
FECF
FF09
FEF6
FED1
00C8
FF25
FEFC
FED3
019A
FF3E
FEE4
FF1A
FFA0
FEEA
FF21
FEC7
0137
00DB
FE87
FF33
FFC9
FF82
FF5A
FEB1
FF1D
FF48
FEFE
FF0B
FF43
FF57
FF12
FFF7
FFCE
FFC5
FEDF
FE8F
FEF5
FEC0
FF4F
FF5D
FEE0
0055
FED1
016B
FEC1
FF28
FEFF
FEE2
FF11
FF28
0003
FE97
FF98
0187
FF4A
FE61
00F6
FF90
FEFA
FED0
FEBE
FEE6
FEE1
FF1A
FF56
00E6
FE9B
0065
FF24
FF43
FEDD
0228
FEC5
FEC8
FFA7
0136
FF63
FF93
FF8C
FF1E
01A7
FF5E
FEAE
FE98
00D1
FEEF
FEF0
01B6
FFD2
FF0E
FF9D
FF0E
FF4E
FE5B
0052
FEF2
FF7A
0153
FF3F
FF52
0173
FF1C
FF1C
013F
FF80
00C3
FF46
FF73
FEDA
01F6
00CF
FF27
FF21
FF1F
0089
FEBA
FF15
FF05
FF58
00EF
FF37
0134
017F
005D
01A8
FEAD
FF4E
FF12
FFB9
FF80
FEEF
FEF0
FE9C
01A4
FEEB
FF68
FF4F
FF07
FEEA
FF20
0039
FEDC
0007
0189
00AF
FF13
006E
FEF3
FF05
FEF1
FED7
FEE0
FF10
01E9
FF39
FEDD
FF48
0180
FEEC
FEE8
FEEC
FECA
FEF5
FEED
FF76
FEE1
0092
FED2
FEF3
FF1E
FEBF
00BF
FEDB
FF5D
FF4C
00FF
FF6F
010F
FF3A
FF1D
FE66
FF23
FEA0
016A
FF29
FFE6
FE8C
FEE2
FEE2
FEA0
FF43
FF3B
FF82
000A
FEEF
FF12
00BF
FED1
FF7A
FE8E
FF36
FF0B
FEED
FEA4
FF20
FF40
FEFE
FED4
FEB2
FEFD
0158
FF02
FEF6
FECB
FF35
00F9
FF41
FF26
FF4C
FE76
FE45
FF25
FEE1
014A
FEE0
013B
FEE6
FEE3
FFAA
FEF4
0080
0130
FEDC
FF4D
0104
0135
FF1A
FF76
01D9
FF57
01C4
FF0F
FF4B
FEE2
00FE
FEE9
FF76
FF2F
FEC8
FF3D
FEF9
017A
00B4
FFB2
01A8
FFBC
FEE5
FF25
FEE6
FF75
0109
FF33
FF48
FF09
0155
FF72
FF62
FF42
0006
FEF8
FF58
FEF5
0122
018D
FEC6
FF2A
FFE0
FF7F
FF59
FF0A
FF5F
FFBF
FEB8
FFBA
FF43
FFCB
FF13
0011
FF5C
0028
FF07
FE68
FF0A
FEFD
FF20
FF58
FEF7
FFD7
FE8D
0123
FECA
FFA7
FF08
FF02
FF92
FF0F
FFBE
FE58
FFDA
0171
FF45
FE76
0100
FF7C
FF32
FEE3
FE80
FF10
FF1A
FF42
FF4C
013C
FEAA
00D5
FEDD
FEE5
FECD
0148
FF45
FEBA
0069
009F
FFAE
FF8D
FFC1
FEB9
0111
FF58
FEFB
FF18
00D9
FEEF
FEF2
0132
FFD6
FED2
FFD6
FF68
FF59
FEB0
00FA
FF62
FF5F
0172
FF29
FF4F
00D2
FEB4
FF49
0127
FFAA
0181
FF93
FF5A
FF12
015B
00C3
FF13
FF31
FF50
010B
FEE9
FF46
FEC5
FFAC
016B
FF82
0135
0109
0007
01B8
FEDD
FF26
FEC8
FF44
FF90
FEE8
FF48
FEDB
0196
FF25
FF33
FF2D
FEAA
FF28
FF82
FF7E
FEFE
0029
01E8
0118
FEF9
0141
FF49
FF9E
FF1F
FF38
FEC1
FFA0
01A4
FF36
FEF8
FF0D
01D2
FEF8
FEFF
FECF
FEDC
FF54
FF22
FFEE
FF2F
001A
FF6F
FF10
FF3C
FF0A
0133
FEFA
FF67
FF6C
0193
FF4B
01B2
FF73
FF64
FEE1
FEEA
FED6
0109
FEF5
006F
FE9B
FF61
FEF0
FEEA
FF55
FFD5
FF2F
00CD
FF5B
FF5E
00EF
FEF9
FFFD
FEFF
FF40
FF81
FF02
FEA3
002E
FF52
FED1
FEEA
FE6C
FF58
0125
FEAB
FECD
FF0B
FF36
00C9
FEEA
FEE6
FEC3
FE58
FE3E
FF61
FE5E
0138
FF45
0138
FEFB
FEE7
FF65
FF10
0076
0137
FF53
FF75
016F
017E
FF07
FEED
01DE
FF19
0189
FF14
FFB2
FED2
0150
FECE
FF23
FF7B
FF18
FF0A
FF2C
017A
0109
FF43
01FE
FF78
FEE0
FECC
FF70
FEE3
0162
FEE3
FF41
FEEA
0192
FF32
FF2C
FF63
FFBF
FEC7
FEF0
FF0A
016B
0174
FEB7
FF26
FF95
FFDC
FF92
FECD
FF88
FF2C
FF20
FF42
FF2F
FFC1
FF0E
FFCE
FF8A
FF76
FF0F
FEC3
FEA0
FEFE
FEC9
FF29
FED8
0016
FE21
0184
FE73
FFF1
FEB7
FF27
FF34
FF56
FFA5
FE8A
FF4F
01E4
FF0F
FE73
016E
FF18
FF77
FEB5
FE3E
FF1C
FF5A
FEE0
FF5F
00E0
FEF8
016A
FEF2
FEAB
FF3F
01A0
FEED
FE87
FFEB
00B6
FF54
FF0A
FFC3
FEC2
011E
FF2D
FF0B
FF0A
004B
FEFA
FEF3
01A1
FFD4
FEFE
FF80
FF6D
FF6C
FE7F
0100
FF53
FF6F
0139
FEDF
FEBE
00B6
FF09
FF11
01D5
FF17
019E
0034
FF77
FF15
01AA
0106
FF10
FF0D
FEDA
00DF
FEC3
FF6B
FEC6
FF7E
0146
FF9A
010F
011E
0056
0149
FEC1
FF1B
FEF4
FF51
FFB3
FF28
FF2F
FE31
0167
FE7D
FF1E
FEE9
FEE2
FEFE
FF6E
003E
FEAF
001D
01C5
01D0
FECF
00E4
FF19
FF18
FEE8
FEA0
FEF2
FF9B
0162
FF09
FF3A
FF04
01BE
FEB7
FF04
FEF0
FEC9
FF02
FEBE
FF60
FF08
002A
FECB
FED8
FE8B
FEBC
0148
FF0A
FF44
FF1A
01B3
FEF3
01CD
FF7C
FF3C
FEED
FF3C
FF35
0157
FEE1
008D
FE53
FF85
FF30
FE40
FF05
FFA2
FFC3
0131
FF0A
FF78
01C8
FE5A
FFC3
FE34
FF67
FF8D
FEB0
FEB9
005D
FF10
FF14
FE87
FE98
FEF3
017D
FEF5
FE91
FED5
FEC6
00CF
FF1D
FEC2
FF06
FE39
FE96
FEE1
FE65
0187
FEAC
0118
FF48
FF2D
FEFD
FF21
0126
0158
FF37
FF5C
0161
016E
FEF7
FF4C
01AC
FEF0
0172
FF6D
FFA5
FED3
0157
FF41
FF42
FF9C
FEE9
FF31
FEDB
0178
01A6
FF79
01CB
FF21
FEC7
FEDD
FF06
FEE9
018F
FEA1
FF75
FF15
017C
FF0D
FF27
FEE5
FFF6
FF26
FF0A
FEB6
016E
01F2
FEDD
FF4A
FF49
FF98
FF28
FEB3
FFC0
FF7A
FEB1
FF29
FF43
FF95
FEC3
FFB4
FF92
FFF2
FF71
FEB1
FED6
FF42
FE9E
FED5
FF4A
0028
FE6F
01C7
FE8D
FFA3
FF16
FEF5
FF4D
FF29
000C
FE91
FF3F
020F
FF16
FE8E
0168
FF4A
FF0B
FF10
FECE
FF3A
FECE
FF3A
FF6B
015F
FEE8
0133
FF1B
FED3
FEE6
01B6
FF12
FE7F
003F
008F
FEF2
FF45
FF69
FF26
00C7
FEFE
FED0
FEDF
FFE1
FE9D
FF0B
0197
FF85
FF15
FF87
FF31
FF3C
FE59
015E
FF60
FF19
0135
FF25
FF3B
0093
FF0C
FEFE
01D1
FF54
01F0
005D
FFA6
FEF4
01B3
0135
FF33
FF18
FF17
0143
FE89
FEEE
FED8
FF03
01CF
FEF8
014C
0145
0053
0130
FEF3
FF09
FF0B
FF73
FFB7
FED1
FEEA
FE42
0167
FF10
FF70
FED7
FEBD
FED7
FFBE
FFDD
FEA4
0006
01A1
01AE
FED5
0115
FED3
FF5A
FF16
FF07
FE9B
FF8C
0143
FF46
FE96
FEFF
0205
FEA0
FF0C
FE99
FF30
FF81
FEEA
FF5D
FF1C
FFD7
FF0A
FE95
FEA0
FE95
0135
FF13
FEFB
FF2D
01BC
FF3F
01DB
FF08
FFA6
FE89
FF45
FEEB
01A4
FF05
0147
FE64
FF04
FEAE
FE93
FF20
FF9C
FFBC
0113
FED3
FF4D
01AB
FEE6
FF62
FEAD
FF4B
FF02
FED8
FEE1
0102
FEEB
FF58
FEEE
FEDA
FEDE
00E5
FED1
FEDF
FEF3
FEF3
00B4
FF19
FEBA
FF08
FE2E
FEAB
FF08
FE8F
012F
FEE7
00F0
FF3A
FEC2
FF50
FF48
010F
01F7
FEFB
FF43
017A
009C
FF14
FF00
0199
FF14
00D4
FF09
FFC3
FF1A
0120
FEBC
FF6A
FF29
FF33
FF2A
FF2F
0159
0123
FFB5
01F5
FF5F
FECD
FF0B
FF76
FEFA
0159
FF20
FF4B
FE9F
00D6
FF68
FF0A
FEE6
FFA0
FEDA
FF02
FF46
0201
0259
FF1A
FF21
FF93
FF9E
FF58
FE96
FFA2
FF34
FF29
FF3D
FF7F
FF8F
FF36
FF91
FF9E
FFAB
0011
FEC0
FEF5
FEF4
FF45
FF2F
FF4E
FFCA
FE99
013F
FEF5
002C
FF2B
FF40
FF8C
FF4A
FF63
FE79
FF90
01F2
FF3A
FE82
019C
FEFD
FF4C
FEFD
FED3
FEFE
FED2
FF28
0027
0174
FEF3
0200
FF15
FF4C
FEE4
0135
FEDA
FE8C
0024
00D6
FF68
FF2F
FF91
FEB6
007D
FF54
FF0F
FEF1
0053
FF3F
FEDE
00F3
FF65
FF2A
FF5E
FF7F
FF5E
FE67
01E3
FF31
FF0F
0126
FF4A
FF2E
0073
FED4
FF36
0211
FF34
022B
0083
FF17
FF4F
013F
01A4
FF23
FF69
FF13
0138
FE8F
FF3F
FECE
FF35
01E9
FF39
0199
00B3
000A
0122
FECB
FF3A
FED4
FF6C
FF79
FF18
FF14
FE57
0146
FF0A
FF48
FEDC
FE8F
FEC2
FF48
FFC5
FF1B
0013
0157
0203
FEC8
0132
FEFA
FF5D
FF37
FEAC
FE87
FF91
0123
FF3C
FF3A
FF05
029B
FEC3
FEAB
FED6
FEB0
FEEF
FEF6
FFB9
FF0F
FFE3
FEBE
FED5
FF1F
FEB1
01AB
FEE6
FF74
FF98
0265
FF5F
0208
FF60
FF2F
FE85
FED3
FED4
0169
FF10
0183
FE5C
FF2B
FF32
FE54
FF21
FFA6
FF4C
0197
FF00
FF8C
0216
FE83
FFBF
FE56
FF3A
FF61
FF2B
FE9C
0044
FEE7
FF3D
FEBA
FEA7
FED2
015F
FEB4
FEB4
FEC2
FF53
00E4
FF61
FEDC
FF1A
FE77
FE3A
FF68
FECB
0135
FEDE
00E5
FEF3
FF24
FF9D
FF2F
012E
0151
FEFE
FEE8
013F
0127
FF55
FF04
01A9
FF36
012A
FF45
FF40
FED1
0156
FF74
FF7C
FF7C
FE99
FF5C
FF2A
0104
0184
FF32
01A3
FF56
FEEB
FF4B
FF23
FF07
011C
FEFD
FEF2
FF18
0106
FF20
FEEF
FF6B
0041
FF52
FEFF
FE94
01BF
01B7
FEA6
FF21
FFB7
FFE2
FF44
FEDD
FFB9
FF25
FF21
FF43
FF1E
FF93
FEFE
FFD1
FF64
FF6C
006A
FE49
FEF1
FED4
FF46
FF36
FF3C
FFDA
FEE9
01BC
FE76
00D4
FF1A
FEEC
FF1F
FF1F
FF60
FE98
FF4D
021F
FF2A
FEAE
017C
FEE6
FF45
FE98
FE9B
FF3B
FF09
FF31
002A
01BF
FED0
01E5
FEB1
FF18
FF15
0108
FEE6
FE92
0059
004D
FF77
FF93
FF98
FF1E
0009
FF6E
FE9B
FEE4
003C
FEC6
FED5
00F3
FF33
FEF0
FF1D
FFAF
FFA2
FE74
0177
FEEC
FF46
018F
FEE4
FF84
0098
FEDA
FF29
01F7
FFAA
01F6
003E
FFB5
FF23
0103
0110
FED3
FF7D
FEBA
017C
FF1E
FF64
FE9D
FF57
018C
FF0E
01BC
FFE8
FFB4
0166
FEF5
FEF0
FEBD
FF64
FF97
FF56
FF02
FEBF
013E
FE8D
FEF6
FF4E
FEAD
FF28
FF48
FF7C
FF24
FFEE
01AA
01A6
FF1C
01D0
FF60
FF65
FF07
FEE2
FEA1
FF4C
0105
FF7A
FEC3
FEE2
0207
FECD
FEC4
FEFC
FF16
FF36
FED2
FFD9
FEE1
000A
FEE1
FF18
FEAD
FE8F
018C
FEE1
FF60
FF32
01CF
FF40
0195
FF0D
FF86
FE9D
FEDD
FECC
00AF
FEB8
011A
FEF6
FF46
FEE6
FEDF
FF30
FF71
FF62
018E
FF57
FF37
01D8
FF0E
FFDE
FEC4
FFA0
FF97
FF2F
FEAF
0117
FEA2
FF1D
FE98
FE9E
FEBD
0170
FEE9
FEE6
FE69
FF5A
00A7
FF5C
FF07
FF12
FE8F
FE17
FEDF
FE58
00F5
FF10
00B5
FF51
FF38
FF53
FE8A
0181
0179
FEC2
FF77
0164
00F7
FF29
FEF7
0178
FF54
00A9
FF47
FF5E
FEAB
0174
FF22
FF88
FF5C
FEB5
FF2D
FEB9
0104
01D6
FF1F
0281
FEE1
FE7F
FF4C
FF5F
FF0D
013B
FEA4
FF3F
FF43
00CF
FF2A
FF23
FEEE
FFFF
FEF6
FEAC
FED5
01FD
0211
FF10
FF19
FFA6
FFF0
FF08
FF1C
FF41
FF67
FEC5
FF08
FF33
FF28
FEC8
FF7C
FED7
FF83
FFBF
FE59
FEC0
FE8D
FECA
FF0A
FF02
FF96
FE8B
01BD
FEF2
0084
FECE
FEE3
FF31
FF5C
FF31
FE21
FF5C
0271
FF0D
FE54
01DA
FF35
FF2A
FEF1
FEA3
FED4
FEF8
FF00
FFE9
0222
FF43
0239
FE9A
FEE0
FF08
00E0
FEB8
FF13
007B
0090
FF29
FF58
FF93
FE83
00A6
FE90
FF1C
FEAA
0011
FF32
FEC1
00A6
FF4F
FE85
FF63
FF1A
FF96
FE4B
01E3
FF2D
FF6D
0127
FF35
FF66
006E
FEEF
FEF1
02CB
FF7B
0252
00BB
FF3F
FF5A
0122
0204
FE9E
FF23
FF08
0184
FF03
FF03
FEF8
FF62
018E
FF54
0192
0079
FFBA
014A
FEF4
FECF
FEFE
FEFF
FF42
FF09
FEB2
FE68
012A
FE4F
FF03
FF3F
FE98
FEDF
FF3A
FFC6
FF0D
FFD7
0175
0260
FEC8
01BD
FF65
FF97
FEE6
FF3B
FEE0
FF2D
012E
FF31
FE9A
FF11
023C
FF3D
FE88
FEAF
FE9A
FF5D
FEC0
FF7A
FE90
FFF0
FE87
FE92
FEE1
FEDC
01D7
FEBE
FEFA
FF42
024C
FF70
025B
FF2B
FF2B
FEC3
FF04
FEEF
010C
FEC3
0140
FECE
FF66
FE8C
FE93
FF73
FF81
FF8F
01D5
FF3F
FF0F
0233
FE63
FFC4
FECE
FFA5
FF8F
FE87
FEF8
0174
FF3A
FF1A
FED1
FEF1
FF0A
016B
FEEC
FED2
FF31
FF3A
0047
FF19
FEAA
FF29
FE78
FE7F
FF62
FF05
0183
FEF0
00D3
FF1F
FEFD
FF6D
FEB8
01D4
0188
FF25
FF50
00FB
00EE
FED2
FF50
0160
FF10
0101
FEF0
FF58
FF06
01D4
FF50
FF6F
FF12
FF59
FF0D
FF36
00CB
01FA
FF5D
0233
FF22
FE96
FF09
FF0B
FF0A
0177
FEE6
FF42
FFB0
00DE
FF4F
FF86
FF15
0013
FF3D
FF55
FF6D
0151
027E
FF74
FF58
FF32
0014
FF75
FF26
FF39
FF8A
FEE7
FF2C
FF75
FF36
FF04
FF76
FF36
0003
0058
FE63
FEF9
FF6C
FEDF
FF69
FF28
FF7C
FED7
01C0
FEDE
005B
FF1A
FF2F
FF13
FEED
FF21
FE75
FF38
0271
FF48
FE89
0132
FECC
FF62
FF30
FED7
FF4E
FF3B
FF08
0021
0272
FF43
01FE
FF12
FECC
FF28
0105
FF3E
FEA2
0075
FFA6
FF8D
FF28
FF51
FEF2
005A
FF32
FF14
FEB4
000A
FF16
FF3B
00B8
FF4D
FF1F
FF6A
FF5B
FF32
FE9C
01D3
FEFA
FF46
01E6
FF59
FF6A
00E5
FEBA
FF6A
0253
FF34
01EA
00B7
FFA7
FF17
012E
01AE
FEEB
FF1C
FEBD
01D9
FED6
FF47
FF37
FF35
01C5
FEB7
0224
0051
0029
00CB
FEF4
FF16
FEF7
FEE4
FF54
FF30
FED0
FEE5
00C6
FEB9
FF25
FF40
FEA0
FF27
FF29
FF9D
FEFE
FFCB
01EA
026A
FEBD
01C2
FF2E
FF0C
FF1B
FF35
FF23
FF80
0117
FF91
FED2
FF3D
026B
FF45
FF49
FF73
FF4B
FF36
FEDE
FFFD
FF62
FF9A
FF5E
FF03
FEAF
FED5
0285
FEEE
FEFE
FF0C
01F2
FF1D
01B7
FF97
FF72
FE93
FF22
FF46
00BA
FF43
015D
FEBC
FF66
FF0D
FEC2
FF22
FF69
FF59
0243
FEFB
FFA7
01FF
FEAB
FF76
FE8A
FF87
FF31
FF13
FEA3
00FD
FEFB
FEE2
FEDD
FEB8
FED4
01E4
FED6
FEEA
FEC5
FF4B
004D
FF2A
FED6
FF2C
FE77
FE73
FF11
FF12
0195
FED8
011E
FF11
FEC0
FF1A
FEE6
01E6
0123
FEF8
FF4B
013A
012D
FEC1
FEDD
01BB
FF49
00FC
FF0C
FF6B
FEA8
0258
FF0D
FF08
FF42
FEDA
FF62
FEE4
00D5
02C1
FF61
021F
FF0E
FF0F
FEFC
FF09
FEE7
023B
FEE1
FEBE
0028
00F2
FF69
FF3B
FF10
0037
FF44
FF68
FF5D
0189
0268
FF31
FF27
FF6E
FFCE
FF74
FF1F
FF3E
FF7B
FF0C
FF81
FF10
FF5F
FEC8
FF7F
FEAE
FFE2
002A
FEA7
FEDD
FEF8
FF38
FEED
FF12
FF8C
FEAD
0203
FEE1
00BA
FECC
FF3D
FF2F
FF4B
FF67
FE41
FF23
023A
FF28
FEE3
016B
FEC2
FF7F
FF75
FE35
FEF7
FF3D
FF58
0098
022D
FF3F
01EA
FF3C
FF4D
FF41
00E0
FEE8
FEBE
0017
FFDD
FF3D
FF4F
FF63
FF25
FFC7
FEFC
FF0D
FF0A
FFE4
FF2E
FF21
0155
FF7D
FEBA
FF2F
FEF4
FF52
FE83
01AD
FF4F
FF2A
0256
FF2B
FF23
00E8
FED9
FF4E
0274
FF0F
0209
0070
FF18
FF26
0145
023A
FEAA
FEE2
FF4A
0299
FEF8
FF25
FF27
FEE8
01A2
FED2
026B
FFF7
FFD6
00CE
FF1A
FF65
FEBE
FED3
FF78
FEC2
FEBB
FEA6
00D4
FEE2
FF09
FF18
FEC4
FEE3
FF88
FF21
FEE3
FFC0
0221
0204
FEFB
0224
FF8A
FF5D
FF3A
FF15
FEFA
FF25
010B
FF6A
FF19
FF82
0249
FF58
FF02
FF1A
FECC
FEEC
FEE4
FF9E
FF38
FFCB
FEDA
FF35
FEF2
FE9C
026C
FEC2
FEF4
FEE3
01EB
FF76
0206
FF4D
FF05
FEFF
FF0D
FF03
00CA
FED7
01E0
FEA9
FF28
FEC4
FEEF
FF78
FF7F
FF51
0274
FF06
FFB9
021D
FE61
FF58
FEB3
FEFA
FF31
FF3C
FE7B
0175
FF32
FECD
FF22
FEA9
FE95
024D
FEB5
FF18
FEFD
FEEA
0032
FEE2
FF26
FEB7
FE5E
FE2A
FE99
FE67
01FD
FF06
011E
FF79
FEFA
FF1E
FEB7
023B
01B6
FEEF
FF72
0163
00CA
FEF3
FF39
016E
FF24
00EC
FEAF
FF55
FECF
02BA
FED6
FF37
FF11
FEDC
FF1A
FEFE
00D0
02BC
FF30
0288
FF19
FEB3
FF3A
FF02
FEB0
021C
FEC6
FF57
FFB5
011B
FF04
FF24
FEE4
FFE8
FEBB
FF1B
FEF8
018A
026D
FEF9
FF92
FF3E
FFF9
FF54
FEFB
FF57
FECF
FF0D
FF20
FEF7
FEF0
FEF0
FFCC
FEC9
FF7E
001D
FE60
FE3E
FEC9
FEB6
FF01
FF12
FF93
FE59
02A8
FEF6
007D
FEE7
FEFF
FF48
FF2F
FF31
FE0C
FF5E
026C
FF57
FEAD
01EC
FECF
FF2B
FF29
FE8E
FEC2
FEC2
FF1C
0077
02A6
FF3B
026D
FE92
FED9
FF4C
00E3
FE9E
FE50
003C
FFB9
FF20
FF44
FF70
FECF
0062
FF16
FEE3
FE84
FF9A
FEA2
FEEB
015D
FF22
FEBF
FF0D
FF2B
FF05
FE7A
0269
FF1B
FF0D
0229
FF27
FF49
00AD
FEF2
FF00
028C
FEC7
02BD
010C
FEF3
FF19
00CE
029C
FF0C
FF31
FEBE
02E0
FE79
FF1A
FEED
FF0D
01CC
FE99
02C6
002B
0052
0155
FED3
FECA
FF3E
FF01
FF85
FEAD
FF08
FDF2
00D5
FEE9
FF26
FEDB
FEC2
FE8D
FF57
FFB3
FF11
FFF4
0216
02C4
FE9A
025F
FF71
FF28
FF74
FEF8
FE87
FF10
0163
FF58
FEEB
FF0E
024F
FF0B
FE7F
FEF1
FF08
FEB2
FED6
FFDC
FF07
FF7C
FEF9
FEC6
FE8D
FE38
02EA
FF09
FF15
FF1B
0253
FF49
020A
FF08
FF57
FE90
FEA5
FEAA
00B9
FEC7
0233
FE43
FEF6
FEE8
FE72
FF42
FF69
FF15
02E6
FEF4
FFBF
02AD
FE68
FF0C
FE1D
FEC9
FF1F
FED4
FED6
01A9
FEE8
FF66
FEDC
FEB0
FF16
0249
FED2
FF3D
FE99
FF12
00AC
FF0F
FEDE
FEEE
FE47
FE6E
FEEC
FEC8
0282
FF43
00B3
FEF4
FF26
FF0A
FF01
02A0
0161
FEE0
FEFE
0156
0089
FECB
FF2F
01CD
FF02
012C
FF3D
FF95
FF0A
027D
FF1A
FF3D
FF4C
FEEC
FEFF
FEDA
00CE
028D
FF43
021F
FF04
FEF0
FEFB
FF12
FEF7
0284
FF0E
FEE6
FFF8
013C
FF16
FF24
FF38
0025
FF1B
FF45
FF25
0145
02A9
FF29
FF69
FF3A
FF98
FF76
FF24
FF14
FF37
FEFA
FF09
FEFA
FF10
FF40
FF98
FE94
FF8A
002C
FE58
FF01
FF01
FEC5
FF6B
FF36
FFDD
FEEA
02BF
FEBB
0098
FEF0
FF34
FEDC
FF21
FEEF
FE51
FF7E
0297
FF73
FE95
0180
FF0D
FF56
FF62
FE53
FEBD
FF6A
FF00
008A
02DA
FF65
027A
FF02
FEC2
FF53
0172
FF39
FE99
0083
FFB8
FEDD
FF86
FF36
FEF3
FFEA
FF2B
FF32
FEFC
0064
FF47
FF13
00EC
FF47
FEF4
FF35
FF6F
FF40
FE4E
020C
FF38
FF28
022C
FF10
FF3B
00BB
FEEA
FF19
02CD
FF31
02B5
006D
FF40
FF0B
0127
026A
FEC2
FF32
FF0C
02F3
FEC9
FF54
FEC2
FF0C
016D
FF12
02B0
000F
FFEA
012E
FF50
FF62
FEE9
FEA7
FF8F
FED9
FF28
FE53
0126
FEAD
FF74
FEE2
FF06
FF52
FF8F
FF5D
FF12
FF3B
01F8
02C5
FF3E
025C
FF6D
FF52
FF83
FEB3
FEBA
FF26
0160
FF6E
FED4
FF6C
0262
FF1D
FEF0
FF9A
FF48
FF29
FE99
FFD8
FF27
FFC5
FF47
FF43
FEA8
FEB6
0273
FF07
FF48
FF08
023F
FF0F
0201
FF43
FF46
FF24
FF0A
FF28
0078
FEC1
0256
FEA0
FF25
FF4C
FF12
FF6D
FF52
FF16
02B5
FF1F
FF3F
0293
FEFD
FFD1
FE7A
FF19
FF77
FEBF
FEB2
018D
FE94
FF4F
FECD
FE7E
FECD
01F5
FEA1
FEB1
FEDA
FEA7
0010
FEE8
FEA9
FF0D
FE2F
FE68
FED2
FF06
024F
FEDA
00FE
FF41
FF27
FF31
FEEC
0261
016D
FEA5
FF0F
01A8
