006B
0173
00F8
00C0
016A
FEFC
FFB1
007A
00A0
FFA1
0151
0097
007E
00F7
FF68
011A
FEE4
FFA6
003B
00D5
00E6
0177
007E
0167
011F
00CE
011C
018C
FEE4
0147
0082
018B
FF58
01C8
002D
0116
00E8
00EB
0157
FF7F
0090
00D2
0024
00C1
005D
FFB0
01DE
018E
01BC
0076
FFE1
FFB4
012F
FFC3
FEFB
FF61
0079
FF3C
00D1
0160
00BD
0135
003E
00EA
FF3F
009F
00BE
00A3
FFB6
01B0
008A
FFB1
0097
0053
FFD4
00F4
0106
01A5
FF59
FF27
FEFA
0091
009D
00D2
FF18
FF70
FF45
019F
FF94
0191
00D3
0130
FF90
00FB
FF72
FF99
00E6
01C0
0100
00B7
007D
FFD7
00CF
00E3
00FD
00FA
012B
012F
0064
0118
0131
00EC
FFB2
FF07
0137
00DE
FF89
FF1C
008A
FF66
0138
FF43
00F9
00C7
FF73
007E
FF48
0099
FEEC
007D
FF63
FFC2
00B3
0115
FF41
FF69
FFBC
00BA
00EA
0017
0078
00E5
0055
FF76
FF81
0082
00D3
0150
00F9
FF8A
00EB
FF8D
012D
0114
00CD
00B4
00CB
00F4
00B1
00DC
008F
00B4
0093
006B
0146
0125
FF47
0018
00F9
0044
00D4
00C2
FF4A
0137
0094
FF81
FF13
0118
FF0D
010F
0138
01D3
FF98
FF06
0185
FF2C
FF89
010F
FFCE
0126
013C
FF2A
0064
0072
FFC3
00C5
011B
00C5
00B6
00A3
00CE
00DF
019D
00A2
010B
FFB6
014D
01CD
0141
0056
00AA
0078
FF2A
FF48
0112
FEFD
00B7
00B8
FEFD
FF55
FF6F
00A2
FF1B
0104
FF18
0121
0112
006E
00AB
FF7A
0099
00C9
016C
0151
016A
013B
0115
FF70
0131
0074
0146
013D
0064
0105
00CA
FF61
00F5
0071
00EA
FFBE
013D
FEFA
012B
0193
00B4
00C1
022F
02A6
022B
02A6
FE7B
010C
017F
FE01
FCD9
00FC
FEEC
02CB
0283
FD36
0158
0289
014A
01A2
032A
0220
0251
FFB1
029F
FFFD
02C7
FD77
0293
02B0
0147
FEEC
024F
0082
01AA
FFBB
0149
02B2
0242
023C
FE69
010F
024F
0256
0359
FE75
FCD0
017F
00DC
FEEC
02AB
0200
03C0
0124
013A
00DC
011C
013F
02DD
00FA
020C
025C
0227
FE32
035E
0211
010B
01FA
0216
0290
0142
FE20
025B
0153
0298
FCD6
00EE
02C6
0292
FF45
016E
015B
0181
02B1
029A
025E
014F
0110
0122
02DD
00D9
0230
02C7
02E7
0107
027D
018E
017B
0250
027D
0208
025F
0221
0188
FD2D
027B
015E
02C1
02A8
0201
0241
FF32
026B
026E
00E9
00D7
020E
025D
013E
00BC
037B
019B
021F
00F3
02B8
FE74
0103
FE0A
00AD
0258
00EC
020D
0131
0189
FD14
02AB
0132
0183
022B
02BD
02CC
02EA
0268
0283
FDD9
0138
016A
0273
FD57
0287
FDDC
0125
0208
00F5
02FC
027C
FE20
026D
02CC
0240
028D
025C
0219
021A
02A7
0240
0228
02E1
0128
0285
0235
038A
02A2
0292
0165
0269
0285
015D
0195
02AC
0174
025D
0129
0267
0172
017A
02A1
0184
0140
026A
015D
0265
0237
0132
0261
0206
0139
021A
020F
02AD
0222
0225
02B7
028C
0248
0281
020A
0116
01E9
FE19
02A2
0266
02D7
027C
0156
010E
02B0
01A3
0252
0297
0198
0194
01A4
0235
0141
022A
019E
0291
FF33
02AB
02E1
00F7
02BE
0276
01E2
FFBC
0236
0290
FF2C
016D
02A2
02D2
FF1A
0283
029B
02C0
0250
0120
0220
0212
0208
0116
028C
019B
0236
FF71
02BF
0281
00A5
010B
00B3
00FE
00FB
FF07
FEE6
0063
0072
FFDE
010F
0083
00E4
0072
FF8D
00E3
FF1C
FF16
008E
0111
00F2
0102
00D1
0198
00DC
005B
00E3
013E
FF38
016D
011D
0199
FF63
0166
FF9D
00DC
00D7
009F
011A
FF56
00DA
012A
0045
0079
00AA
FFCF
014A
0158
01A8
00B7
00A4
FF2A
00D3
FFAF
FF6C
FF41
0073
FF78
0067
0114
00C4
01B3
0070
0091
FF65
0076
0041
00EB
FF2E
01B2
0053
FF3C
00E5
0100
FF7A
0132
010E
0169
FF44
FF46
FF80
0074
00EE
012A
FFAA
FF18
FF22
0113
FFA0
00FB
0086
015E
FF5E
00EE
FFC1
FF81
00F0
011C
0085
0130
0075
FF35
0099
008B
0198
0113
00ED
0118
00A0
011B
0174
0123
FEE9
FF0D
0120
00D6
FF35
FF45
0056
FF3E
012A
FF4E
006D
0003
FF84
00DB
FF67
0113
FF17
008D
FFD1
FFB9
00B1
006A
FF8E
FFA9
0001
011B
00E6
008C
0094
0073
005C
FF2B
FF94
0079
0060
00EC
006E
FF28
009A
FF04
00FC
00C9
0008
00C5
00F1
01A1
0112
0122
00E1
0090
008F
0113
00FF
00C0
FEF3
0083
00EF
0065
0082
00C6
FF7E
00F5
00B1
FF7E
FF8A
0101
FFC1
00C0
0154
0166
FF7D
FF49
01C9
FF48
FF25
0112
FF6F
007D
007E
FF71
0078
00F3
0010
0089
0098
00AC
0085
00D8
0100
004C
010D
008F
005F
FF97
00BF
017C
012E
0030
0107
0054
FF72
FF45
0074
FEF5
00D5
00B4
FF95
FF22
FFD0
00D8
FF69
00F9
FEE1
00EF
015C
010C
00BB
FEE6
00AE
00E4
010C
018F
018D
0131
00F9
FF6F
00AB
00E1
01A9
0128
003F
009A
00A7
FF53
00C9
0117
00BB
FF6B
0073
FF52
00B4
0165
0108
0091
0117
01A6
00D1
012B
01EB
FF31
FEC5
0012
0129
FF6D
0234
0152
016C
016F
FEEE
015A
FF0B
FF68
FFAA
00DD
0093
020B
011B
016E
0123
0107
0184
0171
FEEF
019C
00E6
01F3
FEB9
01E5
FFA7
017D
0125
010E
01BF
FED3
017B
0164
FF8E
010E
002D
FF11
0223
0164
0171
0119
005F
FEF0
0183
FEF7
FF5C
FF00
0064
FF8E
015F
01B6
0137
0187
FF47
00B9
FEA2
0113
00D0
0152
FEC9
0181
0116
FEF5
0100
010C
FED4
00C0
0186
019A
FEC3
FF6E
FF21
013F
00C3
0108
FECC
FF15
FF7D
018F
FF35
0176
00DE
019C
FF45
00D8
FEF8
FF4D
00F2
0218
00DE
010A
00B6
FEDC
0139
016A
01BF
0111
018A
012D
013A
01C1
017E
016C
FF7A
FEAA
0159
013D
FF74
FF86
FFF7
FF5C
0144
FEEF
0169
0062
FEE1
0024
FF6C
0123
FEBE
011F
FF16
0028
0120
00EC
FEC5
FFB7
FEE6
0115
0171
0007
00D5
00D3
0100
FF37
FF6B
0172
00D3
01AD
00D3
FF6E
0153
FEF0
018C
0195
005D
0104
01D8
01A1
00CD
0137
0174
016D
00FC
00E1
0109
00C3
FEC0
FFDF
0130
00B3
00FC
00BC
FEEC
016B
FF89
FEE3
FF12
0211
FF10
0167
017D
0223
FEE7
FF64
0181
FECF
FF35
0110
FED8
00EC
00D0
FEB5
0158
017E
FFED
015B
016C
017D
00EF
00E3
010C
015D
0194
00F0
00FB
FED5
0184
0211
020D
FFBD
015F
00A2
FEF1
FF6F
0164
FED7
0167
0163
FF13
FEF7
FF3C
0133
FEFB
0154
FEAC
00C0
01D0
00F6
016E
FF43
FF80
019C
01DF
0202
0180
01EA
021E
FEE5
011E
0149
0238
01A2
0151
00F7
00D7
FF2C
00D7
0165
0119
FF0C
0180
FF3A
015C
0209
0133
0124
008A
00F3
0122
00C3
0159
FEFD
FEFF
0043
0054
FF5F
0129
00DE
00E1
0066
FF28
014E
FF78
FF00
0006
00B9
010E
013B
011B
011E
0116
FFF4
010B
00FD
FF32
0193
00DA
0174
FF30
01BA
FFDB
009C
007F
007D
0153
FF83
00DC
007A
FFE1
FFEC
006B
FF86
0182
01BD
0172
00EB
FFCF
FF45
01C7
FF3C
FF15
FF09
FFE0
FFA9
0075
015C
0099
0187
FFEB
0098
FFBC
00D3
006C
006D
FF5F
0137
0064
FF7B
00D6
00B6
FF33
008D
012B
0142
FF18
FEFD
FF7F
00FC
00FE
0104
FEF8
FF0F
FF74
0163
FF99
0152
0117
00BA
FF9C
00D9
FF22
FEEC
00A8
010B
00CA
0119
00DF
FF3A
0069
0106
010C
009D
0144
008B
010A
0145
0172
00FD
FF73
FF63
010B
00D5
FF14
FF20
FF98
FF6C
0153
FF2C
010B
0010
FEE4
001C
0010
00C3
FFA1
0055
FFCB
0059
00C0
0065
FF2D
FF82
FEDF
0138
014C
FFED
00C4
0093
0072
FFC8
FF96
0100
004D
0122
004D
FF77
00FE
FEF6
01B7
0085
0040
00D9
0175
0119
00CF
008B
0128
0074
0073
00E0
0076
0071
FFCE
FFAA
0183
FFB9
00C3
00B4
FF2D
007A
FF9D
FFC1
FF38
01BB
FF27
0072
019F
0170
FF67
FF6B
01A0
FFB9
FED7
00A4
FF9D
00B4
00B4
FF28
0093
00F9
FFD9
00AC
0115
00BA
012C
00A0
00ED
00DE
0119
00AA
008F
FF30
00AE
017C
0135
FFBB
00E3
00F0
FF16
FF08
011E
FFB8
00AC
00D8
FF6F
FF01
FF8E
00C6
FFAF
012A
FF79
0066
012D
0064
00E2
FF58
FFBA
00C0
0124
01CB
0149
0145
0156
FF57
00D5
013D
0185
0149
00E9
007D
0134
FFAF
00CE
0122
00ED
FF29
00D9
FFB0
008A
0176
0146
0098
0130
01D4
018F
0129
01F4
FEE6
FEC2
0090
007C
FF71
01FB
0173
012B
00C4
FF68
011F
FEFA
FF49
002D
0122
0140
022A
014A
01F5
00EA
013B
014A
018F
FF29
026C
00EC
0168
FEC6
0196
FF45
0132
016E
0182
019B
FF03
01AC
0114
FF92
00DC
009A
FEA0
01C7
024F
0258
01B0
FF17
FECB
01F8
FEB0
FEE3
FF2B
FFB7
FECA
00BF
01FF
017C
022F
FF1E
01B2
FF25
018B
0123
0155
FF15
01FD
00F3
FF64
0165
0123
FF69
0189
01CC
023B
FF8A
FF44
FF11
0178
0148
0192
FF78
FF06
FF19
0203
FF7E
01F1
013E
01AA
FF3D
012A
FF15
FE99
00E4
01D7
00D7
0153
0162
FEFD
00AE
0160
01B1
019D
0202
011E
0150
0254
0220
0172
FF12
FEBA
0104
0164
FEE9
FF4A
FFBE
FEFE
0157
FF2E
0125
00EB
FE93
0078
FF53
0178
FECC
00F3
FF0F
0001
0118
010A
FEF8
FF60
FF47
00D2
0148
FFBC
00F0
0160
00C8
FF45
FF86
014C
007E
01A4
00B4
FF53
0168
FEB7
0185
0108
00FE
0142
01B9
0202
0105
0175
019C
0157
014D
01AF
0194
0122
FEDD
0032
01A9
00C0
0156
0147
FF41
0175
0032
FF20
FEE7
016B
FF1A
010B
021F
018A
FF2D
FF05
018E
FEC6
FEB5
00DE
FF6B
00E5
011B
FF5D
012D
019F
FF8B
017C
019C
00E0
015C
0189
0178
013D
0219
01A8
0180
FF04
0104
026E
01E5
FF89
0136
011C
FF16
FEEA
00E5
FF13
016E
00F6
FF5F
FEFC
FF1F
0149
FEDB
01C3
FF37
015B
0240
00FE
016C
FF02
0001
0178
015F
0242
0169
01AB
01F6
FEDB
0105
0149
01CC
01F2
00E7
0106
00F3
FF41
0142
00F3
01A9
FF03
01AA
FF5D
017F
0229
015E
00F1
00B6
0118
0106
009F
012B
FF8C
FF26
0018
006E
FF7A
0107
0059
00F1
012F
FF81
017B
FEF6
FF3B
FFD6
0067
00CC
01B3
0068
0114
0070
00CD
0053
0169
FF06
011C
00A5
00E6
FECA
0124
FFA1
00FF
00E5
011A
008A
FF3C
0096
014A
0078
004A
00A4
FF71
0166
0169
0122
0057
001A
FF4C
01A4
FF7F
FED8
FF07
FFDE
FF77
00FE
01A1
011A
017D
00E7
00AF
0010
00F6
005B
00D5
FEBC
01A4
0114
FF97
002D
011D
FF7E
00BC
0126
01AD
FF2F
FEC8
FF3A
00BB
00B7
00F7
FF5E
FF8F
FEE4
019F
FEE4
0129
00FA
0119
FEF8
00DA
FF14
FF13
00CE
0148
0058
007D
008D
FF03
00C5
0076
00F9
009E
0135
007B
0083
00DF
00D2
0111
FEF2
FF69
00A9
008D
FF70
FF01
FFC2
FF7C
00DF
FED6
00A5
0063
FF55
006B
FF3D
0045
FED8
00D1
FEE9
FF9E
00B0
004F
FF1D
FF9F
FFC6
0094
00DF
FFDA
00A6
0062
0058
FF0D
FF39
00CE
0090
00A0
00F3
FF4F
00D2
FF39
012B
00C8
00BA
00A6
018A
00E3
00DF
0097
00C4
00FD
0073
00E9
00D3
00C8
FEDB
0048
01AD
008C
00B3
0088
FF85
00EA
0045
FF5F
FEC7
01E5
FF16
00D2
0153
0148
FF13
FF81
01B2
FF06
FEEA
007F
FF15
00DE
0067
FEE2
0076
0069
FF30
00BD
0052
00BE
0093
00A4
004E
0073
0176
00C1
0061
FF94
00FC
016D
015E
FFDA
00F2
00CD
FF70
FF8F
00C4
FF3A
008C
00F7
FEF1
FF4E
FF95
0055
FEC5
013B
FF67
0048
00D2
0059
0089
FF52
001F
0103
0167
01A0
0196
01E0
0171
FF12
0089
008C
017F
00F0
00B1
006B
00BD
FEF8
00D2
0086
013E
FF99
0063
FF64
00A2
0104
00B4
00E1
00E1
014E
00EA
00F4
FDC2
0083
00BC
FF8A
FFAA
005A
FE68
004D
00EE
FFFE
0038
00ED
005A
0001
FF75
011F
00E1
FEA0
0144
FF44
00E2
FF65
006C
0139
0080
FDEC
00DA
FE96
005D
FEDA
000B
0132
00A8
0120
FFA2
0027
00E5
00E5
FF01
FFA5
FFA4
0067
FF2D
FE8B
00E4
0127
FF6C
0022
FFA5
FFE4
001F
005F
FF39
002B
008B
0131
0077
FE07
FF7C
0071
004C
008A
00D4
0079
0056
FF10
0079
FFD0
0097
FFDD
0094
012D
00EE
FEEC
00A6
000C
FFEE
00A2
00B9
0095
007B
0072
0002
0135
0071
0035
011C
00EE
0073
00B1
004F
008F
0088
00EC
00F5
009B
00EE
002A
FFBB
0070
FFC3
0098
0127
00FC
00C9
FEA3
00DE
00D6
00BB
FFFC
0083
0111
00AA
007F
FF94
008B
013F
00B3
009E
FFBA
0058
0052
0080
00FA
00AA
009C
0079
FFF9
002F
00AB
00A6
009B
0007
00F5
00F4
FF2B
0117
00B8
FFDC
0027
0036
00A5
FF75
00D5
FFD1
0063
006A
006A
00F1
00BD
FFD9
0078
012E
00AA
0070
0121
0130
006C
008A
0065
00DA
00CB
003C
FF1A
00BD
0098
00D6
008E
008A
012B
FFA3
0034
0053
00FD
001B
009D
FFE2
0076
002B
003A
00F3
00A1
0021
00E2
0084
00AB
0100
0001
00A5
008C
0083
0111
0085
0117
0093
0100
00C6
0107
0020
0077
0061
008E
00C4
FD94
0149
FF47
009D
010B
0064
009F
0130
0069
00EA
0112
000D
00B6
005B
00A2
004E
00CE
0043
00B5
FE19
006E
00DB
0025
FF2F
012A
0004
FEB9
010E
013B
FE5E
00A0
00B3
00F7
FE0B
007B
0117
006C
011D
00BD
0111
0088
0161
000E
009A
00AE
0093
FDED
0135
0093
00E4
01DD
011F
013B
01AF
FF78
FFAF
00AD
0051
FFCE
01EA
0154
0108
00B8
FF24
0142
FFA4
FF8B
000E
0119
00E7
01EE
0106
0184
0130
0020
0120
01BD
FEE6
0217
00DC
0130
FF7F
0164
0020
00C0
0104
0182
00E7
FF3A
0160
0150
FF87
009F
00F4
FF90
0132
01AB
01DB
0149
FF9D
FFD3
01EE
FFA0
FFC1
FF3D
FFC6
FF42
0082
01C5
009B
0159
FF5E
015D
FF50
010D
00C6
015C
FFA6
00EE
00E4
FF24
00C2
00D0
FF5D
014E
0127
01DF
FFA1
FF7A
FEF5
0114
00D4
0127
FF93
FF7F
FF44
011F
FF7A
0193
00DF
00BF
FF3C
0113
FF31
FEFB
012A
014E
0120
0144
00C7
FF3F
0025
00BD
01F6
010C
01D7
0101
015A
0131
0183
0094
FFF2
FF51
00E1
0158
FF0A
FF9B
FFFF
FF5A
0186
FFC3
00F8
FFE8
FF83
0074
FFCC
014E
FF60
0129
FF02
0092
0087
00E5
FF42
FF0A
FF76
0114
00D9
002D
0093
009F
00A9
FF60
FF56
0142
0033
0160
0031
FF10
00A8
FF77
014B
0132
009B
009B
0125
010B
011C
00B2
0169
0103
0086
0110
00C3
0098
FFD9
00B6
0180
FFE5
0109
0138
FF7C
011F
FFD0
FF0D
FF70
014C
FF3E
00A3
0148
01CA
FFDD
FF2E
019F
FEE5
FF7B
008D
FEFD
00AF
0135
FFB0
00FB
00D9
0037
00F1
015A
0123
0088
00B6
011A
007E
01A4
00DB
009D
FFBA
00FC
01B1
01D2
005F
0141
010A
FF64
FFBA
00F8
FF08
0149
00EE
FFC2
FF03
FEF4
0137
FF26
0128
FEF4
011B
011E
00E7
010D
FFAB
0075
00A8
017B
01D2
0154
016B
01E0
FF59
00FB
00CF
0168
0183
0108
0103
00DD
FF6E
013E
00EF
00E0
FFC3
0134
FF15
00EF
01CD
0125
0153
009C
019A
00ED
00B6
0154
FF9D
FF30
003E
0028
FFB9
01DE
0097
0110
003C
FF50
00F1
FF23
FFA8
FFE5
00C0
00E0
0129
00E1
01BA
0080
006C
008D
0174
FF55
0193
00E9
0176
FEDE
0194
FF9B
0168
014A
013C
0169
FF78
00C2
00A1
FFAA
FFFA
0011
FF9B
015F
01C8
01D9
009D
FF60
FF8D
019E
FFAB
FFB5
FF9A
FF70
FF94
013E
016A
0113
0174
FFBC
010D
FF71
00B5
00D8
0116
FF61
0150
00FC
FFA2
011F
0093
FF94
00EB
011B
01D0
FFBD
FF1A
FF7B
0118
00DC
015F
FF86
FFCD
FF19
00F4
FFDD
0131
00B8
0168
FFCB
0082
FF88
FF95
0131
0149
00B7
014B
015E
FF07
001B
00C7
019F
00DB
0175
009E
013B
014E
0137
0152
FF24
FF58
00DF
0103
FFA9
FF64
FF44
FF76
00ED
FF3F
012A
0073
FEF0
0007
0032
0123
FEF2
007E
FF7C
0092
004B
008B
FF00
FF14
FF44
011B
011E
FFAC
013C
0092
0074
FF74
FFFE
00B2
00A2
013F
00E6
FFC7
00C2
FF77
010E
00B1
0087
0134
0193
00EB
00B1
0152
0157
0118
0152
0107
00C2
0105
FF0A
0055
011D
FFBB
011F
00C5
FF00
012B
002E
FF7C
FFC2
017D
FFB1
0153
0150
01E2
FF5C
FF45
0129
FFBF
FF23
0123
FFD3
015C
00E2
FF58
0088
0090
FFE8
009C
00F1
0144
011D
0076
00CD
00C6
01E0
009C
00C7
FF2E
0100
01AE
015F
FFCB
013D
00E1
FFA4
FFAB
0140
FFC2
00C8
0158
FF78
FF3B
FF6B
00DC
FEE8
00FA
FF0D
0134
01C8
00EF
0112
FF4A
0070
0119
01C7
0142
010A
01F5
018C
FF48
00CF
0138
01BF
00F2
0136
00F4
013D
FF0B
00CD
00B0
0108
FFC0
010C
FFAB
00CB
0136
00AB
00E3
003F
00EC
006D
00F1
017B
FEF4
FF8B
0022
013F
FFAD
0170
0037
00B7
0128
FEE0
013F
FEFB
FF24
002A
0021
002E
0142
0106
0123
00DB
0064
0104
0181
FF2A
01C5
00CC
015E
FF57
017A
FFED
004E
0086
006F
012C
FF76
0095
0096
006B
0071
0071
FF9F
01DA
01D2
0142
00F1
0036
FF12
00C3
FF2F
FEFA
FF48
0003
FF7D
0066
00D4
004E
01A5
00BA
00B4
FFA0
00AF
0094
00F4
FEF4
01C0
00F0
FF6E
004B
00DD
FF4A
0056
00E8
0182
FECE
FF15
FF3A
00B1
00FC
00FF
FF23
FEEB
FF8B
015C
FFA1
0147
00AD
0115
FF87
00DA
FF57
FF22
0060
016C
009A
005B
00A8
FFC8
007F
00BB
00E6
012B
00D6
0116
0046
0134
0125
0055
FF20
FF7D
008A
0084
FF5E
FF0B
0083
FF07
0145
FF57
00B2
0042
FF11
0016
FF34
009B
FEEB
0066
FF70
FFAD
00AC
00A9
FF8B
FF21
FF98
0042
008F
0058
0098
0105
00B8
FF28
FFE2
00F1
00CE
0140
010B
FF05
00A3
FF36
00D9
0115
003D
003E
012E
015A
0045
0102
008B
0076
00AD
00B3
008C
0077
FF5E
FFCF
015D
0031
00FF
0101
FEF4
00AB
FFFD
FF1E
FF07
0189
FF4B
0062
0184
0144
FF07
FEFB
0166
FF21
FEFA
00D4
FF19
00E4
005D
FF37
00D5
009D
FF86
0081
0093
00AF
00D4
00B3
003B
00EB
0163
0031
004C
FF5E
008C
0193
01C3
FFD3
00C9
0037
FF9A
FF7B
0076
FF11
006B
010A
FEEB
FF5A
FF26
0101
FEFC
0114
FED1
00C5
00EF
007C
00C0
FF45
0002
0101
00D4
0122
0187
019D
0129
FF69
003F
004D
011E
015E
00F9
00CA
005D
FF25
00F4
00EB
00AE
FF94
0090
FFA1
0059
018A
008C
008E
0103
0131
012A
00C3
01C3
FF8A
FF5B
0061
0117
FF48
0163
00E6
00D6
0112
FFB9
011B
FF69
FFBA
0039
00BB
00AC
01A9
0064
013E
0051
007E
0093
0148
FFB2
0183
00D2
0116
FF6E
019F
FFF1
00E4
0133
00F7
0119
FFB1
00D4
0111
009B
00C9
0087
FF57
0114
0209
01DA
00EB
FFFA
FF43
01A9
FFBB
FF54
FFBB
FFF3
FF30
00CD
00C4
0094
01C3
0035
00BB
FFD2
00F6
0067
006A
FEDD
0190
00EB
0033
0063
00AB
FFA0
0085
012D
0173
FF20
FFAE
FF0D
00FD
0059
00C3
FFB0
FF77
FF27
01AC
FF49
0173
0138
00B4
FFB0
00F0
FF2C
FF39
008D
0167
008B
0139
00F7
FFDB
008D
00A8
0181
00D4
0176
0116
0091
0193
0155
0110
FF78
FEFB
00D3
00BC
FF88
FF72
0013
FEFA
013A
FF05
0088
0080
FF59
005D
0023
0042
FF42
00E6
FF21
0076
0071
00A7
FEE1
FF70
0004
00B6
013F
0032
006C
00FF
003D
FF2E
FFAB
00A2
00A0
00A9
012A
FF58
00E0
FF6D
0176
008A
0051
00D4
00BD
0163
00E4
0089
009B
00A2
0077
00C5
0078
0094
FF24
0021
018D
0097
00FA
008C
FF23
005D
00BA
FFAA
FF3E
01D2
FF20
00F8
0185
011B
FFB2
FF5E
0123
FF69
FF32
008D
FFA4
008C
0092
FF9C
00DF
00C6
FF6F
00DF
004C
012E
00BA
0089
0094
010F
0121
00FB
0066
FEF6
0072
0189
0127
0029
0087
0053
FF4D
FFDE
0115
FF0A
00E1
0134
FF36
FFAE
FFCE
00EA
FF15
0125
FF49
0078
015F
005B
007B
FF71
006C
0118
0105
0103
012C
01BA
017A
FF78
00DD
0103
0123
00F2
0104
0092
00A6
FF51
00BE
008A
00F6
FF89
00CB
FF3F
00C3
013F
00BF
00FA
0161
01E1
0222
022C
FF4D
00B3
00E7
FFDC
0060
0061
FEB0
0209
01FF
0047
0132
0176
00DF
0051
FFA7
016E
018C
FEF6
01CB
FF30
01E7
FF9F
021B
0183
012A
FEBF
01CF
FFCA
00E3
FF97
006A
01A6
01D7
0243
0035
005A
0172
020D
FF7A
001E
FFAB
00E2
0011
FEAA
01E1
0205
FF67
014C
FFE7
0141
00F8
009E
FF55
00C8
0224
023B
0235
FF62
FF56
0194
001D
01EA
01D0
01EC
00C3
FFF6
01AC
FFE0
0238
FFE3
011C
0221
018D
FEB5
00A4
011E
00BE
01FE
01C5
01FF
007C
00B9
0157
0246
00D4
00FC
01FB
0186
00EB
0159
014C
00DE
0246
01E0
0210
01D6
0232
00BA
FFB1
01F8
004C
024E
01FF
023A
01DD
FE9F
020C
020C
00B2
00CA
022F
0207
00A8
00CA
FF10
00F3
0238
0119
0246
FFAD
0073
0023
00BB
0179
009D
01FA
012F
001A
0008
01F6
0046
017F
00A2
022A
01C4
FF1E
023B
0180
FFC4
0128
00B7
01A8
FFFF
0195
FF99
012B
01BF
00E0
01DA
0204
FFE4
0185
0238
01A2
0208
01AC
01E6
01A1
01F4
01A3
0196
01E2
0080
FFEC
0177
007A
01B5
01B9
0048
01CE
FEFC
00DE
009F
0206
008C
01FF
0016
01B9
00A5
00FE
014B
0097
00C5
01E5
0070
0185
01A9
00B3
01F4
0189
00EB
01A3
017D
0228
018D
0207
01F5
023B
00DA
01AA
0180
00C2
0230
FEBE
0237
FF08
01C4
01F3
00D0
00C4
0194
0072
023A
01AE
008B
00A6
0065
01C3
010B
021B
00C9
01B3
FEFB
01B2
01AC
014D
FF0A
017C
0040
FEEA
01F1
01A0
FED9
00C1
01A4
020C
FEFC
0209
01A5
021F
01F9
00D4
01D1
0222
0204
008E
0187
00D7
01D8
FEDD
01BD
01EB
0125
0167
00F3
0130
01D5
FEF0
FF0C
0039
010B
FF31
0175
0093
011A
0105
FF7E
013E
FED5
FEB8
FFE5
0094
0117
017A
00C8
013B
0060
00A3
00C9
01FD
FF3F
0177
00BE
0127
FEA5
01B1
FFF2
009A
010C
00D2
00E1
FEDE
0162
0164
008D
00C6
00EC
FEEC
01CA
01B9
01FF
0110
0050
FF0E
013F
FEDE
FF1A
FEF1
002D
FF35
0119
0190
00B1
01E3
008B
00DE
FF88
0149
010E
00B3
FEF0
01A7
00DA
FFB9
0061
012B
FF3F
00D6
00A5
019D
FF04
FEF1
FF79
00F3
0132
007C
FF46
FF14
FEDD
015E
FF1A
0167
0138
00EE
FF65
0118
FF77
FF21
011D
016A
008F
011B
00D2
FEF1
00D7
0150
010B
017D
0121
00A8
008D
0145
01BE
00DF
FECE
FEED
0077
00AC
FF82
FEFA
005E
FF55
00AE
FEE6
00A5
001D
FF21
004F
FFB2
0115
FF14
0111
FEEE
0050
013D
00B0
FEFC
FF4C
FFE4
0084
00F6
000C
008F
00E3
004A
FEF4
FF01
0110
006D
00BB
00E8
FF5B
0146
FEAD
0153
00AD
004F
00D8
0107
0178
0143
0144
0115
0133
0080
00A7
00A8
0121
FF27
FF9F
0153
0005
00B7
0109
FF10
00F8
003F
FF43
FF14
0189
FF77
00BB
01F5
01AF
FEF6
FED3
015B
FEEB
FF35
00ED
FF43
00EB
011D
FED9
0130
010E
FFEB
009F
00B4
00B7
0120
0083
00CD
0127
0143
0125
00AC
FEEE
0124
01F8
01C6
FFD6
011B
0101
FF97
FF30
00FA
FEC4
00EA
014F
FF11
FEC9
FF72
009E
FF3D
01B0
FE8C
00CE
0192
00A4
00C9
FEDD
0038
0103
01D3
0154
0125
014C
0137
FEBD
00EE
00CA
0180
00F7
0067
00D2
00C5
FEFE
0115
0113
0133
FF46
0150
FEB4
014C
01DB
009E
0166
004F
0198
00D2
00FB
0127
FF57
FFA9
0043
0094
FF2F
01C5
00B8
0070
0054
FFA9
00C6
FF04
FF87
FFC2
00C1
00E9
0144
00F0
0192
00DD
FFD8
00B5
0180
FFA5
01D6
010A
014E
FF7A
00F1
FFCD
00A7
00C9
0116
00BD
FF68
00F8
00A9
FFD6
FFBA
0091
FF3F
0143
0114
0122
00DA
FF64
FFD2
00EA
FFE1
FF7E
FF89
FF64
FFD6
00E6
0148
0054
0184
FF9B
0101
FFE2
007D
00BA
0107
FFB1
0155
0092
FFC3
0087
0025
FF30
007A
0102
017A
FF35
FF0B
FF79
004F
0074
00A3
FF2B
FF1C
FFB3
00F2
FF2B
0134
00B2
0068
FFCE
0066
FFB9
FFA2
00FB
00F8
00E9
0083
0091
FF06
FFED
0081
0102
00A8
0123
00C8
00B3
016A
00EF
007A
FF57
FEF1
00A9
0110
FF32
FF09
FFA6
FF2D
0109
FF7A
0032
FFD4
FF6E
0034
FFA7
0076
FF9E
0040
FF66
0075
0015
00C7
FFD3
FEFE
FEFF
0108
010E
FFC7
007E
00B7
FFCE
FF9E
FF93
0033
FFFD
00C9
0069
FFB9
0085
FF5F
0128
0046
00A0
0088
015D
015B
004F
00E9
0087
003A
0053
008A
00E9
0077
FF4C
0048
012E
0022
005D
0052
FF1A
006A
006A
FF9A
FF33
0193
FF99
009B
0179
0110
FF1C
FFC5
014D
FF34
FF07
009F
FFAD
00CB
0097
FFB7
00FB
00A9
FFFE
0065
00AB
0057
00C6
00D2
00DB
00B9
0164
0088
00CD
FFC0
0064
01A4
00EA
0023
00FD
0077
FF75
FF55
00CA
FF0A
00A9
00EE
FF14
FFB7
FF99
00C9
FF29
0122
FF7E
00E0
01AE
00E8
006F
FF29
FFA6
00AC
0130
0174
013C
019B
0130
FFD7
0080
00F5
0154
00A9
00E9
0038
00FF
FF3D
0081
00C8
0091
FF40
00EB
FF9B
0076
0191
00B9
0091
00D6
0130
005A
00A4
0191
FF69
FF6D
00A5
0093
FF6A
013A
00AF
00CC
009A
FF58
00AC
FEF0
FF6F
008E
009B
00E6
018A
011B
0108
0060
0090
007E
01C0
FF02
0160
00A1
016B
FF7C
01AD
FFE2
007C
00FB
00D7
0159
FEF4
012E
00B7
0039
00AA
003E
FF6B
01BC
0199
0187
011D
006F
FEF2
011C
FF45
FF76
FF01
0029
FF06
00D0
0142
00E0
01A6
008A
00CF
FF78
007C
0047
011B
FF93
0143
00BE
FF42
00DA
0116
FF0A
00F3
00BD
013B
FFBE
FF5A
FF22
00CA
00E2
00BE
FF8A
FF42
FF20
0115
FF0F
0153
00CB
007B
FF61
00D2
FF83
FF64
006E
01B1
0076
00F9
00DE
FF44
00E1
00BC
0103
0151
0175
007F
0089
0177
00E9
012D
FF25
FEF7
004E
005E
FF88
FF13
009B
FF48
00A2
FF65
007A
00AB
FEDD
0096
FF53
0117
FECE
00B6
FF40
0068
0106
004B
FF24
FF54
0025
00A6
00C9
006E
010B
0074
00A7
FF0B
FF7B
00F2
00A9
00BD
010D
FF6D
0124
FF6B
013A
009C
006F
00CB
0140
0122
00CA
00F3
00CF
00D1
00CD
0103
010C
00E3
FF04
0075
01A1
00A8
00C8
00AD
FF12
00EB
FFF1
FF7D
FF1F
01C2
FF67
00A2
015B
01E6
FF80
FEF9
01AA
FFAC
FF16
00C4
FF3F
0099
00CC
FF17
0123
0108
FFC9
005B
00D6
0117
00A5
0098
011A
00A2
0136
006E
0079
FFA5
00C3
011E
0181
0016
00D0
005D
FFCE
FF54
005F
FF1E
0063
00E8
FF28
FF3D
FF14
0106
FEC3
0104
FF61
0051
0147
0065
0067
FF02
0080
0065
0133
0180
00CC
01AE
01AD
FF0E
00AD
00EF
01A3
0172
0093
00CA
011E
FEFC
00D5
007B
0126
FF3C
0102
FF93
00DE
0125
0127
00E3
0127
025E
014B
01E7
022B
FEA6
FEA9
00D2
012C
FF2D
025F
0129
01A9
0113
FE72
01FD
FF2E
FEFF
FFA8
01D0
0188
0245
01E3
01D2
01D8
0105
01D3
0209
FEC4
0283
01BE
0259
FE58
01D8
FF26
0209
0192
0141
01DC
FF2F
01E8
0210
FF9C
0103
00B0
FEA7
0229
028B
020C
0138
FEB7
FF31
01EB
FECE
FF24
FEF2
FF68
FF02
011E
019B
0126
0293
FF87
01A1
FF09
0140
0168
01AE
FE8F
01A7
0143
FF04
014C
008E
FF1B
01FD
01FD
0237
FE7F
FF04
FE81
01CA
01B7
01DD
FEC8
FE98
FEAC
0191
FEE3
0275
01F0
01D4
FED3
016F
FEB6
FED5
015E
0250
0150
0134
019A
FF1C
013D
0160
0203
0181
01E1
01AB
016B
0260
0260
0179
FECC
FF06
01B0
015A
FE9C
FEFD
FF6E
FE68
0217
FEB9
01D8
006B
FEA1
012A
FFD1
015D
FE65
01C3
FF22
FF80
00F5
01AB
FEC4
FEB2
FF39
0128
0205
FF11
0156
01A3
00F5
FF1B
FF2F
0190
00B6
017D
00AF
FEDE
01AD
FF30
01C4
015B
00AE
0173
01D0
01E4
01E4
0143
0205
0137
01A2
0188
0132
01CA
FF4D
FFEC
0234
0007
01E5
01DA
FE50
01F3
FF57
FE8A
FF0E
021D
FE71
013C
0289
01DA
FEAA
FF3C
0251
FEC7
FE59
01AD
FE8A
01FC
01DA
FEF4
01DF
01C0
FEFE
0137
01CC
015A
0131
016F
01B6
0127
01EA
0131
01AF
FF21
015F
029E
0201
FF6E
0150
0175
FEA8
FED4
014C
FF2E
0189
0166
FED6
FEA6
FE83
01AA
FE82
0225
FF27
0175
022A
0168
0167
FE94
FF1D
01C5
01B5
0258
01EA
0249
01EB
FED3
0120
018F
0269
01BD
0156
015D
017A
FEDB
01A2
013A
0109
FF40
017D
FE70
0185
0284
0159
0120
0129
01D9
011A
0148
01DA
FF71
FEC0
0127
010B
FEC1
0251
0170
0113
015A
FF54
019C
FF5B
FEC8
FF7D
017D
00E9
01A4
0189
01DF
01AE
00A0
0154
01E0
FEB8
020A
016C
018A
FEC5
023E
FFB3
012A
0157
0183
0184
FEBF
01AA
01A8
FFEC
009D
0130
FF4F
01CE
01EF
0214
00FF
FE69
FECF
0225
FF79
FF27
FF60
FF96
FF4B
016C
01ED
012C
0230
0021
0149
FF18
00F1
018F
0198
FEF6
0154
010A
FEBD
017C
00E3
FF75
0193
0126
01DE
FEF9
FF5E
FF53
017E
017D
01CC
FEAD
FEB8
FF1F
01C8
FED6
0233
0164
01BD
FEFA
0170
FF31
FEDB
0152
023C
016F
0171
012C
FF36
006E
014C
019C
0193
01A8
0137
013D
023D
01F3
0147
FF0E
FEC0
0157
01BB
FEC6
FF3C
FEF5
FEB1
0156
FEF7
0138
012F
FED2
00E3
FF71
012A
FF1B
00D6
FF04
FFF4
012A
01B1
FEB8
FEA9
FF7B
0128
016D
FF4B
00D9
0102
00B8
FF6E
FF1C
0179
00A0
01C4
00F1
FED0
011F
FF51
0195
01B4
0085
0134
0200
0217
0153
013A
00EB
012D
01B4
0107
0163
01AA
FF2E
FF73
01AD
0067
0104
0142
FEAA
016D
FFEC
FEC2
FEF3
01E4
FEE5
0165
024A
01FA
FF64
FF51
018C
FF45
FED9
01B4
FF76
01C2
00F4
FF01
015F
0182
FFA6
0136
0195
0120
0147
011E
01BC
00E9
01E8
00F8
0129
FED7
012B
01B2
0195
FF91
0191
00F5
FEFB
FF67
00FC
FF71
0184
0158
FE98
FF5B
FEE7
013C
FEBF
01E8
FEFF
0198
0212
0123
01AC
FECD
FF9E
0193
0181
020D
023A
0258
01C3
FEFE
018C
01BE
0245
014B
01A4
01A5
0158
FEF5
0161
0180
01C0
FEB4
0145
FEBC
0110
01C2
0142
0136
0065
0123
00D0
0091
0189
FF30
FEDF
00A9
00D3
FF89
01D9
0068
0087
00B8
FEF5
00DA
FEC8
FF7F
0047
009F
00A3
018C
00F1
0195
00FB
00D6
00E1
01D6
FED5
020C
00BE
01A0
FF30
01B9
FF97
011A
00AB
00BC
00E5
FF70
011A
017D
0086
00EE
00BE
FF25
01E0
0145
0197
00FC
FFFD
FF00
00F7
FF1F
FF11
FF26
0011
FF05
0065
011B
0104
01E6
001C
011E
FF80
0141
0092
00FA
FED5
0187
0117
FF64
0060
00C6
FFB3
00C9
010F
01A8
FF03
FEE6
FEF5
00A1
0125
007E
FEFE
FF78
FF63
010A
FFA6
0180
014A
00F6
FED0
0070
FF6E
FF17
0119
0147
012F
013A
013A
FF58
010C
0144
0144
00C4
0144
0079
0111
0146
00F9
014F
FF16
FF0C
0077
0124
FF35
FF07
FFF3
FEF5
00B5
FED2
0095
FFFA
FEEE
FFED
FFA4
00AE
FF22
0123
FF3B
006F
0067
0090
FEC9
FF55
FF9F
00B1
00E4
0036
007D
00E4
0065
FF1A
FF50
007E
0117
013C
0161
FEFC
011E
FF30
0129
00E7
00BC
0137
0168
0148
00D7
0123
0141
00E1
0137
00F7
010D
0111
FF87
FFB9
01B8
0020
00CD
00C9
FEC9
0124
005B
FF43
FF78
01CF
FEF3
008A
01D1
01D0
FFA2
FF7D
01F9
FEFD
FEC1
00AF
FF6B
0171
00E4
FF75
0090
0119
FF93
009E
0104
00DB
00AF
009D
0111
013E
011F
012A
0090
FF74
0159
01D7
01E7
0007
0078
00DF
FF43
FF80
00F6
FEFD
010B
0153
FF62
FF82
FF37
008B
FEE8
00E0
FF33
00E1
0166
00CE
011A
FF5C
FFF4
0153
01D0
0130
015D
013D
01B7
FF51
00FE
0104
0156
016A
0104
00CF
00F1
FEEC
0111
010A
00AE
FF0F
012E
FF01
0129
018D
00CB
00AC
0198
01EC
01DC
01EF
0221
FEEB
FF04
015A
0132
FF07
022F
016E
015C
0106
FE9D
01AF
FEFD
FEA7
FFCB
0145
0149
0234
01E1
01DA
01B0
012F
015A
0254
FEC5
02A5
01E6
01BE
FF05
01C1
FF64
0164
01B6
0185
0210
FF2E
01EA
01FF
FFB4
00B9
00AB
FEF9
01F3
0260
01F1
0158
FEFB
FEB2
01F5
FE91
FF2C
FE7D
FF5E
FEA6
01A3
0201
01E7
027E
FF32
0143
FEA4
01BB
0138
020A
FEE7
0195
018E
FE41
01A2
013D
FEBD
01F2
01C1
01A5
FE7A
FF1E
FF33
01EA
0176
01CA
FE89
FF3D
FF0E
01B0
FEEA
01F0
0154
0229
FE9A
016B
FF0F
FEB1
020A
01CF
01CE
0191
01A9
FE78
00FD
01CD
0236
0224
01DF
01F9
01E6
0204
01DF
016D
FEE3
FEC5
017B
01DF
FF23
FE5D
FF79
FEC2
021F
FF24
01A5
00CD
FEA7
00E4
FF01
0133
FE5E
016B
FE8C
FF97
009E
0165
FF11
FF0B
FF21
01EB
0163
FFE1
0131
013B
009A
FF2D
FF27
01E9
0082
0189
00A9
FEEE
01DA
FECE
023D
0205
0117
01F5
018F
0218
01CB
015D
01BF
01D9
019A
01FB
016C
0137
FEF8
003C
0267
00A4
01CE
0153
FECB
01D6
FF7E
FEC7
FEFC
021C
FEED
01A4
01C2
01E9
FF0D
FEB4
0226
FEF4
FF13
012A
FF1F
0158
0208
FEC2
0179
016A
FF27
0159
01F0
0156
01B8
012C
0202
0129
0299
01BB
01C8
FF30
020A
0269
01CF
FFA7
017B
01EA
FEB2
FEE4
01D7
FEAC
01A1
015E
FEF4
FEAD
FF25
0154
FE51
01E9
FE89
01BD
01C6
01AC
0169
FE99
FFB3
01A1
0235
01E9
01BC
0282
025A
FF38
012F
01E8
028C
017F
0139
013E
01C9
FE53
01DB
01F1
01D9
FEEE
01AC
FE8D
01A3
026C
01D5
018F
00C5
0132
010E
00B0
FDFD
0059
003E
0024
FFB7
005E
FE47
00CB
006D
FF9F
00B2
0150
0090
0010
FF88
009C
0092
FE4C
008B
FF2D
0106
FFDD
0114
00C7
00AA
FE26
0139
FEC0
003A
FE6A
001D
00DD
006F
0153
FFAA
FFFE
00C9
00F3
FF31
FFE1
002D
0021
FEE4
FE58
007C
00CD
FF8E
0065
FF0D
0079
FFFB
0060
FFC1
007E
005E
00EF
0102
FE04
FF0A
00D3
FFFE
007A
0111
00C9
0049
FE60
00EE
FFE1
00F5
FFCB
001A
010D
00D5
FE22
0058
0084
004C
00D1
00ED
011B
0082
009B
00C6
00A1
00B8
FF90
0137
0097
008D
0082
0088
002B
010C
011D
00E3
011E
0095
FFDF
0012
0102
FF31
0137
00E8
00C6
00B8
FE09
00B6
00B6
0020
003A
0126
0098
0048
007C
FF50
0016
00B8
FFFC
00E0
FF93
0007
002E
0077
00BE
FFE6
0065
00B0
FFEB
FF95
0094
0076
0048
005D
00E3
00EA
FFB5
0134
0083
003D
0098
0030
00DE
FFEA
00A1
FFC0
0091
0118
009E
0134
0136
FFD0
006D
0144
0114
009F
012E
00EC
00F0
00A6
0086
00E7
00B2
005F
FFD9
00FE
0013
0115
00F4
006E
007B
FEF4
FFFF
FFE4
014A
0096
012D
FFAB
00F1
009C
007B
008D
0055
008A
006E
0012
008C
007F
008D
00A4
0109
FFE5
0135
009E
00FC
0079
00DD
00A8
0139
0039
0092
00F5
0018
0085
FD8D
0137
FFB4
005D
0128
00A4
009C
00FC
0098
00A7
0140
0028
FFE5
0003
012A
0021
00F6
FFFA
0097
FE5D
007F
00E2
0068
FF29
00E6
FF92
FE81
015E
0111
FE00
0009
00CE
00FA
FE1C
008E
008D
00DF
00AA
0018
00FE
00DF
010C
002E
009D
0042
00DE
FE77
008A
00A9
011C
016B
015A
00B1
01D4
FF96
FF59
00B4
0093
FF97
0198
013F
0086
00FD
FF45
0107
FF37
FF2F
008D
00B2
00AC
01F8
00D8
0191
00F1
0070
014F
01AF
FF76
0215
011D
011E
FFB2
019E
0059
00FC
015C
0138
0120
FFBC
00C3
0154
0007
000D
00D9
FFA3
018F
01C9
015F
00B0
FFD6
FFF5
01C7
FF48
FFCB
FF45
FFEC
FF86
006F
018D
00CF
013F
FF30
0134
FEDD
00F4
012F
015C
FEE9
017A
0104
FEFF
00C0
00DA
FFD7
012C
0107
0185
FF66
FF70
FFDB
0096
0132
00C3
FF8B
FF79
FF32
0190
FF2D
014E
0124
0150
FF3E
00C7
FF69
FF0D
0110
01C0
0088
009E
0111
FF77
0024
00A8
013D
010E
0155
0126
0148
01E2
01D6
00D4
FFB4
FF24
0158
00B4
FF23
FF35
FFBE
FF6F
00D1
FFDF
008E
001F
FF13
0038
FFFE
0159
FF62
00C7
FFFE
0028
00E4
0111
FF35
FF56
FF09
0093
00B7
0058
0132
00AA
0016
FF13
FF62
00F6
001E
00FA
00AD
FF8D
00AD
FF38
01A6
0129
0042
0112
0171
01C6
0119
00D3
00EB
00B5
00B6
00FC
0119
00E4
FF68
0073
0152
0044
00A6
013B
FF5C
010E
0069
FF1D
FFC1
01F9
FF68
00B8
01E0
0184
FFD2
FF95
01EB
FF25
FF0C
0107
FF51
00A6
00FC
FF3B
0132
0109
FF9B
0114
009E
00CC
00F8
0110
0152
012C
01D0
0103
0149
FF0D
00B3
019F
018A
FFE3
00D9
00B2
FF39
FFC7
013C
FFA8
00F1
0124
FF2F
FF68
FF65
00AC
FF28
0127
FF6A
00FB
0136
00C9
00B4
FF86
003D
00DC
01DF
01B0
012E
018F
01B0
FF28
009A
011B
01A9
010A
00F2
012C
0151
FF86
014C
00AD
0090
FF57
00FB
FF62
015D
01A9
00F8
00C0
018E
00EB
0162
01A1
FDF4
00E0
00B4
0016
FFFA
00D1
FE3B
017F
0163
0002
0095
01B9
00A4
0087
FF47
012E
00DB
FEC4
0123
FF4B
00D9
FFE0
0139
0129
010B
FE31
013E
FF1B
0099
FE60
0107
0179
00CA
0127
FFDB
006C
016D
013F
FF94
0003
FFD6
006B
FFA0
FE94
00D3
016F
FF66
00DA
FF53
00E8
007D
009C
FF7B
0112
00DD
0190
00E4
FE44
FEFD
00C9
004B
00F8
00E9
011B
0110
FF4A
012C
0082
014F
000C
00FF
0101
017C
FEFF
00F6
00FD
011B
0164
0127
00BD
0070
00D9
006A
018C
0076
002E
0181
0104
00A1
013C
00FE
00BC
0173
017C
0101
0108
00F8
007D
FFD0
00FB
FFB3
014A
014E
013E
0167
FE7C
00F2
00E3
00AD
00CA
0101
0123
011E
004E
FF2A
0046
00FC
00D1
0117
FFB5
0098
FFAD
0103
00FD
0061
0123
00AC
FFD3
FFB0
010E
00FB
0092
0051
017E
0155
FF23
019F
0115
FFDD
0077
0093
0167
002B
00DC
FFC3
00B0
015C
0097
017C
019B
FFBF
00D9
0160
0182
019F
0129
00EC
0121
00E3
012C
0114
0106
0072
FF78
0144
0017
00C1
00C6
00F4
0133
FF7C
00B4
004B
0148
00D2
0124
FF8B
0102
00C2
00F3
0114
0044
00A8
0156
00F0
01A8
016E
0103
0147
00ED
0070
019B
0110
019C
0117
00FF
00DC
0150
0015
0113
0119
00FB
010F
FEA1
0132
FF24
016E
011A
0027
0096
017D
0043
0141
0178
0119
003F
00D1
00FF
00CA
0173
0060
00CA
FE8F
00FC
0121
00B2
FEF7
016C
FFD7
FEE8
0109
014B
FE1E
0092
0145
00F3
FE2D
00F8
00E2
010D
0131
00B6
0106
0174
0101
0097
0151
0119
00C1
FE78
00DE
0103
00A8
0144
00F8
00C3
01A5
FF89
FEFE
00BE
FFF2
FFC8
00FA
00FD
00FF
000C
FF68
00A3
FF3E
FF69
0007
0049
0058
017E
0122
0183
00E5
002F
00CE
0193
FF1C
0160
010C
016A
FF52
01A1
FFED
00E8
006F
0127
0101
FF7F
0079
012E
000D
000D
003A
FFDC
0126
012B
01A9
0061
0018
FF69
0128
FF44
FF28
FFAF
FFF4
FF95
00BB
00E1
0130
0150
FFF3
0101
FF36
00FD
00BB
0100
FFCF
00DE
00AD
FFB8
0058
00A5
FFAC
0096
009D
0176
FF0E
FF16
FF06
00BF
00D9
00DE
FF71
FF5A
FF1F
018B
FFAD
013D
0069
00AA
FF83
0094
FF06
FF96
0073
0144
0075
0106
00D7
FF94
0049
011C
018B
00DF
0109
006C
0101
01C2
0169
0094
FF6C
FF4F
00C7
012A
FF9E
FF8E
FFEC
FFD7
0146
FFCF
00C5
FFCF
FF36
0053
FFD9
00ED
FFC4
00B5
FF95
002D
0041
009E
FF84
FFBB
FF39
0130
0136
0081
0082
0060
FFB7
FF52
FFAE
00A4
002A
0124
0009
FFB7
0121
FF1C
0157
00E4
FFF4
0125
00F3
015A
00E5
00DA
011F
00B3
006D
009F
0098
0067
FF2A
0035
0184
FFD8
00D0
011E
FF6D
00DC
00A8
FFA6
FEFA
0123
FF7F
00D6
011D
016F
FFF5
FF3E
01C6
FF76
FF52
0066
FFA4
00D9
00B5
FFD5
011C
0123
FF94
00DD
008A
011A
0074
0107
00D6
0099
0139
00DC
00E4
FF13
0060
0104
01B2
0073
00D8
00D9
FFBC
FF14
0127
FFC1
0134
00D5
FF5B
FF97
FF3C
0114
FF09
0156
FF84
004D
0181
007D
005E
FF08
FFD5
00EB
0120
00F8
00D9
01AC
0143
FFED
00DB
00F1
0148
0148
00BC
0060
00EC
FF6A
00FA
00F2
0085
FF33
0107
FF35
00A2
0161
00F4
00AA
006C
0186
00C6
00A3
0135
FF8C
FF4D
0057
0013
FFAB
00C4
005E
0055
00BC
FFD4
00F2
FEE9
FF80
0080
001A
FFEB
0151
0084
0178
0026
0028
0010
0180
FF9A
017D
00F7
00B9
FEF1
0112
FF87
0046
00BA
00E1
00AF
FF46
0047
0066
0083
FFE0
0006
FFCB
00F3
00EB
00E2
00B7
0035
FFD3
00A9
FFD4
FF40
FF0A
0054
FF37
00CB
00F3
0035
00BE
0049
0095
000A
0095
00BA
00AB
FEF2
012B
007F
002B
001F
007A
FF69
00F6
00F3
01BF
FF6F
FF31
FFD8
0051
0098
00CF
FF2A
FF84
FF69
00CB
FFDB
0099
008F
0069
FF97
0029
FF8E
FF31
010C
00E8
00AF
0037
0019
FFAF
0039
00DA
00E8
00ED
00F5
00CA
006B
00C4
00F7
00EF
FF2F
FF50
00E1
00CE
FF48
FFB8
0057
FF23
006B
FF1F
0055
0089
FEF7
009C
FF5C
00AC
FF05
0046
FFD2
FFF3
00C2
001E
FEF0
FFDD
FFA5
0088
00C8
00A2
00D5
008B
004C
FF47
FFB4
0072
0022
00D3
00F3
FF9D
0022
FF52
00FA
002D
00AE
00CF
00BB
00E3
0012
00B8
0044
009C
0088
009B
0022
008C
FFD3
00B9
0132
003E
00D2
0081
FF5A
00C1
FFFA
FFB7
FFAA
00FA
FFA1
00FF
00D8
0158
FF77
FF44
00F8
FF1E
FF59
0052
FF99
0072
0097
FF86
004C
00A4
FFC3
0088
0055
006B
008B
006F
0088
00D3
0160
0080
008A
FF6E
00C0
014B
00EA
0043
00B9
009C
FFB8
FF1F
0083
FF1A
0042
00CE
FF77
FFF3
FF9E
00DF
FF96
0123
FF44
0040
0103
0034
0063
FF7B
00B1
0092
00BA
0122
012A
0143
00BB
FF6F
0097
0023
0155
010C
0025
0070
0072
FF12
0086
00D5
008D
FFCA
00EE
FEF3
00B9
017A
0064
0107
007F
0196
00A1
015D
01C9
FEEA
FF87
008C
0112
FF02
020B
0139
012A
00F8
FF2F
0193
FF1F
FECD
0005
0142
0094
015B
00E1
0143
0117
0148
014C
017A
FF01
01BF
00EF
01D1
FF1F
0193
FF6B
011E
00C5
00E7
0117
FF76
00D9
0189
000D
011C
FFFA
FF2C
0171
020E
016E
00CB
00BF
FFCB
01BB
FF99
FF08
FF58
0022
FFD6
010C
01BC
008E
019D
000A
0135
FF3F
014C
0149
0158
FF4C
0170
0145
FF1B
00FB
0092
FF58
00CC
018D
016E
FF6F
FFA0
FFCD
012C
0140
0096
FF1D
FF1E
FFB1
011A
FFA3
01ED
00E1
0143
FF86
00F8
FF93
FF39
00E6
0197
013B
0128
015A
FF90
011C
00AF
018C
0109
010E
00C6
00E4
0168
013B
00DA
FF81
FEED
0144
0103
FF05
FF57
FFC4
FF05
00F6
FF3D
00D1
007C
FF4B
0068
FF6F
012D
FECB
00CC
FF94
0005
00C6
012D
FEC9
FF8B
FF76
008F
0183
003C
013B
00DF
0072
FF18
FF3C
00B4
00AF
0144
0146
FEFC
00CA
FF19
0156
00C6
0084
015A
00FD
01D1
014F
0139
00CC
0117
0106
00B3
00EB
0126
FF96
0057
01CC
002E
00FE
00BB
FEEE
00BF
FFA0
FF8F
FEF9
0130
FEAF
0128
0151
017D
FF0F
FF42
01B1
FF3E
FF39
0096
FF62
0121
00ED
FEE1
00E6
00D0
0038
0153
00B0
00F7
012C
00F0
00CB
012F
01F9
0096
0154
FEF7
0147
021B
0173
FFC0
014B
00F0
FF59
FF7B
00F2
FF5C
0124
0108
FF49
FF7E
FF0A
0135
FF67
0190
FF70
00D9
01D4
0154
0140
FF43
FFFD
0114
01BD
0162
01C6
01F6
0217
FF9C
013A
009C
0149
018E
00CD
006F
0125
FF65
012C
00B2
009F
FF1B
00DC
FEDD
010B
016C
00D1
0111
0322
02DE
02A6
02E7
FFE5
00C9
01A4
FF14
FE87
00E4
FF0C
033F
0305
FE5B
01DF
030B
011F
016C
0149
0341
032D
003D
02CB
008E
02DB
FF25
0350
02AA
011C
FFF5
0326
0134
00E6
0006
0271
030C
0385
02FB
FEC0
0131
0296
02B6
010B
FEBA
FEFC
013D
016D
FF93
0324
02CC
FF4C
0181
018A
0141
011A
00F7
007E
014A
0310
02CF
02D4
FF4C
011C
02AC
0132
0301
0334
02D9
00F6
FEF4
0294
0103
02D0
FEA4
010D
02AC
0369
FFDB
01D7
018A
012E
034D
02D6
02B8
01BF
01DD
01EE
035D
0110
01DF
02D0
030F
0187
0325
0199
0124
0317
02E6
02D7
02E2
035E
013A
FEE0
02E0
0122
0386
02D1
0351
031C
000B
02C7
02F9
01DF
0157
033E
02D2
00DE
01DA
FFF9
00F7
02C6
018C
030F
FF24
0111
FF2D
024B
0289
0144
031C
0164
0232
FEA5
0312
0171
0172
00CC
0300
032D
00EC
0335
0366
FEAA
0184
0188
02FD
FF6B
0327
FE9F
01A9
02E2
015A
02D1
0349
FECF
033A
033C
0310
034A
0290
02A7
02C9
028D
033F
031F
032F
0141
0143
034E
026C
0325
02F8
0125
031B
010C
014D
00B6
02A4
0127
02A0
0149
0256
01BE
0201
0282
0187
015C
02C9
00E8
0318
0301
018E
0289
02E1
01D2
0366
0350
02C0
02E7
033C
0291
0314
0236
02C8
032D
0109
033F
FFB0
02E2
0115
0321
02D6
0132
0170
028C
01FF
0361
02C2
018F
0134
00F1
02F3
01A4
02C0
01A4
0301
0051
02DF
0290
020E
0187
02F1
0198
FFF5
0306
029C
FF77
018D
032C
032F
FFF9
0343
0305
031A
0359
00F5
0338
034E
02FC
0178
02AF
0114
02BE
0064
032D
02C1
00FC
0171
0112
00F2
FDA4
FFF5
00AF
0032
FF93
007B
FDA8
014A
0150
FF9D
0026
0125
0040
0040
FF7C
013A
00D3
FEAA
019E
FF58
0123
FFA9
0129
0163
009D
FEAF
0170
FEDA
0057
FE8D
FFC0
0103
0111
017A
FF85
FFFB
0108
019B
FF07
FF72
FFDB
0025
FF6B
FE8D
017A
0137
FF76
009C
FFB0
0047
0077
009E
FFE3
0049
00DC
01C0
017B
FD76
FF64
00F7
FFBA
0142
00FF
0199
002A
FE4E
00EA
FF9E
016D
FFAE
0094
00DF
010C
FEC4
009A
FFD3
0091
0119
00D7
00CA
0069
0002
0041
01C0
00AB
FFDB
0170
016F
0032
00C3
000D
007C
0191
0158
0166
013A
00DC
007D
FFD4
0161
FFB6
0159
017C
018C
018C
FE72
015B
017A
0000
0054
00B9
0187
00B1
006F
FF3F
FFF4
0179
007C
0167
FF87
0079
000E
FFD4
00F4
0028
00B9
0045
008E
FFEE
0145
001F
0065
0068
0144
0156
FF75
00FA
01B9
FFDF
0049
FFF0
0163
0000
019A
FF94
0006
012A
008A
0192
0109
0050
0124
0167
018B
00C3
00F1
00E2
0167
0197
0116
0114
0191
0007
FF92
01C4
0097
018D
00FC
0020
0113
FFD4
006A
0040
00FB
0019
01BB
0009
00EF
0029
0046
0151
003D
0075
0146
0079
0196
0145
00B6
018D
00D0
FFF5
0156
00FF
0118
013D
014B
01A4
0149
00D6
0111
0100
0024
010E
FD4B
013E
FF78
00FD
0190
0023
00A5
017B
0072
00ED
0164
0079
0013
0037
00E9
0070
0183
0010
00EA
FE6A
0161
013F
00A3
FF8C
0166
001A
FEB8
0120
013C
FE1F
006A
016D
00EA
FDFE
01A6
0134
00BC
01A1
0014
00BB
00DE
01C3
00AD
0191
0028
0123
FE2F
00D6
019D
008D
005B
00A7
00C2
FE2F
0074
003E
0052
FFFB
FFE0
FD90
0097
004D
006A
004C
00AE
008B
009F
FF59
006D
005F
FEA6
0027
FF0E
0051
FFF4
0091
00FA
0008
FE39
0061
FEC5
0018
FE6D
0072
0093
00D2
00B3
0009
0015
0041
00EA
FF8B
0050
0018
FFF0
FF3D
FE4C
00C3
00AE
FF9A
0093
FF37
FFFA
006D
0042
FFBB
000C
0024
00D5
00CC
FDE4
FF67
00CD
0043
004E
00B3
00F3
FFFA
FF38
006A
005B
0037
00A4
00B9
006E
010E
FEE4
006F
FFF4
0085
0026
0089
0092
0096
0019
005B
0058
006A
FFCB
003F
00D0
FFFC
0024
008F
0045
002A
010F
0065
008F
0047
0060
0013
00F9
FEED
006B
003D
00ED
00F0
FE3F
005A
00E5
0026
0063
0066
00B1
002E
0039
FF9C
FFE6
00E4
FFEA
008C
009B
002B
0089
0016
00D1
0031
00B8
00B3
FFC7
00B0
002D
002F
00C5
00A5
0091
0102
FF98
005E
005E
0040
0098
0062
005F
0010
009C
0045
0009
0058
0034
009A
00D6
000E
00EF
0054
0116
00B4
00AA
00BB
003C
00BD
004B
0086
004A
0085
FF14
0096
0099
0086
0010
001C
0079
FFCE
0012
0031
00A7
001C
0049
FF2A
0091
006F
00C6
004A
FFF5
0060
00C8
00CD
0061
0077
0014
00B7
008B
0007
0035
00AD
00DE
00B8
002C
0069
00F8
FFE2
0088
00C3
00CD
00A6
FD7D
0056
FF25
0071
0043
FFFB
0070
0046
00D3
00CD
00FF
00CC
001B
00B8
0023
0011
00E8
00A8
0070
FE4B
0015
009C
003E
FFC8
00FE
FFE9
FE5A
009D
009F
FE2A
009D
00BF
001D
FE7C
0072
0026
00AE
00E4
00C2
00A2
00AC
0066
0068
0036
FFED
0088
FDFB
0097
00E2
00F6
00FC
004E
0123
01C7
FF7A
FED0
004C
007E
FFCB
012B
00B9
0062
00C2
FF88
00CA
FF52
FF4B
000B
00BB
009E
0187
0109
01B9
00A8
010E
003F
014A
FF72
01A2
00C8
0176
FF3D
013D
FF5D
0115
00BC
0142
00DA
FF8A
00F8
0144
0022
0067
0088
FF86
01A1
019A
0183
007D
00AE
FEE6
0152
FEE8
FF70
FF23
0086
FF95
004B
011D
00A6
0190
009D
0102
FFD9
0092
00ED
0083
FF93
0165
00C9
FFD0
007C
0090
FF75
00A0
00DF
0116
FF29
FF8C
FF8F
009A
005A
00A0
FF53
FF98
FF68
00F8
FF69
0184
00DB
00F7
FF4F
002F
FF27
FF47
00B3
00EF
00ED
00C4
00F7
FEE2
00E1
0064
0137
0091
00FF
00C3
00D8
018B
0164
00B4
FF53
FF84
00AF
00A4
FF5D
FEF4
FFF5
FF48
00A9
FF0F
005A
0063
FF71
00BA
FF81
0078
FF52
00F7
FEFC
FFAC
008C
00EB
FF3A
FFC9
003A
0100
0065
007C
0099
00BB
0020
FEF8
FFFA
0108
00F0
00EE
012B
FF75
005D
FF98
00CC
005E
00AA
0093
0109
00E5
00DD
0044
004E
0051
00C5
00DF
0092
00C7
FF7D
001A
0136
0004
00A0
00E0
FF56
009B
0030
FF3A
FF51
01B7
FF79
00C9
00DD
0111
FF0D
FEE5
0192
FF99
FF63
0033
FF3B
0127
0122
FF08
004B
00ED
FF7B
00DD
00EB
0102
009B
00B9
0065
0053
012F
005A
0094
FEE1
0078
0194
00FF
0050
00A6
00AD
FFB8
FF65
0030
FEED
0097
005E
FED6
FF58
FF27
00FB
FEEA
010D
FEE9
004A
0164
0099
00E4
FF4D
FFD9
0082
00CE
016D
00D0
0174
018F
FFAA
00F9
00E4
0186
0120
00AE
00B3
00CC
FF03
0034
00BC
013B
FF90
0095
FEDA
0092
010B
0071
0077
00D0
0175
00FA
00CF
0181
FED4
FF40
0045
0114
FF43
0180
0082
011E
00D1
FEFF
00FC
FEEA
FF66
0017
0119
0111
0166
00F6
01EE
011C
0061
00D2
0194
FEDD
01BB
0078
01AC
FEC5
018C
FF65
0079
011F
00C4
0122
FEED
0072
00A4
0021
00B4
FFE3
FF5E
0135
01ED
01BF
00A5
009C
FF49
011A
FEC3
FF30
FF5D
0049
FF08
0101
010F
00B3
014E
000A
00C2
FFCE
00C1
00CD
00DF
FECC
011A
008F
FFC5
0082
00EE
FF9C
009C
010A
0165
FEB6
FF77
FEEF
011D
00FB
00B0
FF55
FF20
FF38
01A0
FF07
016D
0118
00B3
FEC8
0098
FEDB
FF7D
00AC
011C
0134
00DF
00B3
FF2E
0057
009D
0133
0169
0187
00A7
0073
0215
00FE
013A
FED9
FF2E
0105
00C3
FF0E
FED1
FFF0
FF5B
0171
FEC0
0060
002D
FF37
FFBD
FF21
0072
FF59
0107
FF0C
FF94
00BB
00C7
FF17
FF7C
FF51
00EA
0133
FF7F
00D0
011F
00BA
FF34
FF99
00A3
00AF
00C7
00E7
FF8B
00CB
FEF9
0191
014B
0061
0138
0117
0113
0076
0122
00DB
00CA
00D9
0079
008E
00CD
FEC6
FFC3
0137
000F
00A6
00D8
FED7
0094
0037
FF11
FF41
0135
FF1D
00DE
01DD
0149
FEC2
FF14
0143
FF7E
FF63
00CE
FF73
0100
00F2
FF38
0070
010F
FF19
007A
00FF
0144
0116
00B4
0105
00FF
01C1
00EB
0128
FED9
00B8
0162
0186
0006
00C1
0073
FF9A
FF74
00CF
FF02
014A
0086
FEB3
FF1F
FF34
008F
FF48
0168
FEA5
00AB
01A4
00E6
00AC
FEDA
0003
00E1
01C0
01C5
01AE
01EE
01D7
FEF6
00FB
00FD
0165
0129
0131
00A9
0130
FEC3
00B0
0123
00FB
FEC0
011B
FF6C
007C
0159
00D1
00AE
0074
002D
00C2
009F
FE55
001D
0060
0076
007B
0032
FE02
007F
0095
006D
0075
00AB
005C
0092
FFCD
002F
002E
FEA0
009A
FEA5
0065
00A3
0089
00D0
00AE
FE1D
00C2
FF08
000C
FE32
0078
006A
00D9
00A9
0000
008F
010B
0100
FF74
0072
FFE2
0098
FF69
FE32
0052
0050
FF62
00D6
FFA6
0013
006D
0066
FF2A
0030
00AC
0110
004D
FD81
FF4F
0069
009C
00E6
005E
00EF
006B
FF87
0065
FFC6
003F
005A
0038
009A
0054
FE20
009B
00CD
00AB
0062
00DE
0085
007C
007F
0017
0061
0007
FFA7
00FD
00DB
FFF9
0052
003F
0028
00A3
00FD
0099
00B5
0056
005C
0057
009C
FFB2
00E4
00F1
0026
0046
FDB9
0067
00A9
005F
00B0
00D2
007C
007B
0089
FF1A
007E
0084
0099
008A
000A
005C
0050
006A
00C5
0058
00DE
00CA
0036
FFEA
006C
005F
0066
0051
0081
008A
FF3E
0042
0049
004E
00BD
00B3
00B2
005D
0048
0009
00B9
0094
0065
0043
00A8
00B0
0041
0102
009A
00B9
005C
00CC
00C2
001F
00FB
0071
005F
00C7
FF7E
0099
002F
0040
009E
008B
008D
FF3A
0026
00B0
00D4
0074
0095
FF5E
00AE
0051
0024
007F
0011
0095
002F
0056
0078
0089
00CF
00A9
00F2
00C6
00CB
00EE
00DA
00DA
005B
00A2
004C
0013
00DA
006C
00BD
00BF
FDB1
003C
FFCF
002F
004C
004C
0034
00B5
004E
00F1
0069
007A
004B
0020
0086
FFF2
00B1
0006
008F
FE43
00CC
0079
003B
FF8A
00A5
000D
FE1F
00CF
006B
FDF8
0092
0060
00F9
FE92
00C0
00C5
0095
002F
009C
0079
0092
0105
00CD
004B
00A2
004E
FDCB
00FB
004A
010D
012F
00BE
00F7
FE1C
00B4
00F2
FFA7
FF99
00CA
FEB1
00B0
0162
FF72
00DF
0161
0096
00C4
FFD2
015E
00D6
FEFF
012C
FEE0
0186
FF77
019C
010B
0071
FEC1
01AC
FF07
00D5
FF14
0122
0117
0154
0171
FFE4
0114
0193
0147
FF77
FF55
FF4F
0098
FFA7
FEA0
00C7
0142
0018
0098
FF45
00B4
00F7
00FE
FFE0
009D
015C
0158
00C1
FE43
FFA2
014E
00CC
0106
015C
014D
008B
FF01
010B
00B0
00D3
FFC5
013E
0137
00F3
FEB2
00DE
013E
00D8
00D1
00F6
00F5
0136
0094
00F7
0164
00F1
002C
00F0
0122
00B8
012F
0093
00DC
0160
00D5
0112
0138
019D
0095
FFA2
00DC
FF4D
00DB
013B
012B
00FD
FE83
00E1
00D1
0099
00E1
010A
0167
0070
00AC
FF40
00DD
012A
010D
0149
FF7D
0129
FF82
0118
0129
00AF
010B
0129
0036
FFBA
00E5
0090
00ED
00DB
00C8
018A
FF82
00EE
0148
FFDF
00FC
012B
00CA
FF7E
00ED
FF42
00F0
0128
00CF
00DA
0135
FF87
018C
0193
0122
0184
018F
00DF
013E
00F3
0171
014C
0117
0101
FF41
0139
0011
014C
0143
0143
013B
FF7B
0142
00CC
0162
0063
012A
FFA0
0088
008B
007A
00F0
007E
0116
00B8
0077
0153
01B0
0074
010F
0111
0126
01B4
015F
0139
0123
00D2
00FF
00FA
FFDA
015A
014D
00C5
01B8
FE59
0177
FF9F
00D7
0193
0109
0138
00CA
00C5
01A0
00F2
0089
00FD
00FB
00D3
0129
0131
00D2
016E
FE57
010D
00C4
012C
FF72
010B
0009
FED0
0130
0137
FE94
00E8
0111
012B
FED3
0144
00FF
011F
012A
0077
00C4
0176
0177
0107
0152
010C
0132
FEBC
0159
011B
00D9
01B4
00F0
00ED
0164
FF51
FF12
00C2
011F
FF6F
01BB
0121
0049
0084
FF93
00DC
FEFC
FF8B
0000
0116
005B
0108
0107
016F
00A9
0059
0098
013B
FF74
0139
0129
0186
FF2D
00FB
FF94
0103
0058
009A
0112
FF16
0125
00E2
0028
008F
00FB
FFF2
010D
018D
01B2
0047
0036
FEFB
00F2
FF18
FF0D
FFA6
005D
FF33
00B0
010F
003D
0162
00E5
00C1
FFCB
007C
00D0
0060
FEF8
016C
0100
FF82
00F9
00CD
FF8E
0092
009B
01C5
FF6B
FF2B
FEEF
004B
00F6
00C7
FF31
FF53
FF2B
018C
FF47
0191
011A
00CC
FF0C
010D
FF4A
FF75
00EA
011C
0094
00E8
0077
FF13
005E
009E
01A9
0134
00FE
00E3
0044
00FB
014B
0061
FF6D
FF60
011C
00D2
FF7E
FEE2
008C
FF5B
00BF
FF21
00E3
0095
FF31
005A
FFBC
00C9
FF4F
00E8
FFA2
FFBA
00C4
007B
FF07
FFB3
FFFE
0054
00E2
0046
008D
0084
00D6
FF6F
0000
008D
00DA
0092
00FE
FF08
00D3
FEE0
0142
00EC
005B
00E9
0163
0103
0098
0076
008E
0073
011A
00E2
010D
00F8
FF1B
0033
0173
0033
00D5
00A3
FF1F
008A
00B6
FF38
FF0E
01A7
FEF7
0128
01B6
01A4
FF8F
FF7F
0130
FFB0
FF32
00B0
FF49
00C2
00C8
FEE3
0087
006A
FF7E
00EE
0078
0090
00DE
0063
0048
0036
017E
00A8
0111
FEFC
0079
0183
0105
00A7
00C7
0069
FF7E
FEF3
0079
FF67
012B
0106
FEE3
FFD4
FEEB
006F
FF71
0127
FF3A
0115
00F7
00DA
00C0
FF5A
FFE6
012C
00D7
0129
00E5
0116
01B5
FEED
00F2
0109
0193
0138
004B
00E8
0126
FF57
0047
00E9
008F
FF4C
0068
FF19
00C4
01B0
00C2
0136
0088
0136
0045
0083
017A
FF89
FF23
0011
00FC
FF99
01BD
0121
0032
00E7
FEE7
00A1
FEE8
FF1C
00AA
0046
00CA
01A9
00DC
0166
00E4
005E
007B
0170
FF17
014F
00A8
013C
FFA2
01BA
FF8B
00CF
005A
0139
0158
FF6A
0101
00D7
00FA
0075
00CD
FF34
013B
01B0
01B2
0055
0094
FF9B
010E
FFC5
FF51
FF6C
0034
FF98
00ED
00C5
010E
01D3
008B
00D8
FFF3
00C3
0081
00D9
FEDD
0126
0086
FF7D
0095
00BA
FFA9
00DA
009A
01CB
FFC2
FF1A
FF59
00E3
00B4
010D
FF3E
FF30
FEEC
0181
FF60
00E6
0086
007E
FF1C
00DD
FF1E
FFA0
0078
0150
0036
00F0
0106
FF96
00DF
00FB
0106
00BA
016A
0096
0060
01B0
0169
0138
FF88
FF1E
00AE
00A9
FF35
FF24
00C9
FEFE
013E
FF75
0112
0074
FF97
0055
FF55
0082
FECC
00D5
FF6F
0062
00F1
0105
FEE3
FFA4
FF9C
0080
0144
0004
0081
009A
00C5
FF00
0005
0100
00F5
00AE
00D7
FF81
0091
FF6E
0102
0113
0023
006D
0142
00D8
00BA
0116
0122
00CB
00FA
00A2
00AD
009F
FF44
00B5
0186
FFF3
00B2
00F7
FF7E
00BF
FFF3
FFA8
FF8F
0119
FF3F
00B4
0119
01C6
FF7B
FEE4
01BF
FF4B
FF88
00F3
FF82
00A6
00DC
FF54
0055
008A
FFA7
00F7
00D2
00E9
0059
00F2
0046
0070
012D
0112
00F8
FFB6
0066
0124
0169
00AF
0051
006E
FF10
FF46
00D2
FF3A
00D6
006C
FF96
FFE6
FF1D
00CC
FEDD
0157
FF35
00FF
0168
00D1
00FF
FEF6
FFFC
00C3
011B
0130
011C
01A4
017C
FF5B
00E6
00E4
0191
00E4
00A1
0062
0074
FF86
0052
010F
00C0
FEEC
0120
FEF3
0127
0170
0102
007B
00EF
01DF
00FF
00FA
FE4F
007B
0083
0007
003C
002D
FE01
0109
0163
FFC0
00AF
0123
FFF3
FFAF
FF04
00E5
0178
FEEF
0186
FF23
0112
FFE3
0124
016C
0086
FE87
0187
FF69
005B
FE7F
0062
0171
0145
018C
FFB5
FFA4
00DD
01AB
FF32
003E
FF6D
FFC0
FF78
FE93
0161
0190
FEC3
003A
FF92
003A
00B3
004A
FF72
004C
012A
0126
0176
FE50
FF80
00F9
FFE8
010D
0168
012B
0071
FF40
0176
FF97
00D6
0027
0096
0164
00F4
FF65
FFF6
006D
0092
0154
01A9
00D8
006D
0045
0021
01EF
006F
0025
0184
0174
009D
0123
000B
000B
011C
013B
0166
019E
010A
0082
FF83
0114
FFB1
0192
017A
0126
00C3
FED1
0149
0160
00BF
FFF4
0176
00E5
FFE5
000E
FF8C
0011
00F4
0019
00F5
0038
FFE8
FFC4
0027
0113
FFEA
01A3
001D
FFA2
FFE2
00C7
0062
006B
0024
010A
0129
FEFE
0177
012C
FFEF
0078
FFCA
016D
0033
0145
FFF6
FFE4
0135
00C6
019F
00F6
FFFB
016C
011B
0115
0123
00FC
011A
00FB
0175
0173
00F6
00E7
006F
FEE7
017F
0051
0109
00DD
0033
00CB
FE9C
007E
FFDE
016E
FFF2
0163
0052
0152
0003
003B
0100
0060
FFF8
0172
0047
00FB
0193
004A
0178
0104
00BD
0171
00EF
018B
01A7
0104
015B
00EC
0091
00E8
0106
009D
011A
FE5A
0171
FEF4
019F
013B
FFEB
FFE9
0160
0077
0145
01D8
00C3
0066
0023
0107
0060
0168
0000
00E8
FE7F
018D
00C6
FFF9
FEDF
015A
FFF6
FEB2
0144
0111
FE93
0070
0167
00C4
FE4E
0198
017B
011A
01BD
005C
017C
0151
01CB
0086
018C
0064
00CE
FEC9
00F3
01BC
0140
0135
00E0
0108
01D0
FEFB
FF01
0025
009E
FF07
0237
011A
0122
0131
FF0E
011C
FEE1
FF61
FF8F
0122
00A4
01F8
0125
020A
00A9
0118
0103
01F8
FEF6
01C0
00EB
016E
FF63
0206
FF5C
014E
00BA
0121
0189
FEB3
00FC
012C
FFC6
00E1
0070
FF77
01E8
01CC
0152
00F2
00AE
FEDD
01D8
FEEB
FEF5
FF1A
FFEB
FEFE
00FF
0193
0137
0214
FF46
00C7
FEE0
00C5
012A
00BF
FF24
0202
00F1
FF68
00B0
00F7
FF8B
00A8
00DD
01F8
FF4F
FF5C
FF12
015D
0099
00A9
FF0F
FF0E
FF69
012C
FEC7
0203
0169
0169
FEE4
00F2
FF62
FF67
011E
020F
00BF
015A
0157
FEC7
012E
00E4
01D7
01AE
01F0
0148
00C5
0167
0189
011F
FF72
FF24
0136
010B
FF66
FF4B
0003
FED1
00D5
FF87
0101
0035
FEED
0087
FFF4
0118
FF22
00BF
FF64
0041
00BE
0142
FF45
FFB6
FF70
00B0
0185
0042
0153
0162
0091
FF21
FFCC
0157
0144
01A1
0152
FF56
00C4
FEBA
0191
00D9
0070
00E6
014A
016D
00E3
0136
0101
00C4
00EB
0105
013D
00FD
FF60
001D
017D
0000
00CC
00EF
FED3
00EE
0029
FF33
FF79
01E4
FEB3
00A4
01A6
01FA
FF11
FF01
015A
FEF7
FF62
00AA
FF76
00DB
0139
FF39
00B2
0135
FF8F
0179
00A3
00A9
0118
0149
00BA
015D
0172
00B4
00C9
FF5F
010C
01A0
01DC
FFAB
0153
011E
FECD
FF1B
00D0
FF1E
0139
00B4
FF17
FF46
FF03
015D
FEED
0139
FF3D
0108
015E
0141
00CE
FEC8
FFEB
010D
0197
01C8
0180
01FD
01C4
FEE8
00DA
010D
01EB
01BE
00C5
010A
00B4
FF2C
00BF
016D
0146
FF69
00AC
FEB0
00CB
01EB
0150
0142
0183
0180
0178
017F
FE3C
0049
00C6
FF9D
FFE3
009B
FE16
00CD
0160
FF5A
011E
01A2
008A
002B
FF66
00A4
016B
FE8E
0187
FF09
00B5
0024
0182
0141
0091
FE09
0174
FECD
0076
FE5B
0095
0121
00F7
017D
FFEE
0082
0113
0125
FEEF
FFEB
FF70
0104
FF99
FEB1
0141
019A
FFAC
008E
FFFE
00B1
0060
00F7
FF3D
009D
00D0
00E8
00FE
FF03
FF2F
0176
003F
0101
0100
00E9
006F
FF2E
00DE
0041
0183
FFC5
00C4
00EB
011B
FF2F
011D
0068
009F
0148
016D
017B
008D
00D6
0127
018D
0089
FFCE
0197
012B
00DA
0124
00BB
00C8
013E
0153
0129
019E
0121
0073
FF71
014C
FF5F
00E7
0141
00F3
010F
FE74
00F3
013D
0120
00EB
0168
0160
00B5
00CA
FF9C
0059
0133
0059
00FF
0028
00E0
FF63
0087
00F1
0063
010E
00D8
0034
FF65
0129
00F2
00AB
008E
0184
00C6
FF18
0107
00E7
FFA8
00EE
007E
0152
FF8C
0154
FFA0
0106
0141
0087
00E3
00CD
FFFC
0147
018B
0121
0182
00C2
011A
00BB
018D
0142
0102
0124
005C
FF22
015D
0036
00E6
0185
003D
0122
FF0D
0110
00D5
0138
0042
01B7
FF8B
00F2
0057
0096
0130
00F5
00F9
00C1
0062
01A0
019C
0100
0108
00BF
00C6
012E
0110
010F
00B3
00E8
00E1
00C3
FFCA
00EA
00DF
00C4
0199
FDD1
017F
FFB5
011D
011C
009F
00FF
0142
009B
00EF
0179
00A9
0051
0108
00F4
00B4
0198
0053
00D7
FF0A
00F9
016C
0100
FFBC
0189
001D
FEC1
0103
00D9
FEC2
009D
00F8
00AF
FE35
0122
0108
00BB
0107
00C0
00FA
01A0
0141
00CD
017F
011D
015F
FEC1
017C
00F1
00A1
0135
0112
0077
0125
FEFF
FEEC
0021
0094
FF17
0188
00DC
00B6
008D
FF8E
00B4
FF34
FF7D
FFD4
009E
00DF
0149
0078
0156
0047
00C0
00BB
0182
FF55
017D
0108
01A1
FF8D
0142
FFB3
00D6
0080
0145
0167
FF10
00F9
00E2
0078
00D5
00B4
FF26
01A2
01AD
01CE
0049
00B1
FF44
0104
FF98
FEE4
FF35
002A
FF87
00BF
0125
0089
00FF
0072
00E7
0016
005C
0043
0103
FF59
011C
008F
0007
0036
0116
FF93
0119
0081
01AF
FF67
FF32
FF25
0068
00A1
00D7
FF78
FF58
FF7D
0108
FEE9
0112
00B9
00E8
FF10
010D
FF76
FF9E
0081
0170
0084
009D
0095
FF99
0060
00A1
0165
0083
0196
0060
0089
01BE
0169
0101
FEEE
FF57
00C8
00AE
FF18
FEFC
009A
FEE8
0092
FF67
010F
FFE8
FF69
003B
FF84
00FF
FF68
007E
FF2F
FFBF
00CF
00DE
FF97
FF7C
FFA0
00D4
010E
FFCF
00E3
0130
00A0
FEFC
FFAD
0064
0062
013B
00E5
FFBA
010C
FEE9
00E4
00F4
FFF4
012A
015B
0189
0054
0083
0110
0054
0114
011D
00ED
00EE
FF78
FFC7
00DC
002D
0112
00CF
FF63
0099
000D
FED3
FEC7
0114
FF2E
0102
019F
0108
FF9E
FF96
0130
FF2F
FF0C
00EF
FF45
00E4
00E1
FEF3
007E
00D3
FF8C
008D
010C
00EC
0061
00C1
0084
0078
0190
00A3
00A1
FF84
0128
019E
01A4
007B
0083
00A2
FFAC
FF57
00F6
FF8D
0103
0096
FF00
FF00
FEFE
00BC
FF0B
0133
FEED
0081
0156
007C
006F
FEC7
0018
00DC
0106
015B
0153
0145
0185
FF27
0068
0123
0129
0111
0037
00A9
00D8
FF80
004B
0067
00CA
FF6F
0121
FF20
005C
019A
00F3
009B
00A8
0147
009B
00C7
01FF
FEA6
FEB9
000C
0065
FF0C
020D
00C1
0073
00A6
FF2F
0180
FF10
FF56
FFB2
010A
008A
01FA
00FC
0135
00DF
008B
00FA
0139
FF2F
01EA
0081
016C
FF2C
01C4
FF67
013E
008E
0101
0107
FF1B
00C7
0141
0068
0053
FFDD
FF6B
018B
01FF
0150
014E
00D0
FE9F
018C
FE9E
FE96
FF5C
FFC3
FEE4
00F1
010C
0120
0144
FFFC
010F
FF6A
0098
0130
0144
FEC7
00F9
012E
FEC4
00F5
0114
FF2F
009D
00D6
01BF
FF4A
FED7
FF04
00AF
00F6
00B9
FF28
FE94
FE9C
01C3
FEFF
011C
0147
00C3
FEA4
00CC
FEA3
FF17
014F
0143
010C
00F3
0083
FF5A
0093
0078
01BD
0119
0172
00B0
00BD
0185
0156
008B
FF6C
FEF2
0123
011E
FEAE
FE91
0042
FEE3
00B5
FEC8
0064
FFC1
FEC0
0034
FEEE
00C9
FEA6
0095
FF19
FF6D
009B
00D5
FEBE
FF89
FF0C
010B
00FF
FFDD
00C8
0092
00D3
FE97
FEE5
008A
0078
00BE
0138
FF4D
0086
FF3E
01BA
010C
FFC3
007F
019A
010A
00B9
0099
00C0
013B
0080
008E
00C9
0143
FF47
FF53
01BF
FFF1
014E
00D5
FF0A
0080
FFDB
FF27
FF3A
014A
FF16
00F1
01E2
01AE
FECA
FEA7
01BB
FECE
FEAA
012A
FEBC
00E5
00E7
FEE4
00E0
0103
FF59
013E
00C0
0125
0106
00CD
00D4
00CD
015A
00DE
0121
FEF7
013D
01DB
01B8
FF6B
0155
011F
FEF1
FF0C
00A1
FF1D
00D9
0150
FE70
FF3E
FF47
010A
FF07
012F
FEF4
0104
0198
0132
0111
FEA2
FFA8
00E0
019C
01A3
016F
0171
0163
FF09
00BD
00D9
016D
00D4
00DE
0107
00C3
FEC8
00CA
0130
0092
FF15
00A1
FEFB
0106
01AC
00B2
00F1
006C
0162
0101
0136
018B
FF44
FF6D
007F
00A4
FFD3
0152
00CD
011C
0071
FFC6
0116
FF71
FF61
FFF1
0072
0061
0114
0123
0171
0106
0077
00D4
00F2
FF2C
01B1
008C
0134
FF8E
0166
004B
00E9
011F
00D4
016B
FFCE
00E2
009B
0010
0075
FFEC
FF56
0118
0169
013E
0068
FFAE
FF45
0134
FF58
FF5B
FF45
FFF9
FF3D
0081
0170
00E1
0108
FFC7
00B6
FFC2
0088
0071
0126
FF51
0151
00C1
FF3D
0110
FFF9
FFBC
00AD
00B4
017F
FEFD
FF37
FF35
00EE
0106
00E1
FFC1
FF87
FF3F
00C9
FF69
0112
0069
00C8
FF59
010A
FF29
FFA4
006D
017B
00C1
0119
0057
FF51
007C
00A8
00ED
00AC
00CD
0114
004C
01CA
0129
00A7
FF64
FF57
00DC
0088
FFAA
FF90
FF55
FF54
0143
FF3C
010B
0072
FF94
FFF5
0042
0098
FF09
00D7
FFE1
000D
003F
0058
FF49
FF67
FED3
00A3
0147
FFDC
00AD
012A
0049
FFCA
FF5D
00C9
0015
008E
006F
FF3F
0064
FF03
00FD
013A
00A0
010D
00AC
0110
0050
010D
0062
00C3
00F2
00E9
00DC
0105
FF50
0044
014E
001B
00A1
00D2
FFA1
00BE
007E
FF2A
FF4C
01B3
FF83
00CE
015E
01B5
FFE0
FF6A
01A7
FFCE
FF70
0121
FF5A
00AE
0088
FF6C
00DD
006D
FF8E
012D
0129
007C
011E
0111
00E5
0113
018E
0086
005C
FF5C
0138
01E9
012F
FFCB
0069
00EC
FF4C
FF0A
00AB
FFE7
008A
005E
FF82
FF3D
FF30
0127
FF70
0171
FFBE
006D
0143
0125
006C
FFB5
0040
00A2
0168
0166
015B
0151
01B1
FF3B
00A9
00FC
0125
0180
010A
00C3
00C9
FFD5
009E
012A
0133
FF77
00EC
FF7C
00BF
010F
0126
0101
005D
00C6
00B7
0126
FDBA
0050
0082
FF97
FF8D
FFD7
FE22
00C0
0081
FFF3
006D
010B
0080
0006
FF47
00C5
00EA
FE2B
0118
FE70
006F
0017
00DD
0109
0025
FE51
008A
FF05
0019
FEAA
002D
0104
00B3
00EB
000E
00AC
007E
0135
FF59
FFAE
FFEB
0018
FF76
FE63
00F2
007C
FF72
003A
FF8E
0010
0083
0017
FF29
00AF
00FF
0135
00B5
FE03
FF61
005E
004F
00B5
010A
006D
009C
FEE9
00E9
FFC0
006D
0011
0024
00BD
00CA
FE5D
0027
00AB
007B
0080
00E8
00A0
009B
00B3
0003
0136
00B0
FFB5
00AD
0096
FFEE
00A9
002F
FFE5
0102
00ED
00D8
0124
00FB
0061
FF71
0149
FFC5
00DA
00CE
00CB
0072
FE53
00D1
0127
0029
004B
00CB
0062
FFF3
00A6
FF76
0005
0067
001F
00D7
FF92
002E
000D
FFF2
008B
FFEF
0102
009F
FFD7
0001
005A
0039
0081
007A
0089
0141
FF6B
0131
00FF
FFEC
FFE7
0081
00ED
FFB0
0086
FFA6
001D
005E
0042
00F6
00BD
005F
010A
013F
015A
00C1
00CE
0082
00EB
00DD
00BE
0138
00F0
00BA
FF03
0108
FFDE
0088
0065
00AA
00E7
FF23
0014
0094
00F4
FFBF
0150
FF73
0113
0059
0029
00BE
006B
00A6
00E4
0045
013B
0092
FFFA
00F6
0113
0037
00CF
00C8
011E
0086
00B3
012F
007C
FFC1
00ED
008C
0027
00D2
FDF0
0111
FF09
00A1
00C4
008F
FFDD
0088
FFEC
010D
011F
006A
0078
FFFE
009C
0056
0101
002A
00AA
FE68
0098
0059
0030
FFB9
00E7
FF8B
FE13
00C6
00F7
FE97
FFE0
0081
00A7
FE3E
00F3
0089
00AE
0126
002C
0091
0077
0118
0076
0084
00AC
006E
FE03
010C
00A6
00BC
0147
0106
011D
01BD
FF4C
FFE7
00F9
00A3
FF5C
01AD
00A3
0069
00D2
FF32
0109
FF23
FFDE
0013
00BC
0073
0121
0106
0188
00A1
0101
0131
017D
FFE3
01EB
00B9
013A
FFA4
011F
0054
00DC
00AD
0157
0168
FF10
006F
00B2
FF7D
0064
0099
FF38
0148
0136
0133
00E4
FFB6
FF76
01C5
001F
FF4F
FFF9
0010
FFB4
0120
00CE
0081
0129
FFE2
0126
FFCF
008D
00EE
00A1
FF83
01C2
0122
FF8F
010F
003E
FFAC
011B
016A
01D2
FFAD
FFD5
FFB3
0073
00AD
0136
FF4E
FF55
FF83
015B
FF74
018A
00A9
0164
FFF6
00C7
001C
FF50
00A8
0150
00C0
0125
005E
FF22
009B
00BB
019C
00D2
01A4
0092
00DC
01D5
0193
00E8
FF5E
FFC1
012B
006F
FFEF
FFA1
FF7F
FF53
0139
FF67
006C
FFEA
FF5E
0026
0045
0109
FF8D
0087
002F
0037
00BF
012E
FF42
FF70
FED4
007C
0137
FFE8
00F4
0084
0036
FFB9
0013
0099
003A
012B
00AB
FFA1
011D
FF77
0104
0095
00D3
008A
0182
0161
0093
0124
009E
00EC
0076
0111
009D
006E
FFAE
00C1
0187
0061
009F
0081
FF38
0078
00B0
FF52
FF32
0186
FFA3
011B
011F
0123
FF84
FF7D
01C1
FF55
FFD9
00A0
FF65
0118
00D4
FF86
0132
00A0
0070
00A7
00F0
00A4
00E2
00A8
0138
00F2
0154
0127
0093
FF34
013C
0185
0185
FFFE
00E2
0103
FF3F
FF9C
00B3
FFBE
00F1
011C
FFA7
FF43
FF71
00D5
FF78
018C
FF48
0132
0174
00F0
0082
FF8D
008E
00F3
019E
017F
015B
0131
010C
FFC0
0094
009B
0156
010F
00EC
0053
00E4
FFBF
0123
00D0
00F9
FFB0
00AA
FFD5
013D
018B
009E
00D6
0134
01AE
00C5
00C9
0196
FF9D
FF25
0024
0046
FFA7
01C6
0125
00F1
0086
FF2F
00E8
FEC3
FF8E
FFCB
010D
0099
0115
0142
01AE
0094
0048
010D
0194
FF66
0142
0078
0169
FF15
01AA
FF91
00A4
0134
00D8
00C0
FF4B
00ED
0162
0024
00C1
FFC5
FEE5
014F
01F3
0130
00E5
002C
FF23
01AD
FF1E
FEED
FF5A
0068
FF00
00B4
0132
0086
01E4
FFCE
012A
FF00
00A3
00E7
006E
FF1D
0138
0065
FF95
0063
0058
FF64
0130
00AB
016D
FEDF
FF7A
FEE8
005E
00AA
00A9
FF27
FF43
FF17
0119
FF71
0195
0121
0100
FF10
0096
FF14
FF48
0124
01AE
008A
00FC
011D
FF90
0052
00CC
01C5
00ED
0165
0101
0117
0192
0100
0103
FF3C
FF0F
00CB
013E
FF6B
FED7
0040
FEFD
0151
FF67
00B5
FFA9
FEED
0011
FF67
00A0
FF42
00A9
FF00
006A
004B
0100
FF41
FFD3
FFE6
0114
00B0
0036
00D7
008F
002A
FF80
FF35
0112
00C6
00EC
0041
FECA
0098
FF6E
0169
008F
0038
00F2
00CA
0164
00D1
006E
0128
010E
00C0
00D9
00A7
00A5
FFA4
FFFE
01B2
FFE3
011E
0132
FECF
0144
FFBD
FF38
FF85
01A0
FF1B
0099
0135
01DD
FF67
FEDA
0134
FEF2
FEB7
009D
FF06
0142
00AA
FF55
00D9
0127
FFD1
0125
00CC
00DC
0080
0084
005B
00E6
0164
00C9
0141
FEEF
009B
0175
01A0
005F
010C
010B
FF77
FF88
0130
FF71
0081
0117
FF5E
FFB9
FF1B
0089
FEC9
0122
FF35
011E
01BD
013A
00B1
FF85
001A
009E
0142
01C4
0199
013C
0172
FF97
00A7
00D5
0163
0169
0080
006D
011B
FF38
0120
00DA
0125
FF4D
00B2
FF10
00AC
011D
0104
00AE
012A
0220
014A
014B
0238
FE74
FE89
004B
014F
FEA3
01AA
018B
0109
00F2
FEE8
01D8
FEB0
FE83
FFCD
0107
0143
019E
0196
0203
017E
0126
0137
01DC
FE5F
0211
01A1
01B1
FECE
0188
FF96
0149
017C
0162
0136
FE7F
019B
0103
FFD1
0098
00AB
FECD
01C3
0173
01B1
0126
0002
FE86
01D8
FED5
FEA0
FE87
FFE5
FEB5
0144
017E
00E3
01E9
FF8D
0192
FEC9
00F3
00C8
011D
FE96
01AA
0190
FEAD
0168
0121
FF3A
0123
0158
01AA
FE67
FEC4
FE8C
017E
0108
0106
FEFE
FEA8
FF36
0214
FE90
0178
012D
01CE
FEC4
0130
FF44
FF06
0198
023A
014A
00FA
01AC
FF03
0095
012D
0200
015C
01A3
01B2
013D
0234
01D1
00FD
FF5A
FF08
0170
0164
FE7E
FF2B
FFA4
FED5
01DA
FF0A
010F
0045
FF16
0000
FF6E
0150
FEC7
00BA
FE9A
FFEC
015B
019B
FF06
FF50
FF67
01AB
016D
FF32
0112
011C
0132
FEDF
FECC
00EC
0109
010B
0199
FEAC
0195
FE54
01C4
012C
00C2
0121
0193
013B
013F
0185
0180
00DE
0128
00CE
01A6
00D2
FEEA
FFDB
01F7
004D
00DA
017C
FF11
017A
FFC9
FE88
FEA5
01B9
FEBC
015D
01BD
0220
FF24
FE88
01DD
FF0F
FE8C
00DE
FEEC
0175
01CB
FF33
00DF
0133
FF55
0155
013F
01A5
0178
018E
0189
016C
0186
018A
00DE
FF1B
0116
018C
01BD
FF70
00E9
0141
FEAE
FECE
017F
FEB2
0185
012A
FE60
FED2
FEA0
0151
FEB6
01FE
FEC9
00BF
01AB
0171
0167
FEA1
FF2E
0124
0228
024A
019E
022D
023A
FF65
010B
0178
0222
01AD
0150
0104
019D
FE6E
0159
0141
01A5
FEA8
016E
FEB4
01C5
01A1
00EF
012A
00CC
010E
008B
0067
0168
FF48
FF91
0080
0032
FFEF
014F
00B8
001E
007C
FF4C
0086
FF5F
FFE5
0065
0075
003B
011F
00F0
0177
002B
000C
00A1
00C9
FF50
01BC
0070
00DA
FF55
00E8
FFD1
0074
0043
00AB
0136
FFCF
00FC
0124
FFC3
000D
0074
FF5F
01AE
013E
0191
00AD
001A
FFCB
0189
FFAE
FFBA
FFC6
007A
FF94
00E3
0157
0083
018C
FFE5
0089
FFE3
005D
0060
008A
FF72
0130
00CD
FF79
0090
0060
FFD2
007E
005C
0153
FF23
FF11
FFC3
0035
002A
00D7
FFAB
FFB7
FF90
0133
FFAF
00D5
010B
0086
FF72
00E8
FF6F
FF68
0045
00E1
0054
0085
0060
FF9E
0055
005D
0170
0086
011C
00D2
0058
01BF
010F
00D0
FFC4
FF37
0105
0105
FF81
FF53
001A
FF93
0078
FF68
002A
0068
FF2A
0012
FF8B
00DC
FF45
00A9
FFF7
0081
005D
00DC
FF15
FF5D
FF61
00CE
0062
008D
00DE
00F3
0074
FF62
FF55
0089
FFD5
00B1
000C
FFC9
0056
FF8C
016A
00F1
0093
006A
00B4
0140
0033
0066
0051
008E
006E
005C
00F6
00CD
FF1A
FFE9
0107
0048
00EF
0031
FF9F
0038
FFDF
FF94
FFE0
00C8
FF3C
00A7
0156
0171
FF64
FFE0
0174
FF2B
FFBD
0042
FF4C
0099
005A
FF62
0033
009D
FFF7
00D6
0045
0083
0044
00F5
00D6
0069
016E
0064
00BF
FF89
0051
011F
00B4
FFE7
00B9
008D
FF51
FF75
00E8
FFAF
0048
0077
FFBC
FFD3
FFEE
0077
FF82
0146
FF45
007C
01A5
00DB
0080
FF03
0059
0088
00FA
0178
0151
01A5
015B
FF75
00E3
00BD
0123
0144
0078
0083
0061
FFAB
0099
00C4
00A1
FF90
00E2
FFD4
0077
013C
00AD
0053
004C
015F
0061
010C
0197
FF7C
FF95
FFF3
00E8
FFC7
01A7
010C
0125
004B
FFBA
00B0
FF03
FEEB
005C
00A6
006F
0131
0136
016E
00E2
00C7
00F8
00E9
FF40
0135
0068
011F
FEEF
0155
0012
009A
0111
013D
0145
FF10
0122
007E
FFD8
FFC7
004E
FF66
014E
0152
012D
00A2
0035
FF10
010C
FFAC
FF8E
FF00
0063
FF66
0109
0151
00DE
01BF
FFC4
00F1
FED7
005A
00E4
00D5
FFA9
0174
00CE
FF82
0088
0073
FF99
00EE
0106
00FE
FF68
FF42
FF61
004A
0106
0138
FFC8
FF79
FF5C
0176
FFB2
0102
0114
00DC
FF91
0113
FF23
FFBB
005B
014B
0090
0077
0097
FF8C
0086
00FB
0154
00AE
0180
00EA
007A
01E1
01A1
0129
FFCD
FF1D
0091
0082
FFA9
FEE9
FFC7
FF6E
0116
FF69
0093
0040
FFAC
0054
FF71
009A
FFA3
00F6
FFAC
FFEE
00AE
00A2
FF0A
FFB9
FF77
0123
00D8
000F
006A
00BD
0059
FF61
FF5A
00A1
008F
00D4
00B9
FF8B
00F3
FFBF
0146
0068
0058
010F
0100
012D
008F
006D
0098
00B9
00CB
00E6
011D
00B6
FFAA
0065
018B
0025
0100
008D
FF60
0133
FFA1
FF5F
FF0D
018A
FF13
0096
0100
01B6
FF5E
FF21
0133
FF54
FF2C
011C
FFC3
007A
0129
FF93
0079
005E
000B
007C
0075
0134
00CF
0090
0109
00DB
019B
009E
00A4
FF69
0088
0118
01BC
0045
0092
0057
FF3E
FF95
00E6
FF9F
00B1
0069
FF61
FF77
FFBA
00BD
FF85
00B4
FF25
0074
01DD
009E
0128
FF59
004C
009C
019E
0166
00F5
01B1
0190
FF0B
0088
012B
01CC
010B
0061
0079
0105
FF02
005C
006E
011C
FF05
009A
FF6A
0075
01D5
00E9
00D4
00C8
012A
00E0
0088
0122
FF77
FEEA
0076
011B
FF6A
01C2
008D
00FB
0124
FF0A
00AC
FEC4
FFB9
0057
004F
0081
01AA
008F
0109
0037
0102
0083
0189
FEFB
01B1
0103
0165
FF2D
0141
FFD8
00FD
00D4
00D6
009B
FF3B
00A7
011D
00CD
004B
00AE
FFC9
01B6
015F
0146
00F1
0059
FF1E
014B
FF18
FF2C
FFB1
003C
FEE7
00F6
0105
0107
0112
00B1
00FB
FF89
00E2
004A
0051
FF21
011D
00E1
FFFF
008E
00A0
FEFC
0076
011E
018D
FF4A
FED6
FF6A
0068
005C
00FE
FFA4
FF06
FED6
0117
FF62
00F1
012D
00BA
FF05
0075
FF37
FF42
0105
013B
00A3
008A
006D
FF25
0094
00C0
0127
00F1
010A
0083
010F
01CB
0171
005A
FF3B
FF37
0105
0085
FEEC
FF96
00AB
FF2C
0133
FF46
00B8
0058
FED7
00AB
FF82
008E
FF89
00C4
FF0C
FFB8
00FB
00AB
FEE6
FFE2
FFB1
011C
009F
00A1
00ED
0095
0080
FF88
FF7B
00E0
00AF
012D
0137
FEED
007D
FF19
014D
0108
00B1
00E0
0157
00F3
009A
0081
004C
005F
0048
0101
011C
00A0
FF6C
0045
00D4
0070
00F4
008D
FEF3
008E
0007
FEE1
FF34
017F
FF8D
00E1
0196
01BD
FF38
FF03
01B2
FEE8
FEC7
00D4
FF52
0074
0095
FEE1
011C
006C
FFD2
0119
00E8
00DE
0075
0070
011F
0069
0147
004F
003E
FF7D
011C
01C1
016E
00AC
005F
00B8
FEFE
FF11
004B
FF55
0058
0083
FF2B
FFBD
FFA1
0085
FEBB
00CA
FF10
0072
0180
00DE
0104
FF83
FFFF
010B
0165
0151
0158
0125
018D
FF0D
00C4
010B
015C
00E6
004C
00B4
00C7
FEEE
0049
0120
0135
FF4C
00D2
FF7D
00C7
01B9
00C0
00CF
0192
0180
0122
0124
FDFE
0051
0072
FFA3
000B
010A
FE66
00FF
0116
000A
0082
0186
00B5
00A6
FEE4
018D
00D1
FE82
016D
FEBA
00EC
FF7B
00FC
0101
0048
FED4
0130
FF10
00DF
FEEE
00D5
0178
0135
00DE
0024
0073
0178
01B7
FFAC
FF70
FF84
00EB
FF0A
FE87
0160
015E
FF93
012C
FF78
005C
00C9
00B9
FFC9
00D6
0115
016D
0143
FE85
FF7C
0197
005E
0194
013C
011E
00D9
FFA5
00EE
0059
0127
FF72
00DA
0192
011D
FF29
004A
00DB
0102
010B
00FA
0123
0100
00A3
00FA
0115
00ED
0082
0148
0131
00A6
0172
0082
00AC
015C
0158
0199
0166
00CF
00A9
FFEB
01AF
FF8D
013E
015E
014F
00D5
FEA2
0125
00E5
010C
0081
00D2
0129
00C6
0112
FF84
0088
0133
00E6
0128
FF74
00F6
000C
0059
00F3
009C
015F
0064
FFE4
FFEB
0106
00B9
0112
009D
0105
0163
FF20
011B
0152
FFD8
0099
00D3
00D7
000C
0143
FFB0
0087
0176
0117
013F
0146
FFB4
0156
00FE
015E
0188
0195
00C4
0158
0139
017E
0154
0180
0082
FF03
0179
00D0
00FA
0128
0073
00F9
FF33
00CA
0084
00E2
0062
011B
FF5C
00ED
00D8
0080
0169
00B8
0125
0101
0105
01A4
00EF
00E7
01A4
00CF
004E
019E
010E
015F
0151
010F
0130
01A5
0024
00FF
0105
00D9
0172
FDF8
0170
FF03
00CC
0107
00EA
0108
0160
00BB
0166
015F
00FB
004F
00A7
00C1
0079
00FC
0076
00E7
FE9B
0128
00EE
007F
FF4F
00D6
002E
FF06
0176
010E
FE9C
004F
00C6
00D9
FE6F
0105
0152
00CF
00F9
0112
0103
019C
01BE
004D
0136
0074
013D
FE7C
0163
01B4
00C2
0134
013E
0135
FE28
00B4
0058
FF9A
FFBF
0059
FE18
0107
0098
FF8A
0021
016F
0068
004A
FF02
007B
0149
FE60
0104
FEC8
009B
FF5D
00EE
013E
0082
FE46
00C5
FF3F
FFDD
FDDE
0092
00F6
0087
00E6
FFD9
FFEE
008E
0158
FFAB
0045
000E
FFDF
FF7D
FEAA
0144
011C
FF6B
0095
FF5C
0081
0009
0053
FFEA
0021
0100
0159
00BC
FE13
FF08
012C
FF7F
00F5
012B
0147
002C
FE87
00D5
001A
00C4
FFAC
FFDF
0109
00D6
FE81
0099
FFDB
0036
00CC
0122
00AB
FFF3
FFE9
0034
0127
0075
FF7A
0124
0134
00A1
00A2
FFFA
007C
010A
00FA
007C
00DC
0091
0037
FFF3
0112
FF2B
00EF
012F
0094
00CC
FE11
0139
016C
005E
0087
00C3
008E
0061
001D
FFF4
0051
0115
0071
0100
FFFD
0076
FFE3
0019
0083
FFE3
00DB
FFE9
FFD3
FFE4
0111
0053
00B4
0046
00C1
016C
FF7F
008F
00B1
FFD3
FFF4
0077
0123
FF5F
00C0
001F
002E
0099
0096
00E4
0100
FFC5
0100
0173
013A
00DF
008E
00D7
0118
00F3
0121
0103
00AB
0074
FF40
016A
003F
00EA
0145
0053
007A
FEF4
0019
0003
009A
0069
017E
FFD5
00EC
003B
FFED
007E
00A1
FFFB
0091
FFF1
0164
0126
0010
00D4
00D9
001B
012B
00BA
00D5
010A
00C5
00CB
011E
0007
0116
0132
00BE
012A
FDB3
0172
FF36
0110
009C
FFF5
0038
00E8
0091
0098
0174
0062
004A
FFFD
00B9
FFED
019B
FFF0
00D8
FE20
0149
0071
009D
FEFC
010E
FFF7
FE1A
012A
0118
FDA6
0016
00B0
00FF
FDFF
00EB
0135
0072
00F4
0036
0073
009D
012B
009A
011C
000A
0120
FDDC
00BE
0144
0178
0224
0168
01A7
0270
FE40
FDF1
0079
00FC
FEAD
0283
0135
01A3
017B
FE20
0197
FE10
FE8A
FF1E
0162
0150
0281
0185
02BB
01E9
014A
01A7
01DC
FE42
02AA
01A3
029F
FE61
01FC
FF15
018B
0204
01E1
0234
FE08
013D
019E
0031
0105
00B1
FE4D
0279
0241
021A
01A4
FFDA
FE85
021C
FE7A
FE4B
FEB3
FFB8
FE5D
01FF
01AE
01A3
020B
00A2
013F
FE2B
01E0
0186
01CC
FE07
01E1
021C
FE03
0155
0175
FE2F
019C
01A4
027D
FE3B
FE22
FE4E
0151
0203
019B
FE44
FDF1
FDD4
0210
FE00
025C
01DF
022C
FE41
01BB
FEAC
FE80
01CC
0239
0188
0207
0146
FE30
0175
01E6
0254
0201
0280
01FE
01FB
01F8
022F
020E
FE42
FE37
0176
0156
FE2B
FE90
0003
FE01
0263
FE82
018D
005E
FE85
0044
FED5
01E1
FE96
0139
FE0D
FF65
0110
0189
FE51
FF20
FEE2
0202
0181
FF4B
01D8
01F7
0169
FE7C
FE56
01FC
0128
01A8
01B6
FE5F
0155
FE75
0264
01EA
006D
0205
0249
01E6
01E2
01D4
017D
01F7
01C9
0177
01BC
01BC
FE7A
FECF
0278
FFDA
01EF
0201
FE97
014C
FF55
FE34
FEAF
0216
FE5F
01CE
01E7
0262
FE3B
FE75
0205
FE08
FE72
016B
FE81
014B
01F7
FE28
01BF
01A2
FE67
01E1
01C6
019E
01F9
018E
0160
01D2
01D9
020E
0194
FE58
01BB
01EB
0242
FF00
0181
01F9
FE4A
FE75
0186
FE25
01C2
0185
FE16
FEBB
FE47
01AD
FE76
01A5
FDFE
01ED
01DD
013D
017F
FE8C
FF5B
01AB
01D3
0247
0201
01FF
0209
FDE6
01C1
01CE
025A
01C8
019A
01AE
01D1
FDD9
015D
01C6
01AA
FE6A
01BA
FDD8
0166
0260
0149
016D
004B
00BA
004D
00A8
FE59
00CA
00AE
001D
0015
0004
FD9C
00C5
00D5
00B0
006D
00F7
0071
0066
FF71
0080
0021
FEFA
00DC
FED9
009E
0012
0076
00F9
007D
FDB9
00FF
FF38
00A4
FE62
00A8
003A
00E3
00D5
FFAA
00C5
00A1
00E4
FFD2
0079
0080
00D9
FF71
FE90
00FF
0033
000B
006C
FEEF
004B
008C
000C
FF7B
0027
0099
005C
0067
FE69
FF64
0080
000F
00EC
0046
0038
0063
FF12
0038
0022
002F
0015
007C
0075
00A5
FE4C
0020
00B1
002C
007B
00A2
0080
009E
0043
003A
0076
0055
0010
0045
0102
000C
0044
0058
0021
0079
00DE
004C
00BF
0044
00A2
0004
007D
FF25
00E3
006C
0062
0027
FE31
009E
00CB
0058
0069
004B
0064
0052
0002
FFE7
00A9
00AC
0036
009B
00CB
00A6
005B
00D1
0060
0089
00E0
0048
007F
0072
006F
FFFB
0045
0004
0044
007D
FF97
0040
006B
0064
002F
00D9
00FE
006E
005B
FFF8
009F
0054
0099
00B1
006C
00CE
0084
00B8
00C8
0044
004F
00C4
001B
00DB
00BF
00F9
0075
0039
FFD9
0100
009C
001A
007D
0085
00B4
FF7C
00B5
0028
008C
0073
00EC
FF82
0097
0066
009D
00AD
009F
0065
0099
0035
00AB
0086
0050
0074
003E
0036
010A
0056
00D7
003B
0084
0086
003C
FF8B
006A
009B
0058
00A3
FE35
006F
FFA7
00F3
00C4
00C4
00CC
008A
00D7
0060
00CF
0074
0091
004C
0039
0080
0112
0011
00BE
FEB3
005C
00C1
0021
FF2E
00A0
FF62
FE22
00D6
0037
FE7E
FFFA
008D
0028
FE5A
0082
00DE
00B1
0034
00B6
005C
00DA
00B6
00ED
0026
0052
010C
FE8C
003D
00A2
01E6
026B
01BC
013D
0234
FEAD
FE93
00AE
013E
FEF0
0209
011C
010F
00DE
FEA6
0234
FEBC
FE91
FF99
0174
01BE
01F9
01E6
01F6
0112
017A
017B
0247
FE94
01DC
0174
020D
FEC2
01C1
FFAB
01FC
0200
01C8
01A0
FEAD
01DF
01A6
FFCF
00C9
00A5
FEB1
020D
0217
0284
0177
FFAE
FEEC
024C
FED5
FECE
FF2C
FFC0
FF3D
0135
01F9
01EB
0232
0022
0134
FE96
01E6
01A0
0163
FE6B
0178
012D
FED4
0135
018F
FF4C
0185
015B
0227
FEAC
FEDF
FEAE
01E2
01B7
0159
FF1A
FEDC
FE82
01E7
FEA6
0209
01EE
0221
FF0B
016F
FF2B
FE90
01EB
01B0
01D6
01FC
01F7
FE90
017C
01A7
01E6
01E5
022D
01B5
01DC
01FF
0236
0197
FF26
FEF4
0167
01FD
FE90
FEC8
FFB3
FF48
01D6
FF3C
01E5
FFEB
FF32
000D
FF8A
018F
FE85
013B
FF57
003E
0149
011F
FE60
FF2D
FED7
0159
01AE
FFD8
01BF
01BF
00B0
FEA0
FEE1
0182
013F
01AD
0120
FEA1
01D9
FF32
024A
0158
00AE
0135
0174
018A
017A
019F
0178
01CE
0163
0125
017E
0195
FF01
FFED
0243
FFF4
017F
0153
FEAD
014C
FF7B
FE6C
FF27
0251
FECC
01D3
0257
023A
FF46
FF3E
024B
FEC2
FE5B
0150
FEF9
0158
01BD
FE9B
01BE
017B
FF07
01A6
01CA
0135
011C
0170
01EA
0149
0283
015A
0131
FEDC
016E
02AB
0277
FF15
01CD
0155
FE62
FEE6
01C0
FF46
01D2
01C8
FF39
FEC7
FE92
014A
FEF1
01D7
FEB2
019E
0209
01E9
01C7
FEE2
FFC6
01FA
01ED
0220
01A3
0237
027B
FE9A
01E2
0193
01D1
01F9
01DB
01A5
0180
FEA7
01A4
0189
012F
FEDB
01CA
FEF8
0155
0271
01BD
01DD
008C
0128
005E
00D8
0123
FF72
FF4C
00DB
00F4
FF2A
00E5
00C6
0047
012C
FEFA
00C8
FEF9
FF55
000C
0062
00BC
015B
00B1
011D
0099
00D6
004B
019C
FF2C
0156
0084
0118
FF7A
0195
FF5E
00C2
010B
00D7
00F0
FFBB
00DA
00EA
00B8
00C8
011D
FF30
01D7
0185
0155
0081
002A
FF11
019C
FEFE
FF4D
FF40
FF96
FF01
005C
015E
0042
00F8
0083
00A7
FF78
00B6
00A6
011C
FF31
011C
0063
FFBD
00D3
009D
FFA6
0094
0071
018E
FF70
FF66
FF4C
0038
005C
006F
FED0
FEC2
FEFC
013C
FF84
0185
008C
00CD
FF47
0060
FEDF
FF0D
008A
012E
00A2
0078
00D2
FF97
00C5
0056
00E1
009A
0162
0078
00E8
012D
010E
0083
FEEC
FF2C
0075
00CB
FEDE
FF5A
FFCB
FF93
00DC
FF96
005F
005E
FEEC
0091
FF2F
0060
FF4A
001F
FF77
0038
00EC
007B
FF44
FF1A
0029
00BC
00BC
0014
0063
00EC
00CA
FF41
FF70
0051
006B
00E5
0104
FF1F
009D
FF1F
010E
00B5
0043
006C
00BB
00D6
00F1
00F7
0076
009F
009C
00C7
011D
00B1
FF87
FFBF
01B6
0007
0055
00B7
FF6C
0047
FFCF
FF89
FF0A
0138
FF7C
00C3
01D0
013C
FF28
FEB9
0111
FF54
FF4D
0037
FF7C
005D
010D
FF22
003F
00E4
FF85
005C
0045
009A
0073
007D
0042
00B3
0164
0031
0071
FED1
0087
017B
017B
FFAB
00CA
00F1
FF1E
FF5B
0085
FECF
006C
0131
FF2E
FFCE
FF01
00C8
FF5C
00F8
FF13
0096
0129
0077
008F
FF6C
FFBF
0122
0112
0171
017F
0137
00F8
FEFD
004E
004F
00FE
0159
0060
00D1
008D
FEC8
0089
00B8
00CE
FEF3
0101
FF7A
008E
0190
006C
0087
00CF
0145
0064
00E2
01BC
FF89
FF05
000B
0049
FF54
010F
006F
0092
0064
FF97
00E0
FF42
FF80
00B2
0031
007E
018D
00EB
0131
0074
0080
00B8
0170
FFB7
012D
0094
010D
FF92
0125
FF6B
00F9
0091
011D
0162
FF20
00DC
013F
00B3
00D6
0028
FFBD
013B
0188
0192
009C
003A
FF99
00C0
FF7B
FF2B
FF88
FFEA
FF3B
00AB
00EB
00AE
011F
00E0
011C
0040
00AB
00DF
00A3
FF7F
01AF
00C0
FFFB
00C2
00DA
FF9C
008D
012F
01BA
FFAE
FF5A
FF5F
009B
009F
0056
FF1E
FEFB
FEE9
0173
FFB9
00EC
0111
0104
FF21
00A6
FF40
FF9A
0093
018E
0059
0086
00FF
FFBE
008F
0113
00F3
00C7
013D
0072
006D
019E
00B9
007E
FF4A
FF53
00E8
00D8
FFA7
FFAC
00C6
FF18
012B
FF89
0082
007E
FF7F
0006
0020
0062
FEDD
007B
FF53
FFE3
00E1
0059
FFB2
0007
FFB0
00D4
00C3
0038
00CD
008F
00A4
FFB4
FFFA
0070
00A3
00FA
0073
FF69
0058
FFAB
019D
00BD
0055
0056
00F4
00F6
0046
0051
008C
005C
00C9
00F0
00E3
00BB
FFBE
0058
0175
00A9
007F
010C
FFB2
00DC
0091
FF28
FF02
017E
FF52
0065
012F
0145
FF1A
FF92
011A
FEFF
FF9D
004C
FF59
008B
0134
FF09
00AE
0034
FF65
00E1
0054
0099
00E1
00E6
00BA
00E3
011D
004F
00CA
FF16
0105
019E
011A
FFFA
0067
008E
FF30
FF16
0037
FF2F
00D6
00E2
FF6C
FF58
FF62
00D1
FF9C
00E4
FECF
0083
016D
0044
00B0
FF26
00B7
005F
015C
019A
015D
01DD
0190
FFBD
0067
00D8
012C
00E2
00D3
00F3
00A9
FF68
0083
00A5
00C5
FF07
011B
FFC0
009E
0163
00DE
012E
00FF
0100
00A7
009A
016B
FF34
FF80
0094
0010
FFD5
0131
0114
00D1
FFE7
FF16
00A9
FF3E
FF87
008B
00CF
0033
012E
0107
0119
00E4
0054
0058
01A9
FFBE
01C7
010D
0198
FEF8
0150
FFF3
0106
0101
00AF
00BE
FF83
00DF
010F
FFD5
0061
0054
FFAA
017C
017D
012B
00CE
0018
FF34
00FA
FFA0
FF46
FFD8
001F
FF91
00D2
015E
0118
010E
FFE1
00C5
FFDC
00D2
00CB
00CE
FF0A
008C
00D1
FFE2
004F
0047
FF41
00F4
008A
0100
FF62
FF49
FF3B
0102
0051
0107
FF71
FFA5
FF21
00EC
FF99
016C
0129
00E1
FFA3
0098
FF5E
FF5C
007E
0158
00DD
011F
00E0
FF61
0064
012F
012F
012D
014F
00A4
00ED
013F
00FF
0115
FF6C
FFB3
0097
00BD
FF64
FFE4
FFE0
FFBE
00C2
FF9D
0075
006B
FFD4
FFFA
FFFD
0081
FFCE
0045
FF65
000C
0017
0095
FF68
FF3E
FF64
012A
014A
002F
0091
0108
FFAC
FFA2
000C
0103
FFE1
00E5
FFF2
FFD7
00D2
FF21
01A4
0111
005C
007A
00CE
012B
00FF
0058
0061
0055
00C3
004F
00DC
0100
FF9B
0062
0153
002F
0107
00B6
FFA0
00CA
004A
FF49
FFCB
013E
FFA7
00BC
01BC
0144
FFF4
FF80
015E
FFC4
FF9B
00DE
FFBD
0116
0095
FF66
0073
0102
0020
0096
00DF
007F
00F0
00FC
0043
00AF
0192
006C
0060
FF48
005D
00F3
017A
0036
008C
0050
FF22
FF94
0095
FF84
0072
005F
FF10
FF48
FFC3
00A4
FFD0
016A
FF1E
0088
0148
00F8
010D
FF75
FFE6
00A0
0135
0192
015B
016C
0131
FFAC
0050
0097
01A1
00BD
007A
00AB
00BB
FFC6
00F3
00E8
00ED
FF93
00F3
FF80
00D9
0167
00A4
00CB
0092
0120
00EF
00DD
0126
FF20
FF23
00B6
00D7
FF8A
01BA
0126
010A
0110
FF5D
00D6
FF25
FF10
FFDC
00CC
0097
011A
00EF
013A
0100
00A5
012A
0173
FEC4
0185
0133
013B
FEBC
010A
FFBD
008E
00D5
0089
0162
FF44
0086
00C5
00F5
00BC
0109
FFD5
0127
015E
01BE
0089
006D
FF3B
0184
FF41
FF6C
FFA5
0073
FF8E
00E4
00FA
00AF
0164
00EB
00D8
FF98
00F5
00AF
00D0
FF07
010D
0069
FFB8
0069
0094
FF5E
0084
0128
0156
FF29
FF33
FF54
00EE
0076
0061
FEE9
FF3B
FF1E
01BE
FF79
01A6
0130
0090
FF08
00C3
FF63
FF86
008D
01D9
00B3
0087
010A
FF00
00DE
00AA
00FA
0134
0197
00B0
008F
012A
016E
00AB
FF93
FEC8
00E8
005C
FECC
FEEA
002B
FF63
0129
FEFE
00A5
0026
FEED
00CC
FFB3
009E
FF1A
00EA
FEF2
FFBA
006E
00CB
FF0C
FF6D
FFB0
00F9
0105
006F
0078
00EE
0084
FF71
FF67
0052
0090
00FA
00D8
FF98
0087
FF5B
0182
00C0
0089
012B
00DB
0133
00E1
0090
0076
007C
0100
0075
012E
00C0
FF38
002B
010B
00BA
0106
0118
FF3A
00FD
0048
FF4D
FF37
019B
FF0A
011A
015E
01DC
FEDB
FF43
013C
FF3C
FF50
0101
FF89
00B1
007E
FF07
0073
0112
FF38
011F
008C
00B8
011F
00D9
00A8
00A1
018D
00ED
0108
FEF3
0144
0173
01DA
004A
00F3
0072
FF69
FF21
00AE
FF27
00AB
0119
FF65
FF98
FF9D
00DC
FF03
015D
FF75
00A3
01AB
00E9
00D1
FEC9
0035
00A3
013E
01A7
0189
01D5
0181
FF17
00F8
00E3
019D
015B
007E
00EC
011A
FEFF
011C
00C5
012C
FEDB
0093
FF13
0137
0196
00FC
00B8
00A9
0105
0118
010C
FE4D
0064
0099
004B
FF66
004E
FDA3
009B
0092
000F
0068
0105
00A5
FFCD
FF34
0117
0090
FE5B
0115
FEAE
007A
FFF3
00C8
013C
FFF4
FE0C
014E
FE84
0057
FDFD
003B
011E
0097
00FC
000D
FFF5
006E
015F
FF83
0019
0000
0099
FF8D
FEC3
0072
00C3
FFC8
0048
FFCA
002D
009A
005D
FF69
005D
00E0
0148
00FB
FE2A
FFA6
0132
FFB8
00C0
009E
0066
FFF1
FE97
00CA
0038
008A
FFEB
006F
00AE
00B1
FE66
004C
001F
0063
00FA
007C
00D2
0067
002D
0096
0166
0072
FFB9
0115
008E
008E
007A
0087
002B
0140
00DF
0078
00C1
00D8
0000
000A
00BB
FF10
00E0
012B
012E
00C5
FE09
0094
0141
00AB
0074
0116
0082
0037
FFDF
FF44
0079
0117
FFF4
00E9
003B
00A3
FFC1
005D
011A
008A
00C2
0088
FFBB
FF78
0085
002F
0036
0013
00B7
0146
FF87
0062
0114
FF95
FFFA
0014
0100
FFA2
00B7
001D
00BB
010D
002B
0140
0071
FFAE
00B5
010E
00D2
0065
007D
00E9
0093
0099
00B6
00E2
009D
0075
FF5B
00B6
0080
0083
0080
00A6
008C
FF1D
00AC
00A6
00E6
FFDB
013B
FFB2
006C
005D
008F
00F3
FFEA
00AD
0079
FFF8
00ED
011E
0058
00BA
00AD
00B2
012A
0113
012B
00D4
00A8
00F0
011B
FFDC
00C5
0111
0025
0097
FDDB
012B
FFB1
00C9
00C7
0066
000B
0083
007A
00F8
0143
FFF6
005A
00C2
0057
FFE8
014B
FFF3
012A
FE6B
00D9
0068
000D
FF4C
012D
004E
FEE3
00B0
00CC
FE42
0007
00AF
0118
FE15
00E1
0074
0105
00E0
FFF5
006B
00EF
009E
009F
00F3
007B
013A
FE91
011C
011D
0044
0127
00B0
012C
01A4
FF2D
FF85
0046
00A8
FF6B
01A2
00A9
0042
00DA
FEF6
009D
FF0F
FF4D
00D0
0050
00C9
0183
00EF
0115
00D3
0104
00FD
011B
FF78
0171
00C6
01A6
FF01
01A6
FFEC
00AB
00E2
010D
00C3
FF86
010B
0084
00BD
0072
0086
FF85
010D
0183
0142
0097
0024
FF17
0123
FF75
FF7B
FF71
00BB
FF3B
0028
00B7
00B9
01A7
0110
0085
002B
0050
0019
0097
FEF5
0134
00B6
FFA2
008E
00FF
FF85
0061
00AF
016D
FF66
FED6
FF93
009E
00F9
0042
FF32
FF78
FF49
00DA
FFBA
0170
00F6
00D5
FEF5
0084
FF5D
FFC7
0056
0154
0096
0052
0037
FF1F
00EA
0067
018A
00E4
00D4
006B
00E6
0182
010A
00B7
FF5F
FF39
0091
0099
FF1B
FF16
004D
FFBC
00DD
FFB4
0041
007D
FF6B
008B
0017
0048
FF65
0029
FFD2
FFC1
0035
006D
FF32
FF8A
000D
00C4
0071
00B7
0031
0076
003C
FF85
FFCC
0103
002F
00FC
0073
FEFB
0104
FEFE
0155
004C
0040
00D9
015E
00E9
003C
008D
0108
00CB
00DB
0065
004C
00CB
FF7B
0065
0170
001D
00A0
00ED
FF6A
006A
0058
FFAE
FF5C
0132
FFB7
0127
010B
0192
FEE5
FEFA
012C
FF27
FEE5
00F1
FFA7
00A0
00AB
FF38
009C
0024
FF74
00C0
0065
0068
00D5
004A
00AE
0097
016A
00E6
00A9
FF00
0072
01A7
011B
00AC
00AC
0060
FF1F
FF8B
00D8
FF6A
0056
00B6
FF34
FF6C
FF28
006A
FECD
00BD
FF28
0084
018A
00D9
00B8
FF3C
003C
0119
00F8
0116
00F5
0122
0184
FF2B
0042
00D8
014E
0104
00A9
00D5
008A
FF67
0034
0073
00D0
FF08
004A
FFC5
006A
00E1
00D7
008D
00AC
00DA
0059
00C3
002B
FF89
FFA2
0059
00C2
FF55
0089
0020
0032
00E3
FFF3
008B
FFB6
FF89
FF33
00A0
0023
00F7
008A
005A
0093
0072
00EA
00D4
FFF3
002E
003A
00B5
FF52
0073
0060
0084
0031
00DE
00AB
FF68
0064
0073
FF8D
0037
00BC
FF9B
0111
00F3
00BA
008E
0063
FF77
00EE
FFEC
FF59
FF56
0010
FF68
00BB
0088
009D
0041
FFB8
0083
FF77
00A7
0018
00D3
FFBB
00D6
0064
FF48
0048
0045
FF90
0031
0057
0097
FFD7
002A
FFFE
00C6
00D1
0040
FFB2
0014
FF96
0131
FF58
0075
00FC
007A
FFC0
00AE
FF7F
000F
00EF
0131
000F
00B1
00F1
000A
00D6
004E
00AF
00AE
0102
0029
0024
005D
00EF
00B4
FFAD
FFE1
0078
00C3
FFB3
FF4B
FFA6
0021
006A
FFA9
0026
00C0
002E
00B9
0071
005F
FF8A
0012
FF7A
00E4
00C1
004F
0038
00A7
FFE5
005E
00DB
FFBC
0027
00E5
008C
FF53
FFDD
0047
0090
005E
0040
0029
0070
FF49
0135
0058
00A2
001F
00E9
0124
009A
00AD
0032
004F
0036
00AC
00A1
0036
FF86
FFEA
00EE
0006
009D
000E
FFFC
008C
FF58
FF98
FFCC
00C2
FFCA
0052
009C
0151
0035
FF66
00BB
FFA4
000B
0055
FF73
0049
00D5
FFF0
006F
00D8
005B
00F7
00D2
008E
00A1
0018
0016
0079
006F
0026
002A
FFF8
00C1
006A
009D
FF6A
0045
00AC
0002
FF74
00B7
FFE9
00D7
00CD
FFD3
0019
FFA5
0067
FFC6
00D4
FFBD
0041
00BF
0062
0065
FFA5
FFC6
00AF
010D
0009
0109
0116
0019
FF95
00AB
0057
00C6
00A9
00E7
00E0
007D
FF47
0062
003C
009E
0014
0095
000C
008C
00DF
00A9
00BF
0239
01C7
0214
0218
FE1A
0425
0408
FC6D
FB59
036F
FE14
028C
020C
FB8A
034B
01F1
03C8
03AA
04A7
029E
0292
FFCD
01FB
0079
029F
FB8A
02A2
01D8
0343
FF09
0296
00E1
0342
0005
0322
028C
024D
029A
FCEF
0343
0203
0202
04B2
FBFA
FB4C
037A
0169
FD9E
0202
0296
047E
033E
0177
0320
0354
03A2
045D
0389
02AC
01D2
02C8
FCA6
041D
021A
0430
024C
02DC
02BB
03F5
FCBA
021F
03A8
0257
FC00
03E7
01E7
021E
FE2C
03A3
0379
0378
02B6
021B
029F
033C
03AA
034F
01DF
040C
025A
01F1
02C3
034F
027D
034D
03EC
020A
01AF
02A1
02A7
0217
039B
FBA8
02CD
01DE
0298
025E
0256
0267
FF3A
0262
029F
0383
0333
02AC
0265
03DC
032D
04A1
03D6
026F
03BD
025B
FC42
03B3
FCFA
0310
02B4
0338
0255
03E6
03CE
FB90
025A
0340
046C
044E
01FB
025B
0416
025E
02C7
FBFE
0339
0495
0248
FBE4
028F
FBCB
03F2
0288
03A6
0261
0208
FCE3
026F
01DD
0259
024D
0228
0272
0225
0253
02B1
02D3
02B8
03D3
04A2
028C
03E7
0206
0213
03BC
0202
0450
03A5
0330
024D
0361
01F0
01D0
024D
03B3
0308
0285
03D3
0399
025E
03F3
028D
0217
0383
02B7
02B6
03C1
02AF
023E
023A
027B
0250
021B
02A0
020F
0217
0276
03FA
020B
FDBE
01EC
04CF
0239
0200
0425
03E7
0244
0382
0254
023D
0390
03CA
0403
0219
0349
024B
0341
02DD
FF7C
0295
0234
0357
045B
029A
02A7
000E
027B
021E
FED6
0300
0295
0233
FFC0
029B
02C7
02CA
0221
03AA
022E
0208
025F
03BC
02CC
040C
0226
FF5C
020E
029B
010F
0147
0122
012F
FE32
006E
00A8
FF5B
0003
00A9
FE9C
00AC
009D
FF90
009E
018F
0085
0087
FF0C
0142
00BA
FECA
0107
FF32
00C6
FFA6
009C
0139
0108
FEB7
0172
FEFF
00AD
FE66
00B9
00CA
00F6
00DD
FFF6
005A
00FC
0118
FFAD
FF6C
FF8A
00D9
FF26
FEBB
0103
00AA
FF30
005C
FF93
00C4
0074
00E1
FFBA
00F3
0147
0173
00D3
FE3C
FF84
0143
0008
018A
0161
0139
00DB
FF13
00D4
0087
00DC
FF56
0117
00F1
00EC
FEEA
00A6
006D
0058
00B4
00EF
00E8
00B4
0070
0076
00ED
004F
FFD7
018D
0157
0068
00EC
00B0
00D2
00B8
0177
00F8
0151
016A
00A5
FFEB
00C4
FF8A
0150
0128
0111
00F5
FEC4
0093
0174
005C
0044
00D8
014E
0100
00AD
FF19
0105
00D3
00F0
00CB
FF5D
006B
FF5E
0067
00EB
0053
0117
011F
007D
FFB7
00B0
0106
00C3
0083
010C
0163
FF02
0131
00E0
0031
0095
004C
0100
0000
0116
FF65
0112
010C
00E6
00C2
00EC
FF87
0123
00CC
019D
00E5
00E5
0102
00CA
0102
0137
0125
0132
00D8
FF14
00F4
005F
00CB
00DB
00F1
012A
FFC0
00F6
007E
00F1
0090
0167
FF37
00A6
0052
00CF
00CA
00C0
00E3
015B
00E8
015A
0188
0089
00C4
010B
0096
017A
00CB
00D1
015C
00E4
00B3
016C
FFB0
010C
00EB
00A7
016D
FDDC
0171
FFBC
013B
0113
0088
00C6
00B0
0110
00B6
0125
00BE
00B6
0104
012A
005B
011C
00F2
0140
FE6C
00CC
00CF
00B1
FF05
00F1
FFA0
FEAB
0169
00BA
FED8
002A
0148
012A
FE6D
00DE
00C0
011A
0173
004F
016E
016E
014E
011A
0147
0102
00C9
FE2A
00EF
015D
0125
01F0
015C
0144
0170
FEE7
FEFE
0070
0108
FECB
01CC
0148
0134
00BB
FF2F
0164
FF19
FEDB
0024
0149
0130
0201
00A5
01F5
00EF
0139
0135
018A
FEB7
01B6
00B0
0181
FEFC
017B
FFED
00D1
014D
0110
0195
FF01
0146
0143
FFCF
0122
0052
FF20
0162
021A
01F6
011D
0045
FF19
0150
FF42
FED4
FF21
001F
FEDE
00CE
01CC
0096
01FA
FFA6
00DB
FF13
0148
0130
0162
FF3B
01F0
0129
FF5E
00B2
014E
FF58
00B3
010B
01E9
FEFB
FEF4
FF46
008F
008E
0162
FEA2
FF1C
FF74
01DE
FF5D
0149
00BA
00EA
FF57
00C9
FF28
FF2B
015E
019D
009E
00AD
0163
FEFC
012E
00F4
01AC
01A5
01E9
00D4
00EC
0211
01BC
011B
FF61
FF75
00D1
00EA
FEE8
FF69
0076
FF28
0152
FED9
0123
FFD1
FF08
009E
FF69
016B
FEF5
00D4
FF7A
FF96
00EC
00DB
FE94
FFC4
FF8A
0110
0137
FF4F
00F9
0147
009E
FF03
FEFC
0107
00AC
00F3
00D3
FF01
0110
FF11
01B7
0109
0052
015C
0164
010B
00BB
0124
0122
00B8
00B5
00A0
0115
013A
FF0B
FFE0
0138
008B
00EE
0103
FE87
015E
FFD0
FEC6
FEF8
01B2
FEF8
00B7
01B4
01F3
FEFE
FF6B
017F
FF0A
FE84
0106
FEED
0139
011A
FF27
00A3
0156
FF7E
0106
0117
00AD
013D
00EB
010B
009B
01AB
0152
0136
FF58
0169
01AE
0147
0011
0148
00CF
FECA
FF64
00D0
FEBC
0129
0113
FED8
FF28
FF3E
00C4
FF24
00F9
FF10
00B9
016D
008E
010B
FF42
FFA2
0104
01E3
0193
01AC
01FC
01E0
FECB
00D0
010C
021E
0149
00C7
0111
0143
FF21
0107
0175
00AC
FE9E
0169
FF55
0140
018A
0123
0141
0088
0108
0080
00C0
016C
FEFA
FF22
0012
0094
FFA9
018A
00C5
00F9
0065
FF6E
016A
FF26
FF7C
0008
0093
002F
00F9
00CA
01A4
0095
00AA
0061
01B5
FED4
016E
00B9
0114
FF3C
00E6
FFA5
007C
0100
0077
010E
FF42
0107
007B
00DE
0019
00A4
FFC8
01C1
01BF
01CF
00C7
00B8
FF0C
0153
FF23
FF45
FF2F
008E
FEED
0060
00DB
0077
0173
00BD
0125
FFA5
0071
0104
00E2
FF0B
0151
010C
FFC1
00A0
005D
FEF8
008A
010A
0141
FF7B
FEBA
FEF0
00EE
00DB
0094
FF05
FF9A
FF99
010D
FF7E
0130
0101
008C
FF45
00C9
FF38
FEEA
00C0
0136
00BE
00A0
004E
FF4B
0097
0086
00FF
00A8
00FD
006E
00A8
012F
0172
00EF
FF93
FEDE
0051
0073
FEDB
FF4B
002F
FEF1
013F
FEEF
00B3
000B
FF4D
FFF8
FF77
006A
FF4D
00AA
FF38
FFC9
00CA
00FB
FF2E
FFBE
0057
00D3
0077
004F
005B
008E
0096
FF36
FF96
007A
0104
012A
0137
FF28
0067
FEBC
012B
0110
00AF
00A7
0141
010F
00F0
0091
005D
00BD
005D
00DA
0072
00CE
FEDE
0008
00E1
0072
00BB
0093
FECA
00D1
0095
FF99
FF8C
0183
FEFC
009C
019D
01B2
FF20
FEF6
017E
FF50
FF16
00B8
FF52
00FC
00E3
FFAA
0047
00AC
FFD6
00C9
00D0
0079
00DE
00BC
00B8
0084
0105
006D
00D6
FF6A
0067
01B9
01CC
0042
00D4
0076
FF95
FF91
00E2
FFA1
0065
012B
FF8F
FFB8
FF78
00E1
FF71
012F
FEC8
00A4
017D
0060
0120
FF59
001F
00AE
010D
015B
0160
013D
011B
FF60
0063
0076
01C6
0132
0065
0094
00C0
FEDA
007C
0051
00D8
FF9F
0076
FF9F
00EA
01A9
00FF
012A
004C
00E8
004C
00B6
00FF
FF9B
FF45
006A
0046
FF84
0125
007A
00F4
00EE
FF34
012C
FFBB
FFD4
0009
00FC
00A2
0154
00FC
013F
002B
00AB
00F4
010A
FF63
0171
011F
010A
FFA8
01A2
FFB6
0073
0110
0122
00E0
FF76
00D9
010F
0096
0070
00A8
FFF2
019D
0198
0185
0102
0065
FFBE
017A
FFC3
FF97
FF9E
00B1
FFE7
0041
0145
00C6
013D
001B
00E0
000C
00E6
0066
005D
FFC7
0106
00DE
0023
00B9
00DC
FF3E
0045
0116
01B8
FF62
FFBB
FFB2
00DA
00FF
00AE
FF67
FF92
FF72
0131
FF79
0129
00D4
0084
FF7D
0062
FF4D
FF46
0117
010F
00C5
0049
00E1
FF5D
001D
012D
00DA
0096
0185
010C
0099
010F
00ED
0079
FFCC
FFA4
00AB
007C
FF64
FF1D
00BC
FF3E
00F5
FF7A
005A
0058
FF60
007F
FF90
00B9
FFC7
00DA
FFB8
0075
00D4
003C
FF44
FF9D
FFC7
0069
0118
0008
00D9
00FD
003B
FF4B
FF9E
00BB
0011
0130
00FB
FF64
006E
FF99
00F3
004D
0010
00AB
00F0
010A
0036
0110
0059
008E
00CA
00D2
0060
00BB
FF92
0057
00EA
000E
00DD
00BE
FF7D
0059
005E
FF31
FF92
017A
FFBC
011B
016A
019C
FFBE
FFD5
0126
FF90
FEEB
0095
FFCF
0104
009F
FF7C
0118
00A7
FFD8
00DA
005D
00F9
0043
00BD
0058
005C
018A
0107
0067
FF10
00BE
00E2
01BF
0071
005C
0073
FF43
FFAE
00F1
FFB3
00AB
00EE
FF8D
FF7B
FF31
00B3
FF9A
0121
FEE0
00ED
0100
0096
003F
FF8B
000E
00D9
018F
0196
0104
0176
017F
FF94
00DA
006F
0191
0127
00B7
0071
00F2
FFB9
0103
010B
0074
FFD7
00B1
FF31
00AE
0147
00B0
00E4
009D
00C3
00B6
009A
019E
FED8
FF1E
FFAC
008D
FF47
0112
001C
FFFC
0106
FF24
009E
FE60
FF0D
0001
001B
009C
00C2
00B0
0113
00A5
007D
003A
00CE
FF29
0160
00A5
00AB
FE99
0155
FEFD
00AA
0034
0091
00C3
FF14
0038
0073
013B
0062
FF54
FF20
0191
01A3
00E3
0033
01F4
FEE0
00DF
FEFB
FF27
FF42
00E8
FEE8
00A0
0131
00A8
015E
0137
0070
FFC8
00B6
FFF8
0096
FE95
011A
00CF
FF63
0000
0066
FEDF
0016
0032
0153
FF28
FE72
FF18
FFFF
0072
0021
FEDA
FF45
FE6C
00CF
FF59
014B
002A
00F5
FF07
00DD
FF06
FE94
0094
00DB
008C
002C
00B4
FF45
008D
0028
00CF
00F4
012E
0060
0027
00D6
015B
0028
FEA0
FEA9
00B7
0065
FEB1
FEDA
0215
FF28
00FE
FF21
00B6
FEE2
FE7E
FF2F
FED6
FFE9
FEBB
0063
FEB7
0020
0038
0095
FE8B
0025
013B
00A9
0048
FFA6
00CB
0056
00A0
FEF1
FF36
0095
00A1
00B4
0105
FE96
0029
FE6E
00F8
008E
FF9C
00CD
00FD
0101
005D
0021
003F
00B2
0054
0078
0009
0096
FEAA
002D
0169
00AE
009A
0010
FEAE
FFF1
0013
FE97
FE7E
012E
FED6
0033
00DE
014C
FF29
FE82
014A
FEB7
FE61
005F
FF23
0009
008B
FEC4
004A
0069
FEC3
00D2
0065
009F
008D
00B8
00D9
0094
0106
00BF
0077
FF3E
0089
00E0
0156
FFF9
00E6
008A
FEE7
FED2
0048
FF20
00C6
0039
FE98
FEC5
FE7A
0083
FE7E
00E0
FE8A
0019
010D
00C1
0030
FEBF
FFE5
0092
0148
0164
0137
0169
011B
FF20
0089
007C
01AA
0110
005D
008E
009C
FEEE
0051
0062
003E
FF12
005E
FF0D
00AE
011C
0063
002E
00C5
0175
00E4
00FE
0173
FEC9
FF63
00B4
007A
FFA4
0135
00D2
00AD
0075
FF1E
00AF
FED3
FF95
003F
007B
00F1
0143
0133
0150
00F4
0062
0073
0119
FF70
017D
0088
0149
FF4F
00F2
FF91
00C4
00F3
011C
0161
FF68
0080
008A
001C
0039
00AB
FFC3
0141
0107
01C3
0118
00A0
FF4E
0115
FF3A
FF79
FF18
FFA0
FF12
00B9
00D6
0068
01B0
00BA
00B4
000A
00AC
0102
008F
FF57
017E
010B
FF5E
003D
0070
FF93
0104
0146
0136
FF31
FED3
FFB5
009F
00B8
00AC
FF1F
FF59
FF3F
0186
FF08
0172
00C1
007D
FECF
00C0
FF30
FF41
0110
01C6
00B1
00F7
00ED
FFAE
00E4
00BC
011F
008F
00D3
00CE
0108
0191
0158
00D8
FF74
FF4B
0100
00EB
FF58
FF92
0075
FF8E
00EA
FF40
00C9
FFF8
FF59
002F
FF31
00D7
FF4A
00F1
FF7A
FFEE
0043
0050
FEF1
FF61
FF99
0078
012F
0054
00AD
00F6
008E
FEDE
FFEA
00F2
0046
00E7
00AD
FEDC
00E6
FF15
0194
009F
0082
00E8
00F7
012A
0047
0065
00C4
003D
00F1
0105
011E
008B
FEFF
FFDD
016B
0094
0067
0053
FF99
011E
000C
FF27
FFB2
0140
FF44
00B2
01B5
01D8
FEFF
FF72
0113
FF1B
FF3B
0044
FEEE
007E
0076
FF67
00D1
00E8
FFC0
0062
00FC
011E
00D0
0105
00C0
0095
011B
00B2
00A2
FF93
0063
01C7
01A9
0044
0076
008A
FEEC
FF07
010F
FED5
00F3
00A9
FF1B
FF56
FF73
0067
FEB3
018A
FF1B
003C
0138
0066
0104
FEF1
007A
013C
00D5
0177
0148
0145
0167
FF91
00D2
00EA
0102
0178
00BD
0052
00C2
FF33
0080
006E
00BD
FF2E
00DE
FEC1
00DD
0188
00C6
0110
00D3
0130
0059
00B2
0166
FED7
FF70
0009
009D
FF10
012F
00F7
0080
006D
FF80
0180
FF90
FF0C
005E
010C
009E
01C5
00AB
0122
00B6
00E7
0074
0189
FF7A
0167
00D7
0181
FF10
0165
0006
0098
00AF
010B
0166
FEE7
00FF
0104
001D
00CE
00AE
FF05
01C6
0167
0157
0056
0080
FEFF
0182
FF2C
FF0F
FF37
0080
FF90
00FB
0168
0070
013A
0096
00FA
FFC9
0090
0049
0084
FEED
012E
010E
FFE3
00F0
00A2
FEFC
00B2
00ED
017B
FF5D
FECE
FEE8
0095
00AF
00B4
FF56
FF22
FF27
0130
FF9B
0129
00F2
0140
FEF8
0069
FFA4
FF4C
00B2
0169
003B
008A
0114
FEFA
0085
0065
010B
010F
014A
00B4
00A6
01A1
00F9
00B8
FF60
FF83
0109
0069
FF2A
FEDF
0026
FF2F
007B
FFA1
00A5
0020
FEF2
002D
FF7A
008F
FEC6
0061
FF77
000D
00AF
00FF
FF9E
0008
002E
00CA
0148
0089
0080
0122
0089
FF7B
FFB0
00D4
00C0
00FD
00A6
FF7D
00C7
FEDE
0169
00BF
002E
00CA
0165
00ED
0072
00F9
010B
00CC
006C
0106
00CB
00D6
FF9E
0036
0141
FFE0
00AF
004B
FF5A
00B2
0092
FF4E
FF90
0131
FEFE
0076
011B
0124
FF9E
FF80
0136
FF78
FECC
00D5
FF73
0134
00DE
FF30
0078
0117
FFC2
00EA
008E
00CB
0101
00D5
0094
00B3
014A
0058
00A6
FF96
00AC
0158
0129
007A
00CC
0040
FF2A
FF0C
007E
FF73
00CA
006F
FEE6
FF1A
FF81
0068
FF13
0118
FF51
007E
0199
007D
00A3
FEF9
00A0
008B
0109
01B3
00BF
011A
01BD
FF75
010C
008E
018F
016B
00F2
00C4
009B
FF00
009F
00BC
0083
FED8
00B2
FFA3
00A2
017C
0100
0094
00A5
013C
002E
00D8
01B3
FF24
FEB1
0105
0144
FF9F
0202
00CF
0057
01AB
FF2C
0110
FF0E
FF68
FFE7
000A
000D
014E
00A6
0132
00D3
0176
006C
013F
FEF3
01B2
008B
0132
FF48
01DC
0003
0073
00DB
00C3
0158
FEF6
0048
0085
001A
00F7
00A8
FF43
019F
0202
00FE
0030
0013
FF1A
011F
FEDA
FEC5
FF53
0063
FF8A
00C3
013D
005D
01C6
003E
00AA
FF7C
001A
0026
005F
FEEA
015D
0034
FEE0
0070
0176
FF6E
001E
0127
0192
FEFB
FF6A
FEE8
0008
0042
0077
FEE1
FEF1
FEEC
00EF
FF8F
0190
0023
00EA
FF77
004A
FEDA
FF65
0047
010B
0089
0024
006A
FF76
0123
003A
00E6
0067
014F
005E
0033
01E9
00C6
00D6
FF56
FEC4
0040
000B
FEC4
FF06
0037
FEBF
00E6
FEC3
0003
0119
FF69
00EF
FF41
005A
FF0C
0026
FF40
0027
0134
0038
FF41
FF01
FFF1
001D
0090
0011
0097
008A
00B2
FF4F
FF9B
0062
014C
0121
0169
FF03
0028
FF20
0153
001C
0056
00DB
0100
00C0
0056
007D
00C1
0059
0068
00C2
00B2
0044
FF3A
003F
00AD
FFE6
0025
004C
FF15
0042
FFA8
FF58
FEF9
0139
FF8F
0020
0184
0174
FF72
FEBE
017D
FF36
FF24
0080
FF5A
001E
00EB
FF07
00C0
0036
FFD8
0091
0040
00DF
0008
0022
00B2
0044
00F1
00CC
0062
FF2D
0079
01F8
0163
FFF6
0053
0019
FF23
FF6F
0006
FF89
00E0
0077
FF30
FF82
FF37
00B9
FEBC
00FF
FEC7
0099
01A3
0052
0058
FF71
FFBE
0047
00D4
0101
00DE
016C
0165
FF75
0062
00A9
0151
0117
006D
0067
005A
FEC2
0049
00C8
005F
FEEF
002F
FF7A
007C
01D8
0078
004F
002D
0097
0066
00D2
FDD5
0072
0077
004E
0096
0095
FE03
003B
0059
0031
0043
008B
0075
008A
FFBC
00E3
0031
FEE0
0038
FE68
008D
0007
0093
00AB
0075
FE05
009A
FE8F
0020
FE2D
00A6
0045
0025
00F3
FF9E
00B4
006D
00D2
FFF6
00E2
007E
008A
FF76
FED3
007B
0048
FF53
0011
FF2B
0017
0014
009A
FFF1
0013
0025
00E6
00BE
FDE3
FFE9
004C
FFDE
008A
0034
0086
00C3
FF72
00FD
004A
004B
0057
0036
0094
0087
FEDD
0033
0094
0076
0075
00DE
00C5
0041
0092
0076
00B7
0044
0039
010A
00C5
006E
0033
0055
0061
00D3
011B
00B6
0077
00FF
0061
0087
006A
FF46
009E
00F8
009D
0038
FDE1
00E3
00A5
004E
0024
00CD
00F6
00B1
0038
FFB6
0036
003F
0000
0088
0038
0042
00B0
0053
005B
009E
00F3
006E
FFDF
005C
00ED
00CB
0083
000E
008E
0074
FF31
00C0
00DA
00C3
0087
00B3
00F8
00C9
00B8
002B
006C
0053
00B4
00AC
00AF
0050
00ED
0063
00A1
0067
005B
007F
00D2
0029
0036
009C
0078
0003
FF6C
00A1
0048
0099
001B
FFFA
008D
FF53
0073
001E
0055
00A0
0075
FF50
0057
0003
00A0
00C8
005A
00B7
0091
0068
00F9
0078
009C
00ED
0072
0000
00D2
00B1
00C3
00A5
0025
004D
00A7
001C
004C
003D
0064
00DD
FE03
00D5
FF78
0092
00B6
00AD
0077
0093
008A
010A
009B
0023
0052
00C5
005C
00A4
0088
00B3
00BF
FE27
00CF
002B
00D2
FF8D
00AE
FF97
FEB7
00DE
0041
FDE9
FFD8
00FF
0020
FE42
00E6
008A
00CA
007E
0017
008C
00D9
00B9
001D
0057
008D
004A
FE4C
0079
0057
0015
00B5
0092
0047
FE1C
009A
0069
001D
0091
0060
FD9C
001D
000C
004C
0032
00E6
005E
0048
FFA9
0054
00D2
FE21
0084
FED9
007B
001F
0059
00ED
003A
FDDA
0074
FEB8
0064
FE14
0069
0043
0099
00D4
FFF8
0096
00BA
00E2
FFC5
0092
0046
0063
FEF1
FE9B
00AD
00B7
0058
FFF9
FEE4
0086
00A2
006D
FFFC
0063
00C8
0096
0063
FDD7
FFC2
0101
006F
0073
0056
00C7
008D
FF44
00D8
004B
00A3
003E
007A
007C
00B2
FEAA
0095
00B3
003B
004A
0035
0062
005B
0060
0089
0108
009B
FFC4
003D
008F
00C1
00DC
003B
008D
00E6
0097
0055
00D4
0074
008B
006E
0066
FF0E
0080
007E
0062
0090
FE68
00A8
00F6
00BD
0078
00E7
00CF
002A
0026
0020
0028
00D8
FFF0
0086
0022
0095
007F
0081
00A8
00C4
00A7
00A2
FFF0
00A3
00E4
0037
00B3
00A7
00E5
00EA
FF1C
0051
00D6
00BB
0051
0059
00BC
00A8
00E6
000D
002A
0084
00CD
00DC
0048
00A1
00BF
00C3
004B
0036
0051
009A
009B
00EC
0023
001D
00C4
0040
FF88
00DD
00E4
004E
0080
0059
00C5
FFA1
0095
00B1
005B
0043
0041
FF01
006D
FFFA
0034
0067
00B9
FFE6
00A6
0069
0078
0093
0082
0051
00B7
004C
00EF
008A
0093
00AA
008E
005A
00C6
FFB9
0081
001E
001A
004C
FD4D
00BE
FFFA
00AC
007D
00A7
00A1
003F
0038
00D4
00DA
00B0
FFF2
0035
00ED
003A
007C
FFF8
001F
FEA6
001C
0044
00AC
FF74
009D
FF45
FE91
00B0
007D
FE0E
006C
0033
0090
FE4B
010C
0097
0037
00C9
FFF4
0036
0098
00B9
0007
00E8
0060
0032
FE5B
0058
00EA
001A
00E5
007B
00E3
01B3
FF45
FF35
0162
0160
FF7C
01E6
00EE
005D
0120
FED3
013B
FF62
FEC9
000E
00CE
001A
010F
0069
0115
009C
0166
0048
0116
FF03
0111
00BC
010F
FF4B
01D5
0022
00F5
0090
0079
0116
FF1F
00AD
00D0
0047
0119
0161
FF3D
0177
01A2
0189
0050
005F
FF45
0125
FF57
FF88
FEE5
FF92
FF4B
0056
0112
00B6
01E7
0082
00D9
FFB7
004E
007E
00BC
FEFD
0167
00CC
FFCA
008B
0115
FF29
003A
0096
01F6
FF02
FEDC
FF25
009E
00AC
00FC
FECB
FF57
FEEF
016B
FF4A
019C
0015
0040
FF2E
004B
FF0E
FEF6
001D
017A
0094
00AD
008D
FF58
0173
003A
017D
00AF
0161
00DA
00AF
013B
00D8
0089
FF7C
FF6E
004A
0093
FF7E
FF40
0028
FED9
0105
FEFE
004C
00D0
FF58
00BB
FFDD
00AF
FF48
0050
FF22
0021
010C
0013
FEC7
FEF8
FFB3
0024
002A
FFD4
0008
009D
00BC
FED7
FF2F
0033
0113
0091
0142
FF2B
0055
FF6D
0144
0064
0113
0046
0100
00AD
009A
0015
00BC
007B
0029
006D
0055
0017
FF3C
0023
016C
0043
00A8
00A6
FF4B
006F
FFAA
FF2A
FF4A
00DA
FF08
00F4
0131
01A6
FF00
FF35
00D8
FF22
FF07
004D
FF5E
0037
0075
FEDE
0066
00DC
FF99
001B
00E3
0054
0077
006E
00DB
001B
015C
0061
006C
FED1
009C
0161
0118
FFB3
00A2
006C
FF3B
FF2E
0095
FF65
0074
00B2
FF0E
FFAD
FF28
00A0
FF79
00D4
FF29
00DA
0169
002C
0071
FF0D
0040
0046
0137
01AE
00B7
0122
0129
FF08
0067
00BA
0138
011A
0047
00B2
009C
FF12
0047
0045
0080
FF3E
00E2
FF19
00BD
0102
0040
0032
0075
0158
0102
00C1
017D
FEB8
FEB7
003E
007E
FF7E
01B5
0087
00C0
0076
FEAB
00FE
FEDC
FF35
FF49
00E9
011F
0180
0149
01CF
00AF
00FF
00F8
0190
FF42
01B3
012B
018E
FED0
01C0
FF7C
00C3
0123
00F9
0170
FED9
0092
00E2
0034
000D
FF9C
FF2B
01B2
0150
01EF
00AF
00B1
FE94
011A
FF52
FEBC
FF4F
0019
FEDA
00D9
00EE
008B
0195
FFD5
00FF
FEEF
0086
00F0
010C
FEA3
01A8
00CB
FF24
0099
0073
FF71
00E3
00D5
014E
FF59
FED0
FEA5
010E
009E
0150
FF0D
FEFB
FED7
0158
FEB1
018C
00E5
00EB
FF6F
00E7
FEC9
FF00
0121
01B1
00DF
00D5
006A
FF42
00F5
011E
0120
017D
016D
013C
011C
01E5
015D
009A
FF29
FEFF
0150
0083
FF0D
FF0C
FFE4
FEC5
00F9
FF26
008C
FFEF
FEF4
0030
FFC2
0148
FED6
0131
FF7A
0034
00F9
00CC
FF02
FF57
FF5B
012D
0126
FFF7
00E9
012F
009E
FEF4
FEEB
00E5
0031
00D3
0076
FF17
00B8
FED5
0165
010D
FFB8
00FB
012E
0176
0083
00CB
013E
00FF
00AF
00A1
00FD
0120
FED7
FFEA
01A0
FFD7
00AA
00A8
FED4
010A
FF9A
FEF5
FF39
011C
FF61
0143
0164
012C
FF1E
FF52
01CB
FF58
FEC1
005E
FEDC
0126
00C1
FF10
009B
0120
FF99
0110
0073
012D
0082
0104
0129
0132
01AD
0107
00E8
FF41
0151
01D7
0157
FF5F
011B
0127
FEF7
FEEB
0083
FF04
0119
0133
FEC0
FF1C
FEB2
012F
FF03
0168
FF01
0129
01A0
013C
0094
FE9A
FF6F
009C
01DD
0164
00F9
01CC
0203
FED4
00E6
0082
014C
0188
00AD
00B2
00A9
FF53
00A1
0139
0126
FF03
00CF
FF3D
015B
01F6
0115
00A9
0161
0267
0187
0193
028B
FE32
FE04
0020
0140
FE87
023F
01C6
013A
01A2
FDF7
024C
FE31
FE6C
FF1A
020A
01AD
0244
01EA
02CA
01CF
014F
01E7
0296
FDFC
024B
01FE
028A
FE75
022D
FE82
01CA
01A9
0173
0243
FDD2
014D
01AC
0075
00C4
00C9
FE8E
02B2
027A
02BB
01FD
FF9E
FDA3
01F1
FE1B
FE81
FDFA
FF6F
FE81
0204
0279
014E
021A
0075
01B8
FE2A
0144
018B
0204
FE7F
01D4
0200
FE2A
0172
01A2
FE00
01CE
01F0
01EF
FDB1
FE32
FE29
01CC
01C3
01B2
FDD6
FE24
FE5E
0265
FDE3
021C
0159
01D7
FE6C
0201
FDC7
FE18
015E
0200
014E
017B
01BF
FE07
00F5
0186
01DD
017D
023F
0217
0182
02BC
01C8
01C0
FE54
FDFD
0199
01CC
FE58
FDF1
FF81
FDB1
01F3
FE4C
01BA
002A
FDF9
00AB
FE4A
0152
FE34
01C8
FE2B
FF26
0129
01B8
FDD2
FEF7
FE5D
0166
0232
FEBA
01A6
0162
018E
FE1C
FE61
014E
016A
01E7
016D
FE99
019D
FE24
01F6
0182
0061
01F2
01EC
01FB
018A
01E4
01DF
01B8
0147
01D7
013C
016C
FDD7
FEC1
01D1
0043
01C2
0155
FDCF
0194
FEEE
FE74
FDBC
022A
FE14
0197
0224
0220
FE03
FE4F
02C4
FE4E
FDFE
01CA
FE89
01ED
0216
FDF7
01CF
01B0
FEFD
020F
013F
0167
01FD
0150
01D2
01E2
028B
017B
0216
FDFD
0178
026C
0209
FECC
0143
01E0
FE38
FDFF
019D
FE24
01FE
0223
FE5C
FE05
FDFB
0152
FE1F
01C5
FDDE
018A
027E
01FC
0214
FE30
FED8
0184
0234
0239
021F
022A
0231
FE28
0162
0170
02BD
0246
01B4
0179
01FE
FE3D
0142
0224
022E
FE51
018D
FE16
0230
025D
0184
0169
FFF3
00BE
FFE8
0095
0137
FEDD
FEB0
0052
0018
FED0
01C8
0012
FFD0
00D7
FEBD
0095
FF09
FF7F
00A8
002C
0023
00DD
0020
013D
009E
00C2
0068
012C
FF35
01A9
0048
00CC
FF1A
00F5
FFCB
004A
0048
008D
0154
FEFF
0089
0048
00FD
0083
00A2
FEB2
011B
0139
00DC
FFC8
0110
FED6
015A
FEFF
FEC8
FEE4
0098
FF0D
002D
0096
0082
0118
0187
0068
FF51
FFDD
0063
FFEA
FF80
00F4
0084
FF1E
0098
0056
FF69
005B
0074
0125
FF67
FEC0
FED1
000E
0027
0070
FEFB
FEDB
FF10
00E2
FF55
00BB
002C
0004
FF21
0074
FF59
FF38
0093
013F
0008
00AE
0016
FF60
006F
FFF2
00FA
002B
009E
0045
FFEE
013F
00ED
FFE4
FEF8
FF56
008F
0068
FF35
FF4C
0131
FEC0
00C2
FEC6
FFEC
FFE5
FF1D
000C
FF92
FFDE
FF09
0064
FF4E
FFCD
0078
004F
FF75
FF47
0079
00A4
FFEA
0091
FFDC
009C
0009
FF34
FF9F
003E
0051
008E
0082
FEAB
001E
FF49
0121
0055
FFEE
0025
00AE
004D
FFD3
0099
0092
002C
0092
FFCF
0061
002C
FF6F
0079
0123
00C1
0016
006B
FF0F
0062
0008
FF6D
FE9C
00E2
FF17
001A
0158
00EC
FF2C
FEBF
0179
FEAE
FF71
0047
FF3B
00AB
0054
FF21
000E
0001
FFAC
00B0
FFE5
008F
0041
0099
008F
004F
00CD
009C
0072
FEBA
0089
013B
00CF
FFF6
006D
FFDF
FF64
FF57
0045
FF70
FFDD
0009
FE9B
FF2A
FF4E
009D
FF12
00A1
FF79
0051
0135
0048
0090
FED0
00B5
0068
013C
0171
0050
015D
01B7
FF6B
0000
004C
0177
0042
0092
0096
0072
FF15
0009
004F
0038
FF2E
002F
FF7F
004C
018E
007B
005F
0181
01E4
00FA
017F
01BD
FEB2
FEB2
00CB
00E2
FF68
01EE
0126
014B
01B2
FF21
018E
FF3D
FEA0
FF3C
0193
0110
01DE
012A
01F3
016F
01AE
00D6
0187
FE7F
021F
00F7
01FC
FE8D
0227
FF52
0123
01B6
0175
01AE
FE95
0145
0179
FFBA
00DB
003C
FEE9
01F7
025B
0230
0135
0046
FED2
0209
FEFB
FEE8
FEEB
002C
FEA1
00E3
01CC
00FD
01E4
0005
013B
FF42
011B
015B
014E
FEE3
01A7
012C
FEB1
0167
019F
FEB8
00FF
01D8
0185
FF45
FEBA
FEC1
00F9
00CF
00D6
FEEB
FF35
FEB2
01DA
FF4F
019C
013A
013C
FF49
0171
FF0C
FEDC
0145
0170
015C
013A
012F
FEBE
00DE
011F
0231
016A
01C0
015E
010B
0243
0159
00DC
FED6
FEC9
00F8
0192
FF2E
FF4E
FF8B
FF4B
01B1
FF54
0188
0062
FEA1
007A
FF16
0158
FECC
018B
FF81
FFD0
0103
010D
FEB4
FF5E
FF9D
010A
0187
FF59
017C
0107
0135
FF6C
FF3D
0164
0140
017A
0138
FF57
0149
FE86
01C1
0106
0080
0116
015F
01D2
018E
0121
0167
011D
00E8
00EE
014A
011E
FF52
FF52
020E
0017
00D7
0133
FE70
01A0
FF29
FF0D
FECF
017D
FEF2
019F
021D
01A1
FF03
FF27
01CD
FE90
FE9A
0160
FEA9
01B3
01B8
FEAB
017A
00ED
FF78
0158
0145
01A8
00FB
00F1
0124
0152
017D
0198
0155
FE7F
018E
0243
01E6
FF0E
01A2
00FE
FF25
FED5
0145
FF50
0174
0152
FF2D
FF1A
FEE7
017A
FF0E
0173
FEC9
0127
01F1
0114
015A
FF33
FFA3
00FF
01C7
0253
0193
01C3
0202
FF50
0187
0196
0266
0189
0138
013B
0188
FF1D
0194
00F3
0140
FEC3
016C
FEBF
0110
01D4
013C
01A9
00D1
0192
010A
0116
0182
FF8E
FF38
0098
00AF
FF26
01DC
003D
00AC
001E
FF3C
0126
FF6B
FFB5
0062
00D0
0080
0173
00DF
010F
0104
0059
00E2
0189
FEFE
01B6
0040
0162
FF23
0167
FFDF
0120
00B5
008F
0099
FF38
0083
0089
FF84
FFFE
00A3
FFAF
0102
01E4
016F
0104
FF99
FEF7
016E
FFB7
FF7E
FF45
002D
FF2A
0090
0140
00B8
0151
FFE2
00C3
FF72
005B
008B
008B
FFB5
0113
010A
FFD9
00A9
00B2
FF82
0084
00A5
01AA
FEFC
FF7E
FF87
00F5
0042
00A1
FF61
FF23
FEFC
014D
FF7E
0102
00BC
0116
FF00
00CF
FF22
FF2E
0102
00F8
00A3
00A2
0085
FF0D
0067
006C
00FB
007F
00FF
00FC
00CF
0111
0178
00C4
FF58
FF1C
00F7
0054
FF5C
FF20
FFE4
FF41
00F3
FF8F
00E6
008E
FF44
0044
FFF5
0068
FF8A
0061
FF8E
009B
007F
0086
FF0A
FF8C
FF56
00FF
011E
FFF4
00F4
00D2
0066
FF0E
FF0A
0056
008F
011C
008E
FF5D
00C1
FF73
010C
009D
006B
0087
0091
014F
00D2
00DC
00EB
007B
00E4
00DC
009A
0049
FF5D
FFDE
014D
0041
00D7
0058
FEF7
00D7
000F
FF1D
FFAA
0140
FF8C
0117
018F
013E
FF9B
FFC9
0196
FF78
FF08
00C0
FF13
00CB
006D
FF2D
0081
0097
FFB4
0046
00FB
007E
0089
00A8
00D9
0032
017C
00A4
010A
FF37
006E
0116
0198
002F
00A7
005A
FF52
FF6F
0097
FF8F
00C9
00B6
FF98
FF7E
FF15
00A1
FF3F
00E5
FF6D
0082
0160
00EB
00A3
FF97
0053
00E4
018E
0129
010C
011B
018F
FF2D
00FE
0088
017F
009B
006B
0043
0102
FF0F
00C1
00FB
00BC
FF36
0076
FF8C
0118
0125
00A6
00E4
0106
019B
014C
00F9
0171
FF36
FED2
0000
00AB
FF4E
01C6
00D6
00CC
008A
FEB3
015F
FEC0
FF62
FFA3
00BF
010F
0194
009E
01E1
0142
00C5
0159
01DF
FEB0
0197
015A
013B
FED3
0193
FFD2
0152
016A
00E6
01C1
FF73
00B3
0113
FFE9
001F
0091
FF04
0144
017B
01F1
0114
007D
FF36
016D
FF80
FF0A
FECB
005C
FF94
0134
0110
016B
01B9
FFA3
00A6
FF54
00FB
010C
016B
FF2D
0118
011C
FF81
00EB
005E
FF78
0134
00FB
0207
FF17
FEE2
FEDD
00AD
00F3
00BB
FF3F
FF72
FED8
0192
FF2B
0188
00D5
0187
FEAF
0107
FEF0
FF04
014A
0125
0108
0118
0125
FEC3
00E3
010E
019C
017D
013A
00F6
0089
014F
012F
012A
FFAB
FF77
00B7
0139
FEEB
FF84
003F
FF5A
017D
FF1D
0089
FFDC
FEEC
FFBB
FFCC
0117
FF19
0082
FF17
FFC6
0058
0113
FF6B
FFB0
FF6A
0157
010B
FF95
0092
00B1
0066
FF57
FF39
00B6
00BF
0175
0134
FF72
0111
FE99
01E8
00ED
0002
0162
0134
016C
00E6
0122
0109
0120
00D3
00D8
010B
00F9
FF5D
FF9B
01A8
0018
0148
014B
FF19
014B
FF95
FF3B
FEE0
01AF
FEA8
0177
01FE
01DF
FF7D
FF46
01E8
FF76
FEEE
013E
FEE4
0133
00EE
FF62
013F
0162
FF8B
0172
00D6
00ED
0110
00F7
0110
0083
0152
00A5
011B
FF30
016E
021B
016C
FF7F
0152
0116
FEBE
FEA8
00E3
FF0C
00CD
0117
FF05
FECC
FF47
00B2
FED7
0150
FEF3
00F4
01C0
00FB
0134
FF15
002E
0151
01EE
0200
01D4
0198
01FA
FEDD
00D6
011F
01D9
0159
0144
00E8
011C
FF0E
0166
00B4
00F3
FF7A
0099
FF5C
00F8
014C
013E
013B
017D
021F
0155
0116
025E
FEAA
FF32
00AA
0156
FED8
024B
0176
0133
016F
FEAF
01B9
FE65
FF15
FF8B
0115
0195
01FA
012B
0195
01A2
0129
0112
01A1
FEC0
01FD
0142
0221
