FFCC
FFF2
00A3
0093
00CC
00A4
009C
00A6
00D9
FFFD
000F
FFF7
00A0
0037
FFCE
0069
FFFB
00D4
FFD4
009B
FFEE
0005
005F
00CF
0057
0015
00AE
00AA
0077
008C
00A5
001F
003E
00D2
00AF
0094
FFE6
002E
00B7
0058
009C
0064
00B0
FFFC
0018
009A
0035
009F
0093
001A
007F
0074
002C
FFF2
FFC0
0049
0038
0040
0089
FFFB
0004
00CC
FFE3
009D
0043
0061
0089
FFF5
0080
0002
000E
FFE0
006B
007D
009B
00C6
0070
003C
0038
006A
FFE6
00B6
0078
0063
007B
002D
0006
0077
004B
008F
0017
003D
0025
0039
0038
001F
00BA
FFC9
0041
FFD3
0037
FFEB
00AF
0012
0029
00B4
0018
00B8
000D
005A
0016
0021
0003
00A8
006C
001E
000E
000B
0013
008C
0030
003B
009B
0020
0023
0079
005F
0095
0008
0085
001E
0004
FFF6
00D8
002D
00C9
FFCE
001C
006A
00C3
000F
00A3
FFE3
0000
009C
0010
FFE9
0080
0060
003B
0001
00A0
0068
0034
0033
008D
00A5
0051
008B
006D
001A
0031
0068
0021
0074
FFC1
0072
FFF1
000E
00B9
FFEB
0008
FFCC
FFFC
FFCA
00D1
005B
0082
0004
005C
001A
003C
0080
0093
0093
0069
FFD9
0099
007B
0068
00D2
00AB
009F
00C4
0006
0064
0010
00C6
0047
FFD2
0077
0063
00C5
005B
007A
FFCE
00A3
0052
007A
FFCF
001D
0075
005D
00A3
009A
00D9
FFC7
0062
0053
FFF1
000C
0056
0052
FFFF
008C
0042
FFCF
009C
0095
003F
0074
FFFB
0071
FFFA
FFE2
0037
0076
0015
0004
0013
00D3
003D
FFE8
FFD9
004B
0042
00AE
0089
FFC4
003F
005C
00A2
0014
FF9E
001D
FFFE
0090
0046
007C
009D
00BA
0001
00A2
005B
0016
001A
0090
0086
0044
0088
0099
0026
0007
000A
FFE8
0041
0001
008A
00BD
FFF5
006C
0053
006B
0093
0065
0033
0049
0090
0035
00AD
002E
0060
00B6
00B9
00C8
004A
001F
0034
002A
00A0
008A
0059
003D
00B9
0042
0026
0092
00AF
0023
0076
0024
00A8
0007
000B
008B
FFEC
0078
0009
0078
006F
0093
00BB
FFEF
0089
008A
0002
006B
001D
0094
0054
0062
007B
002F
0025
0008
000D
004E
0093
00AC
004C
FFDC
0018
00C1
006E
0023
0012
008D
002D
000E
0074
0024
0033
007F
0080
0013
00AD
0094
0010
000F
0066
0018
0072
FFEA
002D
0039
0005
003C
00A5
0060
007D
0066
0007
FFFE
0093
0072
00B7
008F
0081
0013
00B4
0060
0008
00B3
003E
003A
002B
009E
006A
FFF7
006C
0019
00AA
004D
0018
FFFD
FFF7
0070
0099
009F
0070
003F
008F
FFEA
005B
00BD
FFF4
0092
0092
003D
FFDF
009E
00AA
0096
0003
00AE
0068
0000
0029
0048
00A9
0035
009B
0057
0018
00AC
0076
002D
0053
006D
FFE8
006F
002B
00AF
0078
003C
009B
0067
0080
009A
0046
0033
0082
0011
00BA
009E
0082
00A5
0032
00C9
00C6
0050
FFFD
005C
0054
0037
FFEF
000D
0026
0029
FFFA
0053
0053
0095
FFF8
0006
006B
FFF1
004D
FFFB
005A
001B
00A7
FFFA
005A
0022
0087
0045
00C4
0061
004E
007D
008A
0062
0081
002E
004F
FFE6
003D
0083
0067
FFFC
0074
00BB
00AF
0094
0066
009D
0029
00B3
FFF2
00BF
0049
FFE8
00B5
FFEC
00B3
FFF2
008A
0078
0022
0027
FFF8
0040
FFE6
FFE2
005E
0028
FFD5
00BD
0047
FFEB
0045
FFCD
0026
FFE7
0072
0052
00C4
004E
00A2
0062
FFDC
006B
0094
FFFA
0093
0007
004B
0000
0009
007F
0032
006D
0069
0010
004A
009F
FFFA
FFF3
FFFA
0005
000C
00BF
0042
FFF5
0009
0073
0044
0057
001D
008F
00AB
0070
0014
008B
0070
002A
FFEB
FFF7
0041
0037
006E
0054
00B0
002E
0012
0045
000D
002B
0075
FFF1
0060
0094
FFB8
003A
FFC9
0033
00AE
0065
007C
0053
006B
FFC3
002E
003B
0025
FFFC
FFC8
0001
00A1
0031
0044
0047
001C
0029
FFE7
0075
0068
00A1
FFE8
FFCC
000A
0053
FFE3
0048
FFC0
0053
0059
006B
006D
FFFF
0020
009B
0099
005D
0076
008C
00AD
005A
0037
0008
0008
00C1
0092
0071
00B3
0014
FFF0
FFE5
0082
0035
FFF1
FFF7
003A
0014
00A8
006D
00B7
001E
FFF5
FFEC
FFEE
00B4
0063
008E
0026
00BA
003C
FFEB
007A
008A
FFBB
008C
00B9
0047
FFDC
FFF2
004A
00A5
004F
FFE4
006F
005E
005D
00A1
FFB4
0063
FFF1
0097
0093
FFB5
0054
FFCB
0087
0046
FFE0
0022
0031
007E
0031
FFE7
0056
002F
00B4
0075
FFE8
0046
009F
0012
FFE5
FFEC
005E
0068
FFD5
008D
003D
0013
0039
FFC3
0049
008A
FFD7
0027
0062
0066
0091
009B
FFDC
0097
FFDC
0026
FFF1
0045
00A9
003B
003D
FFAF
002F
006A
0054
FFF5
FFD2
00AC
002B
0052
0003
FFD0
0073
FFF9
003E
0052
0001
0064
FFEB
008E
000F
0008
006E
0088
0079
0099
0045
0022
0036
0024
0056
FFE4
0099
006B
00AF
001B
0052
0019
0041
0059
FFE3
FFC8
0071
0059
0031
FFF7
FFCD
00A3
007B
0055
005C
FFFB
0012
FFCF
0084
FFEB
00BD
003D
0020
0000
FFEA
0091
0006
000A
002F
0088
008B
0074
0039
006C
0086
007A
0036
0007
003F
00A8
0020
001D
0000
0075
0064
00A3
00A1
0059
0070
FFE6
007C
0053
FFEF
0002
0099
0073
0076
00B2
0095
0068
0004
0026
0072
001A
0010
00C2
0048
0017
00AC
0084
FFDC
00BE
0096
0017
FFDE
003C
00BB
002E
FFD9
0019
008A
000B
005F
000C
004D
0022
FFED
0015
009F
005E
0079
FFFA
0004
0051
00AD
0057
0066
006C
FFED
0004
005C
003B
002A
0072
008C
0005
002C
0073
0041
0057
001D
0003
0028
FFD1
FFE6
000D
0023
0080
0021
0017
00B9
0090
0042
005A
006F
009A
00B2
002A
0069
001A
0050
0055
0095
0052
0063
0036
00A7
0074
006A
FFCB
0074
0088
FFF0
0010
004D
009C
FFFE
007F
0056
0000
005D
00BA
00AB
007B
007C
009B
FFE6
FFF1
0014
FFE9
FFEC
FFF5
0030
0067
FFDF
FFDA
0096
0019
005A
FFF8
0061
001B
0014
007D
FFFA
0093
00B4
0072
0026
0062
0066
FFD1
005D
0023
004F
005E
0075
001B
0057
0027
000E
00B6
0084
0006
00C3
0084
0087
004F
000A
00AA
004F
0092
008A
0045
0046
0037
0086
00C0
0034
00A1
008B
007E
004F
00B9
008C
00A3
FFF1
FFEC
FFF5
FFE8
0041
0087
001E
FFDA
FFF1
000B
FFF0
0015
0042
006B
00A6
FFDB
0021
004A
FFEB
0041
0064
0060
006D
FFF7
0055
005A
0065
00B1
0003
000E
001B
0080
FFEA
009D
0073
0034
0024
FFE1
0037
FFFE
001B
0093
004A
0080
FFC2
FFD6
00A5
0043
0011
FFFB
00C9
FFFA
0057
FFE0
FFED
0056
00CE
0026
0026
0033
006F
FFFF
0038
0010
0073
0050
003B
0030
0021
FFAB
FFC0
0031
002D
0068
001F
0071
003A
0066
004D
00A6
000F
008F
FFB8
008D
0097
001B
0068
0087
FFF0
000D
006F
FFFF
006D
0068
00B8
FFAB
0067
0018
0084
008B
0011
0036
0085
006E
0089
006D
006A
0091
007E
003A
00C0
002F
00D2
FFF6
00AF
FFDF
005E
008C
0005
0045
0099
0005
0025
FFFD
0067
FFD9
FFF5
0059
004B
004D
0066
0013
007B
0061
FFB0
0018
005A
FFF3
0014
0068
0059
FFB8
00CA
005D
008F
00D0
0013
008C
00BF
FFC5
00AC
003A
FFE2
0094
002C
0034
0010
003F
0079
FFFA
007A
001B
007A
0029
005E
0061
003A
FFFD
007B
FFBF
FFFD
001A
0041
0074
0063
FFE4
008D
0064
0034
005B
0039
FFF5
003F
FFF3
0061
FFC3
0067
0001
FFF3
00B4
000F
003A
FFBA
0089
FFDA
0046
00B1
FFE5
0070
FFED
FFF1
FFE9
0046
FFDB
0098
0058
0047
003F
00A4
0048
005A
00AF
00AF
005B
0021
0085
005F
00BF
FFF7
FFFF
0075
0000
FFD0
FFB7
0075
0086
0052
006A
FFBB
FFEB
FFD6
FFCC
0001
005C
FFBC
0001
0038
FFDE
0029
0079
0028
007A
FFBC
0012
FFF3
0085
005F
FFE3
FFF9
000A
0024
FFCA
002A
004D
0003
003C
0062
0072
0064
006B
0017
0082
001B
0067
0046
004D
002B
0068
FFAE
FFB9
FFB1
002F
0077
0083
002B
0073
FFDE
0028
00B5
0069
003B
003E
FFF9
0043
FFFE
FFF1
00A5
005A
0041
00BF
00D4
0069
0089
0099
003D
0021
0041
00AE
001F
005F
FFFD
003A
0073
FEBC
FF2B
FEF4
FEE8
005E
FE7A
FFEF
003D
FFFE
FF40
FEDD
FE82
0022
00C3
FECE
FFEA
FEFB
006F
FEA7
FF24
FEEA
00B5
0010
0067
006F
FEF4
0036
FFEA
FF22
001B
00AA
FF23
FF25
0061
002B
FFF8
FECC
FF33
0016
0071
FFEB
FFEC
FFFE
FEC2
001C
0001
0083
FE83
00A1
00AB
008A
006A
FF3B
FE94
FF27
FE9F
0035
FF02
005B
FFFC
FED2
0057
FE90
FEB5
001A
FEA7
000C
FF3A
0035
004E
0039
FEDD
FEE7
FEFF
FEE6
FFEB
FEDC
009D
FF36
FE94
FF26
001F
FFEE
0050
FE95
FEFA
FECD
004A
00A9
0061
00A1
FEEB
00A7
FF0F
0076
FEFD
0016
FEC9
FF25
FEAE
FF07
FE75
0063
FED2
0096
0005
FEFE
0029
FEBD
FEC3
007A
001F
FE68
0052
0068
0096
FEAF
001D
FEC5
0088
FFFC
FF22
00A1
0013
FEF9
FEC6
FECD
FEE5
FFFC
FE99
FF29
FED4
FE9D
00A6
0070
001A
FF22
0056
0059
FFF0
0027
FF2A
FF01
FEE3
FFF5
0056
FE7E
00BC
00BD
FEAF
FEF4
003D
FF38
FE6E
0067
FF41
007B
FF3F
FE80
00B8
FE9F
FEB0
006B
FF2A
FEEE
FF22
0080
FF1A
FEBE
0057
FF2C
000F
FEE0
FEF5
FEA4
FFE8
0093
FEAE
FEC9
FE6B
003B
003C
005C
0037
FFFD
00AC
FF02
00B2
006A
FEDC
0034
FE8F
0038
FFFE
FE7F
007C
FE94
0005
FE71
FEB3
0056
FF03
003B
FF12
0094
FF2D
0083
FF00
0057
FF37
FECA
0055
FEC2
0037
FEC1
0075
FF31
00BD
FF39
FE85
0019
000E
0065
0086
FEF7
FE87
FF35
0057
00B1
00AC
FEEF
FEB7
FF2A
FEBF
FEEF
008A
000F
FF39
FF41
FE9D
0013
0099
FE70
FEE9
FECD
0080
FE80
0018
FF2A
007C
FEA7
002D
FFF8
FF5C
FECE
FE85
FECE
FE85
FEC5
FEEB
FFE8
FF4E
008C
0004
FFF4
FED9
FF4A
FE96
005D
00C1
FE9A
001E
FF40
0061
FF35
FEB6
FEB2
0045
006A
FFF9
0037
FF30
0092
00A1
FE80
0017
00A1
FEE0
FEF4
006E
004E
0060
FEF3
FF41
0055
0060
FFE7
0012
00B1
FEC5
003A
0014
004E
FF07
004E
00B6
0035
007C
FECC
FF38
FEA7
FF57
003A
FF2C
0031
000E
FEED
0051
FF0B
FEE2
000F
FEE7
00AE
FEAC
000F
00A7
00AD
FE8C
FF4A
FE93
FF09
0038
FE7F
002D
FF9F
FEE5
FEC9
0014
0029
0058
FEAE
FED9
FEF6
004F
0013
0019
009A
FEBF
00AA
FF0A
00AB
FF2D
FFED
FEBD
FEC1
FEC2
FF55
FF51
0080
FF30
00BE
00B3
FEF7
00AD
FF23
FEF7
0049
0033
FEBC
001A
00B3
008E
FF30
005D
FF57
001F
FFF5
FF00
00AB
0009
FEFF
FF04
FEB3
FF44
0069
FE92
FECF
FED6
FED9
FFEC
006E
00B1
FF3D
FFEF
00BC
00AE
002A
FEBA
FED6
FE8B
FFF5
00A6
FF48
0046
0047
FF3F
FF11
007A
FF0D
FF5A
00AE
FF47
0088
FE88
FEF7
003C
FF21
FEB2
001C
FF17
FF40
FED8
006C
FED8
FF3D
00AF
FF53
0015
FEC6
FF49
FF31
0025
FFEB
FEEF
FEA8
FE9F
FFE9
0010
0037
0030
0009
0001
FF05
0007
003B
FED1
0015
FEF0
FFF5
00B5
FF16
001D
FEAC
000F
FF34
FF45
00AF
FEDE
FFFB
FF14
0005
FEDE
008E
FF5B
0079
FED5
FEB3
003C
FE9E
0043
FE95
003D
FF4B
0088
FF51
FEA1
00AD
FFF3
0000
0065
FEED
FF47
FF41
007E
0056
006D
FE8E
FECC
FED0
FEDF
FF1A
0054
0082
FE9B
FF10
FEE2
008A
000C
FEC1
FECE
FF19
0053
FF1F
FFE9
FF25
00AD
FEF1
FFE8
004E
FEF6
FF27
FEE9
00B8
00BD
0091
00EB
FEFC
0077
FEEE
FF73
FF25
00FD
00A5
00BD
FF61
FF6F
007D
FEF1
0069
FF22
00B2
007D
00C6
FF71
FEF0
FF8A
FF02
00BE
FF00
FED2
00CB
FED7
FF29
007F
0059
FF54
FF8B
FED7
0111
00CC
FF10
FECA
FEF3
FED1
FF23
00FA
FF05
FF3E
FF6F
0095
FEE7
FEF8
FF46
FEFE
00CF
0115
0108
00B2
FF43
00E3
FF18
FEDD
0060
FF06
006B
010C
FED8
0100
FED7
00F7
FEE3
FF06
FF13
0117
0059
00BF
00D6
FEC6
008F
FF42
001E
0088
0096
FF39
FEC0
FF7A
00BE
00C0
0089
FF0C
FEDC
FF1B
FF19
00A5
FF03
0078
FF41
00D4
FF9E
00B3
0060
0072
006B
00A5
FED3
00F6
FEDD
FF37
009E
FF1C
007E
00FF
FF55
FF4F
0114
FEC5
FF33
FF5C
0092
FEC7
0068
FEF5
FF90
0119
FF72
FEFE
00D9
0045
00B4
008E
FF6B
00B3
0120
00FC
00E4
FF7E
FEDC
FF56
0040
FF08
FF6D
FF08
FF50
00C8
006E
0050
FF1F
FF4F
00CB
FEB8
FEB2
0059
00C7
FF02
007B
00AA
FF90
00F2
FED4
0070
005D
FEC0
00A5
0094
FF36
0109
0081
00EF
FF49
00DC
0100
FEFF
00AA
FEF6
00B5
00D0
005F
FF69
FF43
00F6
011A
00C9
FED9
FF3B
FF3D
FF5F
FECE
FED1
005B
FF7A
FEE6
0099
FEC2
011E
FF7B
FF33
00DA
FF11
00D8
FF0D
0086
0106
FF11
00C8
FF70
0065
FF64
0041
FEEA
00A5
FF87
009D
00C9
FED6
00E2
FEC6
00FC
FF87
0069
FF81
009B
0086
FEFC
FEEB
FF39
FEF6
0106
0079
00A3
FEF9
FEBF
FF05
00ED
008F
0102
0063
0065
FF18
FF38
0067
0110
0089
FEF0
FF45
0118
010F
0059
FF3F
010D
FF54
006D
FF1F
00C1
FEE9
FF58
0004
007B
0097
0063
007C
00C8
008B
FFFB
00A9
FFDB
FF6A
0012
006B
0053
0049
FF98
FFA7
0053
FFF9
0008
FF4E
00DD
0074
0011
FFA7
FFDB
FF8D
FFDB
008C
FFAB
FF86
007F
FFC5
FFA5
003A
0033
FF72
0016
FF4F
00CC
00A6
FFA3
FF3F
FF9C
FF63
FFD8
00A0
FFC2
FFC6
FFC6
00BD
FFFF
FF8B
FFF2
002B
004E
0091
0011
0061
FFFB
00D3
FFFC
FFB0
004E
FFA5
0040
000A
FF45
00BB
FF54
0067
FF69
FFC6
FFC5
00C8
003E
00B6
0045
0024
00A7
FF96
FFD6
005A
000B
FFFF
0002
FF6C
0031
00A8
0034
0018
FF9C
FF97
FFB9
003F
FF4E
00C8
0000
00AB
FFD6
0096
003F
00B9
00E3
0016
FFBE
0092
FFAB
FFA0
0092
FF68
005E
008E
FF67
FFBF
00CB
FFB4
FFD7
FFBF
002F
FFAA
0094
FF94
FF54
00B0
FF54
FFB6
0024
0002
00BC
00E1
FF68
00B2
008C
0001
003B
FF6F
FF89
0003
0025
FF93
FF5F
FFD1
FF95
0033
0023
0067
FFAA
FF47
00D5
FFA3
FFFC
0015
009C
FF78
0014
0092
FF5E
007E
FFF2
0011
0096
FFD1
0073
0094
FF4B
0066
0029
00AF
0021
0014
0092
FF64
006F
FFB1
002B
00D0
0059
FF7B
000F
009C
0095
009D
FF57
FF6D
0031
FF8D
0018
FF7B
0041
FFAC
FFEE
00BA
FFF3
0053
FFA3
FFFF
0004
FFA9
003A
FFA1
00AA
0043
FF78
0028
FF4C
007A
FF67
009A
FFBA
0056
FF6B
006A
003A
FFB9
00AE
FFC7
002C
FF5F
0067
FF8A
006E
005E
FFE4
FFA9
0044
FF97
0090
0062
0018
FF82
FF47
002B
00D5
0018
00A5
001C
003D
0022
0018
00C5
0096
004E
FF5A
FFC9
005C
00C3
007B
FFD8
00B6
FF82
0003
FF75
0071
FFDF
0041
0016
0027
0015
FEF0
FF35
FF49
FE96
007D
FEF8
00BE
009C
0077
FEBC
FEFF
FEA8
0051
000A
FF29
FFF0
FF23
00C9
FF4E
FF1A
FF0F
0056
0082
0087
00B1
FE94
0004
00BA
FEB9
001C
0018
FECF
FE7A
0084
0038
0028
FEFE
FF2C
0067
0047
002C
0026
00B4
FE7A
0058
0068
0028
FEA6
0029
00C6
004F
0073
FF2B
FEB1
FF24
FF1E
0020
FE93
00A5
0018
FEF4
FFFB
FECE
FF41
009A
FED2
0005
FEDB
0089
006C
0078
FF21
FF22
FE94
FEA5
0071
FF33
008B
FF09
FEFA
FE8C
00B9
0054
003F
FF16
FE61
FE7E
0032
001C
FFFF
0051
FF06
0078
FEA9
FFFD
FF09
0080
FF19
FEF3
FF09
FEA3
FEFC
0003
FEA7
009C
0063
FF03
FFFC
FF13
FE74
0074
0073
FE95
0030
0004
FFF6
FED0
00C6
FF38
0030
006F
FF1A
000D
0048
FE89
FEB9
FEA4
FF1E
009D
FEE4
FE6F
FEF7
FF4E
00CA
0035
0026
FEAB
004F
001E
00A8
0037
FEC4
FEA7
FEF2
0032
0067
FED6
001A
006A
FF44
FEB9
008E
FF1A
FF53
003E
FEFA
0076
FEC6
FEDA
0095
FF2E
FEE3
FFF4
FED0
FE7E
FF09
002E
FF0D
FE86
00A1
FF45
00AF
FF0F
FEBF
FF16
00A3
002B
FE85
FF27
FEE0
FFE5
0044
FFF2
0062
0043
0094
FFB0
002F
00BF
FF53
008D
FF12
0026
0084
FEE4
006E
FEC3
0030
FEE8
FE7B
0046
FF2D
0005
FEAC
00B9
FE70
0092
FEF9
0041
FEED
FE6D
0094
FF10
009B
FE7E
0047
FF2C
0083
FE86
FF2D
003F
0032
0066
008F
FE9B
FF39
FE7E
00CB
0001
0045
FEC3
FF2C
FF3D
FE83
FF27
0094
0010
FF1F
FF3D
FF27
006E
0096
FEBC
FEDA
FE78
FFEF
FF18
0059
FEE8
0035
FEF5
0056
005B
FF96
FF44
FEF6
00B1
0004
0039
00A3
FFDC
009A
0093
006D
001F
0097
001A
0029
0030
FFD5
0014
002C
0015
0043
0015
002D
00B0
FFBD
0049
0009
0076
0044
004F
FFC8
FFF6
FFBA
0082
0032
00C0
000C
0066
0066
0066
0010
FFF7
FFEE
0000
007D
0081
009D
005F
FFB4
FFE4
002D
0021
0035
FFC7
FFDF
009E
008D
0091
0017
0026
0024
FFDA
FFCA
001E
007C
00AA
00C8
FFD4
0086
0021
00CB
0004
0035
004F
009E
FFFA
0080
004E
0074
0055
005E
FFF6
FFFE
0081
0012
0069
FFFD
FFF7
0097
0046
FFF2
FFF0
0057
0067
0020
FFFF
00AC
FFCA
0055
0012
00C9
00BD
0033
0008
0030
0045
0098
0033
0045
0022
0076
0073
0044
003F
006F
0065
0060
FFD2
002F
007F
002B
00D0
FFED
0070
0044
0040
0045
003E
FFED
FFF7
00CA
0073
0091
009E
0067
004B
FFF9
FFF9
0044
0020
FFFE
0082
FFEF
FFDA
0028
000B
0099
FFBF
003C
00BC
FFED
FFC7
0080
FFEE
0073
FFEE
002A
0013
0080
0056
0041
003D
FFC8
00CB
FFF3
0026
0017
007F
0013
0060
00B0
00D0
0008
0065
005B
003E
0045
0016
002C
FFEB
0007
009C
009D
0030
FFED
FFE7
0085
0081
000D
003B
000A
0005
0052
002A
005F
002D
003A
004F
FFED
00C8
0065
0078
001C
0064
008B
0025
004F
FFC8
00BA
FFC1
0047
FFEF
FFC4
000B
0030
00C5
0060
FFFD
003F
00A8
0059
0066
000C
003D
0024
0026
0048
0058
005D
003C
FFE0
003D
001E
0012
003A
00C7
007A
008E
006F
009B
006B
0066
0037
0090
003B
0048
00AE
0087
0041
0090
007A
0072
008D
0022
0029
0046
0029
006B
007E
FFD3
008A
FFEF
FFA7
009B
003F
00B2
0088
0043
FFB2
0017
FFE1
006E
0082
0071
0016
0051
002B
FFF4
FFCA
006F
FFF8
0018
FFE1
002A
0011
005A
0081
0033
008E
005B
006B
0042
FFFB
0002
000A
0033
0087
0024
00B2
00A9
0048
002A
FFB7
0071
0075
0082
FFC4
001B
FFED
0042
0048
0028
003A
001B
000E
003D
0067
0090
0070
006E
FFFB
FFD4
FFB5
FFF0
FFD5
006E
FFF4
FFE0
002D
FFEE
FFD3
003A
001C
FFB7
0048
0017
0075
FFD9
0007
FFFA
00B3
0027
0094
001B
FFBF
FFDC
0016
00B5
0035
005C
003F
0097
0053
0090
004A
0017
FFF0
FFC6
FFD5
005B
FFF3
000F
FFF4
0032
0000
FFC9
003D
006F
006C
0041
0092
0003
0046
0039
004E
FFFE
0028
0042
0054
0082
0089
007B
0016
0010
FFBE
FFC6
0028
005F
0017
FFB2
006E
0072
004C
0079
FFDC
0058
003B
00B1
0084
FFE2
0011
0024
0094
006E
002F
0005
0036
002E
003A
007C
0096
FFCC
0040
0030
FFDD
005C
0054
FFE2
008B
003E
FFAF
002B
001C
0078
FFF0
00A6
0021
0003
00B7
002E
FFE6
002E
004C
0012
0036
005C
FFE0
FFE5
0070
00B9
003E
0040
0063
FFE2
0075
FF82
0072
0069
FFDE
0022
FFD6
0066
0036
FFC5
00A6
006B
0015
008F
0003
001C
FFD0
00BA
0035
0071
0017
0012
006F
0052
0022
FFE4
001C
FFDD
0040
FFC0
0043
0004
007A
0047
0009
0085
FFE1
FFE1
003E
FFD7
FFAC
FFB8
0065
008B
0046
004F
001C
0092
FFD6
FFC5
0036
00B0
0075
0095
008E
00AE
0089
FFBE
005E
FFE8
00B8
0069
0015
FFDB
0071
0021
005E
0034
FF71
0038
0064
003A
0031
FFEE
0079
006C
005C
00A0
0013
0052
005F
0014
005A
004A
0032
0074
001B
FFD5
0080
FFCC
FFFA
0087
00E3
002D
008A
0083
0061
00DE
0004
0060
0043
00DB
FFFB
0070
00AE
0043
00D8
0018
FFE4
0058
008B
00D4
00D9
00A7
001E
000F
0046
00BB
0021
0022
0027
0072
008E
006F
0084
FFD7
005D
0022
009C
00AB
0042
FFD8
00B8
0004
FFDA
00A5
FFFD
0043
0034
00C4
00B1
0033
0081
0002
0008
0013
0083
000A
000D
002F
001F
004B
0034
0072
0057
008A
0002
0053
0043
0053
0020
0085
FFB1
001D
005D
0017
008F
0096
0091
0013
0043
003D
004F
001A
0025
00B3
00C4
FFD5
0006
FFDD
007D
00DF
00D1
FFFE
0080
00A3
0080
0041
0062
002F
00CD
0049
0077
00C6
0058
008A
FFF7
0001
000D
00C2
0063
0087
0011
0014
0089
00D4
0014
002F
009E
009B
00DB
0003
003B
FFC9
FFBC
00BD
0073
FFF4
002E
008B
0045
FFC9
0049
002C
002E
008B
006B
00B1
FFD6
FFF5
0029
006C
003D
006B
FFE9
0030
0067
00D5
0030
000E
0033
0041
00D0
0001
0042
0044
0021
0019
006D
005E
005E
007A
00D6
0079
00CF
009F
00CE
FF81
006D
00D5
001F
00C0
0012
0012
007C
004C
00A2
0088
00AA
000E
0098
002D
0012
0088
000D
00D8
0039
002F
0046
0021
FFE6
FFD3
00C7
FFC4
0096
FFB7
003F
0000
00A1
FFC5
FFCD
00B2
0097
00D3
000C
0029
0007
FFEB
0097
005A
0081
FFC7
0039
0017
FFEB
002F
006F
002C
0034
0020
0053
0017
00D2
0034
FFD6
0008
00A0
0026
00D8
0030
008E
0042
009D
002D
FFED
004F
0038
0099
006F
003B
0018
FF5E
002A
FF6E
FF7B
002D
0077
0048
00B6
FFB5
FF60
0096
0006
0038
FF43
00C4
00CC
003C
FFDA
FF76
0004
FF5A
0009
0009
FF9C
009B
FFFC
FF93
00AA
FFF6
FFB0
FF56
0011
007A
002B
FFF2
FF87
FFC4
FFE3
FF82
0071
FF53
FFD2
001C
009B
FF76
FFBC
FF7D
FFD6
00BB
0027
006F
00E1
FF50
0050
0013
FF8B
0084
FFCD
0068
0097
FFB9
0046
FF6F
009E
FFF5
FF6E
FFE3
007E
0050
0095
0061
FFE5
001D
FF5E
0091
0078
0017
0013
0029
FF9F
0005
0044
008F
0000
FF94
001C
FF6B
00B3
FFAC
0054
FFEC
0052
FF69
0056
00B3
00CD
001E
0036
FF5D
0029
FF55
FF76
00C4
FFA1
00D0
008D
001D
FF6F
000D
FFD2
0002
FFA6
00C6
FF57
003E
FF8C
0023
008C
FF5D
0010
000D
00B4
005C
0055
FFE5
0056
00B6
004A
002F
FFF6
0013
FF62
00C1
FFCF
FFD0
0014
FF55
0001
0025
006A
FF44
FFC7
0019
FF56
FFD4
0013
008E
FF73
004F
001B
FF7E
000F
0003
00DD
000C
FFD9
FFF8
0027
FFB0
00C8
00B8
009B
FFD4
0091
009A
001E
0014
FFE4
005A
0037
0059
FF58
002B
0034
003F
00D6
000D
FF80
0037
FFAF
FF98
FF61
FFC6
0005
001B
00CF
FF53
0039
FF4A
FFD4
007A
FFCA
0073
FFD7
00CF
0045
FF87
00B8
FF55
009F
FFC1
00A9
FFCD
0098
FF6D
0036
0004
FFB9
0086
FFB7
0079
0022
00A4
FFFD
0070
002D
FF6F
FFD7
FF76
FF8E
00CE
009F
001D
FFC8
FFD5
002C
0053
0071
0048
0072
00C0
FFEE
FF7A
004D
001C
008E
FFC9
FF52
001A
00BB
0043
FFAF
00C1
FF73
00C4
FF55
009B
FFCB
FFDD
FFCB
00DD
001E
FF22
FF36
FF07
FEAB
004D
FF4A
0046
0052
00A0
FEFA
FEBE
FEC2
0066
00B1
FEF5
008A
FEB1
0099
FF66
FF46
FEB9
0069
FFFC
0056
0050
FF62
003F
0068
FF39
00B6
00B2
FF31
FEF3
0040
001B
0076
FF2F
FEE8
0067
009C
002B
0008
0045
FF5B
FFE7
0079
FFF7
FF11
0093
FFF9
005C
00AF
FF45
FEB4
FEBA
FF63
005F
FEB4
FFF6
005C
FEC5
00AB
FEDE
FF6D
001A
FF29
0076
FEA4
FFE5
0062
007B
FEA1
FEF9
FF52
FEE9
0076
FEE0
006F
FF39
FEF2
FF47
FFF4
0041
0022
FF18
FEC3
FF3D
FFE9
0014
002A
0004
FEF4
003E
FF03
0094
FF33
0089
FEAC
FEA7
FEC1
FF2B
FF22
0023
FEC5
0085
00AD
FED1
0054
FF05
FEF0
009E
FFFC
FF52
FFE5
0080
0068
FEE2
0003
FECF
003D
FFFA
FF1D
0069
009C
FEA3
FEC6
FF11
FE9C
0049
FEAC
FF32
FF43
FEA5
0053
00B0
0045
FF40
0063
0004
000D
0037
FEC9
FF58
FEBF
0055
0075
FF36
00A7
0072
FF38
FEDD
FFE4
FF4E
FEE7
00A1
FF0C
0040
FF1C
FF5F
0024
FEEA
FF10
0022
FF3F
FEC7
FF3C
0014
FE8D
FEF0
0059
FEE9
0077
FEB1
FF31
FEFE
0020
002B
FEAE
FE92
FEF4
0059
006F
0043
FFE8
0058
0060
FF59
0003
00AB
FF5B
002A
FF25
0075
0018
FEE0
004B
FEAB
0026
FEDC
FF30
001D
FF69
FFFA
FED7
006B
FF31
0050
FF51
00BD
FF14
FEBC
0098
FF63
00B3
FF57
008F
FF08
0032
FEB6
FEEF
FFE6
0095
000D
0005
FEF8
FF46
FF50
004A
0088
FFE9
FF59
FF11
FF65
FF72
FEDE
007B
FFE6
FE99
FECA
FF2A
002F
0065
FEE7
FF28
FE97
001E
FE8D
0086
FF32
00A1
FEFC
0003
0000
FEE4
FECD
FEA8
FFF6
0040
0003
0008
00B3
FFF9
0044
0085
00BA
0023
0040
005C
0028
0073
0012
004E
0001
002E
0024
0029
0094
0038
002D
0004
001F
0008
FFF4
006E
FFF5
0075
0027
0041
FFFA
004F
0032
0017
0035
FFEF
0013
0017
FFF2
0048
006B
006B
FFEE
00A1
0031
00B1
0007
FFF2
003B
FFF1
003E
FFD5
0010
FFEE
00A7
FFFD
FFF1
006E
0020
000F
FFFB
001C
00BA
001B
004D
0018
00C0
0033
0011
0037
0067
FFF3
FFDF
0031
FFDC
0055
0036
0007
006F
0098
0052
009C
0046
0072
0089
002A
0075
0074
FFF0
002A
001B
0056
009C
0017
00A4
0080
005B
0015
0008
0031
00B9
007A
FFFB
00B1
0049
007C
0026
005A
0017
009A
FFD8
000B
006C
0071
0007
0065
0065
000A
0028
0075
0000
0059
FFE2
FFDB
005B
FFE3
009A
0096
0087
00AB
00AC
00A9
0063
FFF9
0060
0051
0039
0078
0076
0051
00A5
005E
0046
0020
0029
0008
00AB
FFDE
FFFB
0074
008B
FFFB
0086
0046
002F
00AD
004A
0096
008F
0071
0009
0014
000D
FFD1
003D
003A
009B
00A7
0058
FFFA
00A2
FFE5
006B
002D
001C
FFF8
0077
0047
0045
0064
00A9
00B4
0007
FFF8
0015
00A6
FFE9
FFF3
009B
0058
002D
00C6
0086
002C
00A9
0098
009A
0008
001A
009E
004C
0099
FFEC
000D
0075
007C
00BA
FFA3
0082
FFF5
000A
0025
0070
0002
0086
FFEE
0040
00BB
0092
00BB
000E
0078
0025
0007
0008
FFF1
0023
004B
FFF1
005E
004C
0032
003E
0053
00BB
0021
002D
0004
004C
001D
00A4
FFEB
FFEE
00AF
000E
006A
001E
001D
0007
0031
0039
001F
005D
0038
FED9
FF17
FECB
FED1
000B
FF01
FFF3
008D
009E
FF2A
FECF
FEB5
006D
003B
FF33
00A0
FE98
0096
FE7F
FEA4
FF11
007A
0064
FFE9
00A8
FF0D
FFE2
0013
FEB7
0054
0027
FEF0
FEBE
0092
FFFF
00B6
FE7B
FEC9
001F
0064
0025
006A
0027
FEC3
0052
0054
003F
FEAD
0050
002F
009E
0074
FE7F
FEFE
FF1E
FF4B
0021
FF41
006D
006A
FF28
FFF3
FECA
FF03
FFF6
FEBD
0028
FF42
004D
FFF7
0085
FEF6
FF34
FE9B
FF50
0024
FF21
0092
FED7
FE90
FF34
FFE5
FFEC
0005
FE81
FEFA
FF2C
00B9
000B
0079
0069
FF38
002B
FF36
0085
FF22
0051
FE81
FEB9
FF3E
FE9B
FF2D
0020
FEE9
00B4
009A
FEE5
006A
FE97
FE87
0092
00AE
FF47
0044
002E
002E
FF3E
0046
FE90
00B4
0075
FE80
0067
0074
FEB9
FF5F
FE92
FF13
0028
FEBE
FEB4
FEDA
FF51
009E
008F
001F
FEDD
001F
FFFC
0066
FFFC
FF20
FF0A
FF20
0049
000F
FEDC
0039
FFED
FECF
FE97
FFF5
FECA
FF0C
0082
FE98
0082
FEEB
FE82
0038
FE77
FEA2
0033
FEE5
FEF8
FECD
0069
FEC7
FECD
0073
FEC4
003D
FF17
FF01
FE87
0022
000D
FE94
FEB2
FEFB
004F
0061
001F
0001
0053
009E
FF5D
0040
0078
FF38
00B4
FF43
FFF7
0021
FEF8
003D
FF08
00AC
FEB6
FEC8
FFEF
FF24
FFDC
FF40
007A
FF10
0076
FED6
006A
FF10
FEBD
FFFF
FEB9
005E
FEAB
00A2
FF24
0082
FF1F
FEF3
0027
004F
FFD9
0068
FEFA
FE82
FF31
00A9
0048
FFE9
FF48
FE9D
FF0B
FF0A
FEB1
0029
00AF
FF28
FEE7
FEE5
0031
0050
FE83
FE88
FE9C
0009
FEF1
FFFC
FED5
FFFF
FEE4
008A
00AB
FECC
FEBC
FEB4
FE9B
FF30
FF25
FF25
00A2
FF18
0006
0058
0040
FEA2
FE74
FEB6
007D
0041
FE78
0094
FE9C
0079
FECF
FE7C
FEFF
001C
00AD
005E
00B9
FEF5
0045
0056
FECD
0014
0001
FE5A
FE50
00B1
0049
FFFA
FEE5
FE79
0003
0062
004B
0047
0066
FF1A
0015
0054
0018
FE8A
0015
007C
003F
0095
FEAD
FF1E
FED8
FF22
00C4
FEF6
00B2
0086
FECA
00A2
FEEA
FEE1
00B9
FED8
0044
FEDC
001B
FFEF
0003
FEDC
FED7
FF29
FF25
0098
FE6F
0092
FEB4
FE78
FEED
0089
0006
006C
FE71
FEBF
FEB0
005B
FFE3
0093
FFE4
FEDA
0014
FEFA
0023
FEDB
0007
FEDD
FEA2
FF02
FEE6
FED3
003B
FE55
FFF9
0082
FEE3
0080
FF32
FE96
0092
0032
FF28
000D
FFF0
FFE9
FE8F
0026
FF05
006B
005C
FEC7
0008
0000
FE95
FF19
FF0D
FE7D
000D
FEFF
FED4
FEE5
FEF8
FFFB
008D
0044
FEBB
0085
0043
0025
009F
FE88
FEE2
FECA
0033
FFF8
FE51
00B3
0083
FEE8
FF0F
000D
FEB5
FED1
000E
FEF6
009E
FF1D
FEB4
FFF5
FE7E
FEF5
0097
FEEB
FE62
FEFC
002A
FEFC
FE6D
0096
FEF8
0083
FED6
FE67
FEFE
0053
0050
FE9F
FE90
FEF9
0054
008E
001F
000B
0045
0004
FF03
0035
0010
FED2
000E
FE7A
0027
0056
FF17
003E
FEAA
0063
FE8B
FE8E
0086
FE6E
00A8
FEDB
0057
FEC4
008C
FECF
0078
FF91
FE6B
0028
FEB2
006F
FE97
00AA
FF2A
000A
FF1C
FF21
0012
FFF4
0033
003B
FEEE
FEFC
FE98
FFEB
002F
0069
FE80
FE9B
FE74
FE98
FE9F
0041
FFF5
FEDB
FEF3
FE59
0036
FFF1
FE8B
FE8A
FEEA
005B
FECC
00BE
FF2D
0028
FE7A
007B
0000
FF5B
FEE3
FEF0
FE67
FE14
FE46
FE62
005E
FE29
0055
00C4
0028
FEC9
FEBD
FE45
00E7
004C
FE41
00E6
FE00
00A3
FE8A
FDFE
FE1D
004A
00BD
00A4
007B
FE3E
004C
00C4
FE33
0082
0047
FEDD
FEC8
0015
0079
0056
FE49
FE5D
0033
0068
0014
0037
00DB
FEB5
0071
006C
00CB
FEA2
0023
002A
0026
009F
FE86
FEC5
FE6C
FE4A
00A2
FEA6
0086
00E0
FE72
006B
FE29
FED5
0092
FEC9
00C8
FEA0
0053
00C7
0020
FED0
FE99
FE45
FE00
009E
FED7
0047
FF26
FE7A
FE69
005B
00D4
00C4
FE76
FEA4
FE82
00C1
0079
004D
00D0
FE4A
0025
FF18
0039
FEAB
0061
FE12
FEDC
FEB1
FE3B
FE31
0057
FEA7
00A2
004C
FE58
004A
FE9F
FED2
00D4
00D9
FE3D
0084
0022
00A3
FDFE
00B7
FEB4
005F
00D5
FDF7
007B
00DD
FE20
FE73
FE77
FE8E
001F
FE88
FE21
FE95
FE4D
0015
00AA
001B
FEA3
00B4
00C2
0080
00AA
FE03
FEA0
FEAE
0089
00ED
FE9D
0070
0053
FE1D
FE4D
0043
FE29
FE48
00B2
FE89
0030
FE9B
FE83
0081
FE69
FE7D
0021
FE26
FEAF
FEAA
0037
FE22
FEEA
001B
FE96
0055
FE28
FE00
FEBA
0058
006B
FDF5
FE73
FEA0
00DE
0060
0066
00C5
00D5
0030
FEEC
007E
0075
FE35
005D
FED0
00C1
008B
FE0F
009E
FDF4
0023
FE2C
FDF8
00B5
FE15
0084
FDF9
00F4
FE13
00E6
FE35
005A
FF2B
FEE3
0040
FE9B
000F
FE8C
005B
FE10
00D1
FEB3
FE2C
00DF
0039
006A
0048
FE31
FE7E
FE32
008E
00C4
0038
FE69
FE6A
FE08
FEB6
FE29
0061
0096
FE94
FDFD
FE9A
0020
00BC
FE9A
FEA4
FEE5
0021
FE45
00CA
FE24
00E9
FDF4
0063
0021
FF59
FE4D
FE2B
FFFA
0036
006B
006C
003C
FFF0
0095
001B
0061
007A
FFFD
FFCB
00AC
0039
0007
00A3
001E
0032
0050
FFED
FFFE
003C
0056
0035
002A
006B
00A6
0065
0066
0029
0090
0018
004D
003E
00DE
0026
FFD4
0038
0017
0065
006A
00C5
00A4
FFBC
00CD
008A
009F
002B
0067
0084
0032
009A
FFD7
0073
0054
FFE0
006F
FFE7
0053
001A
0036
00CA
FFCE
0085
001E
0009
0001
FFD9
00CE
0090
0007
0008
0051
000B
006C
002B
0031
0000
FFFC
0066
FFD2
00AF
00BE
0097
001A
0049
FFF6
004A
0051
0026
0088
006C
008E
FFEB
0095
FFFA
002D
0056
FFB1
002D
0064
0012
006D
0054
0092
00AB
FFF5
FFFE
008D
0066
005F
0083
FFEB
007A
007F
0007
FFD3
007E
006E
00CC
0059
004F
002C
00C2
0059
005C
0088
FFEA
00B6
FFAA
FFF1
0077
FFAF
00CE
0012
0031
0007
0043
0010
0087
0065
FFEC
0088
003D
006A
004B
0008
0082
007B
0076
0058
0026
FFED
FFF7
00D2
FFE0
008D
0045
FFCE
00D1
004E
0019
0063
000B
FFE9
FFA3
0058
000F
0040
005B
0053
002F
FFB0
0051
002A
005A
0089
001C
FFC1
0047
0072
0088
00CE
004F
0010
004A
0002
0066
00C2
005F
0077
0061
00D4
0090
FFE9
0055
FFCC
0056
003D
0054
00B4
0024
00A6
FFE9
00D6
004D
009E
FFE6
006A
FFEE
FFF3
00AF
0089
00BC
FFED
0013
FFC2
00B8
FFCF
FFE5
0072
0043
0047
0018
0026
FFE7
0048
000C
001E
003B
000A
0070
003D
FFF3
0003
0067
00A6
0073
0000
0013
007B
0077
001A
0004
0042
00AB
FFEB
007B
0038
00D6
FFF7
001A
009B
0038
008E
006D
FFB8
0027
007B
FFA2
0100
0071
00D3
00AD
00B2
FFB8
0067
003D
00D3
00F5
FFE7
00E3
003C
00C7
0076
0045
008D
0046
00FB
00F6
0053
FFCD
0063
00DF
FFD8
0105
00C0
FFAA
FFD7
00E6
00D6
0051
0022
0026
0090
00DA
0060
0084
00F8
0015
00FE
00E4
00E3
FFE9
009A
0111
00FA
00DC
FFC3
FFD3
FFD0
006A
00D2
FFB0
00D9
0041
FFA5
0091
0071
FFE3
00E7
FFC9
0077
FFFD
00AC
0044
00D1
0021
002C
0046
0060
0064
0071
0104
0012
FFE3
0018
0114
006E
003E
FFD2
005E
003F
0087
00D7
00E4
00D0
007C
00F6
FFC1
00D6
0029
0073
FFB2
0039
FFC6
007D
FFB8
0032
003B
00D1
009E
008D
00C1
FFE2
0025
0097
0089
FFCA
0096
009F
00CE
FFED
0096
FF98
006A
00D0
FFB7
0085
00AE
0008
004A
0069
003E
005F
FFAE
006B
FFE8
0055
008F
0042
0061
FFB7
00D6
010B
009F
00D3
FFF6
FFE6
FFD1
00D7
0063
0021
00A1
00ED
007E
FFEA
0052
0057
0089
00C7
0015
0042
005F
FFDE
0062
FFBD
FFF8
0085
FFE7
FFF7
FFD4
00F9
0049
FFC1
0041
FFFD
00EF
008B
0023
004D
0063
00BE
FFBA
0004
FFB7
0099
008A
008D
00CF
00D7
0065
FF88
00D4
009E
FFBD
0039
FFF3
0070
0068
002D
00D2
0036
00A7
0007
FFBD
0071
000C
00CB
FFE6
008C
0051
00DE
FFFF
0096
FF7A
FFFD
00ED
0002
0106
0023
00DF
FFB4
009C
FFD5
0061
00AC
0084
0061
0045
0007
FFB6
FFD8
0062
00E8
0039
FFD0
FFCE
FFF4
0031
0032
0041
005F
001C
006C
FFDD
0071
00C3
FFBF
002C
FFEF
005F
0047
0092
0010
00D3
FFF9
0083
0103
FFCF
FFB5
008A
0056
0023
0058
001E
006B
0028
0051
000B
0019
0019
009E
FFEC
0039
0028
0026
008C
00BD
002B
0013
FFFF
003C
FFE6
009F
FFCE
0020
0076
001C
0014
005B
0056
0069
00A1
00C7
0054
0024
0071
00CE
004B
FFD5
000D
0048
007B
003A
00BC
000F
0047
00A9
002C
007E
FFFF
0081
0090
0062
0053
007F
005E
FFCC
00B0
004A
0053
00C9
003E
0089
0084
0032
00BB
FFD9
0012
0002
0090
0026
0024
0047
001F
006F
0081
0041
0011
000A
00A6
0086
009F
00A3
005C
002E
0015
00A4
0027
006B
00A1
004B
0040
0045
007C
0091
000E
004E
0047
002A
006B
0098
0042
0063
008E
0025
FFE8
FFFB
006B
004E
009B
FFFE
FFD4
0036
FFEF
0060
00A2
002F
005B
00D4
0015
005B
00AD
0060
0078
FFF1
007F
0091
00AB
FFFA
0098
007C
0006
FFF0
0015
FFD5
004E
00B4
0051
0089
006E
FFFF
0055
0022
0069
0084
0062
0066
0013
004E
00A2
004D
0040
0016
00A0
FFF3
00B1
004D
FFFF
0049
009F
003C
00A0
0022
005E
FFF7
003C
FFD9
00B6
0028
006B
0085
0016
0081
FFF2
000B
005B
00A4
0080
0019
00BE
FFDE
0041
001F
0087
0081
0068
FFAB
FFFA
0098
0007
00AB
0019
FFFF
0072
0087
003C
002A
FFE9
FFEE
001B
009C
004F
0079
006B
0063
FFF0
FFFD
0077
0028
FFC0
0050
0055
00B0
007A
0015
00A9
0024
0059
00B2
00AE
001D
0014
FFF3
0038
0004
0020
00A0
0021
008F
001F
000B
FFF9
0062
0025
0096
0071
009A
005F
0049
0082
0019
0026
0052
0070
00B4
0088
0093
0055
FFF3
FFEF
0050
FFE5
005B
FFF9
001F
0014
FFE5
0085
FFE9
0037
0079
FFF6
002D
00AF
0035
0067
0011
0073
001B
0081
006E
003D
0027
0083
0005
FFCB
0003
000A
0048
00AD
007D
0026
005B
005D
FFC4
0079
00A2
008E
0001
0098
00C2
0096
0088
0051
00B8
0077
00AB
FFF5
006F
FFDD
0011
0070
0097
FFEF
0097
FFFE
00AE
0044
0043
001B
001E
0010
0067
0055
0073
FFFC
0002
0096
FFD4
0065
0058
0097
FFE7
FFDB
0034
FFF5
002C
0067
002F
0050
0019
FFFD
FFAD
009A
FFB2
007A
008C
0044
000B
0064
008E
FFD8
FFE7
00B2
000A
0012
0005
0016
009E
FFF0
00A7
FFD6
FFE9
006B
0069
FFD6
0058
0025
002C
0037
FFF3
001B
005E
008C
0079
FFD2
004E
0085
0064
0054
0055
000F
001E
00A6
0015
00B5
009E
FFC3
FFE6
0007
0030
005D
0024
0023
0074
0006
0091
004D
009C
0081
0049
0023
0047
0056
002D
0055
005C
0037
0067
0091
FFFE
FFFA
0093
006B
0021
0008
006B
004C
0073
0030
FFF3
FFD5
0037
FFE5
0095
0010
0083
FFE0
006C
0055
0022
FFCF
0048
FFD3
FFD4
000F
000B
FFEA
0003
0006
0079
0079
0035
0098
004F
000A
005C
0074
000B
FFEB
009F
009F
0011
0094
0065
0036
004C
0084
0046
0009
00A2
0075
0081
00A2
002B
FFE4
0038
0090
001D
FFDA
0046
0030
00BB
003C
0022
0017
FFF7
0008
FFD8
0092
FFFF
0043
007C
0017
0019
001C
00BA
002C
0072
0018
FFE0
0078
004D
00A0
0022
00B0
FFE5
FFFE
0076
0090
FFC8
008F
003C
005B
001E
008E
004F
00AE
0072
0089
002F
0053
007B
FFFE
003D
009D
FFDA
00B4
0068
FFE8
001B
009B
004A
0059
006A
0056
0053
0008
0016
001E
0080
006D
0037
00B2
002D
FFF1
00C1
00A6
FFE2
0074
0020
0033
001E
0057
FFD6
0049
00A7
006B
0086
0094
0052
002D
FFFE
0057
00B7
0027
0008
0053
FFF1
0073
0043
0039
001C
00A5
00A8
0034
0082
FFEF
0066
FFF3
0012
0008
0057
004A
0084
00A2
0083
0007
0011
FFF2
FFEA
0041
0093
0085
0039
FFED
0082
0051
0051
007E
0098
001C
0001
00A6
00A5
0052
00AF
0059
00C0
006D
000A
002B
0005
006C
005B
006A
009A
0079
004B
0004
0049
FFFA
0082
001B
0057
0046
FFFC
007E
007F
00B7
0048
000E
0016
FFEA
003D
0035
0023
008C
00B2
0098
00B7
006F
0074
009F
007C
009C
FFEF
0043
0007
0077
008B
0082
002B
FFFA
FFF0
008F
009B
FFF9
0054
00AB
0002
00B7
0031
000E
006D
FFDE
0046
0063
00B7
0008
00A4
0060
008C
00AA
0080
0087
FFE0
007F
000B
0086
000C
FFDC
00B6
001F
007C
00AD
006A
0029
007B
000F
0067
0078
0025
007E
00B0
008B
0030
008B
007E
00A1
0031
0025
0026
0045
0049
0099
0073
FFE0
006C
FFFC
0007
005F
000F
000E
0057
0054
0045
FFE4
FFC6
0055
FFFE
009B
0031
0067
009B
0079
0040
0055
FFFE
FFEB
0063
FFEF
00AA
FFFE
000B
001B
FFFC
FFEE
003E
002F
0098
FFFE
00C4
0036
0038
FFFE
0020
0082
0018
0031
00AA
0050
0061
0022
0016
00A9
008B
0031
0036
0037
0006
FFD4
0035
003E
00B7
00AF
0053
007A
0033
0033
FFE2
0016
0056
0052
008C
0093
0057
0047
000F
0076
0092
0028
00A5
0095
001E
FFAB
0067
006E
FFB2
FFCB
FFD6
0019
0000
0086
0061
00C1
0072
007D
0013
0038
0020
FFF9
003A
00D6
0037
0008
FFC7
0087
0040
0040
00C4
0026
0002
FFEC
0010
0019
FFF8
00A9
00CA
0088
0064
004D
000E
003C
0000
0012
0006
0070
0025
003A
0037
002B
0004
0027
0037
FFCB
0036
009E
008D
FFF4
001F
FFFB
003A
004A
0057
FFE0
00C3
008F
003B
008C
002E
FFC3
0000
FFF3
0036
0002
00C4
00A7
00C2
0084
0003
FFE5
FFB9
00D3
0004
0038
0014
FFDE
FFE9
007E
006E
00D0
0021
0010
FFF2
00A2
0067
0022
003D
005D
008D
FFD6
0020
FFD8
00AE
0017
FFF7
0039
0087
0087
0099
0034
00CC
008E
FFBF
0072
0035
0075
0061
0090
0095
0040
0055
003B
0007
00B9
0020
0017
00B6
FFDF
0061
00AC
006D
0020
008D
FFF9
00CB
0028
0082
0013
FFEA
005D
0083
0059
FFDC
0023
0087
006F
0075
002F
006C
FFC3
009E
0065
0085
0013
00CB
0000
FFD0
0069
0016
FFC6
0046
FFF6
00C6
0062
0083
00B5
0012
0039
00BD
FFFB
FFCF
003F
00B3
0036
0017
008C
0017
0041
0061
008B
0077
008F
004E
FFF3
FFE3
0050
0062
008F
0004
004D
009F
00AD
0006
007F
001F
001C
00D4
006B
0046
008A
0012
0015
FFCE
00C3
FFD1
0042
008C
0062
00D6
FFE1
0095
FFC3
00A3
FFED
004C
FF92
FFD4
00C5
FFED
00AA
0033
006F
FFE8
0044
0088
00A9
0078
00A6
000B
003E
003F
006B
0014
00C2
00C8
0043
0094
FFF4
003D
003F
0032
0098
0095
FFD5
0024
FFD7
00CC
008F
005E
0042
FFD2
00CE
FFF6
007A
004F
0083
FFE9
009B
0016
001A
0088
FFE0
00A7
00A0
0029
00BE
FFFF
0093
0018
FFEC
FFD0
008B
0097
0040
FF7F
000C
00CA
0002
006E
FFCB
009F
002C
0051
FFB4
FF66
FFF7
FF7C
003E
FFDC
FFA7
00C4
FF93
FFA8
000A
00AD
FFCD
FF99
FFC7
007F
0007
FF57
FF80
FFD7
FFAF
FF80
007B
FFF3
FFD4
FFA6
007A
FF77
FF5A
FF9B
002A
00C5
0061
0033
0051
FFE9
00B0
FFE1
FF8A
0088
FF72
0030
0091
FFDE
000C
FFB0
0099
000E
FF54
FF5A
0059
00C9
009C
00B1
FF9F
008A
FFF2
FFDA
0083
006E
000C
0001
FF59
00DA
0082
00B9
FF67
FF63
FF98
FF3A
0019
FFB4
00B3
FF43
0098
0000
009D
0051
00CD
0025
0090
FFE2
002B
FF85
FF3F
0012
FF4D
0075
00D5
FFA5
FFE3
0017
FF75
FF83
FFEE
00B0
FFC6
0008
FF4F
0009
004E
FFFC
FFBF
00D6
0084
0072
001D
FF46
003F
003A
007F
00A2
FF48
FFD9
FF86
0025
FF6F
FFE3
FFEA
FFCE
0016
007D
0075
FF7B
0001
002E
FFE0
FF87
00B0
00D3
FF51
004F
0054
FFA0
0003
FFBE
00B5
007E
FF77
0004
006A
FF93
008F
005A
0052
001E
001C
0097
FF3C
00BA
000F
0072
008D
004F
FFDE
FFCA
0099
00C4
006E
FF7A
FFC3
0003
FFCE
FFA4
FFBE
004D
FF78
FFA9
0021
FF8B
00AE
000F
FF58
0050
FFE1
00A5
FF7A
0062
007D
FFAA
0000
FF83
0065
FFD0
0053
FF55
006C
FFCE
0091
0087
FF6C
0013
FF6B
00CE
FFC2
0073
FF5F
00A3
00C3
FFBA
FF7F
000F
FF3E
003F
00A3
0084
FFEB
000C
0014
007C
00C7
0077
00CE
007D
FFEB
FF63
0021
009C
00CA
FFA6
FFE6
0059
00CD
0092
FF6C
001F
FF59
0031
FF46
0072
FF79
FFFC
0003
005F
0055
0005
0052
0022
FFDA
00A0
000F
006A
006C
000B
FFD6
0021
004B
007D
00B7
FFE0
FFF1
0040
00C3
008B
FFE3
0005
00CD
00C0
0094
FFFD
0061
00C2
0084
0030
000C
0033
002E
0048
00BA
005D
0085
000E
005A
0033
00BD
0089
000D
0059
0010
00BD
0051
0048
007F
0079
00A9
0069
0020
FFCF
000C
FFDD
0051
0065
006B
002E
00A3
FFC6
0076
0017
0082
FFEB
0059
0099
FFCA
0056
004C
0082
006C
0099
0051
FFCB
002A
002B
007E
FF71
0009
FFD2
FFFA
0068
004C
FFE9
FFD6
FFD5
00A5
00A5
00BD
0071
0078
FFF7
004E
0062
0061
0056
002D
007D
0010
000D
004C
00A6
0039
0058
FFEE
0022
0020
003F
002A
00C3
006A
FFD8
FFFD
002E
00C9
0007
005E
005A
007B
009E
0011
0085
004B
003A
0074
0065
FFCB
0083
FFF4
0067
0026
FFBC
00AA
0064
FFF1
0043
0084
0007
00B7
00AA
0073
000B
FFEC
004D
002E
001A
0039
0058
0070
0081
0056
001B
0019
0032
FFEB
0018
0069
0049
0087
0049
000C
0023
0023
0076
004F
0067
FFEA
003B
0062
FFFD
0033
005C
004C
0016
00C7
FFF5
0067
0063
0033
004E
009C
0038
0075
0040
00C6
FF71
0026
008F
004F
FFF1
001B
0018
0097
0069
00BB
FFDA
0067
009E
005D
0018
FFEA
0094
000C
0001
FFDA
00A4
FFE3
000A
0041
0054
0060
0021
0062
0059
00A6
0072
003B
0044
FFE3
0015
003E
005D
008C
FFF9
003F
002F
0099
0099
FFEE
001B
FFF7
0072
FFCF
0012
000B
000A
FFB3
FFCF
008B
00AD
0098
FFEA
0022
006C
0035
FFCE
0039
0073
0032
0082
001D
006B
002B
0066
008E
0022
0087
0016
FFF4
0021
008C
00BB
00BC
00B6
00A9
0036
0085
00AD
00B6
003D
FFFE
00AB
00A9
FFE4
007E
001D
0052
0062
0005
0001
004C
0007
000C
0096
0032
001F
004E
007D
00AF
FFF3
007D
0009
0073
006B
0063
0098
003C
000B
008A
0051
003F
00AC
FFF7
0075
001B
0067
007D
000D
002B
008B
0011
005F
007C
009F
FFE7
008A
006D
00AD
0078
0074
0013
009D
005A
0060
00B6
0077
0016
0016
FFF6
0038
FFF7
006F
003B
FFAA
003E
0039
0096
0036
0079
0055
0045
006A
000C
0004
00B3
0052
0098
0035
009B
003B
0083
00BA
FFF4
FFF3
0018
009B
0035
007A
00B7
001B
0001
0033
002F
009E
0076
0086
0061
0068
0036
00A8
0037
FFF7
0035
001B
00A0
00BB
0032
006B
00BD
005C
0002
FFFC
0026
0089
000A
0086
000B
000C
0028
0019
0065
0028
0098
FFDA
FFE9
006D
005F
0016
0062
FFF7
0084
00AA
0077
FFE4
FFFB
0044
004D
00AE
0069
002D
0040
0064
0030
0033
FFE5
0074
0057
0091
005D
00B8
008D
0098
FFFF
FFE4
0052
0017
0075
001D
FFF0
004B
00AC
0074
00A6
FFF1
0054
0078
0018
0073
FFEC
00A5
004A
0000
00BE
004C
001B
009A
FFF3
FFDF
0067
000A
0017
00A1
0055
0035
0046
00A1
FFDD
00AC
001E
0055
00AB
FFF1
0007
005E
FFF6
0057
FFE5
0041
0002
0017
FFE8
0014
008B
FFE7
00B5
FFFC
00B0
007B
005C
0059
00AB
0067
008E
000D
000D
005D
004A
001A
0047
0028
0063
0096
008E
FFF7
00A7
00A7
FFE8
0048
007E
0067
004A
0011
0035
009C
0011
003C
0031
006C
FFF0
0001
007A
FEAF
FE90
FF59
FECA
0022
FED5
0022
00A7
0010
FE9C
FED6
FF3E
0011
00BE
FF53
003C
FF1F
006D
FEB2
FEC0
FF1D
FFFD
001E
004B
001D
FED1
0021
0051
FEC2
0032
0010
FEF5
FF1C
00BD
FFF1
006B
FF54
FF24
0087
006D
0086
FFE8
FFF0
FE95
FFF1
0050
00A5
FF11
009E
FFEB
0070
002B
FF24
FEEE
FEEC
FEF0
000F
FF3C
FFE2
FFE9
FF14
0040
FF0D
FF64
004E
FF35
00AC
FED4
0055
0083
005B
FE8F
FEC2
FF52
FF21
00AD
FF32
0043
FF69
FED5
FF1D
00A7
007F
0011
FF10
FF0E
FE81
0084
FFE6
FFF2
005D
FEA7
001A
FE6D
002D
FEC3
FFDD
FEDC
FF08
FEC2
FEE9
FEE8
00A6
FE9E
0057
FFF9
FF59
FFF0
FF0F
FF57
FFFB
003E
FEB4
00A7
00AF
0069
FF4D
0077
FF60
0018
FFF0
FE99
009D
005C
FF46
FF14
FF37
FF21
FFF1
FED0
FEE7
FE91
FE9C
0094
0037
0036
FE9D
0055
0009
003C
006D
FF36
FF2B
FF6D
0072
00A7
FEDB
FFF5
0099
FEAD
FEEC
0066
FF1A
FE9B
0062
FF27
FFFE
FF40
FEFF
0018
FF57
FEE9
00A1
FF08
FF2C
FF1E
0071
FF0D
FF29
0025
FF62
005F
FF0B
FEA1
FF3E
FFF9
FFF3
FEDE
FEC3
FEA4
0099
0019
0092
0038
0057
0029
FEFF
004F
FFFC
FF6B
0097
FE9A
002E
007C
FEA2
0063
FEFF
0004
FF07
FE97
001D
FED2
0035
FF27
001A
FF47
004C
FEE8
FFE2
FEDF
FF1B
009C
FE9A
FFF3
FF66
00A9
FF06
0007
FE8B
FF1A
001E
00AE
FFFA
FFE3
FE9C
FE91
FE98
FFFF
00BD
0058
FF28
FF1C
FEC6
FEEF
FF00
0021
008C
FF22
FEBA
FEEE
0079
009C
FEC7
FF3D
FF28
0018
FF1C
00A3
FEEA
FFE9
FF1E
FFE9
FFDA
FF2E
FF1E
FE9F
0035
0097
00A8
00A3
FFFC
0036
00A0
FFD6
FFFE
007C
0019
0036
001A
0058
002D
FFFC
0015
00A1
004B
00A0
0058
0063
00A8
00A2
0051
00B5
00A7
FFF2
0002
FFD5
0009
00D4
005D
FFF3
004B
002D
00CF
0003
0067
006C
0036
007A
0007
00B6
0083
006A
0077
005F
0034
FFDA
0078
0014
003A
0051
FFF9
008E
0068
0068
FFE4
004A
FFF7
001A
009E
00A6
FFD6
005B
0007
00D5
002C
000F
0092
000F
004F
005E
FFFC
FFFE
0098
0040
003B
0074
0030
004A
0049
0093
0020
0073
00C6
007F
0042
0080
00AF
00CA
0016
009A
0049
0098
0067
FFFD
00D2
001C
00A9
FFF0
FFE5
00A4
0000
0045
0040
008F
00C8
0067
00B2
FFF2
00B8
008A
006F
008C
0048
004F
0044
0089
002B
0039
FFDD
0001
00D0
006E
001A
0012
FFE4
001D
0031
0052
00A1
002C
0020
0095
000C
0080
0015
001A
0035
FFF8
0000
007F
0039
FFE3
00A5
0020
0072
007F
00B7
001A
005E
0012
00AC
0047
008A
005B
003F
FFF7
007E
0010
0031
0069
008F
FFF7
0082
008C
00A6
00AE
00B8
0053
00C1
0034
008C
0020
002A
FFFF
00AB
000D
007D
004F
0039
0069
001A
0080
0030
0026
00B0
007E
0062
00AB
0065
0037
00B4
00B1
0018
004E
006B
00BA
006D
00BC
006B
00B1
0048
0027
0014
0035
0075
0000
008F
FFDE
0072
0046
0074
0003
005C
00A2
0015
0095
0085
FFD6
008B
0004
0026
002D
00B2
FFE0
0007
00AA
00C4
00B7
0029
0054
001E
001E
0015
0042
0022
006D
0065
0074
0042
008F
0029
008B
0027
FFD7
0023
0025
FFF6
0039
0025
FFC4
0065
0050
004F
FFD9
00A0
005A
00CD
0067
0064
00AF
0017
FFE3
002D
0041
0036
000E
0095
00B3
006E
009E
FFF1
005B
0059
0036
00D1
000D
00BF
0073
001D
003F
008C
0008
008E
0070
000D
00CB
00C1
0061
002E
0079
0033
0053
00D7
0079
001D
0008
0050
00AE
0088
0031
004E
0072
0070
0002
000B
0038
003D
0082
008D
FFF4
0068
002C
006C
00C1
009E
0092
0018
0031
001A
001E
00AD
00CC
007D
0057
0030
0006
0004
00C1
0021
0070
0004
0082
002F
00D4
00C8
003F
00A5
0010
006B
009E
0060
FFFE
005A
0069
0017
00CA
0022
FFD2
0079
FFF4
002A
FFE1
FFEC
005E
0091
009F
003C
00CB
FFDD
0013
00A7
FFDA
0017
008A
009B
009C
00D0
007B
00A8
00C5
005E
003F
00D7
0003
0053
00C1
0013
0013
FFD8
0069
009D
0029
0052
FFE2
0018
0068
003B
00AE
0095
0088
0062
0008
0090
FFF2
FFF4
FFFE
008C
002F
007E
0093
0054
0070
FFD5
0095
0026
000D
0095
FFE4
0095
0021
FFE3
0009
004F
0035
009B
0095
00AB
0057
003F
004F
0069
0024
FFF1
0063
0062
0012
004A
008E
0085
FFD8
FFEA
0087
0027
0034
00DF
00D2
0095
00D2
FFAE
009A
0074
FFED
00BF
0007
0066
002E
000D
006D
FFDC
0093
0009
FFF8
006D
0027
006B
0046
0029
00B2
003B
004D
003F
0034
009E
002C
FFE8
0029
0066
00C5
0058
00C7
004B
0040
009A
0058
0086
0066
00A2
00B0
007D
0017
009D
0001
0058
002D
FFDF
0079
0095
0026
0078
0032
0070
008F
0079
00B6
00A1
009C
FFF3
006D
FFF4
004C
0035
0095
0007
0014
0094
006B
0006
0094
0056
005E
0024
004A
006A
008E
FFCE
FFF7
FFDD
009C
008C
0036
007B
0071
006F
FFE7
005C
FFF7
008A
006A
0082
0029
FFD9
FFEE
0020
004D
007B
0016
00BD
0083
FFFC
002C
0046
FFD7
001C
0069
00BA
0055
001D
002C
FFF7
0029
008D
008E
007C
FFD4
006C
0015
008A
001D
007C
0000
FFFF
00A9
FFFB
0067
FFEC
0058
0030
0088
0010
0003
008C
FFFC
0023
0055
0088
004F
005A
FFD1
0006
008C
002B
0020
0008
0011
FFD4
0037
005C
000F
00B6
0071
FFEB
0070
008D
0021
0006
0053
FFDB
0009
0098
0069
008E
0055
006E
007F
0066
009B
0009
0065
0019
0029
0068
00A1
003E
006C
0034
0019
0050
0066
009E
0099
004D
0041
008F
003D
009F
004C
007C
0022
008D
0055
003C
0051
0080
004F
FFE1
0011
FFE0
00A4
0010
0041
007F
003D
FFF7
006C
0008
FFD9
003C
0098
000C
003C
0084
004E
FFC1
007A
0040
002B
0095
00AC
001F
004A
001E
0091
005B
009E
0081
0068
0054
0098
000C
FFF7
0021
005B
0007
0083
FFD8
000B
003D
0039
FFF7
0009
FFE4
0030
FFDF
008D
0079
005C
001D
001A
0053
0062
0016
0039
0012
0027
FFA9
FFF8
0092
000E
FFF3
0046
FFC7
004C
0001
005B
008D
005A
FFEA
0014
0020
007E
008B
FFE2
0092
0088
0051
0090
0024
0021
002C
0007
0051
0089
0052
0094
0040
004D
004E
0082
007D
0081
0051
FFD9
000F
005F
002D
0003
0054
0038
FFE9
0005
FFE1
0029
007F
007F
0010
00A0
0048
0018
0095
0027
0093
002B
0018
0025
0096
FFC5
008D
0089
0026
006F
0044
FFA6
00A3
0095
FEF1
FEB2
FE8F
FE9A
0087
FF26
0059
FFF0
FFD7
FF12
FF57
FF2B
000A
0046
FF5E
0027
FECE
0048
FEDF
FEED
FF21
FFED
005B
0013
FFFE
FF47
0030
002E
FF3B
FFFB
0002
FEB7
FEC4
0063
001A
0052
FED3
FEE6
006B
0026
000B
FFD7
005E
FEEB
000A
0083
002B
FF4C
009C
005B
00AF
0094
FEA5
FED5
FF08
FF5A
002F
FEF5
000B
0069
FF14
00A1
FF2D
FEB4
000A
FED3
0072
FF10
FFFD
FFFA
FFF5
FF2A
FEC8
FEA5
FF47
FFF3
FED5
003A
FF22
FED9
FF1D
001B
00A3
0094
FE8A
FED0
FF46
00B2
000B
FFF0
0090
FF2D
009E
FE7A
FFEB
FEDB
0034
FEAF
FE8D
FF03
FEB5
FED6
0021
FEE7
0011
0018
FE95
004D
FF30
FEBC
FFF8
0070
FE87
0022
006A
0072
FEE8
008A
FEAB
0094
007D
FE88
0062
0023
FED3
FEA5
FF36
FF55
0050
FECC
FEA7
FEC2
FED8
004D
FFE3
FFE9
FF55
006A
002A
0074
009E
FED4
FF2A
FF0E
0068
FFE4
FEAE
0025
001F
FF57
FEAA
0064
FEF7
FF53
0010
FED3
0014
FEEA
FF22
003B
FEFF
FF10
0067
FECB
FE8F
FF1F
0038
FEF6
FF0C
0055
FEC2
003B
FF1B
FEBC
FEA3
0053
001D
FED3
FE8B
FEB8
FFD5
0020
0093
0032
003C
007D
FF85
00A4
0068
FF0D
FFFA
FEB9
0044
00A4
FED2
FFEF
FEB5
FFE5
FF3A
FED6
0061
FF43
0067
FF08
0046
FF3E
0081
FECC
FFD9
FF26
FE8F
FFF6
FF17
009C
FEB9
0029
FEE0
FFE5
FED9
FF53
0067
001B
00A8
00B4
FEC7
FEB3
FEDD
005B
000B
007F
FF3A
FE9B
FF20
FF2E
FF0B
00A7
009D
FEC2
FE88
FF2F
FFE2
003A
FEAE
FEB4
FEB1
FFFF
FF20
0075
FF16
FFF6
FF43
00AB
0088
FEC8
FF24
FEEF
0022
00AC
006D
0088
0047
007E
005B
007F
FFF9
005F
000F
0049
FFE7
007B
FFEE
0048
0028
0091
006C
0056
0005
002B
FFF5
0058
0013
0062
0073
0084
0059
0089
FFC5
005C
006D
0012
FFE2
0039
006E
0032
FFD3
FFD7
005E
FFCE
0086
0027
0064
0051
FFDD
006D
FFD3
0077
FFBF
0027
FFE9
009E
008F
FFF5
0018
00AC
FFF7
FFED
0033
0037
FFF6
007D
007B
FFF8
FFC7
0027
000D
0055
0018
000E
0035
0081
00A2
003E
FFE5
008F
0061
FFE6
FFE7
008E
0011
0014
0051
FFF0
0066
007D
0026
FFF7
0028
0082
0085
0061
0070
00AF
FFCC
0082
004C
006E
001E
00AC
005F
0014
FFEB
0064
00A5
004D
00B5
0082
0012
006F
0067
FFDF
FFDC
0036
0007
FFC5
0029
000B
FFCD
FFFD
003E
0012
0030
005B
0070
FFE2
FFF5
FFCC
007E
003D
0032
FFCF
005C
001D
FFF3
0074
008A
0011
000B
000F
0088
FFEA
004E
0055
FFFD
FFEE
0079
0025
009C
FFD0
FFFC
FFFA
001D
0057
002E
FFE4
0003
FFFF
FFFC
0010
0082
0061
0087
0084
0036
0017
005A
FFE9
FFE4
007B
006C
FFE6
0085
0060
0033
0041
0094
FFEE
0053
0092
FFFB
006B
000F
0005
FFD1
008F
005F
00A0
FFF1
001D
007F
006E
0090
FFF3
0035
0016
000C
FFEA
0055
0040
000D
00AD
FFC7
0004
0022
0066
001B
FFE4
0064
000C
00AB
000B
00A6
FFF5
0083
FFCB
0053
FFE2
FFBC
007E
FFE8
0043
006E
0035
0091
FFCB
0054
0036
0028
0052
0074
0045
0094
0048
0046
0017
FFEF
0065
008B
FFCE
0065
0051
007E
008F
0057
0034
00AB
007F
0083
FFD6
009B
004A
0033
007E
FF52
FEB7
FF2B
FEB0
009B
FEAC
0038
FFCF
FFD9
FEE3
FF1F
FEA9
0008
0002
FF47
0086
FE9D
006C
FEC4
FEE8
FF58
0025
0043
FFF3
FFDC
FEDF
004E
009C
FEFC
009C
FFF0
FF09
FE67
0038
007A
000D
FE77
FF45
FFFE
FFEA
FFC9
0091
FFE3
FF01
005F
001A
FFE9
FE85
0026
008C
0027
0092
FF24
FED1
FF38
FF39
0019
FE72
0077
FFDB
FF20
FFE9
FED4
FEC9
0078
FE98
0034
FEFD
0051
FFDC
FFC8
FF0A
FEF7
FF61
FF06
00A0
FEEA
0043
FF3B
FEDA
FF57
0023
0046
0023
FE9A
FF0D
FF22
0032
001B
0020
0060
FF10
0078
FEE9
FFC4
FEA5
FFDF
FF37
FED7
FF5D
FF5A
FF4E
0056
FF2E
FFEE
004D
FEA2
005F
FE9A
FEA9
FFCA
007B
FEF4
004A
FFD8
005A
FF54
FFF9
FE88
0083
000C
FECA
0075
008F
FEB5
FED0
FF19
FE97
FFCC
FEC4
FE92
FED8
FEE3
FFF4
0000
006C
FF46
0019
00A3
FFFA
00A3
FEF0
FF13
FF25
0093
001A
FF33
FFED
0035
FECA
FF26
FFE6
FF54
FF5D
006B
FF4E
FFFF
FED5
FE9E
0049
FEB1
FF0B
FFEC
FEBB
FE9F
FF21
FFF3
FF14
FEF4
004B
FEEB
00A1
FF53
FE8A
FF3B
FFC9
FFC9
FEC2
FECC
FF26
FFF9
00A2
0068
FFD1
0062
FFD4
FFA0
FFF6
0021
FF4A
0029
FEF2
008A
0082
FF39
001B
FEED
0000
FF41
FE98
009D
FE8D
FFF5
FF4C
007F
FEBA
009C
FF58
0024
FF27
FF11
FFF1
FF0C
005A
FEA7
001E
FF52
FFFA
FE85
FEEE
007B
0062
0026
0025
FEB6
FF41
FF1B
009E
005C
00A2
FE9F
FF17
FEF8
FF2F
FE91
000D
003A
FEDD
FF2F
FEC3
0028
FFE2
FE98
FE9E
FE8B
FFF3
FEB8
FFF2
FEFB
0052
FEC4
006C
0090
FEF1
FF08
FF34
004B
FFE8
FFE1
FFC5
00AB
0042
0000
005B
0088
FFDB
0039
001E
0086
FFE7
FFC9
0016
0071
002A
0077
0048
007D
0031
008D
0045
0045
0050
00BA
004B
FFBF
0079
FFF3
0073
0082
FFEF
003D
0038
004C
00AD
004D
0014
FFF7
0038
00AA
FFD2
007B
004E
FFF8
0033
FFFB
00BE
00B3
0055
0085
0056
0045
FFDA
FFF7
FFD1
00A2
005E
0090
0066
FFDE
008A
00BC
0049
0001
FFF9
0082
001C
00C2
001B
0052
FFEE
0005
004C
FFFD
001E
FFC8
FFCE
FFFF
008C
0037
0059
0004
0054
0037
0038
FFEC
00B3
0044
0012
005E
0030
00A8
FFE8
FFF0
0052
0012
FFED
FFF0
003E
0078
FFE5
FFF9
00A6
0020
0059
FFF5
FFDB
FFF8
00AD
0094
0087
0077
003D
0041
0060
FFFF
0040
002D
004F
0077
0005
006A
003B
FFF4
0043
00A5
FFEE
FFEA
004E
005E
0073
0017
00B0
0039
FFF1
0031
FFF8
0095
0040
FFBC
007A
0028
006F
FFCB
008D
0019
0016
0024
0071
006D
0052
003C
008D
008B
0032
001C
0089
FFDC
003C
00BC
FFF1
0088
0069
0053
0016
0070
0083
0003
0040
0073
0065
FFF6
0040
002B
0015
007D
FFEB
0013
FFEA
FFFB
0032
0045
0072
0011
002A
006E
008F
001C
00A2
002B
0027
0021
FFF1
0080
0055
002B
0036
FFF1
008F
FFFA
0033
008C
0011
001A
FFDB
0030
000D
001A
0038
00AA
003B
0093
0054
002F
FFF0
0084
00A2
007B
000F
0046
0059
0031
001E
009C
00B1
00A9
0007
004F
004B
004A
007C
0004
005A
00C8
004F
0066
0018
0045
006E
001D
0053
0025
0048
FFE8
0000
FFE0
007E
FFC6
00B7
0098
003A
007E
0031
0000
FFF7
004A
FFE8
0094
005C
002F
004D
008C
FFCF
0070
007C
0041
0095
0083
00AC
0099
0021
0076
0068
000E
00A8
0033
009B
008A
0057
003B
0096
0042
0087
0029
007C
FFD4
007A
000D
0096
0071
004C
0090
FFFC
00B2
0053
003F
00A7
0018
002F
0051
00A7
002D
004B
00C0
0029
00A6
0015
002C
FFE5
0011
FFFB
FFEB
008E
FFEA
007E
0034
0063
0035
0090
FFFD
FFD4
0051
00B1
00AC
0092
0067
006B
0086
0063
008C
00B9
000E
0080
0021
00A8
00B4
007A
0016
0068
0037
0074
006D
006A
00B7
FFE2
0016
0033
000F
0026
0097
0008
002B
003D
0031
001D
0050
008C
0051
0098
0032
006F
FFE0
0080
00A4
00AD
009B
0001
008C
0057
FFD7
0085
002B
0057
0018
0089
0077
00B1
00B4
0090
0044
0046
FFEF
0055
FFFC
0053
0023
0043
0013
0096
FFF1
009B
FFFA
FFE9
00A6
005C
0068
0018
001F
00BA
00A6
FFFF
00A2
0078
0025
0073
0050
0010
0026
FFC0
00BC
0036
0099
00B3
FFFE
0092
0002
008C
0056
007A
00A1
00AA
0094
006B
0015
0088
0046
007F
FFF7
008E
0016
001A
001C
0018
005D
00B9
0099
0052
004B
00AA
FFBC
0017
0082
FFDF
005C
0050
004F
00C0
FFCE
003D
009F
0095
0080
00A1
00C0
0039
00B3
00B2
0002
FFDF
0052
FFDC
007D
0039
003B
0056
000A
005C
0029
001F
0081
FFF9
0063
0006
008C
0067
002A
004C
0077
0075
0040
0012
002B
0056
002A
0033
0007
0023
FFCD
0046
00A0
FFC9
0039
000F
00B4
0043
0060
0062
FFDD
0058
0016
00BA
009A
FFFD
0013
002C
FFEF
FF82
0073
FFE1
FFCD
006D
0026
0031
0063
FFD9
008F
0092
0028
0071
0060
FFD5
0007
0015
0049
FFF6
0025
0036
0031
0057
0014
0093
FFF2
006D
0018
0075
0036
FFFD
0044
0059
003F
FFE4
0095
00A4
0010
00A9
0035
006F
0096
FFF2
0044
00AF
00BD
005E
0080
00BD
0017
0022
FFFC
00B0
002D
0046
FFED
0059
0010
0050
00A8
FFFF
004D
0042
0065
000B
0090
0051
008B
FFFD
0043
0096
007C
0028
009A
0056
0094
0018
0084
FFF0
007D
0087
000E
FFFF
0042
0095
0008
0012
005E
0097
006C
0081
006E
00B8
00B3
FFE5
0041
00A8
005B
000F
00A3
FFF5
FFDC
FFEC
FFF3
0008
00C0
0034
0076
0096
0025
FFEC
FFF0
007C
FFF6
0070
FFDA
007F
0062
001F
FFFC
0037
0056
007A
007B
FFEC
0052
009A
0025
00A6
0073
0085
005E
0039
FFE3
FFF1
FFF2
0032
0050
0070
004B
0058
003B
FFF1
002C
0028
FFF6
0091
003C
0061
00AC
00A9
0000
0090
0081
FFFE
000A
0027
0087
0094
002B
0029
FFE9
0080
00A7
0042
0019
0060
00A4
006F
0064
004D
00A2
0003
0020
0045
000D
006D
0056
003C
00A6
004D
000A
0006
00B6
0078
0070
006A
001F
0048
FFC6
006C
0003
008E
007B
009E
005C
0015
0051
00A0
FFD6
000C
003A
0054
0013
007E
00AC
0004
0086
000B
0021
0007
00BF
FFAE
008A
0023
0006
000A
0074
00C1
001F
0033
001D
00B8
00BF
00A9
0021
0016
FFE5
FFF1
00A5
0056
FFEC
00AD
0051
0031
FFF4
0074
0052
0002
00A5
FFD4
002C
003E
00C8
00AD
0036
002C
FFF9
0035
0013
0098
0019
007B
0080
0096
0046
FFC7
FFE3
006D
00CA
0068
004F
00EC
0023
0056
0013
004D
002A
00E9
0030
00BE
002F
0013
004C
FFBF
0010
0064
003D
0058
007B
FFC5
FFE6
FFFE
FFA4
0031
FFCE
FFFC
00D5
0026
FFDE
0100
00D9
FFA1
FFFB
FF98
00B4
0059
FFAA
FFB6
FFD5
FFA4
FF9A
00B0
0022
FFB3
0024
00AF
FF86
0048
FFE9
0035
008F
0100
00E3
009E
000F
00FB
FF9B
FFB2
00C0
0033
009C
00B3
FFFB
0089
0034
00ED
0055
FFD3
FFFD
005B
0010
0073
00AF
0059
004F
FFC4
004D
00CF
0023
0049
FF9C
0028
0068
0036
002E
004A
0049
0015
0058
006E
FFDA
0116
005C
007F
FFB2
007A
009E
0066
00AF
0015
FFE3
00F8
FF96
FFE9
00B3
FFB8
002E
00CB
FF96
FFC7
0062
0042
0061
002D
00EC
FFFD
0034
FFE5
FFB9
009C
FF8C
FFB9
0053
0026
0022
00ED
001F
0074
005E
0058
006D
FFBE
003C
001D
0059
FF93
002F
0018
FF7F
0084
00A2
005A
FFAA
FFB8
00DB
0007
002E
0060
0038
0022
0030
003D
FFFB
0064
004E
00A5
0071
FFAD
00D2
0050
0063
00ED
009A
007F
FFC0
008F
0101
FFEC
0030
FFAD
00E7
0061
0086
FFAF
FFAD
0066
00D7
00D0
FFA0
0016
FFBA
0020
0047
FFC6
0002
FFAB
0013
007E
0037
0067
0027
FFAA
007C
0010
0076
0002
005D
004A
FF97
0018
003E
00B8
FFA3
004D
0037
0045
0043
0010
005B
FFC7
002A
003E
0084
FFE9
005F
FFF4
0102
004B
003C
000C
0008
FFB9
0091
0093
0066
FFDB
FFE7
0063
006F
0030
0039
0079
0071
0045
FF9B
0053
00D2
0053
004A
0006
00FE
0053
00F2
002F
006D
0032
00B9
FFF0
007A
0040
006C
FFFF
009F
0039
FF15
FE7F
FEB2
FF0E
0006
FEB0
008F
005E
0017
FF18
FEF5
FE9B
0012
006D
FECA
005D
FF06
0064
FEFE
FE72
FF2A
0016
00A2
00B5
0013
FF0B
0063
0090
FE86
008C
0034
FE71
FEC9
FFF4
0044
0078
FF07
FF32
0008
0066
001B
000F
00C4
FF00
0067
FFFF
0055
FEA5
000D
0095
00BE
00A9
FED5
FEE1
FF24
FE82
003C
FE9F
0033
006B
FF22
007F
FF05
FE92
008E
FE7D
0002
FE90
00BB
006F
0059
FE7C
FF07
FF19
FEAC
004D
FF28
0091
FED8
FF14
FEF7
0040
0097
0007
FEB1
FF2F
FEFB
0094
008D
00BD
0011
FECA
008C
FEEA
0042
FE97
0048
FECA
FE8B
FE6F
FF11
FEFD
000C
FF36
00C3
00A9
FE84
0094
FE79
FF27
0095
FFEB
FE99
0082
0054
00BD
FED0
FFF4
FEE3
0053
0026
FF07
0040
0011
FEC6
FE65
FEA2
FE85
0030
FE8A
FF38
FF3A
FF0C
00B6
0091
005C
FF0F
0041
FFEF
006A
FFE7
FF27
FE78
FF20
0035
008B
FE70
FFF9
0041
FEDF
FF19
005E
FF14
FF40
006A
FF32
0055
FED4
FEFF
0082
FF39
FF22
005A
FE79
FF05
FE73
000A
FE96
FF19
008F
FF14
FFFC
FEB6
FEAF
FEDD
00A6
0033
FEFF
FED6
FF31
005A
00C2
0068
0047
00A6
004B
FF4F
0089
0000
FEE8
0029
FF1B
FFFA
FFE9
FECD
0009
FEFF
000D
FF2A
FF1D
0011
FEE0
00A2
FE64
00B2
FF18
0067
FED9
0010
FF26
FE9D
004C
FF15
FFE2
FEBC
007F
FED6
00A8
FEE2
FE84
0097
0024
00B1
0059
FF19
FEFC
FF3D
0002
001E
0019
FEEB
FE8C
FEEC
FED7
FEE6
00AF
0097
FED5
FEED
FF0D
0019
0069
FF32
FEC2
FF3C
0018
FF00
007C
FEA3
0092
FE6D
0027
0068
FF79
FE75
FEC7
FFD6
FFCF
FFF2
FFE8
008F
FFF8
0081
0006
005E
008A
000B
FFF6
009F
FFF8
0090
0006
FFC5
0001
0062
0007
003C
00B9
00BA
FFF2
0083
008A
0029
0049
0080
004F
0045
000E
007C
0092
0017
0075
0012
005B
0045
00AA
0046
004F
005B
FFFF
006E
0059
0041
0003
0076
007F
0066
FFFA
007B
0042
FFF5
FFE3
0030
FFE0
008C
FFE4
0021
FFE1
0079
0042
004B
FFD8
00A1
0098
00A6
001F
000E
0032
005B
0010
0049
00AD
008C
003B
FF85
0062
0078
FFFA
0059
0040
0010
FFFF
0074
0016
007B
008C
008B
0021
0089
00B2
003C
FFCF
007C
005A
007D
0061
FFEB
009C
FFFB
FFD7
0078
008E
004F
0093
0044
FFC9
00AF
0075
FFCC
003D
FFFC
00A1
002E
0038
FFD9
00A4
0045
FFD0
007B
00A6
0011
FFD9
006A
FFD9
FFFB
0067
006B
0053
001C
0014
004C
0061
0080
0024
007E
008C
FFEE
0035
0074
FFDF
FFE8
0067
FFD0
0087
0084
FFF3
007E
006B
0059
0006
0069
000C
0089
0092
FFFE
007C
00A0
FFC7
0013
002E
FFE3
FFEB
004A
FFF3
FFE8
0062
002D
0098
0046
002F
0068
0075
0013
001C
003E
000A
0022
00A7
0067
0051
000A
002B
FFBA
0041
004E
0053
0003
FFD6
0007
006C
FFC9
0054
003D
007D
0067
000A
009A
FFE3
0018
0052
0044
FFFE
0009
006E
00AB
FFCF
007E
00AF
FFC4
003B
0067
FFFC
0012
FFE7
001C
0041
007D
0049
0000
0075
FFCB
0028
0001
0094
003E
004E
009D
0020
0051
FFC2
005E
FFF5
FFF9
008A
FFE9
FFD1
007E
FFF8
0026
0018
0083
00A6
007E
FFE5
0026
FFEF
0074
002D
FFFA
FFA4
0018
FFF1
007A
002B
003E
0076
0047
0021
001C
0028
0080
0003
FFF4
002A
0003
006A
0014
0083
008E
0069
002B
0071
0018
00AB
002C
00B3
002E
0050
00BD
0043
002D
004E
00B7
0058
0072
0023
005A
0013
008C
0033
009A
FFEE
002C
006F
00A7
004F
FFF5
FFF1
002E
0052
0063
00AB
004A
003C
FFF4
FFDA
0074
0051
0050
001F
006A
0064
000D
005E
0027
0070
005B
0090
0066
0088
0000
00AA
00A0
000B
00A2
FFF4
FFFA
0077
FFFE
0042
FFB4
007B
0015
0094
0090
0046
FFF3
005F
0021
000C
0057
008A
00AB
0018
007C
004E
0064
0087
006D
FFC1
001F
0009
009F
0075
0067
000B
0000
0013
000B
005D
007C
007F
0049
0000
005F
0093
008D
0052
FFE2
0084
009D
FFF1
0056
0092
0024
00B6
0022
FFE2
000A
0022
FFFD
FFDD
006C
0074
0098
00B8
0079
0024
FFEA
00A2
FFF6
00B3
0068
0062
0061
005F
00AF
008A
FFE5
0014
FFFA
0070
0073
0020
0051
0042
0002
00AE
00B2
FFE0
001E
0011
009E
0052
0045
0025
0080
002A
009D
0022
0070
009C
0054
FFE6
00B0
003D
0016
007C
009E
FFD5
003F
0077
002A
006A
006E
006E
007D
00A4
001C
0048
002C
FFD3
0018
FFED
002E
0082
0078
008C
FFF1
00A0
0004
009C
003E
0027
004A
FFD7
006A
00A7
00B7
005A
0073
FFEF
0013
002C
FFE3
003A
008F
00AC
0081
00AB
009C
0069
00BE
007C
008E
FFFF
003C
0014
0062
0068
0034
00B9
004C
FFCC
FFF7
00AD
0055
00A2
0027
0050
007D
FFF6
0006
005A
008C
003F
0082
0073
001F
0060
FFF6
0019
006A
0059
0064
FFED
FFE8
FFF1
FEF8
FEFD
FEFA
FF3B
00AA
FEEC
0041
002F
00A5
FF2D
FEE7
FEF7
003E
007D
FF48
008A
FF0F
007C
FECB
FF2B
FEA7
001D
FFD0
FFE9
004B
FF55
0077
FFF1
FF24
FFD2
0083
FF54
FEA5
FFFC
00A2
0037
FECB
FF31
FFE3
00A5
0044
001C
FFF7
FEF9
0034
00A0
007C
FF2E
0011
000B
FFF8
006A
FEE6
FF2C
FEF2
FEDD
0033
FED6
0043
FFD0
FECD
0079
FF55
FF07
0017
FEDF
004F
FF44
0003
0053
0097
FEB2
FF51
FF02
FF20
0012
FEB9
0017
FEC9
FEF0
FE99
0065
0067
0023
FF15
FF3D
FF0E
0018
0073
0020
0039
FF08
009E
FEA1
0065
FE9D
00A8
FF63
FEC8
FF40
FEF7
FEE1
0036
FEE9
0009
0007
FEF6
FFF8
FECF
FEFB
001E
0028
FF41
0074
FFE6
008A
FEFE
006C
FF82
FFDD
FFE8
FED4
003C
FFE0
FEE0
FEF4
FEA5
FF0E
0011
FF05
FEBB
FEB7
FF09
00A8
FFF7
0045
FECE
0075
FFF2
FFD5
0081
FF0D
FF37
FF5C
004A
001F
FF1A
007D
006B
FF2C
FF65
FFFB
FF55
FEF9
FFE3
FEEB
FFD5
FF0A
FEEE
0019
FEDC
FF2B
FFDD
FECB
FF21
FF05
0068
FF60
FF53
0088
FEDE
0068
FF68
FEC7
FED9
0002
00B6
FF3E
FF51
FF0D
0077
0037
007C
006C
FFE0
0053
FEB6
0027
002B
FF0E
001F
FF72
0024
0030
FF50
FFE4
FF38
FFDF
FF47
FEC6
004D
FEE7
0055
FEAA
FFFE
FEB2
FFD1
FF63
0043
FEF9
FF2E
005C
FF36
002A
FECF
0000
FF3A
006C
FEFD
FEEC
0097
0085
0035
009D
FEB6
FEBE
FF73
0092
00A3
004B
FF50
FF4D
FEE1
FEBF
FF5D
001C
005F
FEB6
FF0A
FF31
FFE7
006B
FED8
FEA7
FF23
FFE6
FF3F
0098
FEC8
FFD4
FF50
005C
0029
FEF5
FE9C
FEF5
0061
0078
00C5
006C
FFC9
0041
FF8D
FFAD
FFDC
003B
002E
0037
FF60
FF3D
001E
FFBD
00C8
FF89
0076
002B
00A8
FF38
FF8A
FFC3
FF89
002B
FF80
FF58
002F
FF8C
FFD5
0056
00E7
FFA3
FF82
FF7D
0045
004F
FFF1
FF55
FFFA
FFB3
FF49
002E
FF50
FFC7
FFC1
008F
FFA3
FFBB
FF20
FFCE
0063
0046
0076
008D
FFB2
00A6
FFBA
FF64
00CA
FF55
006D
00D8
FFBD
0095
FF61
001C
FFD9
FF61
FF90
0024
007D
00C6
00C8
FFE6
00A7
FF27
000B
00AF
00AF
FF3A
FFD2
FFDE
00B4
0078
0013
FFEF
FF3C
0006
FF73
00B2
FF75
FFFA
FF34
0071
FF4A
0065
00CC
0033
0032
0039
FF7E
006E
FF9F
FF48
0072
FF37
0087
001D
0006
FFFC
004C
FFFA
0016
FFE7
0043
FF25
00C5
FFAE
FFC2
0044
FFEC
FF4F
0086
0080
0070
007D
0008
0028
0064
0024
00C4
FFAF
FF57
FF7D
0057
FFFF
FFB7
FF49
FF73
0088
008A
0054
FF44
FF25
0046
FFAD
FF5F
0068
0027
FF86
0094
00AA
FF5A
0075
FFA1
005F
00B3
FF6C
008F
009F
FF9E
00C9
009D
005D
FF5E
006E
00D4
FF38
00BC
FF4F
00E7
0024
000F
FF30
FF54
0090
00B7
002F
FFCB
FFEE
0005
FF74
FF77
FFBD
0021
FF49
FFB2
0064
FF5E
00C5
FFE6
FFBD
00CB
FF50
008B
FF55
004F
00C3
FFAB
007B
FFEE
0078
FF28
000D
FFE8
008C
FF54
0010
006A
FF4B
0052
FF3D
00CB
FFEE
00E2
FF25
0051
00C9
FF4D
FFAE
FFAD
FF6F
003A
0072
003D
FF5B
FFF3
FFF6
0069
00B2
0043
004D
0038
FF47
0001
0095
0087
00D2
FF36
FF59
007A
00A8
0020
FF46
0088
FFD6
0089
FF7E
0028
FF77
000C
FFCA
0027
00F3
007A
00D9
0119
00B1
FEFE
010F
FF87
FF2E
FF82
00A9
0063
0129
FF60
FFA8
006E
FF06
008E
FF5B
008D
004E
009C
FF8E
FF7C
FF40
FFBA
00EA
FFB7
FF16
0099
FF26
FF1E
00AA
0091
FF08
FF6D
FEFE
00E6
012A
FF49
FF6A
FF35
FF96
FF15
0067
FF12
FF01
FF6E
0076
FF5F
FFCC
FFAF
FFA4
0119
007B
0081
00FE
FF68
0100
FFD2
FF3C
007D
FF02
00B4
00D3
FF8F
00AD
FF0B
006C
FF24
FF1A
FF76
0097
0105
010F
0094
FF30
0108
FF39
0093
00A6
00CC
FFB6
FF65
FEF9
0105
006C
0097
FF65
FF85
FFC0
FFBA
0118
FF56
0066
FF54
0067
FF50
012C
0087
00DE
007D
00A9
FF25
0090
FF27
FF16
00DB
FFBF
0057
00AD
FFBB
FFA9
0095
FF08
FF83
FF27
0081
FF79
00B7
FF06
FF0C
0071
FF8B
FF71
0125
00C1
0056
00CA
FF19
00DB
00DA
0122
0068
FF4E
FF22
FF34
009B
FFB8
FF20
FF92
FFA7
0046
008D
009C
FFC2
FF98
008B
FEF6
FF4F
0092
00B9
FF6D
0126
006D
FF10
00A0
FF97
00CB
0126
FF9F
011F
00C7
FF9F
004A
007B
0087
FF80
00EB
009B
FF01
00F6
FF16
00C4
00C7
008E
FFCA
FF99
00F1
006E
00E3
FFC8
FF4D
FFB5
FF68
FF07
FF00
007C
FF26
FF3C
0072
FFB8
0079
FF5E
FF96
008E
FF08
005A
FF79
0124
0102
FF75
00F5
FF28
005C
FF4D
011C
FEFB
00DE
FF45
001D
007A
FFAF
00C4
FF5B
00E9
FEFC
0072
FFC5
011A
0102
FF79
FF6C
FFCD
FF60
007A
0067
00F8
FF70
FFA8
FF95
00E3
0088
0077
011E
00BB
FF3C
FF53
0061
0111
005D
FF23
FF8A
006D
0056
0094
FF3B
00B2
FF64
0075
FF46
0089
FFB9
FF4B
00D2
0094
00B9
FE5F
FE9E
FEAD
FE7E
0017
FEF6
003C
FFFF
00AD
FF28
FECE
FF0A
00A5
FFF7
FEC6
0050
FE63
0085
FEF5
FF28
FEB2
00AA
0088
0098
0061
FEB7
00B6
002E
FECB
003B
00C4
FECE
FEF1
003B
FFEF
008A
FEAE
FED4
0033
004B
004F
005F
FFF8
FED4
0084
00A7
0077
FF18
0032
0020
008B
00B2
FEAB
FEFD
FEF9
FF1B
0014
FEEB
0062
0098
FE5B
00C6
FF0E
FF18
002B
FEBA
004D
FF0E
00A0
001E
FFF2
FE71
FEAE
FED8
FEC6
007E
FF29
00C4
FF0F
FE81
FEC6
0077
0017
003F
FEC7
FE5D
FED3
FFFD
0033
0050
0025
FEE6
00BE
FF42
008D
FEE9
009F
FF0A
FF06
FE64
FE84
FEE8
0049
FEB0
FFFE
004C
FF1B
0036
FE77
FEDA
0005
0061
FF12
009F
0002
00AB
FEBC
00A0
FEAB
00B7
0033
FE9F
009A
FFF2
FE76
FEAA
FF2D
FEC1
004B
FEAB
FEDF
FEC5
FE68
007F
0014
00C2
FE83
000E
0027
007C
FFFA
FE92
FF1B
FE6D
0014
00D0
FE93
FFF6
0058
FE72
FE99
002A
FEE0
FF32
00B9
FF24
006F
FF07
FF23
003C
FE5B
FE4F
FFFB
FECE
FE88
FEFE
0047
FEA3
FECF
0053
FEB0
0009
FE8A
FF10
FF26
0066
00AC
FEB4
FE76
FEDD
0019
00BD
FFF5
0042
FFFA
0026
FF38
0046
0037
FEC3
009B
FEF2
007E
00C6
FF29
003D
FEBC
0023
FF1E
FF00
FFF2
FF18
0062
FEF8
006D
FE6C
008F
FE62
009E
FF25
FF09
001C
FEBC
00AD
FE74
0041
FE99
009B
FEF3
FF14
0095
0088
0009
005F
FF24
FE80
FED6
0037
009C
0081
FED9
FEAA
FEC9
FED9
FEDF
008C
006B
FEA8
FE97
FED5
00AC
0095
FE84
FEEF
FEDD
007B
FE79
0027
FED1
0069
FF17
006D
003D
FED9
FEC0
FE97
007A
FFF3
0001
0078
007A
008A
0042
0031
0046
0060
00AC
0029
FFE5
FFFC
0065
FFFD
0052
001E
002E
00BE
003D
009A
0063
001E
00A3
0098
0053
0019
001C
FFE4
0011
002D
004E
FFE4
007E
0012
0020
FFF6
008D
0032
0000
FFEF
0083
00A6
007D
FFFF
0022
0034
0001
002D
0055
003D
FFF8
0036
0020
0030
009B
0090
0079
008B
0025
00A6
0090
0076
004A
0076
FFF1
008E
0084
003F
0062
004D
0063
000D
FFFC
004D
0097
0012
0067
008C
006E
00A7
0012
FFEC
0058
0014
002D
003F
003D
FFDC
00B6
003C
FFDC
0049
0047
000D
0044
FFE4
006C
0027
0000
00B5
0070
FFDF
FFE4
00A1
001E
009F
00B4
0062
0083
0047
0072
FFE7
0080
0098
0017
0089
0093
0025
00AB
FFF1
0007
005C
00AE
00A9
0058
00AC
0061
00A5
00AF
00A5
0049
00AE
0096
002B
0075
004F
001F
002D
008B
0055
008D
005D
006D
0067
00B2
FFE9
0039
00BF
00AD
001F
003F
008C
009B
0023
006C
00B9
0040
005F
FFF0
0086
009D
0018
FFE9
003E
0061
00B2
FFE5
FFE9
0017
006E
000C
00A5
0041
005A
008D
001B
00BA
FFFA
FFED
0047
0023
003D
0038
00AA
FFE6
0045
00A3
0079
FFE0
FFFF
009E
FFF9
0006
0062
0089
0024
001D
005B
0018
009A
FFE9
000F
FFEA
0088
0040
0077
0059
FFB4
0008
FFFF
00A9
0090
0087
FFF7
0098
0003
0012
0002
008C
0093
0094
0062
00C3
0010
0024
0021
0084
0015
002A
002D
009F
0039
0085
0087
0067
0048
0036
002C
0098
0064
0058
FFDF
0087
0043
FFE2
003A
002D
0043
0089
FFFB
005E
0080
0013
FFFF
005F
00B6
0066
005B
FFEA
0074
0062
FFC2
006C
FFFC
0077
0094
007E
FFD4
0055
FFE9
009A
FFF4
00B6
00B2
0009
0001
004C
005C
004E
0079
FFF1
0013
00AE
FFEF
0083
002A
0012
0005
FFB3
FFC9
0031
FFF2
000C
FFEB
FFE2
0023
FFE7
0074
0005
0073
0046
0080
FFA6
FFFF
0022
0002
FFED
0079
005D
00C0
FFC9
0057
0097
FFEC
00B9
FFBD
006D
FFFD
FFF4
0012
FFA4
0061
0083
007F
0037
003A
0067
0025
003D
FFDB
0012
003B
007E
002A
0023
003F
0055
0009
007B
0026
FFF1
002F
005A
0052
0064
003A
FFB1
0019
FFDC
0032
0075
0055
003E
0091
002E
00BB
005D
FFE3
FFB3
0040
0026
0017
004D
0092
0045
0081
008B
0048
FFBF
0081
00A3
0043
001A
0030
0025
0040
FFDD
0076
0012
00B4
0095
0034
005E
001D
0090
0061
FFFA
0068
FFCC
0028
0011
0094
FFCB
0074
FFBE
FFED
001D
0078
FFF5
0039
FFE7
FFA9
0011
0066
00B3
FFBA
0044
0095
007C
0069
FFAE
0091
0076
000C
0033
0050
FFA2
0001
FFEF
002E
FFD3
0014
004E
0077
00B6
FFFB
009C
0081
00B5
FFF4
FFE0
FFF3
000C
0006
FFCD
0028
0058
FFEE
006E
FFC1
FFE0
0030
FFB8
00B6
0085
FFFB
004C
007A
0027
0047
00AA
FFF4
0034
006C
0060
008C
0031
FFE8
FFB5
0038
FFDF
0057
0002
003B
009F
FFEA
001C
FFD9
000D
FFB9
0017
0028
0097
0034
FFD6
FFCB
0069
FFF6
0081
0071
FFE3
008A
0071
008B
00B3
00AB
0010
0023
0047
0001
0076
00B8
0035
008A
FFB2
FFB8
0086
0024
006D
000E
0007
000F
0059
FFEC
0067
FFDC
0020
002D
0019
008F
0073
0089
0053
FFDC
0040
FFFA
0052
00B8
0053
0032
0053
00BB
0008
008C
0002
009C
FFF1
00A5
00B8
FFE7
008D
0082
003D
00B5
0021
008E
0051
007E
0060
0018
00B5
0035
0053
009A
00C1
0018
0057
FFEA
00BF
005D
008C
0045
00B5
FFE5
00B3
000F
FFE7
0039
0065
0002
0099
00AF
005B
0001
001B
004B
00B2
0042
00B5
0053
00B3
006C
003C
0054
001F
0027
001C
002A
00A8
FFF8
00B3
0075
0041
00B0
0044
0003
0039
0065
0001
004E
00B8
00A3
0036
0046
FFEE
0067
00A0
0000
FFE1
FFE0
006E
008F
0004
008F
007E
00AD
0019
FFCE
005C
0034
0012
009A
001A
0057
008D
0071
002C
FFEA
0078
FFFD
008F
FFF5
005C
00BF
0034
0082
00B2
000D
FFFE
0010
FFF1
0082
0095
0015
005D
0074
FFDA
008F
001D
00B2
FFE7
0078
00B0
004A
0015
FFF9
000B
007A
003E
00A8
0031
006D
0021
FFE5
00BD
004A
001E
00B1
002B
00B3
0041
0014
0075
FFF9
0082
0067
005E
FFF4
FFF5
0072
0046
00AB
FFEA
FFD9
003D
FFEA
0014
FFF7
0011
0003
0011
0020
003E
0050
0094
0081
FFF5
00A7
006F
00A0
0098
00B3
0033
0003
0043
0059
FFCD
0004
0099
0079
0049
FFF0
0038
0069
00B4
0054
FFEA
008F
FFE5
0091
0059
FFEA
0025
0090
00AD
00AF
0044
0094
0088
FFDA
0052
0016
FFE0
0036
004B
0010
009D
0044
0097
000B
FFEA
0034
0031
003C
00A2
007B
006E
00BE
002A
0084
00A8
FFF1
0064
0096
FFFF
0094
0066
0088
0047
000C
0053
0082
009F
FFE8
FFF5
0085
0005
0033
FFF0
0071
006C
002C
005D
FFF5
002B
002C
000A
0026
0027
0004
0026
FFED
0048
0002
009B
0053
FFF3
0055
0077
0057
0065
0049
000D
00D4
002E
0096
004F
0033
00C0
0022
0063
FFE9
0085
0097
0003
007A
006A
FFED
009F
0056
00B6
0018
00AF
0039
001A
00B1
00AA
008D
00AB
FFE9
002B
00D1
006C
006C
008F
0018
003F
009C
002C
00A7
0022
0020
009A
0055
0089
0091
FFE5
00B0
FFE1
0063
0077
004C
001A
002B
0018
0068
0021
0038
0033
0025
0063
00BA
0038
0038
FFBE
0096
007E
005A
003B
0001
0022
FFE3
FFE4
00BB
000A
0078
00D6
0086
0026
005A
0020
0084
00D1
0083
FFF8
007E
001B
00A8
0070
FFE4
00D0
008D
007A
00D2
0096
0042
0084
0073
FFFA
0012
0020
0016
007E
00D3
FFD7
00B4
0058
FFC3
0005
0010
0067
000B
007B
0063
00BB
004D
FFF3
005A
006D
008E
0091
0033
0068
0036
001A
00C5
0000
FFF3
008E
00A2
00BD
00D5
FFFB
0088
00CF
FFEB
00A0
0060
0045
0001
004F
003C
00A2
FFE5
FFDD
008C
0028
002D
0031
0041
0061
0005
00B8
0038
0052
0080
FFE9
0097
FFF6
FFD7
002E
0092
0078
00AB
0081
FFDF
009D
009D
001A
0054
000D
00D7
FFB6
00D6
0085
006D
0068
0070
0067
007C
FFD8
0068
0054
003E
FFFA
006D
00D0
006C
0006
0083
0038
0093
0063
000A
0007
FFA3
0019
0045
0031
00D9
00A2
0008
004E
006E
001A
008E
002F
00C7
00A6
00B8
0064
0046
0070
007E
004C
0013
001E
00A9
0037
009F
008A
00D3
0014
0067
002E
0066
0053
006B
0024
FFDF
0067
00C9
0095
00C3
004C
00B6
0034
0037
007D
0029
00AE
FFF3
FDBE
FD9A
FD8F
FD90
018A
FDCC
0171
01A5
015F
FD75
FDCD
FD90
0138
0184
FDDB
0195
FDBA
014F
FD55
FD78
FDC9
0212
01F2
01A7
01D8
FD3F
01AB
01D4
FD4F
0141
0201
FD68
FD4B
01F1
0160
01F7
FD31
FD0B
0153
01F3
01EF
0150
01D6
FDC8
01B4
01C9
0195
FD17
0168
0164
0205
01B0
FD4C
FDE2
FDDD
FD72
01B1
FD4E
01FA
01ED
FD17
01F0
FD23
FD8C
020B
FDEE
01F9
FDA1
0142
01B2
01B4
FD5F
FDC8
FD91
FD64
0158
FD65
0163
FE6C
FD5C
FD69
019D
0178
0151
FD01
FDC3
FDC8
01A4
013C
01F2
01FF
FD31
01A4
FE06
0212
FD8D
0175
FD44
FD82
FDA1
FDC1
FD5B
01A1
FDB1
01A7
0151
FD24
0212
FDCD
FDBA
01D8
014D
FDBF
01F2
01E4
01FB
FDAC
0143
FDA1
01CC
01D4
FD27
01A9
01F5
FD73
FD93
FD4C
FDAA
01B9
FDBD
FD58
FD7A
FDCC
01D0
0150
015A
FDC8
01F8
0200
016F
0212
FD5E
FD86
FD61
0191
015F
FD9A
013A
01D9
FD77
FD14
016A
FD49
FD8C
014C
FDDD
01CB
FD99
FD1E
01F9
FD19
FD92
016D
FDC8
FD26
FD99
015D
FD26
FD0E
01A7
FD61
0209
FD16
FD98
FDCF
01CB
019A
FD90
FD64
FDFA
0142
013D
015D
013B
01D9
01F3
FEC8
01D1
01AE
FDBE
01C5
FD37
017C
01CD
FD56
01C7
FD71
0139
FD5D
FDC8
0204
FDA9
01A9
FDDF
018C
FDC0
01C4
FDA8
016A
FE4C
FDA9
016F
FD3E
01B4
FD2A
01D9
FD32
0173
FD5E
FDD5
01E6
01D6
01F1
0201
FD82
FDDD
FD7F
01CE
0188
015F
FD91
FD4E
FD9A
FD0F
FDC6
01A8
0202
FDDA
FDB8
FD1E
01D8
01A7
FDCF
FDA6
FD92
015D
FD64
019B
FD63
0199
FDC0
015E
018C
FE45
FDC1
FD6B
FF4D
FED6
FF6A
FF45
0093
FF5B
00B8
0049
0017
FF6B
FEF2
FF56
00BE
FFF8
FF6E
00B0
FF06
005D
FEE5
FEF9
FF77
0007
FFF9
0069
00AD
FEEB
0025
0077
FF45
00BC
001E
FF5C
FF3C
007E
00B7
FFEF
FEE4
FF5B
00B8
FFF5
0023
001D
0036
FF02
FFFE
0011
002E
FF00
0086
001E
0062
0095
FF46
FF1B
FEB9
FEAE
0005
FF17
0009
00B6
FEBE
00BE
FED7
FF58
004E
FF3B
008D
FEFC
001D
0070
006A
FEFE
FF77
FF17
FF76
0034
FF46
FFE6
FF33
FEAF
FF2B
0005
FFF5
009F
FF61
FF61
FEE9
009B
007C
0081
0006
FEB8
00A0
FF1C
0093
FF41
0068
FF4F
FF70
FED8
FECE
FF31
0040
FEED
00C1
0059
FEAF
FFF5
FF79
FF74
FFFA
0088
FF71
0021
0098
000E
FF01
00B7
FF37
00AD
0092
FF29
0036
0027
FEC4
FED8
FEE4
FF16
0089
FEFD
FF2C
FF56
FF4F
001E
0089
00BC
FED4
0049
0063
FFFC
0008
FF4B
FF1E
FF6F
0045
008E
FF7F
FFF4
0091
FF2A
FF2D
0013
FECE
FEE3
0052
FF7C
0057
FF80
FECA
007B
FF3C
FF1D
0062
FF6B
FF19
FEEB
002F
FF6B
FF66
004C
FF68
00B0
FF4D
FF5A
FF3A
0031
0064
FF24
FF42
FEB1
003E
00AC
0022
0007
0019
0078
FFDB
0084
007D
FEC4
000E
FEF8
001E
009E
FF08
001B
FEBC
FFF1
FEF2
FF3E
0026
FF62
007F
FF17
FFF7
FF47
00A4
FF05
0021
FF7C
FEF7
0059
FEE2
0084
FF03
0041
FF36
00B4
FF25
FF3E
FFF1
0003
0070
0097
FF73
FEE0
FEF1
0036
FFF3
0005
FF47
FF32
FF2D
FF15
FEE7
0046
FFE7
FEC3
FECA
FF7F
007E
000A
FF15
FF89
FEC1
FFEC
FF21
00AF
FEFC
002F
FF68
FFEE
0052
FF9B
FF1E
FF05
0088
FFE4
0077
0000
FFD0
0024
0082
005F
FFDD
00A4
002A
FFE1
001D
0087
0043
0015
0074
0003
00A0
FFE4
00BF
0066
FFE1
0019
0097
0069
001E
0065
00AA
FFF8
00A1
0037
002B
0099
005F
002A
FFE4
0085
FFE8
0057
005B
0050
009F
0005
0021
0051
003C
0085
000C
007E
009E
009C
FFDF
0081
0079
008B
006E
0049
FFE3
0082
0016
003F
FFDF
009E
005F
0093
006C
00B7
FFEE
0070
005C
007A
0074
002D
002B
0004
0091
0017
0043
001B
0069
0088
0090
005D
004E
FFF3
0067
0045
FFF6
008B
0078
FFF5
00A1
0016
FFF5
0059
FFD7
0024
00AA
009A
0017
FFDF
006F
0044
0033
001C
00A9
0097
00B3
00B1
0006
0037
FFF8
009D
005A
0021
006E
FFCF
FFDD
00A3
004A
0058
0048
0065
FFE4
003C
0055
00B9
0061
0000
005B
0010
0061
FFFA
0078
0073
0001
0098
0015
FFDE
FFFA
0066
009F
004E
0074
0043
004D
FFE0
005F
009F
0080
0011
0077
000B
0004
FFF6
0085
0038
0075
0042
0043
0078
001A
0061
00B4
0043
000D
0078
0031
FFF4
00AC
00A6
0082
0013
0074
FFD1
0015
0083
006C
0009
0084
0092
0056
0016
007B
004B
FFE6
0076
008B
FFF8
0018
0084
0087
0007
0074
0093
00C6
0002
0029
FFE5
FFFC
007C
0027
0008
0026
0055
FFE9
003F
008C
0055
FFEF
FFF0
007C
0094
0068
FFD8
001F
006B
0097
003E
006A
009F
0061
00A7
FFFD
0053
FFFB
FFF6
FFEB
008E
009E
0055
FFF2
005B
0065
0062
009A
0027
0033
FFEE
FFF4
0040
007A
FFF3
FFE4
0069
0010
FFF1
003A
0024
005C
0047
00A6
001A
00B3
0073
FEB9
FF87
FEE9
FEBB
0078
FF58
00AD
00AC
008F
FEAB
FF04
FF36
004E
0043
FEE9
003E
FF22
0077
FEB6
FF39
FF4A
0069
004A
001E
0091
FEFC
0047
0079
FF2C
0058
0069
FF61
FEE6
0011
00AB
00B0
FF21
FF64
FFEB
0002
0082
0058
00C4
FEFD
00BE
002D
0024
FEF5
000E
009E
FFE9
005A
FED5
FEF2
FEE5
FF1B
002E
FF2F
00B0
FFF0
FEF3
FFFC
FF20
FF8E
006E
FEB1
008B
FF53
FFE6
009B
0097
FF45
FF07
FF60
FF28
0060
FEF4
00AE
FF84
FF16
FF45
009A
0063
0065
FF8B
FEB9
FF75
005F
0053
0076
0023
FF7B
0098
FF10
008A
FF70
00AE
FF17
FF1B
FEC1
FF26
FEAC
0076
FEC6
0004
0019
FF5C
FFFA
FF29
FED4
0079
00AC
FF2A
0043
0077
0020
FEDA
0005
FEA9
0020
00A4
FEEA
007C
0070
FF0A
FF76
FF05
FF86
0087
FF31
FF8C
FF77
FF5B
FFF9
00A9
009D
FF61
0000
003D
0072
00B0
FF1D
FED5
FF1A
006A
001B
FECB
007E
FFFF
FEB6
FEFC
0005
FF78
FF5F
00A8
FF51
0004
FF08
FF78
FFF8
FF5C
FF12
00A3
FEBB
FF47
FF06
FFF5
FF14
FF37
0020
FED9
0066
FF56
FF70
FEC3
0030
FFEF
FED9
FF49
FF5A
0008
FFF5
0056
00B4
0093
0054
FF20
0003
0089
FF29
FFF2
FF0F
0095
FFE8
FF90
0051
FF87
0038
FF28
FF81
001A
FF0B
002D
FF29
0015
FEE7
0091
FED4
004C
FF23
FECD
002E
FF75
003C
FF4D
0085
FEDD
006E
FF58
FF21
00B8
0065
0045
00BF
FF6C
FEAB
FED2
004E
0023
0004
FF59
FEF7
FF65
FEB8
FEF0
0010
000C
FF37
FF3F
FF02
0017
0033
FECE
FF6C
FF03
008B
FEBD
0095
FF0C
0014
FEB4
0012
0061
FF45
FEFE
FECE
FEC3
FF65
FF3C
FF23
FFE6
FEE5
0092
0041
003D
FEBD
FE9B
FE91
0032
008E
FF17
0036
FEBB
0022
FF03
FEEF
FF66
007A
0092
009A
00B7
FEBA
FFE2
0035
FF3F
FFF5
008E
FE85
FE7B
00A0
001A
0021
FECE
FEEB
0092
000A
001E
0032
0074
FEEC
0075
0098
0002
FEBA
0004
0082
0017
002C
FF3E
FEEF
FEF0
FE9E
003D
FE8E
0043
0055
FE94
FFE5
FF2C
FEBA
004E
FF05
FFF5
FF32
0043
FFF3
0090
FF1B
FEFD
FE9B
FE98
0032
FF1A
0078
FF75
FF5F
FF19
0044
00A2
007A
FEED
FF0F
FEFF
003E
003E
00B2
FFF7
FF64
001A
FF15
007E
FE8D
002B
FF4A
FF1F
FF61
FF05
FF3E
FFEE
FF3D
004C
FFDF
FF69
00B4
FF4B
FEFC
001D
005B
FF4F
0023
0033
006E
FF60
00A8
FEA2
009A
00A8
FEF5
003D
0028
FF0F
FF2F
FF3C
FF29
0076
FEF8
FEF1
FF3F
FF24
FFE6
001E
00A2
FEEA
FFE5
0024
00A8
0016
FF23
FF02
FEB6
0077
007F
FF33
00A0
005B
FF22
FF58
0005
FEE0
FF05
FFE7
FF1C
0026
FED8
FF50
0063
FEDE
FF5F
0014
FF54
FEBD
FF34
FFE3
FF2C
FEB2
001C
FF56
00AB
FF33
FEE7
FF02
FFEE
0056
FF3B
FF53
FEF7
FFD5
0047
0088
009E
0096
0047
FF08
0012
FFE7
FEE0
FFFF
FEBA
00AA
00A7
FEE8
005A
FE99
FFF1
FF17
FF44
0046
FEF2
006A
FED6
0011
FECD
0083
FF42
0015
FF6F
FF64
001B
FF0E
0094
FEC8
00A0
FEA3
0071
FEF1
FE9D
00A3
00A7
00B5
001F
FF22
FF29
FEE7
001F
FFEC
FFED
FEB7
FF70
FEB5
FF35
FEEE
0079
001A
FF4F
FEA3
FEB7
0091
005F
FF4A
FF30
FE9B
00B3
FEF2
004C
FEB8
0085
FEA3
0074
0021
FFA7
FF4D
FEEA
FF3C
FF37
FF49
FE96
001C
FF37
0039
0018
0043
FE88
FF56
FEAA
0075
00A1
FF1B
0058
FEEF
004B
FF24
FF02
FF36
00B1
004C
008F
0008
FEE3
0017
000D
FF2C
FFEF
FFE5
FF2D
FE6B
0076
0073
FFF0
FF15
FEE0
002F
009C
00BA
FFFF
000A
FF55
009C
0048
FFF1
FED4
0044
007D
0074
004D
FEBB
FF29
FF21
FEA2
0051
FF17
002B
0017
FEA2
FFFF
FF09
FE9C
00C8
FF0E
0030
FECD
00C3
001A
00A2
FEB1
FEB2
FF4C
FF01
0050
FF2A
001A
FF98
FF69
FEBE
00A9
007E
0069
FF31
FF3B
FF32
00C2
00B2
0065
FFF4
FE9B
FFEB
FF1A
0098
FF3B
000D
FEF7
FEF9
FF65
FF40
FEB2
0079
FED8
FFF2
004F
FED7
0085
FF2B
FEF7
0093
004B
FF4A
0011
004C
007F
FF57
0010
FEE1
0088
004B
FF57
000C
0073
FEF1
FEED
FEB1
FEDF
00AE
FEEC
FF4D
FEB3
FEC6
00C4
0033
00B3
FED8
002E
0013
0095
005E
FF19
FEA4
FEAF
00BA
0024
FF26
0050
0033
FED1
FEB7
002A
FE8E
FF07
0058
FEA7
0032
FED6
FEE8
0054
FF17
FEDE
0046
FEE3
FF42
FEFA
0084
FEA0
FF16
0036
FF34
FFFC
FEBF
FF07
FED3
008B
004C
FF5C
FF18
FF2E
0041
0081
005E
009D
0024
0032
FF2A
0046
009D
FF15
0088
FEE3
0058
0024
FEBF
0025
FEA1
0018
FF2E
FF00
00BE
FF0F
00A2
FEC5
0096
FEB3
008A
FEA3
009C
FEFC
FE95
00C1
FF5F
0007
FEB7
004F
FF07
0098
FF3B
FF03
00A9
002D
0055
0013
FF3F
FEA7
FF34
0062
0028
FFEF
FF27
FEFC
FF0F
FE9A
FF58
0057
0000
FE8F
FF5B
FF37
006F
FFFB
FEDD
FEDD
FEF7
FFFF
FE99
0018
FEEE
0043
FEB7
0094
00B2
FEFA
FEFC
FF57
FDAA
FDC5
FE2A
FE29
0114
FE5D
00B1
0158
0162
FE60
FDA6
FDDA
014A
0155
FD98
0141
FDB5
0109
FE08
FDD3
FE31
009D
0146
015A
011C
FE58
010A
014A
FE07
00D3
00C8
FE0E
FE73
0154
012C
00AB
FE7F
FE48
0148
00CF
0094
0147
00E4
FDC7
0150
00DF
00AC
FDE5
0135
00EF
010D
0163
FE2E
FE04
FDA8
FE03
0110
FDC0
015F
00E0
FE45
010B
FD9C
FE0C
00AE
FE7E
014A
FE6B
012D
0129
00BF
FDD9
FE4E
FE1D
FE42
00E6
FE27
015B
FE99
FE0D
FDB3
00EE
0168
00EF
FDF1
FE69
FE75
0143
0109
00D2
00AC
FE19
0125
FE57
013D
FE09
013E
FE28
FDC5
FD90
FE2D
FDF6
00F4
FDE1
0159
0151
FE5A
00CA
FE4B
FE43
00E3
0099
FD84
00D1
0118
00BB
FE00
00BD
FE72
00DB
010A
FE06
015B
00A0
FE1A
FDF6
FE45
FDA6
00FC
FE4E
FDCF
FDAF
FDB5
00D7
00C9
016D
FE1D
00B2
00C2
00CA
0125
FE22
FE47
FE4F
00AB
0144
FE66
0170
0156
FDD8
FE0F
016B
FE16
FE6F
00E7
FE24
00F0
FDE5
FDCD
00AB
FDDD
FE51
00D0
FE2E
FE0E
FE77
0174
FE1B
FDF7
015E
FE1B
013F
FE6F
FE5E
FDD9
0102
00E8
FE6C
FE6C
FE34
00BC
016B
0142
00D0
00F1
012B
FE7B
00EF
013B
FDC0
012B
FE85
0111
00C0
FE08
00F2
FE03
0104
FDF8
FE13
010C
FE02
011C
FE44
00EE
FDE7
00ED
FE11
0137
FE90
FE3E
00A7
FDCD
0094
FD9C
0162
FE19
00E0
FE0A
FDB6
00BA
0162
016D
00CE
FDAB
FDF7
FE31
00C1
00C6
0143
FE7E
FE61
FE62
FDCC
FE40
012F
012F
FDF0
FDA6
FDEB
0158
0162
FE53
FE4A
FE2A
00DB
FD9D
00F6
FE29
015E
FDF4
00B6
0154
FEE4
FE71
FE69
FF5A
FF1E
FF61
FF1A
001E
FF24
0045
0025
006C
FF48
FEC1
FEAF
00B3
0063
FEBE
0022
FEA6
0010
FEC4
FEA9
FEA7
0065
FFEB
002A
004E
FF12
00B4
0042
FF00
0071
0019
FF1D
FF0B
00AC
000A
0086
FF60
FECF
0075
0001
0056
00A4
00AA
FF40
0082
00B4
0096
FF42
009B
FFF4
0089
00AC
FF3A
FEC3
FEEB
FF59
0052
FF56
0010
0027
FF3B
FFF5
FEA3
FECE
000D
FED9
0072
FF24
0039
0068
000B
FF3F
FF06
FF7C
FF2E
007D
FEFA
003F
FFA1
FEEB
FF60
FFF3
009E
0050
FF4D
FF5D
FF41
00A9
00B0
0055
0006
FEF4
009F
FE97
0077
FEDB
005A
FEA2
FF2C
FF00
FF2F
FF21
001C
FF0F
FFF0
0085
FF0B
FFED
FEF9
FF1A
0084
005E
FEB7
0068
0094
0088
FEA1
006D
FF5A
0077
009E
FEE9
00A6
FFF6
FF31
FF49
FF34
FEE8
009E
FED9
FF53
FF5F
FF06
0026
0044
00C1
FEC9
00A7
005F
0046
0012
FF50
FEA0
FF11
002D
002B
FEDE
0019
0035
FF3D
FF05
00BC
FF62
FEAB
0097
FEE8
000A
FEB2
FF1F
007D
FF0C
FEF5
0062
FF2B
FF23
FF1D
005E
FEA0
FEF1
004E
FF6D
0064
FF13
FEBD
FEC8
0037
007E
FEEB
FF49
FF1C
001F
0064
0099
00AE
FFEE
FFFD
FFB5
005D
0075
FF53
00B7
FEF2
0049
002E
FF2E
FFFB
FF05
0046
FF5A
FF22
00A1
FF67
0067
FF54
00BC
FEEF
00A3
FF75
008E
FF68
FEEE
000D
FF62
0083
FF7A
0057
FF4C
00A1
FEBD
FF1C
0017
005F
0094
006C
FF15
FEA3
FF1D
006C
0017
FFFA
FF3E
FF2B
FF03
FEAB
FF00
003C
FFDF
FEF2
FED2
FF53
00B1
FFEC
FECF
FEDC
FE9F
FFFA
FEC3
FFF5
FF6A
FFF2
FF19
0036
0013
FFCA
FED6
FF2A
FFFF
0065
0085
FFE5
0091
0084
005C
0025
0024
0010
0059
002A
0099
0048
FFD0
0020
FFAC
00D6
FFAF
007B
005C
006F
0079
00C4
0062
FFE4
004B
00C2
FFD2
00DF
00BA
FFCF
FFC8
0022
00BC
006E
FFB6
FFEC
000E
003F
00B7
008B
00D0
0081
0080
00DF
00E2
000E
0084
00AE
00A5
00AF
FFB5
0006
0056
FFE9
00D2
FFBF
00BD
0008
FFF4
0042
FFCD
0001
00AD
FFB4
0054
0041
008A
00D6
003D
FFB4
006E
0041
FFCC
00A0
FFC1
005B
FF73
0072
0039
008F
0039
003F
0043
FFE8
FFE9
0062
0037
00A7
00A9
002C
00B0
FFC0
0062
FFB7
0010
0072
FFB1
000D
FFB5
0048
007A
FFF9
006E
009D
0043
0033
0050
0021
008D
0050
FFC7
001F
003C
00C8
0081
0018
0046
002C
0094
004F
0013
0051
0014
FFDF
0057
004E
0082
005C
FFBD
FFB1
FFC9
0035
00C2
003F
000E
0096
002A
00C3
00B0
FFBA
004F
005E
0021
0052
004C
0084
0031
001D
0078
00B8
0083
0071
0077
FFE1
003E
FFF6
0048
0038
FFE1
0058
0014
000B
008F
0041
0057
FFC2
FFBC
0035
FFBC
001D
FFD0
FFCB
000D
0088
002F
0031
FFBF
FFCC
0076
0024
0047
005B
0021
00C6
FFAF
0013
0007
002D
004F
0029
00CD
00A8
0080
00B4
000D
009F
002C
003A
00BA
003C
009B
006C
008F
FFF9
0011
008F
0064
FFEB
0077
0024
FFDE
00AA
003A
00AD
0089
009E
FFE5
0013
006B
007D
0022
00DB
0059
000F
0075
00AE
00BB
00C8
003A
0038
0017
005E
0007
0044
0024
006D
0008
FFF9
0094
001C
FFB1
FFC1
002C
007A
0037
0077
FFF1
00A8
004B
0068
0056
FF7C
0034
0034
00B5
FFF1
0082
00A2
008A
0020
FFFC
00C7
0097
0002
000F
004A
00A7
00AB
006D
000C
000C
0065
0026
0052
0057
0029
0092
FFF0
0009
0072
00C9
00A6
007C
0048
0059
0014
0085
007D
00A1
00BD
006D
00AC
00C9
005D
00A0
000E
0000
FFDF
0026
008E
008E
0022
00C9
0095
FFF3
004B
007C
003E
008F
000F
0071
0018
002A
007D
0077
0088
00BC
0085
000A
009D
0062
FFE8
0096
00C5
008B
0000
008E
0067
00A7
FFF7
00AA
FFF3
FFFD
0006
0010
0031
00A9
003F
00AD
0031
FFD1
FFF8
002A
0060
0057
000E
0057
000D
0089
0051
006C
0061
0013
0065
0019
0013
005E
0067
FFEE
004F
008D
007D
0097
0021
0009
006B
0034
001A
008A
00CF
001A
003C
0058
0030
0043
0069
FFF4
005D
0092
0033
FFD8
0028
0031
0003
0000
008F
0007
003C
0011
0092
0096
00BB
0095
0080
00CA
FFE8
FFE6
0041
005F
00AF
008B
FFF4
0032
FFFC
0073
00C9
FFE4
0037
00A5
0044
000D
008D
0075
003E
000D
006F
0009
009A
0089
0094
00C9
0080
0066
00A4
006E
004C
0052
0056
009C
006F
FFF1
0069
FFFE
00A0
0044
0004
0031
009B
0075
0037
006C
00C3
0045
005C
0047
0058
0087
000B
00BE
00BD
0013
0054
00AC
FFFE
0014
009A
0048
003B
0022
002D
0024
FFF1
0002
0045
0012
0095
00A4
00C9
0059
0098
0028
0078
0033
005A
002B
0054
0090
001E
00B0
002B
003B
007D
0002
00C7
FFFA
003F
004F
0001
0032
0096
00CF
001E
007E
0046
009E
002F
0044
FFD9
0064
0032
0037
000F
00A2
00C4
001A
FFFC
002A
005B
0011
0014
0084
004D
0015
FFC5
0060
0060
00C3
FFF1
FFF2
0054
0042
0057
00BB
FFF8
0080
009D
FFDC
000A
007B
FFBC
FFE9
0052
007C
003C
00A3
FFDF
00BA
0014
FFE4
FFFD
00A9
0022
FFFE
000F
0064
0064
0090
003D
001F
0046
0074
00A3
00BE
FFC6
0050
0098
00B1
0031
00AC
0055
0047
0026
009B
0007
0000
0047
008F
0077
0084
006B
0063
0066
FFFD
0068
00B2
FFEA
FFF0
0030
00A3
002A
0002
007D
007D
0027
0007
0040
0006
00C9
FFA4
FFEE
0099
009D
0016
0060
001B
002D
002E
0086
0026
008C
0001
0029
00AE
0084
001C
0004
0005
0071
002D
007D
0047
008F
0084
FFCE
00A4
009B
0097
000A
FFF6
0003
00CD
0036
0010
0054
0018
0018
FFC2
0057
000D
00A3
00AD
FFFF
00AC
00AC
000C
0029
002B
0070
0040
0023
0020
009F
FFB7
0005
FFFB
0014
0033
00C1
0066
0057
00BC
0089
001A
007D
00BF
00A1
0070
009A
00B6
003A
0087
002B
0092
000F
0090
006E
FFF9
0021
0075
FFEC
0083
004E
00C5
0071
0074
001A
00B3
FFE1
0043
006A
FFE8
00BA
0001
FFBD
FFF7
FFF7
FFF6
FFFC
0081
001F
00AD
007F
009F
0036
0078
000E
0036
0065
000A
0006
000A
FFF6
004B
0094
0025
0089
0052
0030
FFD7
FFC6
00BA
0062
001B
FFD8
0028
0024
005B
000D
0050
FFEC
FFCD
00AC
FFCC
00BB
FFF6
00C1
FFE5
002E
FFEA
FFDF
0098
00B1
0017
0079
0022
0003
FFE8
00AB
0026
008D
007C
FFE5
006B
0008
007C
0073
0092
FFE2
005C
FFFD
007F
0076
0025
0059
FFB3
00C1
00A0
003C
FFFD
003F
008C
0012
0025
0003
FFC7
003B
0079
00A8
001F
00D2
FFE2
0033
0078
FFD0
008B
0035
000B
006E
0052
0059
0016
FFFC
007C
0089
00BA
0077
0074
004B
0006
0021
FFC4
00BE
FFC5
FFE7
0099
FFC8
FFBA
0013
006B
0068
0003
FFB1
0090
0071
0030
007A
007F
0026
0082
007E
FFF6
0037
0024
0061
FFB8
004B
000D
0000
005E
005D
00B1
00A1
0041
003C
0006
FFC4
00AD
FFFB
001B
009E
FFBD
00B0
006D
00C0
FFFC
0062
FFE8
0030
0073
004A
00AC
FFE0
008F
002C
FFFA
0018
0049
0063
0022
FFF6
004E
0080
0045
0032
FFF9
0052
FFC5
006D
000E
00A9
FFB6
0035
FFB9
000F
00C5
00C6
0046
0035
FFE6
007C
0029
FFF3
00A9
0080
00B5
00B0
002E
0047
0011
FFD9
003B
FFF8
008D
FFEE
00B7
0009
0019
009C
001F
001A
001B
00A3
007D
004A
008E
0091
0087
00C5
002A
FFED
0044
FFF9
0006
FFB6
FFB6
FFBB
FFAC
0038
006D
0050
0034
000E
006E
FFB3
0044
0065
00C5
FFBB
0089
0038
FFC8
FFFD
0047
0044
009D
FFE5
0033
0035
FFEC
00D1
FFFD
0027
0086
009C
006A
FFF1
00BE
FFD4
006A
002E
007C
FFCB
0064
002C
0080
003C
FFBD
FFED
0024
FFD5
006E
001C
FFF8
003A
0078
00CF
006B
0086
0003
004A
0047
0056
0020
FFDF
003F
00C2
0059
00C6
FFD4
0059
008A
0095
007B
0043
0017
FFC4
0091
0046
004A
FFB7
0025
0043
00A8
FFAB
0079
0078
FFE7
003B
0037
FFE1
FFFC
0052
00D3
002F
FFC7
0006
0042
0051
00D1
00AE
0064
FFC4
0080
0069
0098
0098
0079
0079
004E
003A
0039
0071
0096
0032
0082
0066
008F
007D
FFCC
FFDD
FFFC
0015
FF35
FEAF
FEBF
FEB8
008B
FEFA
FFFA
0011
00AB
FF3A
FF49
FEC3
007A
FFD0
FEF5
00A3
FED3
FFD0
FF71
FE9A
FEEF
0060
0080
003A
001F
FF5A
FFD5
0093
FF2C
0010
004B
FF2E
FF05
FFEE
000B
0019
FE92
FF32
0016
0081
007F
0044
005F
FE9C
0077
005D
0039
FF5A
0091
FFFB
0089
FFF4
FF08
FF5A
FEF7
FF61
FFEF
FEE6
FFE4
FFE0
FF2A
0071
FEAD
FF2F
0094
FF53
FFF1
FF52
0043
0029
0060
FF49
FF58
FEE2
FF5C
0012
FE99
0016
FEBF
FEB7
FF06
008F
0058
000D
FE88
FF05
FF38
FFD6
FFDA
006F
007A
FEDD
FFEF
FF11
0028
FF41
0020
FF64
FEAF
FF0A
FF4B
FF32
FFF1
FF1F
0048
006A
FF43
0048
FEA9
FF58
0008
009A
FEF5
0007
0030
0072
FEFF
FFFA
FEDF
FFE6
0057
FEAD
000D
001A
FEB2
FEA8
FEF2
FF09
008A
FEB5
FF35
FEDB
FEF2
0010
FFDF
0020
FF36
0091
0041
005A
004D
FF54
FF12
FE98
003D
0009
FF30
FFFE
0050
FEB5
FED7
003D
FEA5
FEC6
007F
FEEE
0086
FEA0
FF12
FFE3
FEE6
FE83
FFDF
FF1C
FF51
FF25
0055
FE85
FED0
0006
FF43
008F
FEB2
FEBD
FF08
006F
FFE3
FEC5
FEB2
FEC3
006F
0013
000B
005F
007C
0097
FE8E
0027
FFC6
FED8
003D
FF12
0072
0003
FEEE
0087
FF1F
00A4
FEF3
FF0C
0065
FF4B
FFF9
FED1
007B
FECE
006D
FEB7
0081
FE8F
FF1A
003B
FEBC
006F
FF52
FFDC
FEEF
FFFB
FEF0
FF01
000B
FFE9
00B3
FFD3
FEEE
FF01
FF2F
004E
0049
004A
FEF1
FF4F
FEA7
FEF8
FF48
0054
008F
FF0C
FF13
FECF
0078
FFDC
FEED
FEF0
FE9A
006F
FEED
0054
FEE1
0082
FEBE
FFE1
0091
FE8E
FF09
FEA5
0061
0057
005D
FFEC
0006
0082
00D4
0083
FFF9
FFE5
0075
FFF8
0007
0036
0076
00B4
0084
0062
0064
FFE2
001D
0012
0072
0078
0084
002B
006B
0008
0047
004C
002D
0009
001B
0068
00B7
FFFD
004E
FFD2
0025
009B
0046
0088
00B4
0036
0025
00A3
00CB
FFF6
00B6
000E
0003
00BD
001C
0075
0000
006D
0065
001F
00BF
0073
0077
0089
005B
FFCC
006C
001F
0077
0087
00C0
00C9
00C1
007F
FFCB
006F
005B
0042
FFEE
0072
0056
0045
004C
00B0
0072
006F
0067
000E
0044
0069
0095
0059
002F
0002
0073
FFA2
FFFE
FFD1
0000
0025
0053
0042
0014
0026
00BC
FFB7
00A3
005E
008C
0034
FFD1
006D
008B
001D
0019
0089
0048
0029
0096
007E
000D
0006
005E
006A
0015
00BB
0042
0008
FFC4
0021
0047
000A
0085
0022
FFE8
0054
0090
FFF0
0095
0086
007F
002E
0007
0052
FFC9
FFEF
0095
0076
006F
00C9
FFF8
000F
0090
0041
007C
004D
003D
004C
006D
0076
002B
001F
000F
002E
0048
0081
FFFF
0017
0057
005B
0045
FFF6
0074
006E
FFE6
FFCB
FFFA
005C
004B
007B
0062
0093
0099
0097
0096
007A
0076
0095
FF81
003F
FFF6
0034
0037
FFF0
002E
00CE
FFC9
0057
0063
003B
FFE4
0004
00D3
0049
0090
0072
0011
0091
FFFF
0065
00C5
0052
FFB4
004E
009D
005A
FFDB
000B
002D
0068
0051
0007
0006
003C
0075
0071
004D
FFD6
0056
006B
006E
00CB
FFB6
0073
005C
0016
0080
FFFD
0064
FFFB
0002
0059
0080
0061
FFE6
0009
0012
00B9
0039
004A
0048
0070
0087
007A
007D
004C
003A
FFC0
FE64
FEDB
FEE0
FEB9
0055
FEB3
0031
000A
00B3
FE83
FEE1
FEB1
000B
0059
FED1
00A5
FE87
0071
FEAB
FEF3
FE5B
0068
0032
00BA
0095
FE8B
003F
004B
FE8D
0087
0067
FEB7
FEEF
00A7
0064
00B5
FEC1
FE61
FFFB
00B5
005D
0052
0063
FEB0
003A
00BE
00D5
FE91
0028
00A4
00CC
0048
FEF7
FED7
FE67
FEB0
00B2
FEC6
007A
0050
FEE7
002C
FEA1
FEA9
0091
FED2
0037
FE42
0003
000C
001F
FEB3
FE8B
FEBC
FE96
009A
FE84
0009
FF27
FE6A
FEA9
00A2
0098
00C3
FEA3
FED1
FE62
00AB
0040
003B
0016
FEC2
00BE
FE41
003D
FEFD
0026
FEDF
FED4
FE75
FEA4
FE61
003F
FE8C
0005
0003
FE6E
004B
FE49
FEB1
00C5
009F
FE9F
0034
00A0
0072
FE88
00D2
FEE4
009B
0053
FE2F
009D
0044
FEA6
FEC5
FE50
FE5E
00AC
FED8
FE43
FEDE
FED3
FFFA
00AC
004A
FE77
0041
0036
002C
0041
FE2B
FEF1
FE15
0024
006D
FE8A
0051
0028
FE4B
FEC2
00AF
FE5E
FE84
008F
FED5
008A
FE25
FE9D
007A
FE83
FE35
000C
FEE7
FE3F
FE8E
00B6
FE5C
FE82
0031
FEF3
0095
FE97
FE87
FE31
009D
00AD
FEC7
FEF9
FE4F
00AF
0065
009B
004F
FFFB
0061
FF7E
0095
00C0
FE5F
0023
FED5
002E
001F
FE8F
0042
FE30
00D0
FEB3
FE2A
00CB
FE3E
00C0
FE64
0001
FEB0
00C2
FE88
0036
FF25
FE99
009B
FE4C
0091
FE7A
FFFF
FE34
0056
FF11
FEB5
00B1
0037
0011
006C
FE2E
FEDB
FF17
0099
003E
0021
FE2E
FEA0
FE5B
FEC8
FE7D
00A9
00C9
FE8D
FE30
FE3B
00CB
007E
FF0E
FE81
FF10
0019
FE81
00C7
FE4C
008F
FE3F
000D
006A
FEEA
FE7B
FE83
003D
FFBE
0013
0013
00B3
007B
0025
004A
0095
FFF0
FFE1
007A
000A
00A6
000C
00E1
001B
004C
0031
0028
005C
0048
0076
0045
0042
005B
0032
0044
FFD6
0037
005C
0030
000B
0089
0041
0079
FFDE
0081
00CC
0034
00A6
00D7
0027
FFDE
0023
00C6
0056
001E
0065
008E
00C9
00B6
005B
FFF5
FFFE
0068
009A
0012
0034
00D8
0019
0027
000F
0005
00C7
0008
00BE
006C
004D
0023
0098
FFCE
FFF2
008B
FFF7
009B
FFFC
006E
FFB2
0029
0023
00CB
0058
0091
FFD9
000A
0023
00C9
0095
00A7
006C
006F
0037
0051
0020
FFD3
0079
0081
0013
0080
0097
0044
005D
0082
0021
00CF
FFBF
0061
0046
FFE8
00D6
0070
FFC3
0082
003F
00E1
001B
0092
0056
00CD
00A9
FFD3
002C
0082
0073
FFD5
FFCA
00A6
00E6
001D
FFF9
002A
0058
005E
004A
00D8
0042
0018
0014
0040
0047
FFF2
FFDE
0008
00A3
0055
007D
0042
001E
0051
FFE9
0061
FFC4
0070
0042
0078
0096
0002
FFFA
00D4
0087
FFE3
0066
005C
0085
0082
006B
FFF4
005B
00B9
0016
00A6
008B
0063
FFCA
0029
0061
0013
0053
0043
009C
0061
00E5
00B3
003D
0070
FFFA
00BF
00A1
0013
000F
003B
006E
00C5
002E
006E
FFD1
0011
FFF4
003B
00E3
001E
00C0
0066
0088
FFDE
0044
008C
001F
0023
FFFA
0060
0072
006D
007E
00E3
002A
0024
0063
00AB
0031
00BE
0079
00A7
FFCC
FFE2
0045
00B1
00CE
00B2
006B
0083
002D
005E
0002
0036
002D
0003
005A
0069
00B9
005E
FFFF
0095
0062
0055
FFFE
0070
0085
0098
FFD5
00D8
0099
FF8B
009C
FFC9
004C
0030
FFF2
FFC3
00CC
0053
0016
0014
0061
000B
FFD4
003D
0091
00B5
FFED
0001
001B
007B
FFC5
FFFA
0079
004A
005B
0049
00AD
FFA8
0003
00CC
0032
007F
00A6
FFB9
0081
0087
000B
0065
0021
0052
00D4
007E
00C8
00A6
00CB
0059
001D
000C
005E
001C
003A
0019
001C
0063
FFD4
0053
FFEC
FFF1
007B
FFFE
00D1
0047
004B
00B5
0081
0049
00BA
FFB7
00C5
0015
00AE
0083
009B
0033
0078
000A
004C
0030
FFCA
00C0
FF8F
FFFE
006A
009B
009E
0009
FFC7
0020
0065
0074
00B2
0029
0088
0014
00B1
FFE8
0048
006B
0036
FFEB
FFAA
0079
003C
007D
008B
FFAE
005F
002F
0000
00A7
FFD4
FFB1
00CE
0055
0035
00BE
00C3
0082
0060
0096
FFAE
00BB
0059
000B
0084
007E
0031
FFDF
000A
0090
000E
0030
0051
0023
0061
0061
0006
00D3
0037
002F
001A
0086
0033
FFC3
0004
0012
0039
0006
FFFB
00CF
005C
FFF2
0068
0054
FFB8
FFD4
0014
FFC0
00D2
0034
0056
00BE
FFEF
002E
006A
0033
FFC7
FFED
0023
0013
FFFA
0082
0031
001A
000D
0073
0013
005B
0030
FFFA
0039
FFB9
0085
0027
0074
004E
008F
00CF
FFFB
0080
009B
0078
007A
008C
00CB
0090
0067
0032
0018
00A7
FFE2
FFE9
005D
0018
0038
FFD4
0057
006A
007B
FFE9
006B
FFFE
FFB9
006A
0011
0025
0047
000B
005F
001C
006C
FFEE
0062
0064
000A
0034
FFC7
FFC0
FFB0
0064
00AD
0019
0014
FFDF
0047
0059
0018
000A
0032
0062
FFB7
0082
00B2
00A8
0036
FFD4
000D
00D6
007F
009C
FFC0
00A4
FFD8
009D
00C1
FFD7
FFD3
0010
0075
FFDD
0090
FFFE
0004
000A
0083
001A
FFFF
0024
00A2
000B
0081
00BA
009A
002F
003E
FFF0
000F
0090
FFE7
0056
0082
007A
00A3
0048
004A
00B6
0004
008E
0045
FFE2
0088
0001
FFEF
0072
FFC4
FFCE
008E
0086
0067
0081
00B7
FFDA
0061
0082
0028
0011
0047
0024
008A
0009
000A
0040
007A
0082
0069
0046
0018
00BB
FFCD
0083
0057
0085
0083
FFD0
0017
FFDA
003B
007F
005E
0018
0028
0043
004F
007B
0076
00AE
FFCB
0082
005A
00BE
00A5
00B1
FFD3
003E
0045
002F
0075
00B1
0047
0034
FFF8
001D
FFEE
006B
004A
0072
0098
0015
003B
0075
00AE
FFCE
0066
0086
0028
0086
FFEF
0065
FFFB
00BF
0035
0065
0095
00AB
0018
008F
0022
0018
007C
000B
FFF5
002B
FFEE
003C
0063
0096
0080
FFD0
FFC5
0049
0014
000E
00BF
0096
0095
002D
FFE2
0038
0044
005F
0055
FFF8
00A3
0040
000F
0095
00AE
0023
0035
0018
0078
0087
000D
0047
001B
001F
006C
0031
006A
FFE6
001A
0015
FFFD
007D
0014
FFE9
0003
0024
FFF9
00A4
FFD9
0000
006F
0040
FFFC
0008
004E
FFFC
0085
0060
00A1
0064
00AC
00AB
FFD7
0052
0004
000F
0076
0068
FFEF
FFED
002A
0073
FFE7
005E
0039
005B
0027
0024
0003
0006
001F
005B
004B
0003
FFE5
002B
002E
0036
0053
FFF3
0015
0001
001B
009D
005D
0040
0063
008B
00B5
0025
0063
000B
002B
0033
0008
0076
FFCF
0026
005A
0050
0017
0034
0038
0072
FFD2
0032
0042
00A1
0071
0048
0060
FFFE
FFD3
0090
FFCF
0090
008B
00A2
FFE9
0030
009D
0095
FEEB
FEA9
FE76
FF4C
0057
FF1D
002B
FFE0
008E
FECB
FEFE
FF44
0065
0036
FEB4
0003
FE97
001D
FF0C
FF55
FEFD
00A4
FFF0
0016
0041
FE96
0087
0006
FEA8
006C
0082
FECB
FEED
0001
0054
FFF7
FE8D
FEBC
00AD
0041
0023
0092
0011
FF21
0038
0068
0053
FF08
003A
009D
003E
007B
FEAB
FF2D
FF4A
FF26
00A3
FEB7
0099
0014
FF4C
0003
FF07
FF29
00C0
FEE1
0014
FEF5
0064
000A
00B4
FEE0
FE81
FF07
FF18
FFE8
FF32
0075
FF6E
FF1D
FED1
00AD
0003
0069
FEED
FEC4
FF00
00A7
0014
004B
FFE2
FECD
0051
FEBF
0054
FF0A
0062
FF31
FEBD
FF33
FE88
FE86
FFF0
FF19
00A3
0048
FEA2
0062
FF56
FEBA
0029
0066
FEC4
00A6
00A5
FFFE
FF09
0041
FF06
009B
00B4
FEE2
FFFC
00A4
FE82
FEE1
FF01
FE73
0081
FEE8
FF1C
FE92
FEBF
FFF1
0060
007C
FF39
002B
006A
FFF5
0009
FEE1
FEAB
FF21
FFE9
FFE4
FF4A
0039
000A
FF11
FF02
0068
FEF0
FED2
0045
FEC0
0014
FEF5
FEED
005F
FF20
FF3D
0013
FEAE
FEFF
FED7
0095
FF26
FE97
0076
FF3B
0041
FF0C
FF1C
FEE6
0024
0003
FF2A
FEC7
FEC0
00A7
001B
0048
0078
0050
007F
FED9
0093
0070
FF32
0056
FF48
FFFE
0098
FEA0
0057
FED8
0098
FE85
FEE6
0025
FE76
00AD
FEB9
0008
FF31
005B
FEC4
00BE
FEF4
FF4C
002B
FEAF
004F
FEB0
009C
FEEB
0069
FED1
FEC0
FFEB
0081
002B
009E
FEF8
FE8F
FF17
00B8
00B7
0048
FEA0
FE9A
FF1A
FEA7
FEF3
00B9
0049
FEBD
FE79
FECF
0010
0035
FE7D
FEFF
FF0F
00A6
FF42
FFED
FEC0
00A6
FF3E
FFF1
0017
FF42
FE85
FE8C
0008
0019
0065
0068
FF94
004D
004C
003A
006D
002D
0053
0096
FF8A
FFCD
0017
FFF6
0035
FFF0
0002
0059
002F
FF95
FFC7
003E
FFA9
00C6
0009
FF9B
00B6
FF9C
FFA4
00AD
003E
FFCA
005E
0047
0065
00A0
FFA9
FFE0
FFC9
005A
FFCC
0094
0036
FFC4
FF9C
0024
0008
003A
0069
FFE1
000A
0001
0055
0007
003A
0004
001F
FFB0
0056
FFDF
00CA
007B
0036
000E
FFA6
0008
FFCC
FFA9
0026
00CE
003B
0054
00B2
0043
00CB
FFC3
0004
0038
00C5
FFB4
0010
0029
002E
0054
0030
0005
0006
FFD4
FFFE
FFF7
003E
0041
000F
00AE
003B
00C7
FFF8
00BB
001F
0029
FFAA
0016
0037
0001
002A
FF8B
001B
FFE5
FFEF
0059
00A3
0061
005B
FFAF
0048
003D
FFF2
FFDC
FFFB
00D5
FF9B
0075
00A3
00B5
0076
0058
FFE6
00BB
0041
00B6
00B1
001A
0043
FFD1
007A
006D
FFCD
0062
FFB5
FFFB
0053
00AA
0028
FFDA
0032
FFEE
FFE1
004B
00A2
0041
00B0
0014
002A
0000
006E
0016
0095
FFD4
0098
FFFD
FFDB
007D
0047
0049
004C
0050
0051
003F
000A
005E
0003
00BA
00B6
0055
FFC1
0004
005A
0075
003D
FFAE
0024
0048
0011
FFE6
FFFB
0058
FFFE
0075
000B
00D4
FFB9
002F
0045
FFDA
004D
0040
000B
008E
0015
0095
0007
0038
FFC0
00C8
FFBD
001B
FFB0
0011
00BC
FFC7
00AF
0004
009F
002E
0050
FFD6
0035
0060
FFF5
0053
0068
FF9C
00CC
0063
00A3
0062
FFC5
007B
0037
00BE
0015
FFFC
001A
FFAE
004A
0009
0063
0034
FFCF
0013
0008
00B2
0084
FFA8
002F
FF8E
0050
FFD7
0036
001B
0085
FFC7
0065
0010
005F
0091
007F
0018
004C
0025
00D6
FFFB
008A
FFDE
0056
004E
0046
0074
0036
0066
005D
0045
002D
0087
001E
007A
0098
000E
0009
002D
008A
0089
0003
003B
0079
0078
0007
00C2
003F
006B
0095
0029
0098
FFFC
0036
0085
0017
0097
FFF7
0094
0035
002F
0014
008E
0023
004F
0068
FFC1
0015
0073
00A6
FFD9
0077
FFF9
0079
00B3
FFCC
0012
0053
003A
0017
0048
00C7
001F
007F
FFC2
004E
0000
FFF6
0018
000A
0084
0051
0083
002D
0046
00CD
004E
006B
005B
0042
0022
0055
0082
0009
FFC0
FFF7
FFF6
00D7
0029
00B6
FFF6
0000
0055
0006
0032
0058
FFFC
0090
00BB
0096
008C
0069
FFB4
0048
004E
FFCC
0098
FFFD
0025
FFDF
009F
0019
00C5
0023
FFEA
005B
005E
0048
006F
FFE8
0077
006F
FFFC
006E
0077
0014
00BE
001E
004C
FFD2
0036
0044
00C3
001E
0037
009B
FFE8
00AD
003A
0028
0003
00CF
0071
FFBD
007A
0035
009F
00A9
FFDA
0081
0010
0023
009D
0057
0072
00BD
0017
FFC9
006B
00AE
0027
0016
00C1
001B
0026
000E
0064
FFE5
0085
0050
0047
004B
0013
00B4
0045
00D1
0075
000F
00AE
FFF0
00CD
0000
FFC0
0099
FFE2
0062
0097
0006
003B
0072
003C
0039
0041
000A
FFE6
00A5
0090
0015
0032
00AF
0032
00C1
0047
0087
001C
003F
00B6
0016
00BD
007E
0055
0093
FFCF
002E
00BB
0076
0077
009F
FFD0
0025
006B
00AD
007B
0065
FFF5
0089
0087
008A
009F
0064
FFDA
0024
FFFF
0082
0039
004F
FFFD
005A
003B
0033
0037
0032
000A
0076
0013
00D5
FFAD
FFE4
0021
FEB9
FE55
FE99
FF04
00B1
FE48
0023
00A3
0070
FECA
FEC1
FEBA
0067
00BF
FE74
00C4
FF02
FFFD
FEB3
FE3C
FEB0
002A
0078
0003
0046
FE5D
004D
000B
FE67
0008
002C
FEBB
FE56
001B
0076
0084
FE63
FE8D
0000
005E
FFF9
0062
000A
FE61
004D
0010
0016
FE5C
0099
0099
00B1
007A
FF0C
FEC8
FE8C
FEAD
FFFE
FEDD
00AB
0053
FEE0
00A9
FE2C
FE3E
008F
FEFB
0028
FECF
0008
000A
00A6
FEAE
FE42
FE68
FE2B
00BD
FE69
0019
FF21
FE3D
FECF
0059
007B
007F
FEB5
FE78
FE59
00AB
0097
0087
0021
FE40
0022
FEEC
004D
FEF0
008A
FE5F
FE7F
FE45
FE77
FECA
0014
FEEF
FFF8
0061
FE9E
0004
FE65
FEE8
008F
FFFD
FECE
0031
0065
0022
FE3E
0096
FEA0
0000
0091
FE51
FFF6
001B
FE23
FE55
FEBA
FE44
001D
FEB3
FEC9
FED1
FEE7
00C2
00CB
0037
FE38
00D0
FFFB
000F
00A1
FE53
FF00
FEAD
002C
0018
FE76
006A
006D
FF1A
FE6C
00A0
FEA4
FEC6
0098
FE40
002C
FE6C
FF04
0005
FEFD
FE62
0085
FEA2
FECD
FE92
00B8
FEC1
FED3
0004
FE36
FFFD
FEF5
FEF4
FE37
00B6
00B2
FE5D
FE93
FEC9
0027
0086
00C6
0016
0026
000D
FEE7
00A9
0050
FEB8
001B
FE6E
0019
00AE
FEF5
0041
FE8E
005F
FECF
FE34
001F
FEE8
0089
FEAE
005B
FEB6
0064
FE9B
0053
FED6
FE6E
004C
FE85
0071
FE8B
FFF1
FED5
0050
FEC4
FEB0
00C7
0019
00A6
0082
FECF
FEBB
FE85
0041
FFFA
0053
FE77
FEE0
FEDA
FEB2
FF08
0042
002F
FED1
FECE
FEBE
0087
0056
FEE8
FE64
FEB0
0004
FEEB
0039
FED3
00C4
FE45
002F
0091
FF40
FE82
FE57
0083
003E
008F
FFC5
002A
0029
002B
0061
0011
0007
0084
002A
007E
0099
FFFF
0067
008B
00A9
0029
007E
0010
0025
FFFF
0078
0022
0047
00AB
009B
0098
0083
0075
007F
FFF8
009A
009D
002E
FFE1
0014
0078
004D
0086
00C6
000E
0062
004C
009F
0090
0061
0068
FFFF
00C3
0042
0086
0021
FFE6
0060
00B0
FFF1
00C2
00BA
FFE9
0004
FFFF
0088
003F
FFE1
001D
0093
FFFE
0056
007E
0028
FFDC
FFF6
0021
00AC
FFEC
005C
FF98
0030
0095
003B
001F
00A3
0020
FFF9
FFCF
00B1
0003
0098
00A2
0051
0035
0067
00B3
0089
00A2
0005
0054
007F
002C
0020
0070
0005
0056
0026
FFD2
0095
FFD1
0048
00B2
004B
0027
0078
0043
007F
FFED
0034
001D
0028
005B
FFF0
009A
FFF3
000D
0096
FFBF
FFF2
FFF0
001A
0096
FFE6
FFEA
00B5
0096
00A1
0058
0045
009D
00A9
00A0
FFEA
007D
0085
0012
0098
FFC9
00A6
000A
000A
0027
0049
000D
FFFA
00C8
FFFE
005D
006A
003E
00A5
FFCB
001C
FFEF
0019
0081
FFDD
00C1
FFF5
0008
0085
0047
0054
FFC9
FFE9
FFEF
0061
00A1
0057
FFD2
0094
009E
0095
0048
007D
006A
00A5
FFC8
0006
0061
FFC4
00C5
005E
0071
002A
0068
002C
007F
00BB
0008
009F
0017
FFC3
004A
FFFD
0075
0018
0043
FFFE
00A5
FF91
0034
0013
FFD6
0018
0093
0098
002B
00B2
000B
0033
0006
0072
FFF5
0019
FFD1
0088
FFFF
0064
0083
00AE
0013
FFCC
FFF5
0083
0016
FFED
00CB
0040
000D
FFE2
004A
FFFA
0048
0016
FFB4
002E
FFDE
007F
FFC5
FFF2
002E
00AE
0070
0003
0034
0050
0072
00AD
0037
006A
FFB6
005D
0016
FF7F
0019
0072
0059
0031
FFF9
FF6A
0015
FFD7
0066
FF58
0095
0066
00B4
0016
FF6C
FF86
FF93
0058
FFE8
FF94
009D
FFCC
FFD4
0092
0061
FFF7
FFC4
FF8C
006D
002F
001B
FF63
0001
FFE1
0012
00AD
FF62
FFB2
FF49
0037
FF60
FFAB
FF80
FFAC
0041
0037
0039
00C2
FFBB
00A8
FFC7
FFE9
0046
FF56
002E
0098
FFC1
005E
FF50
0064
FF9B
FFCE
FF5E
0082
00D0
0018
008E
FF89
00CA
FFA1
005D
001F
0016
FF68
FFF0
FF6B
005A
00A6
00D4
FF7F
FFC3
FFF6
FF3D
003A
FFF1
006C
FFEF
0034
FFAF
0077
0081
000B
00C8
0085
FFE7
0061
FF34
FF40
0046
FF8D
0051
00D2
FF4A
FFA9
0010
FF54
FFF2
FFFB
0070
FF6C
0044
000B
FF73
00DF
000B
FFD1
0054
00BF
0063
0038
FF5A
005F
009A
008D
0075
FFEB
FF3E
FF57
006B
FF78
FF4F
FF84
FFCF
00D3
007D
0050
FFA0
FF74
0059
FFEE
FFEE
00EA
008E
FF9B
0072
006B
0016
007A
FF63
0027
00CF
0005
00A6
0090
FF39
0010
0033
003F
FF89
00A8
00D5
FFFD
0022
0017
0064
0053
0074
FF84
0027
009A
003A
0039
FF82
FF71
FF9E
FFAE
FFAF
FFDD
FFFB
FF74
FF78
0011
FFEE
00CD
FFE3
FF43
00AD
FFC4
0084
FFD9
0040
0048
FFDA
00D0
FF51
004D
FF9B
002E
FFA1
004D
FF79
FFCF
0075
0003
00C8
FF82
0066
000A
0084
FFE9
00A1
00DA
FFC3
FFEF
FFD9
FFF2
001D
003A
0067
FFC7
FF58
0018
007D
00B2
009D
00D2
009F
FFED
0003
009C
0045
0088
FFF0
FF65
00A7
008B
0061
FFF8
0058
FFFB
0068
FF6D
0063
FF45
001C
002C
006B
007E
FEEE
FF3B
FEB9
FEE4
0089
FF12
00BE
007B
0053
FED6
FEB3
FF23
0076
FFF8
FF06
00C3
FF2C
0039
FF48
FF3C
FEAA
0001
00A8
002E
009E
FE97
FFED
0071
FEB9
002C
FFF4
FF1B
FEA3
0086
FFF2
FFF4
FF4B
FF3E
003D
FFFF
00A9
0052
0025
FE9E
FFF4
0077
0043
FED3
0074
0018
FFEE
0085
FF18
FEFB
FF5A
FEBB
0092
FF0B
0036
008E
FF42
004E
FF11
FEAE
0090
FEA3
0087
FE7E
004E
0034
001F
FF10
FEE1
FF1D
FEAB
00B7
FEDA
00A6
FF35
FF44
FF18
0098
0054
0094
FE99
FF23
FEAA
0086
0092
0027
009D
FEF4
00AE
FF54
00AD
FF2A
0069
FEEB
FF4B
FF2B
FEA6
FF15
002F
FEAF
0096
0075
FF1C
00C3
FEA5
FF09
00A0
008D
FECD
FFFD
0013
0036
FEE7
0082
FF0A
005B
0078
FF2C
0074
00A8
FF4B
FF58
FF38
FF27
0025
FF3D
FE93
FEE7
FE91
0010
001D
003E
FEC4
00B5
FFFC
0092
005A
FEE9
FF40
FEA2
005C
003B
FEC4
008C
002B
FEDC
FEC2
FFF9
FF3E
FE9D
FFED
FEC6
00C6
FF01
FE9A
0086
FECA
FEAF
003E
FF26
FF02
FF04
006E
FF4B
FF55
FFFF
FEC3
001F
FF4C
FECE
FF00
005D
0051
FECD
FEBA
FF52
0020
FFF9
0013
0059
00C4
001A
FEE9
00C1
004F
FF3F
003F
FEA2
0003
003A
FF05
002E
FF31
009F
FF3D
FF10
008D
FF2E
006F
FEE4
002C
FF1E
FFE8
FF2A
0062
FF3C
FEB2
00B8
FF01
FFE3
FEFE
00BE
FEB6
000C
FF35
FE82
0052
0019
00AC
0086
FF0F
FF40
FF43
00CB
0022
0000
FEDE
FEC2
FF26
FF31
FF51
00BB
0082
FF3D
FEC5
FF05
00BD
00A7
FF2E
FEA1
FEA2
0011
FEEC
0029
FEAD
00B6
FF23
0097
008F
FF5D
FF22
FF62
FFD5
00A7
009B
0057
008E
006B
FFFE
0093
00A7
0063
FFDE
0075
0057
0052
FFC7
00C7
0080
002A
0054
005F
00A5
0012
00C3
0053
0092
FFDF
00AD
00BC
005A
0006
00A9
FFF9
FFD1
00A9
006D
00C8
FFF2
0075
0074
0038
002B
002E
00C3
0085
000B
00CA
0008
0067
0099
0004
002A
FFFE
0009
0036
0028
0001
0003
FFD3
0023
000E
0001
00A0
001B
005B
0018
009F
0068
007D
0074
00BD
004B
0019
0097
0096
00A5
0055
0073
00BA
0025
0037
FFF3
0001
0029
005F
FFDA
0045
007A
0030
00A6
008B
0020
006A
00CA
0012
00C1
0004
0042
0091
0057
005C
FFE3
0031
0091
00A1
00C7
0063
FFF9
0070
002B
0017
0014
008F
0094
002C
0069
001E
005A
00B4
0041
FFFE
003C
0030
004E
006F
0036
00AD
001E
0030
0082
0042
009C
0042
0032
001C
0025
0001
003F
0041
00A1
003B
0009
FFF4
008A
004B
0049
0031
0050
00CD
0086
006B
0072
0014
005A
0058
00AD
FFE2
00C9
0022
0051
00B4
008D
0051
FFFE
0006
0087
FFF6
006D
FFEE
FFF0
0000
0079
00B2
000A
0050
0077
009C
0094
0063
FFEA
000D
00D1
0011
0077
0048
000D
007D
FFDA
007A
00BC
FFF6
0089
0018
0057
0028
0015
0023
00A5
0085
0013
0097
00C9
0064
003F
004F
0038
004D
0032
008B
0084
FFCA
0005
00A3
FFEF
002A
0077
004C
0006
00C2
FFCA
003A
0079
0025
00B9
005F
0036
FFC4
FFEE
00C7
00AE
00C7
FFF9
0043
0010
0019
FFFB
FFF6
0045
0036
0051
0011
00A5
0056
FFC2
0074
0089
0026
0021
002B
0046
0090
0067
0044
002D
0003
00AF
0016
009C
00A7
003C
FFEF
000F
003C
001F
0099
FFF5
FFFF
0024
0025
000C
00AF
0061
006D
FFE8
006C
0001
0067
00B3
004E
0079
009D
0090
0084
007F
005F
007E
0002
002D
006D
0036
0022
000C
0070
0059
FFEC
00B6
FFFE
FFE3
0018
001D
FFD5
009B
009D
006D
0043
00AE
007E
0088
0087
0034
0029
0075
FFE8
0098
FFF0
003E
0025
00A6
0061
0097
0074
00A1
0051
FFFA
0091
00AA
00AC
0058
0035
0086
00AE
000B
0010
0096
00AE
FFF6
FFE3
0005
009F
FFFC
008B
007F
0036
FFDB
001D
00B9
0094
00BA
FFF6
0008
0025
001A
FFFD
001D
0064
FFF1
002B
0087
003C
002D
FFE8
005F
0074
FFEB
002F
FFDE
008B
009B
00B9
0071
FFF4
0068
00B5
00AD
0045
FFCE
0021
FFFD
000F
FFE7
0088
0054
004F
0082
0093
0029
FFDE
0008
00AB
000C
0089
0040
0047
0077
FFEE
0047
00AF
0098
0043
0001
FFDC
FFF6
0050
FFDE
0051
0027
0089
009A
0078
0031
0035
00AE
009E
0096
FFFC
FFEE
FFF5
00B4
005E
FFF8
0096
0016
0097
FFE6
0070
000F
0028
0071
FFF9
001C
008F
0043
0013
0040
002E
0022
FFEE
0023
001E
0063
0049
FFFF
002C
003B
00AB
0034
0029
006B
0078
007A
FFE5
001E
0017
005C
FFFD
0007
001F
00BC
00A7
007E
003E
00AD
FFFD
0026
0045
002E
FF8A
FFEF
0028
003E
004C
0074
009A
0083
008A
FFF3
0025
0020
0064
00A4
005A
000F
0003
002E
FFFC
0045
009E
00A9
000F
FFD5
0034
FFCD
0058
002D
001B
FFFD
0094
0032
004A
005F
FFF1
0012
0090
FFFD
0044
002D
0077
FFFB
0059
00A2
FFD3
FFDC
0060
0038
00AF
0074
0012
0030
0044
0051
001A
FFC8
FFE9
000F
0029
0004
FFD6
FFEF
004A
0078
FFF6
FFEF
0043
0026
FFCB
FFE0
0051
006E
FFF8
FFB1
0067
007A
006B
FFEE
0029
007C
0009
FFF0
FFFB
FFE9
0031
FFC2
001F
0028
FFB8
FF9F
000D
FFF3
0027
006D
0052
FFDD
FFCD
0074
007B
FFEC
FFEB
00B3
0006
004B
009F
008E
0020
005E
0031
0039
0065
0019
FFF0
0020
0031
0068
0061
008E
0085
0091
FFF1
FFEC
005E
FFFE
FFF6
FFB2
0095
0091
0065
0085
FFD9
002F
00A7
FFFA
0067
FF97
FFC7
0054
00B5
0055
004E
0026
0098
0098
FFEE
00A7
00AE
0099
FFFD
FFDE
0055
0071
002D
002A
0036
0041
0071
008C
004B
0056
0052
0014
0088
009E
0058
008C
0059
004C
0089
0029
0047
0085
0019
0063
00B2
FFCD
0076
004C
FFFA
FFF9
FFD4
FFC7
FFA6
0045
000C
FF9D
0029
0039
003B
00AF
00A8
FFB5
0028
FFF3
001A
0007
005D
FFF5
FFD5
001A
0013
FFF4
FFED
0057
0086
0023
FFE8
FFE2
0036
FFAF
005E
FFED
00B0
007B
00A4
004C
0004
0095
FFE1
005B
008A
004B
0079
0019
0010
007C
003F
003A
0051
FFCA
002D
0001
006C
0016
0044
FFD5
00B1
0020
0023
0004
FFA3
0037
0032
0050
FFF9
00BB
0092
000B
0071
FFAD
0017
FFA0
0058
0023
002D
FFAA
FFC5
0075
FFF3
003A
005F
001A
FFC5
00B9
0023
0032
00AD
0044
FFAC
0017
0063
0044
FFFA
000E
004C
0064
009E
FFED
005A
FFEA
0047
005E
0018
FFDA
FFFE
001D
0029
001D
FFF8
007F
002F
0095
FFC8
00A3
FFC2
0093
FFFA
005B
FFCF
FFEE
000C
0096
000A
FF11
FF1E
FEFA
FE8F
0053
FF44
0008
005E
0035
FF1A
FE9F
FEC4
0016
0050
FEBC
FFF3
FEBD
0046
FF3E
FE97
FF1E
FFEB
0009
0014
00A6
FF01
00B2
000E
FF35
008D
00AA
FEFB
