FEE9
FEAC
FEBA
FF18
FCF1
FEAA
FCBB
FCA4
FCD6
FF1B
FEBA
FE86
FCF3
FCF9
FE86
FCE1
FEAC
FCF2
FEB5
FEC0
FE6E
FCDC
FCD6
FC80
FCAD
FF31
FCD0
FCD4
FEA1
FCE4
FCC9
FF67
FF29
FCFB
FCBA
FD32
FEE5
FEA7
FC73
FC6B
FCA4
FCD7
FCE2
FF08
FC79
FC70
FCF4
FF13
FCFF
FCD5
FCD6
FD4E
FECF
FEF5
FEAA
FEA6
FC99
FEE8
FCDE
FCE3
FF29
FCB3
FE78
FEF6
FCCC
FF0A
FD1F
FF16
FC96
FC75
FCCA
FEEA
FEAB
FECA
FEA2
FCE5
FED7
FCE7
FE23
FE69
FEBE
FC4B
FCC1
FCD5
FE83
FF0E
FF00
FD28
FD0A
FCEC
FC6F
FE97
FCE1
FFB6
FCD4
FF09
FCD2
FF19
FF25
FEB4
FEA4
FEB3
FC79
FEE1
FCE2
FD05
FEC6
FCDB
FE9F
FEDE
FCE6
FCD9
FEB0
FC93
FCEC
FC80
FEAD
FCBD
FF5C
FCEB
FC84
FEA6
FD15
FCBC
FE76
FEC2
FE80
FE9D
FCD0
FEC6
FF19
FEFB
FEBD
FCBB
FD36
FD0F
FE95
FCC6
FCA8
FCD1
FCAB
FE63
FEB1
FEA9
FCA0
FCC0
FF14
FC86
FCB5
FEBB
FEAA
FC70
FEA6
FE70
FD01
FE5E
FC84
FE80
FEDD
FCD4
FECD
FEB2
FC9C
FEF9
FE84
FEDB
FC94
FE87
FF33
FCAD
FEC2
FC7B
FE88
FEB6
FEA4
FCFC
FCEF
FE83
FF17
FE68
FC9A
FCDF
FCCA
FCCA
FC94
FCC7
FE86
FCC8
FD18
FECF
FCCB
FEFD
FC4D
FCF8
FE54
FC7B
FEE2
FCA1
FE80
FE6B
FCA7
FEAB
FD00
FE7D
FCE0
FE91
FCF1
FE90
FD29
FE4B
FF14
FCEF
FEC4
FCC7
FEA1
FD02
FEBD
FCED
FF0D
FE6F
FC90
FCB5
FCBC
FCE4
FE6F
FEF9
FF00
FD2C
FD23
FC7C
FEDE
FECA
FE83
FEC5
FEC5
FD0D
FC21
FEBA
FE3D
FEAA
FCBA
FCE8
FF39
FF1D
FF4E
FCA0
FE98
FC92
FEB2
FCD1
FE91
FCF5
FC84
FE74
FE75
FEC7
