FFAD
002D
000F
0057
0036
0074
FFD7
0064
0087
0095
0056
FFE3
FFFA
FFBF
0039
FFE4
0005
FFD1
0021
FFC0
0082
0078
001C
0018
009E
0068
FFEB
FFF4
0008
FFEE
0017
0093
0051
FFC6
0091
001E
006B
007C
005E
003A
FFCD
001C
FFDD
FFC3
002F
002D
0032
004C
0080
FFBE
FFAD
0020
004F
007F
002B
0012
0073
FFEB
0067
FFD4
FFB2
FFF7
FFFF
000F
0015
0066
0012
FFED
007C
0065
0045
002A
00A6
FFD0
003D
0056
007D
FFE4
0005
005C
FFEB
FFC7
004F
FFF6
FFF4
0017
0041
0086
0033
0077
006B
FFDA
FFE3
005C
006F
FFF1
0027
0099
FFD5
FFF3
005C
006C
0054
FFFB
002E
0023
0093
FFE1
006B
008F
FFC7
FFC8
0068
0063
000C
0058
FFEF
004D
FFE4
003A
0082
FFEA
0084
008A
0021
0029
0070
002E
FFB2
FFD5
0019
0015
FFFD
0044
0046
0029
002A
004A
FFC5
0007
0046
009C
FFC8
FFD7
007B
003B
0013
FFF2
000A
FFEE
0082
0020
005D
FFDC
FFB9
FFD5
FFD9
FFB0
FFE5
006B
005E
005B
0097
FFE3
007A
0070
FFD7
FFE3
0030
007C
FFC3
0042
0055
0027
0006
0055
0055
FFF9
FFF3
0010
FFDF
FF91
0036
FFBC
FFFB
000A
0026
00B3
FFFF
0061
005F
FFDC
FFC6
0001
0007
FFC4
FFB7
0076
0056
0063
003C
0070
0040
0053
0028
0067
0006
0024
FFFD
FFEF
FFEE
FFC4
FFEA
006A
0062
FFE6
0054
FFB7
003F
0013
FFB0
FFF2
0025
0046
FFAF
0088
0068
0071
0037
0008
0069
FFAD
00AC
0078
003B
FFDA
00AA
0067
008F
0088
0019
006E
FFAA
002D
0002
FFA0
FFCD
002E
0005
0058
0082
007D
0058
001F
0024
0020
0020
0089
FFFB
FFC0
FFE5
001E
0045
0016
FFF8
003A
0008
003A
001B
006D
0031
0043
0031
0061
0049
FFC8
0068
FFE9
002D
0031
0027
0008
0049
0004
0056
0080
0095
FFFA
0039
FFC7
0042
006C
002C
0003
0077
006C
FFC4
001A
006D
FFD5
0057
FFEE
000A
FFF7
FFAA
000A
0036
0066
0075
0080
0027
FFC5
FFC9
0022
0097
0015
FFF7
0077
00AB
0059
FFC3
0041
FFE8
FFBB
0054
000B
0006
000A
0073
001A
0082
0038
0079
002D
FFDD
0093
FFBC
0069
002D
0005
0019
007A
FFD0
00A7
0051
FFF0
FFFB
003E
000E
FFC5
006D
FFDB
004E
0034
FFF5
004E
FFBC
0016
FFE9
0070
FFCA
0013
0002
00A5
0055
001C
001D
FFE6
0034
FFF6
001F
0066
004D
0088
FFDD
0006
FFE3
FFED
0024
FFF1
0077
0011
0070
FFA5
FFFE
0020
0092
0015
FFEE
0083
006A
FFFE
0072
007A
FFF5
FFFC
0020
006D
FFD5
0033
0049
0062
0024
0073
009C
0073
FFD1
0037
007F
002E
001C
0055
0041
0044
FFD6
003B
0012
FFD8
00B6
0040
005D
0003
005E
FFDE
0026
0001
FFC5
002D
FFE9
0085
FFBC
0055
0069
FFED
FFA6
0075
0046
0001
005A
002E
0081
FFFC
0071
0061
0015
0003
FFF8
007E
FFC7
001C
0000
0066
FFBF
0072
0047
0048
FFF1
FFFB
FFE1
0076
FFC4
FFFF
FFE1
000C
001B
FFF6
FFD8
0065
0070
0006
FFB4
003D
0001
0038
0089
000A
0013
006F
0066
FFD8
FFC3
0030
0030
0028
0062
FFB5
0034
007D
0059
0046
0080
0006
FFF3
0010
009D
0032
005D
0015
003C
FFD2
0053
FFAC
FFC3
001B
0047
0003
FFF9
001C
000B
0045
FFE3
0046
FFB2
FFBA
0036
0057
0007
003A
FFD7
FFF0
005F
FFE8
FFF2
000C
0037
FFD6
006E
0031
00A8
FFD4
FFC5
005C
00A1
0055
003E
0028
004B
FFC6
FFCA
008B
00A0
0053
0066
009B
0058
FFF5
006E
FFD0
FFF2
FFFC
0066
0060
FFF5
0080
007E
FFC2
0057
0058
FFBE
FFE9
005B
002C
0044
0018
008C
FFC7
0079
FFDF
003B
FFDA
0085
FFCB
FFF2
000F
0029
0059
0013
000A
004B
0063
003C
0000
0010
001F
007E
0058
00A3
0000
006F
FFC9
002A
FFDF
FFF7
0075
FFB7
FFF0
0075
FFCA
0006
FFEA
002C
0008
0034
FFD2
FFB7
006C
0024
FFD9
FFCE
007B
001A
0054
002B
00AD
0067
0053
0087
FFDF
006F
004B
0035
FFDA
002C
0002
FFEC
003C
00A2
0007
FFCC
0082
FFDC
FFC2
0056
0039
0023
FFED
FFE2
FFD0
FFEB
000E
FFEA
0038
FFDD
003E
0007
0029
FFB0
FFD4
0007
FFC5
0008
004C
002B
FFE9
0065
0044
00A7
0083
006B
FFF6
FFF9
FFEC
FFFC
FFCD
FFF1
FFD4
FFC1
004A
0072
FFF7
FFB9
FFD4
0009
007F
0075
002F
0024
0079
001A
FFE2
0084
0015
FFD2
FFCE
FFD0
FFD8
FFFC
005E
00B3
0029
FFA2
FFF0
FFD9
FF91
0084
0008
FFEF
0053
FFFC
0061
FFC0
0039
007C
FFF8
FFEE
009E
FFF1
0078
0031
003B
0083
0018
0007
0098
004D
FFDB
FFC6
FFB3
FFD0
FFCC
FFE9
0080
000A
FFF5
FFED
0063
FFFE
0021
0029
FFB6
FFF0
0000
FFFF
0065
001D
FFEA
FFF2
FFC8
0030
003A
002E
0025
0028
000C
004D
0010
FFFF
0037
0043
0007
FFE4
FFBB
FFC5
006B
0030
FFBF
004D
FFA6
FFC0
002D
0074
FFF1
0008
FFE8
0005
0065
FFC3
0074
005C
004E
00CA
003F
0043
005C
FFC4
0012
009D
FFD7
000D
001A
0005
0075
0056
0091
0055
004E
0058
000B
0008
0036
0059
007C
0068
0040
FFE5
0068
0050
0029
0032
FFF9
0035
0089
001E
FFC8
001C
FFD9
0005
FFF3
FF9F
0061
0028
0075
0026
0037
0001
000E
006C
008A
000D
008A
004C
0089
009F
FFDD
FFD6
0051
0019
FFFE
FFC0
FFB6
0073
FFBC
005D
0008
005B
FFB2
FFD8
0070
0039
0000
0001
FFCB
FFE7
FFE1
003F
FFE8
FFCF
0086
FFD7
003A
FFD7
0048
FFFE
FFF8
FFDA
0070
FFB3
FFF1
007A
006F
FFE8
0057
FFFC
FFFB
FFBF
0026
FFC1
009F
0054
003C
0066
FFFC
004B
003B
002F
006C
005E
001E
0086
0010
0047
0063
FFE4
FFF9
FFE4
0017
FFD9
0053
000F
001B
00AB
FFCA
006C
FFF8
0034
001B
0059
0001
FFDF
0032
007A
FFC1
FFEF
005E
0003
FFB4
0041
0049
FFDD
FFFB
0027
003E
007B
0032
FFDD
0084
0064
00A8
FFC7
003D
FFF6
001F
0077
008A
000F
FFCB
FFE8
FFE8
0055
FFF0
005A
002C
FFE9
0051
0043
FFBD
FFF1
0045
0056
FFBE
FFE0
003B
003D
0003
0018
004E
002D
009E
FFD4
FFA4
0077
0032
005A
0047
FFE4
0059
FFFC
FFC6
0083
0090
0028
00B8
0057
0047
001F
001F
0013
0039
FFD6
0057
000E
0034
005A
FFC0
003F
005A
0020
0012
FFE6
001D
003B
0089
0027
0071
FFD1
004A
006A
001B
003B
0011
004E
FFF5
FFE2
0090
0059
FFF7
0054
0057
0054
0009
FFE9
0065
000B
FFB7
008D
0058
007C
FFF1
0060
0011
FFDD
0024
008B
FFDE
005B
009B
0074
FFFE
0030
0072
FFBC
003C
0061
000E
FFD5
0079
000D
0083
0049
007B
FFB4
0044
006C
FFF1
0016
0044
0034
FFEB
FFF8
0026
000F
001F
FFE2
0024
FFF4
007F
FFD1
0009
FFF4
003D
0021
0046
0016
0081
0001
0026
0057
0025
FFD0
000A
0016
000A
0050
001A
FFBF
0011
0066
0033
0046
005E
0056
FFFF
0074
0046
002E
003A
0094
0016
0056
0080
FFFE
FFE0
0035
0028
006A
FFE3
0013
0057
003E
004F
0083
FFE9
0064
FFE3
004C
004F
005C
FFDE
004B
0070
0076
FFCE
0051
0007
0050
005F
0066
002B
FFFD
007A
FFF3
FFF6
003B
FFD9
0072
004B
0065
FFB4
005A
0063
0019
00A2
006D
005A
007E
005B
0083
FFBF
0056
FFC6
0066
006D
FFE6
0058
001C
FFD0
0074
0017
004F
000B
002F
00B3
0010
0062
FFC2
0063
FFFC
0049
0036
FFCE
009E
007B
FFDD
FFDE
006C
0056
0011
006C
FFCD
0070
0088
0052
0024
0045
0093
000B
FFE6
0045
008F
004C
0067
FFD5
0034
0065
FFD6
004E
0076
0025
0039
FFB1
FFD3
004F
FFF4
0045
003F
0015
002D
0007
0051
FFE2
004D
0037
FFFF
0067
0015
FFE7
0043
FFEC
FFD1
0032
0051
FFD0
FFC3
0079
FFDD
003D
FFB6
002D
0025
FFF4
005C
008A
0042
0048
0062
0085
FFF3
00B7
FFC6
FFFD
005B
0051
001A
FFFA
FFD0
FFF8
FFB9
FFFB
FFE4
0072
0065
0017
0063
FFF2
FFC3
0082
FFE7
0028
002A
008C
0040
FFFD
008F
00B9
0078
0058
FFC1
0092
0051
004B
001A
000B
FFC5
002B
0051
001B
0047
FFD7
FFF2
FFB8
0013
008A
009B
FFE9
0083
0053
0037
FFF5
FFD6
0048
0032
001D
0039
0048
0023
0026
0073
0076
FFC6
0043
0064
FFC3
0017
000A
0063
0030
002E
0044
005E
006E
0055
0023
002B
0074
FFAF
FFF8
006E
0014
FFEB
001F
00A0
0029
007B
001F
0093
0054
0036
004E
0093
0073
FFF3
0086
0005
001A
FFF1
0061
FFF9
0075
007A
0020
FFCF
0097
006E
FFCB
001F
0065
007A
FFE8
0050
003F
FFB2
0001
00A0
FFBC
FFF0
FFFD
0018
0068
008F
FFE1
0054
FFF3
FFF3
001C
FFCC
FFE7
004B
0035
FFF2
0002
0090
0035
007B
0000
007D
0099
FFD0
002A
0069
0071
0073
FFFE
FFAD
000A
0083
FFB9
005C
00AA
000D
002B
000C
005F
003B
001B
0018
007D
008A
0053
0059
0027
0086
006C
FFC4
0016
FFF4
0024
0052
005F
004D
0052
007E
0009
0024
004B
00A1
006A
0016
0005
007F
0072
0067
FFD6
0079
FFFA
000C
0002
001F
FFC4
FFC2
004E
0018
0022
0007
0048
0012
002A
0069
0056
005D
FFD0
0050
FFEB
FFD2
000A
007E
006E
0028
0005
00A3
0071
0038
0076
007C
0067
FFCA
0035
0002
FFB9
0003
007D
0028
0064
FFF2
0058
008B
0035
0006
FFE6
0025
007E
FFEE
0074
FFFC
006B
0049
0092
00A8
0088
FFBB
FFEA
005D
FFE1
FFBB
FFAF
FFCD
FFBE
0033
0090
0047
003F
0065
006D
008B
0084
0017
0013
FFAF
0021
002C
0091
FFCB
004B
FFBA
FFFA
0093
FFF1
001F
0012
0061
FFCE
FFFD
FFE8
0081
FFDF
FFE0
0084
FFED
0029
003C
008E
005B
0062
FFD9
FFD8
0028
0001
0007
FFFD
007B
000A
0089
0083
00A5
FFE8
FFD2
004F
006A
0099
003C
FFFC
FFED
FFE2
0022
004D
0003
FFC1
0069
0034
FFFE
0029
001F
0061
0087
002D
FFCE
FFDE
0072
006A
009E
FFDB
FFE1
0063
0031
FFD8
006C
000E
0063
001D
FFB8
0064
FFF8
006A
0085
0042
FFE5
0040
0048
0055
FFF9
FFFE
00AA
FFF7
0002
006D
00BD
001A
000E
006A
FFD2
FFF8
FFF4
FFD6
0061
FFDB
0022
008F
FFDD
0063
FFB5
FFD3
004B
FFC8
FFCD
0063
002E
FFFD
FFE6
0075
0041
FFC5
004F
FFF2
0080
FFEB
003B
0061
003F
005E
0060
0041
000B
000A
004B
0007
006B
001D
001D
000B
0061
FFB8
FFF8
FFD5
0076
FFC2
004C
0046
0060
0005
FFBA
FFD6
0050
FFD0
FFFB
0073
006A
FFC2
FFE3
0074
FFFB
FFFB
0082
007B
0077
0068
FFDE
0035
FFD5
0012
003C
FFBE
FFC8
0024
003D
0028
FFF7
FFC5
002D
0029
FFED
FFCA
009D
FFD9
FFCE
001D
0014
005F
0011
0038
0004
FFF4
000B
0062
0004
0062
FFCF
FFD8
001A
FFE6
003F
0009
003D
FFC6
0000
FFD8
004A
0040
000E
0042
FFDD
FFDE
005A
005C
0047
FFC4
007F
0053
FFDE
0010
FFCC
0014
FFBB
008B
004B
FFDB
FFED
0019
FFBB
007D
0002
002A
00A5
0030
004E
0052
0041
0072
FFD7
0077
0027
0025
FFE1
00B3
0096
004C
0016
002A
0011
0047
FFC6
006B
0013
FFF8
004D
0075
0089
0066
FFF0
004B
FFF9
00B3
FFC4
006C
FFF6
0048
0025
002D
008F
00AB
0084
003E
0063
0029
FFCB
0054
002C
0023
0028
0053
005B
007E
0011
0049
005E
0002
00A9
0095
FFD2
FFF9
FFF1
0053
005F
0007
0051
0053
0021
FFDA
0084
0002
009B
0008
0039
FFD4
FFFA
0078
0091
0089
0029
FFDE
0065
005F
008E
0023
0063
0042
0028
003A
007E
008D
FFDA
0058
0058
007D
001F
FFF0
0012
0029
000D
0024
0037
001B
0038
FFCF
0008
0059
003D
FFBF
FFC7
0026
0081
FFC7
0082
006A
0060
0023
007D
001F
001A
0051
006A
FFF0
0091
0075
FFF5
0084
FFF7
0070
FFDE
FFB1
0035
FFEF
FFF8
FFE6
0003
008D
0073
0038
0033
FFDD
0054
002A
0070
FFF4
004F
0016
0082
006F
004C
0029
0006
0061
0021
006E
FFD1
FFFE
0026
000D
0031
0064
001D
FFB5
FFCD
0006
FFDB
000F
005E
0064
004D
008D
0011
002D
FFE8
FFFB
000E
003A
FFCC
FFCB
FFCF
0006
0053
002A
003F
0054
0080
FFEA
0021
0022
0023
0053
0042
003E
004F
008E
FFFE
005C
006F
FFC8
0058
0008
0053
0088
FFF5
001D
0050
FFC8
000B
0068
008B
0092
0048
009E
FFEE
005F
008D
0090
0037
0069
002E
FFF7
001B
005D
0036
0042
003A
0057
FFF8
0018
FFE7
FFE9
FFCB
005B
FFBA
001C
006B
0029
FFD0
FFFE
0086
004B
FFC5
002B
0099
005A
0042
FFD1
006F
FFF6
FFC9
0053
0077
006D
0038
0045
FFFC
FFD0
0024
FFC9
008A
0069
007A
FFA2
0015
0035
FFBE
004B
009E
FFB6
FFC7
0042
0062
FFEB
FFC7
007F
0048
FFC3
0004
001B
FFD4
0008
FFD0
00B5
FFC9
0010
001B
FFD9
0008
005B
FFD0
FFFE
0036
0089
0029
0003
0044
00BB
FFDE
0047
002F
005F
0047
003F
FFF2
FFCC
0036
FFCE
0084
0009
FFBA
0008
0062
FFC4
0034
FFF1
FFCB
FFDF
0027
005E
0009
0055
006E
0094
0084
FFF4
0045
0078
003D
FFDA
0075
0057
FFFA
0033
0020
0083
FFC6
006D
001C
FFED
0084
003A
0048
001F
005D
0013
0017
FFEB
005E
0070
FFC4
0096
FFE0
007E
0039
FFEB
002B
0077
007F
0075
0074
FFED
007A
0053
0014
005F
0057
008C
0098
0024
0005
0055
0017
FFE9
003C
0012
0039
0042
FFA7
000B
008C
003B
000B
00AA
008B
005D
0082
0003
FFEB
008B
0000
005C
0030
FFD3
004D
FFBF
FFD7
FFE5
FFB8
001C
0006
FFCB
000C
0030
004A
FFC8
FFCF
004E
008E
FFD5
0073
0077
0022
001D
FFE3
FFE5
0026
006A
FFFC
FFED
FFDE
005B
0032
0066
0096
0050
003E
0090
0075
0009
0064
0060
0020
0038
FFB3
0088
FFD6
003B
005D
0042
0031
0015
FFE9
00A4
0066
0041
0004
006E
0043
001F
0031
0066
008A
0097
0060
0047
0019
FFFB
0012
0083
0084
004C
0028
0066
006F
0008
FFDF
0031
FFB9
0025
003B
0059
0024
0042
004A
FFDD
0089
0005
0075
0060
FFEE
006C
003C
0056
0094
0043
FFF1
0044
0066
FFB8
007C
FFBC
0074
FFE6
0078
FFE5
0024
0061
000C
FFE3
FFE8
FFD7
0040
0069
FFC3
FFF0
FFAE
FFD5
002C
0080
FFDF
006A
0070
000E
00A5
0000
000E
003C
0029
004C
0006
FFBD
0029
0075
001F
0003
FFF1
0025
0042
002E
FF8F
0028
FFDD
0045
0042
0047
FFE2
FFC4
006E
009E
FFD0
FFE0
0011
007D
005D
0010
FFE1
000B
002B
FFF8
0018
0024
007A
FFF1
FFC5
0077
FFCD
FFD7
006F
007D
0017
0051
FFD5
FFBA
FFE9
FFE0
FFE5
001A
008D
FFC2
005F
007F
0039
005E
FFBA
FFE5
FFDD
0013
0064
0063
FFCB
0004
006F
0070
FFFD
0060
FFA8
FFC9
003F
0076
000F
FFF3
FFBD
FFDE
0035
0047
0033
0024
FFF2
0095
FFD7
0091
002A
007D
FFD6
007C
FFB9
0005
000E
0060
0066
001C
0003
0038
0062
FFED
0096
0042
0069
0006
FFFD
0075
FFDD
0080
0044
FFEB
FFC4
FFD5
0057
0035
FFD6
0041
0090
0088
0036
0029
00B4
0002
0000
000F
0047
FFF8
FFE6
FFE6
0048
FFDA
FFDD
0083
FFE7
005C
004A
0031
FFAE
007C
0070
FFFF
0000
0019
001A
005D
0076
FFBF
005A
008C
FFC2
0023
0092
FFEA
003C
002B
009E
0068
FFFD
0009
00B2
004F
0073
0048
FFDE
0015
001C
005B
007A
009A
0037
005C
FFA9
FFDA
FFEE
FFBF
005E
007B
0066
FFBC
FFC8
0008
FFBB
003C
FFEC
008D
0055
0032
0071
0016
006D
006C
FFF3
00A0
FFC3
0041
FFCA
000F
000A
FFEA
FFD3
0021
0051
FFF9
0045
0024
0040
0036
0067
004F
0001
0013
0026
0064
0093
FFE2
0078
0000
0078
FFD5
00B4
0054
FFE6
0011
0076
0035
005B
001B
006D
FFF8
002F
FFCC
001F
007C
FFCF
0046
0038
FFDE
0063
0037
FFCF
0089
001D
0085
002F
0004
FFCE
0029
000C
FFC4
0000
FFE7
002F
001B
002A
001C
FFEE
0020
0021
007E
0081
FFCE
005E
0035
FFCD
0044
0028
0030
FFC3
00A6
0065
FFEC
0045
FFE9
003B
FFE3
004B
004E
0046
FFEF
0077
009F
FFCD
FFD6
0024
0039
0048
00B8
002D
FFCC
FFDC
006A
0049
000B
0089
0074
001C
000E
FFE7
0014
002D
FFC9
0014
007B
0065
FFF2
FFCC
0054
0040
0015
0001
FFE6
00A2
FFE8
005F
007A
FFC5
0007
005A
FFCC
FFD6
0019
0067
0050
0075
0027
FFFB
008D
0004
004C
0003
FFF6
0049
FFDB
0068
0004
001B
FFB9
FFD5
FFB5
0041
006A
FFEC
0058
FFFD
FFE9
002A
007B
0063
008A
0070
003A
00BD
006A
0039
0070
FFBD
006F
0015
000B
FFDC
00AB
004A
0044
FFF0
FFD0
0082
004E
004E
FFE2
0080
005F
FFB8
0075
0019
005B
0063
001C
000A
FFF8
00A2
FFF9
0018
002A
0025
002B
0015
002A
0095
0032
FFD7
000C
000B
FFDB
FFD5
0063
FFCD
0035
007C
FFE3
FFE5
FFCA
0018
FFC0
FFD7
0077
0070
FFAD
0056
0081
FFEB
FFBB
009B
005E
008E
006D
0088
0057
FFEB
FFF8
0098
0024
0052
FFD2
0058
0059
0002
FFF4
FFFA
0056
0049
006D
FFEC
0072
0016
0049
FFF5
FFE8
0037
0005
FFCF
FFF2
003B
0016
006B
FFD3
006B
000A
0051
0061
002E
FFFA
0047
0005
0054
0080
005C
004B
0060
0068
001E
FFEA
0027
0000
0057
002E
FFCD
0091
0084
FFEB
FFCD
FFE7
0093
0069
004E
004B
0088
001D
FFBD
006F
003C
0027
005E
000A
FFA7
0080
0038
FFD1
FFF0
FFC9
003C
002F
009D
000B
00A8
0004
0007
0002
0049
FFF0
FFD0
0001
006C
0056
0065
FFD9
006A
006E
FFEC
0034
FFD1
0015
FFEA
0033
0058
006D
FFF4
FFBF
FFF7
0012
FFFA
0057
0077
FFF6
0002
0000
0045
0084
003C
0077
0011
0025
FFC1
0039
0041
0063
007F
009A
0054
FFB5
FFCF
004C
0076
009A
004D
FFC6
004E
0014
003E
0058
0040
0045
004E
FFB7
0085
005C
FFC1
0012
0081
006E
0053
0087
FFAE
FFFA
0016
FFC2
005B
0036
0014
002B
001F
000C
007A
0024
FFE1
0088
009A
003A
FFC6
003D
0011
FFF4
0064
006A
006F
FFC4
0040
0069
0093
FFCB
0041
0071
FFCD
0014
FFE5
0004
0072
0048
FFA9
0035
005C
0041
FFBA
003F
FFD8
0008
001D
FFD0
0079
FFE5
0056
002C
FFE4
0084
0032
0034
FFF7
004C
000B
FFF7
000F
FFEE
0011
0053
0031
002F
001B
001C
006B
003D
FFEE
FFE2
0015
005A
007C
FFE1
0066
0009
007B
006F
0079
0050
000C
0092
0092
0051
0009
FFF4
0049
FFC3
0013
FFE5
0067
004B
0035
005B
FFE5
007B
008E
FFD0
0075
000A
000A
0038
0007
FFCF
FFC5
FFFE
0071
FFD3
007E
FFB9
009F
FFF0
0047
007C
003D
FFFB
008E
0046
0011
008D
0084
FFE1
003E
FFFD
003D
0014
FFE7
0015
0003
FFE7
FFC5
00B4
0015
FFFE
FFE4
FFCF
FFC1
FFE5
005A
0033
FFC4
0072
0002
FFEA
0003
0077
002C
FFF8
FFF6
FFE3
000D
003F
FFFE
FFC6
FFED
FFCE
0008
FFF8
0077
0084
002B
009C
004A
007C
0000
0072
0091
0042
FFE9
000C
0031
FFDB
0044
FFB4
000B
000A
FFE5
002F
003D
FFDD
FFB7
0072
FFEC
0010
0015
FFE4
008D
FFD2
004E
0069
FFD5
0030
006D
0038
0000
007D
000E
0030
0052
FFCC
007C
FFD3
0029
007F
0025
0077
FFFC
FFE3
0067
FFCD
FFE2
001A
007D
000D
0088
0012
0014
FFD7
007B
001D
003D
0012
001D
0076
FFC2
FFFC
FFF3
006C
0018
006D
003B
FFF2
0046
0084
FFFB
005A
FFC2
005C
FFCD
0082
0087
0050
000C
0089
FFCF
0029
0007
007F
002C
FFD3
002E
FFF0
001A
FFED
FFCA
FFEF
FFB5
FFF0
FFE6
FFB9
006F
0036
0041
FFF4
FFE1
004F
004D
0070
0056
0073
FFCB
0011
0079
0043
FFFE
FFE6
00AB
FFDA
0060
0021
0096
0082
006E
0054
007E
0069
FFC3
004C
0024
FFDC
FFDA
0054
FFAE
0051
0079
009A
003B
001B
0068
007D
FFCF
FFD1
0093
0091
002E
FFC3
0088
0000
FFF1
003D
004E
0072
0065
0024
0035
0033
0031
0053
0076
FFD6
001E
0037
003C
001E
009E
FFE1
0001
005C
0056
0027
007B
FFF0
0052
FFD8
0082
003E
FFB5
FFF6
FFE5
007C
0031
0013
0054
0009
001F
FFE3
FFE4
0006
FFFC
0080
FFDB
005C
00AF
0030
FFF9
FFE1
0096
FFCD
0037
000E
006B
0073
004A
0000
FFE4
0031
009E
002A
FFCA
0047
0079
0027
001A
001D
0005
002F
0051
FFC0
FFCE
0069
FFFF
FFDD
FFEC
005D
0001
FFDA
FFDB
0012
FFD9
008E
0034
002F
FFEC
0023
FFB5
0062
FFC8
00A6
004F
001C
004E
001F
0013
0004
005F
FFD5
001F
FFD8
000D
007A
0048
FFEE
0096
001A
00B1
006C
FFFB
00B3
0038
0056
004C
0021
0049
FFF9
0002
FFBF
006D
0025
0009
005D
FFDA
0052
0059
002D
FFE1
0059
0040
0086
002D
0046
000D
0090
FFCA
FFD5
0055
FFB9
FFCD
FFCF
FFF0
0072
FFFF
FFB9
001B
0014
001E
FFDF
004F
FFCD
FFE3
0057
005F
0036
0073
0038
FFED
FFD2
FFCA
0014
000E
FFD2
FFB9
006B
0035
0061
FFBB
0025
001C
FFCB
0050
FFF1
0081
0017
0017
FFD5
FFE3
FFF2
0014
008E
005B
FFE9
FFF7
000E
FFFF
00B4
0070
0082
FFFF
0050
008C
0046
0023
004E
0074
FFF5
0095
FFBF
007C
0020
000B
005A
001E
004F
0078
0045
005D
003F
0079
0031
FFFB
004B
0056
FFD7
0075
0029
FFC0
FFBF
0090
0066
FFC9
0079
00BD
006D
003E
004E
0024
FFDF
005B
0084
0098
0086
FFC6
0058
FFC5
FFDC
0064
004C
001B
0013
004A
0075
FFD5
0021
002B
0035
0021
0055
FFCB
000E
0051
005F
FFDC
0026
003D
003A
0094
0031
0033
FFEB
0019
002F
003F
0088
FFF4
0059
FFE4
0052
007E
FFD9
0040
0063
006B
FFE9
FFD8
0063
00B4
0034
0027
000E
0044
FFC4
006B
0087
0033
0016
FFD3
FFD8
FFE2
FFE2
001B
0007
FFEB
005B
0010
003D
FFB2
0045
0043
FFDA
009A
0058
0004
006D
0009
FFBD
007E
0076
FFF1
0062
0028
FFE3
007E
FFFF
001F
FFE7
FFD5
0026
0025
FFBB
0004
0031
00A5
0041
0044
FFD2
FFCB
0000
FFB0
0046
000C
007A
004A
003E
FFF1
004B
0002
004B
FFD8
00A6
FFCE
003A
FFBE
0058
004A
009C
0057
FFD2
FFB4
0035
0064
0075
FFE2
FFF4
FFFC
009D
0073
FFFE
FFB8
FFEF
0047
002F
FFDC
FFD6
FFB5
FFFC
002D
0005
FFF0
005D
00B3
0004
FFEE
002C
FFF3
0023
0072
FFC6
0058
0041
0043
0067
006D
005D
FFC1
003B
0019
FFF7
0028
0095
0090
0016
0086
FFBB
FFCB
FFCA
0038
009C
0000
0002
FFFD
0060
0053
FFDE
003A
0045
000D
0067
006C
0086
009D
0062
0062
0021
001F
FFDC
0064
0082
0078
0008
FFE7
0054
FFF6
0066
00AE
FFCA
0054
000B
FFD0
0058
0063
0035
0060
000C
008D
0082
FFEE
0075
003D
FFD7
007E
006C
0047
0088
0022
FFDC
FFD1
003B
0066
0062
0077
FFDB
FFFC
0038
0014
FFC1
0053
0067
0034
005E
FFBB
0072
FFEC
0013
000A
0066
FFE1
FFEB
0073
006D
004F
0041
004D
0027
FFCE
FFCF
0063
001D
0083
FFB5
005B
006E
0035
FFFF
003A
0047
002F
FFCE
FFD3
0009
0007
0058
004B
0048
FFCF
FFEC
FFEE
0027
0045
FFD6
FFC6
0016
0074
0054
0082
0075
006A
FFCA
0098
003C
FFDF
0080
0050
002D
FFCE
008F
007D
FFE6
FFFB
FFD1
0055
0050
001A
0063
0050
0044
FFC0
004A
003D
FFD0
FFF7
0046
008E
001A
0084
FFEF
0032
FFE3
FFDE
FFD9
0060
0089
0072
FFBE
0014
0009
FFCE
0005
0002
0037
000C
FFCE
003A
0006
FFDD
008E
0055
FFD7
FFE6
0008
000C
0022
0040
FFF0
FFB9
0075
0088
FFC7
007B
0049
000E
0053
FFB5
FFE1
FFD4
0063
FFDE
001E
0022
009B
000B
007E
0048
002C
0030
0029
FFEE
0017
FFE4
0067
FFF7
0088
0073
FFD4
0023
0085
0041
0022
FFFC
0014
0045
0030
007D
0097
FFDB
005A
FFB7
FFD2
FFF2
0078
0089
0062
0021
FFD0
0043
FFEB
002F
006C
FFE0
0033
FFD2
0078
0026
008D
FFD9
005F
00A2
0065
0009
FFE5
005D
FFBF
0036
0030
003E
FFD7
005A
FFD5
000E
0059
0064
FFD9
FFBD
FFCB
0048
0076
0021
FFD2
008B
004C
006A
0045
0024
004B
003B
0032
005A
002A
0042
003A
0032
004A
FFE7
FFB9
0036
0041
0054
FFD6
0033
0080
000C
FFE2
000B
007F
FFD5
FFE5
FFFF
FFC0
007E
0097
003F
001D
0013
FFE2
004B
0049
FFD6
FFB3
FFF4
004F
0087
009F
005A
001F
005A
0017
FFDA
002F
0007
0016
FFC9
0018
FFE6
0038
0040
002C
0034
002C
0077
0083
0007
0012
0021
0077
0014
0056
007C
0021
FFDA
FFDA
005D
002A
FFDF
009E
FFF4
0044
0060
0097
001A
FFED
0047
FFCE
007B
005B
FFF3
FFF6
0014
0073
FFD8
FFCF
0037
0032
0083
0065
001F
0012
FFF5
FFB5
004B
0044
0013
0047
002E
003B
FFDB
0061
001B
FFCC
FFC5
FFD9
FFB3
FFD6
0071
000E
0092
0026
FFF5
0056
0044
0027
0045
00AC
0077
FFC6
0025
FFEA
FFE6
001C
FFF2
0016
0081
0040
002B
0048
007F
0067
FFF1
005A
00AD
008A
0077
0023
FFB8
0085
FFDD
FFB5
0004
002D
FFD6
0031
FFC5
FFC0
005E
FFEE
0001
0006
002E
0059
006A
0037
FFCC
008F
0075
FFE8
0045
006E
004E
0058
0044
005B
004D
FFB2
00A6
FFC5
002B
0034
005B
0012
0001
0037
0099
005C
008B
006D
007F
0034
FFE8
0011
004A
FFCB
000B
006C
FFFD
001D
FFF0
0071
0053
0060
0050
0065
0062
0091
0074
0030
0009
0063
0031
00C0
001B
0033
006B
00A2
0042
FFEA
FFE1
002B
FFDE
004B
000E
0079
0063
0020
FFCC
0074
0063
FFF8
0062
0073
FFBE
0009
0009
FFD0
002F
FFC2
0033
FFEC
0010
0048
FFB6
0061
003D
006D
FFD5
FFBF
0079
0073
005E
0052
FFB0
0081
008E
0010
0048
0067
0056
0071
005F
FFC0
0069
00AF
FFE1
0044
FFE1
004A
FFE7
004F
0020
007E
0009
0037
0047
0000
00AC
FFEF
FFE3
FFC2
FFF1
FFB3
0072
FFFF
FFD4
000D
FFFA
005C
FFFF
00B9
0076
0022
003D
0096
0047
0055
FFE3
FFF2
002E
0067
0071
0071
0046
0034
003A
FFCF
002C
004F
0029
FFF7
0029
0041
0019
0087
FFE6
008B
0071
0039
FFC7
FFB9
001B
FFD7
0040
0066
FFC5
002D
FFFA
0063
003D
001E
002D
0058
005C
00B4
002A
FFF6
FFD1
005C
FFBE
004F
FFD4
0049
FFE9
FFCD
FFF3
0045
0077
005A
FFDE
0004
FFEC
000D
0061
003C
FFE6
006E
FFC0
002B
0003
0034
0047
000C
FFAC
0021
006C
0091
0052
FFBD
0072
002F
0008
FFF3
005F
0020
FFCE
0047
005D
0063
0013
0018
FFEC
0049
0068
0068
006D
FFFD
0084
FFEF
0055
FFB4
003E
FFF7
0078
002C
0097
002E
001F
001C
0024
FFF0
FFFA
0041
0030
001B
FFE6
FFD9
0056
FFF8
004C
FFBB
004C
0030
FFFB
FFD3
FFB6
FFED
FFE5
006A
FFE1
0071
FFBA
FFD6
0062
FFB6
0070
FFE6
0036
0025
FFEC
0078
001B
FFDB
00A3
FF9E
0064
007A
0082
0035
005E
004D
0051
0029
0087
0078
00B2
001F
008E
0029
FFEE
FFDC
007E
000F
007A
0030
FFD1
000F
0016
FFED
FFD4
003A
FFF8
00AA
FFC8
0067
004A
002F
0076
0082
0031
007B
FFFB
005E
003D
0063
FFDB
FFDC
FFCA
0016
0051
0056
0085
007A
007F
0075
0039
FFDD
0073
007B
0081
0041
007B
FFC7
006A
004B
0071
000D
0045
FFB2
006C
007B
FFFF
001F
FFEF
001F
0003
0008
006F
FFDB
001B
0021
000C
FFEB
005A
005C
0035
FFBB
0055
0085
0070
0090
0081
FFD5
0033
FFAF
FFB6
0008
FFE3
0071
0028
003D
FFDD
0079
0054
FF9E
FFE2
0075
005C
FFF1
002F
FFBB
0052
FFDC
FFD0
0084
FFD2
00B0
00A4
0076
0009
001F
0073
FFED
0064
004C
FFF0
FFBE
0096
006C
FFD3
002E
0013
0091
002C
00A1
0079
FFDC
0003
0063
0066
0014
FFE7
FFF4
FFFD
001D
004B
000C
FFBF
0015
FFD2
0068
FFCD
FFE8
006F
FFF2
FFD3
0065
0013
FFBE
008B
FFE4
FFBF
FFC7
FFD8
FFD2
0044
0050
001D
FFEE
0004
001E
00B4
FFD6
0073
003F
0051
FFDC
00B1
0064
000B
008E
0013
001D
0066
FFD0
FFEA
004D
FFF5
FFD3
0078
006C
0032
0015
002F
0056
FFBE
FFE2
0066
0012
004A
0095
0058
0053
0002
FFF8
0058
0074
FFE6
0068
0048
006B
0061
0093
FFE9
001C
FFEB
003F
0063
0062
000D
0001
002A
FFC4
002B
FFFE
0029
0024
007E
0066
0000
FFCA
0022
FFD5
005A
FFBE
006A
FFFB
0039
0088
004D
0054
FFBB
007B
FFF7
FFDC
0067
001A
006A
FFCF
00AC
0017
0085
0033
0062
0064
FFE1
0032
0074
FFEF
0084
FFBC
FFFC
FFAA
0025
FFD5
000C
005C
0073
007A
0050
001B
FFED
FFF7
0059
FFBC
0062
FFFF
005E
0048
0062
003E
0016
0025
FFE8
0006
004B
006F
FFC4
0064
FFD9
000B
0020
0081
000A
0096
0084
007F
FFD1
0006
003D
000C
FFF6
FFB7
0040
FFE4
0001
0060
0038
FFC1
FFF5
FFFE
0070
FFF8
FFAD
0046
FFF5
0014
0010
0049
FFEB
008A
000C
0018
006A
004F
0058
001B
0097
0086
004C
0038
FFC5
0019
0036
FFB2
FFF4
0051
0019
0075
0060
0088
0052
003F
0078
0004
0095
FFDB
0065
FFB7
0010
003D
0064
0012
FFEE
FFB5
002A
FFE7
FFD6
00A7
000A
FFCF
0033
FFBB
0090
FFD4
FFC9
0054
0080
FFE2
FFE6
FFB9
0062
0096
0071
0014
0013
006B
0027
FFCA
0087
003E
FFC6
0023
FFED
004E
000E
FFB4
0017
FFF1
0048
0040
0072
001A
0067
FFF8
FFCA
FFDC
FFE7
009B
FFFA
FFB7
0003
0086
FFCE
007F
000D
FFB1
004F
FFCF
0081
FFBD
FFF2
FFB9
FFD0
0011
002B
0078
FFFB
FFD1
005E
0005
FFFE
FFCC
FFF5
0087
002D
0043
0082
0018
0080
0075
005C
FFE6
0014
0019
0022
000C
0065
003F
FFF3
0038
0092
0025
0009
0013
FFB5
007F
FFD5
001C
FFE4
0071
FFD4
0066
004B
0062
0097
0000
FFEA
003B
0066
0087
0018
FFE0
0008
005F
FFB8
FFBC
0051
007F
004F
0044
FFFB
FFE1
0010
0053
003C
0033
0050
0025
FFF1
006D
00A9
0029
0088
0009
0009
0078
0082
FFB5
0029
0070
001B
0062
006B
0060
000A
0036
006E
003D
FFF8
0028
0017
002D
0066
008E
0018
0083
0039
005D
FFC0
FFFF
0001
0075
0001
0081
0011
002A
0025
0040
0042
0059
0068
005D
FFF1
0072
FFDE
FFE7
0023
001D
0073
0014
0004
0073
FFF1
002B
005F
006E
002A
006B
FFFD
0021
003B
FFF2
0079
0055
FFBC
0043
FFCC
0054
001D
0012
FFFE
0058
FFF6
004D
FFFA
FFB0
006D
FFD2
002B
002F
FFCE
0061
FFCD
0007
FFDD
FFE0
0073
0091
0059
002D
FFDF
FFD2
007E
0041
00B5
0024
0001
0040
FFFB
FFCD
004A
0008
003B
0020
0004
0032
0016
0050
FFBF
0082
004A
FFD0
005B
003B
002F
006F
FFFE
0007
0004
0041
FFEF
0090
FFD9
000B
FFCB
0032
006B
FFFC
007A
000D
0005
0078
FFF7
005A
FFF4
FFFF
002F
0074
002B
FFBF
0046
0058
008E
FFDF
0004
FFF0
0032
0088
004E
0038
FF9A
0048
008A
FFD0
FFF3
0049
FFF1
000E
001A
002D
FFC2
0034
FFEA
0048
0069
006E
FFB8
006D
0007
007F
0078
007B
FFDC
0086
FFBC
0081
FFE4
0029
0061
004C
0054
FFBC
FFEE
0003
004C
FFB5
0041
0020
002F
FFC3
0031
0027
0007
0052
0048
002B
0007
001F
0039
FFD2
FFC1
004F
0064
000E
0006
FFEF
001B
006B
008B
0024
005B
0060
0011
004A
006C
000C
FFF6
003A
FFD2
FFED
FFA9
00AA
0010
0060
FFD2
0015
FFE4
FFEC
FFE0
001F
00B4
0043
0031
FFD2
FFEE
001A
007B
0088
0057
0095
0016
002D
FFAA
004E
006D
0045
0040
0073
0029
0077
0069
0017
0096
0045
0051
FFF3
0063
0082
009B
0054
002E
0043
0038
FFE6
0066
FFC0
003C
004B
0063
FFCF
004A
0029
0056
001A
0053
0081
0045
003A
0024
0048
FFFC
007E
0055
003F
FFEB
FFB3
0039
FFDC
FFFE
0078
FFF9
0007
0021
FFBD
0004
FFF1
FFEE
0097
0064
003F
002C
FFED
0070
006C
0016
FFF9
002F
0042
0004
FFC5
FFB2
0016
FFF8
0068
003D
005C
0068
0071
FFD5
FFDD
004B
005B
006D
0003
0027
0044
FFE6
0032
006F
001C
0001
FFA1
0030
0052
0039
FFE8
FFF9
FFC6
FFED
0076
0005
0037
003B
FFF4
FFDD
0074
FFC2
0014
002D
FFE0
0047
0041
003F
FFBA
FFF2
005C
FFD4
0066
004C
FFE0
FFDA
FFBA
FFEB
0018
0001
FFC6
0055
0034
FFE0
006C
0019
003C
0044
004D
0006
FFB8
003A
000D
0065
FFC2
FFBE
0005
FFEE
0041
0021
0034
003B
000D
FFB0
FFDA
001A
FFD7
0030
0014
FFFA
FFB0
002A
001A
004B
FFBB
0071
FFDD
FFE0
00A8
008E
0015
FFEC
008F
FFF0
0050
003E
001F
FFFA
0013
0006
007F
FFDD
FFFA
0000
0010
004D
0079
0059
0013
FFB7
0071
0047
FFE8
FFFC
0056
004A
0007
0069
FFCE
FFE1
002E
0045
0050
0089
FFBC
0068
0056
FFCE
FFC1
0064
0057
0083
001A
006D
0019
003A
0078
FFC5
0077
FFE2
FFC6
0063
0057
0016
0082
003E
0018
0076
0030
FFDC
0068
0053
0024
008D
FFBA
FFBB
0015
FFC6
FFB5
003D
001D
000E
007F
000B
002A
005D
FFE9
0024
0074
FFBD
0073
00A3
0052
0087
FFC1
002C
0092
004A
009C
001D
00B6
0004
FFBC
FFB1
003D
0020
0016
006B
FFDE
0095
0029
001A
000F
0030
000F
0055
0084
0092
FFF5
00A7
002E
FFD5
FFB7
0068
FFD3
0063
FFE5
FFEF
0064
004A
007A
005B
001C
FFD6
FFF7
FFBF
FFFC
FFCC
004C
FFA5
FFBF
0070
0052
000D
0037
0069
007B
0072
0089
FFD7
001C
0057
0009
0017
0013
0092
FFC4
0066
0015
FFD7
0063
0069
0036
005F
0074
001E
0020
FFB3
FFED
FFFF
0089
0044
FFF3
0010
0044
FFD0
0005
0051
FFC8
FFDC
009F
FFEB
002D
FFF9
0054
FFE9
009B
FFCB
0037
FFBF
0018
0076
FFC2
0031
0046
005B
0091
FFCE
0076
FFCF
007D
FFFB
001C
0029
007D
FFC8
0056
0073
0079
FFDA
FFCE
0053
0022
FFE6
0089
000E
0061
0068
004A
FFEA
002D
0093
FFF3
0048
001F
0059
002F
0049
005C
0073
0090
0047
FFF9
0005
FFCF
FFC6
FFE2
0007
001B
0069
0010
0018
004D
0072
0041
0080
FFE6
0048
0068
0078
009E
0031
0035
0016
FFFF
0090
0063
008D
FFEA
FFBB
003A
0024
FFBB
0074
0071
003C
FFCD
FF9A
FFEC
002D
FFB5
0026
0006
FFDC
000C
003B
FFFD
007C
0046
0072
0031
007A
0051
002F
0012
FFDE
006F
003C
0093
006C
FFF2
0074
0008
FFDE
0014
FFC4
0055
FFD4
FFC5
004A
002B
001D
FFB8
003E
0081
003B
001E
0047
0005
0010
003C
006E
0036
0070
008F
0099
FFFF
FFF4
0065
0022
007F
008B
0024
FFF6
003B
009D
0029
007D
0066
FFCF
0013
FF9F
FFAB
0037
002A
0045
008B
FFC9
00AD
0057
009A
FFB7
0013
0005
FFF3
0051
006C
00A3
0023
002A
0064
FFD7
006A
0058
0063
FFFF
0081
FFD9
FFB4
FFE6
001B
FFE7
0034
0028
FFEA
003F
FFF3
FFF9
FFF1
FFFC
007F
FFE0
002B
0030
0055
002F
004D
008D
0001
008D
0066
008A
0069
FFF6
0011
FFD5
000D
0061
FFD5
0046
0005
0014
0025
002C
0020
FFAC
FFF3
0018
0037
003E
FFCC
0040
FFD2
0018
001A
0086
005A
0012
005B
FFDB
004A
009E
006C
FFF9
FFF6
001C
0073
006E
0016
0088
004B
0013
000E
FFAA
0080
0023
0078
FFB1
FFF1
FFAF
001A
0078
008E
003A
0053
003F
0013
000A
0047
000D
0073
FFDA
0086
FFFD
FFE8
0059
FFF7
0072
FFAC
008F
0064
0090
0002
002D
FFDC
0043
003C
FFC9
FFFE
0055
007A
0003
0023
FFFC
FFD5
0002
0028
00B8
FFF7
0019
FFBC
00A2
0000
0083
FFA7
FFF5
0083
00A2
FFBF
FFEE
008C
0084
FFC5
0070
0039
0015
0002
009E
005C
00A8
000E
0045
0034
000D
008B
000E
0004
FFE5
0028
0077
0020
0012
002E
007F
0062
0034
FFFF
005C
002D
0082
003F
0052
FFB5
009F
FFF3
0067
0063
FFF7
FFDE
0004
00AF
0038
0080
FFFF
FFE9
0035
0026
0070
0049
FFC5
FFFA
009C
FFFD
0037
0055
FFF4
008B
0019
0075
FFCD
008D
FFB7
002C
0021
0021
0003
009A
FFF0
0067
FFE8
0050
FFEF
0075
007C
007B
0038
FFD0
FFD0
FFFC
FFB3
FFF9
0060
FFF8
0079
00B9
0068
0037
0033
006B
0071
FFF1
002D
FFE6
000A
FFF3
00B4
FFBD
00A4
004D
FFBA
007F
00A3
0072
0007
003E
007A
FFCF
FFC6
000B
001B
FFF6
004F
0018
001D
0049
0026
006A
0061
006F
0012
004C
FFFE
0070
00AD
FFD6
0013
FFFD
0067
0079
0062
004B
0039
003C
FFF1
0027
0042
0034
00A0
0009
006E
001B
FFE6
FFCF
0040
FFF7
000A
0058
000F
0032
007B
FFFB
003E
0083
002D
FFD0
FFFD
FFFF
0005
0096
FFE8
FFE8
FFC3
0047
0013
0065
0046
0009
FFC3
0031
FFFD
003A
0008
FFFF
0064
0036
FFE7
0015
008E
FFB1
FFD9
0053
001F
FFDE
008D
0065
0052
FFC9
0009
0007
006D
0004
0057
0009
0026
0049
0084
0043
0022
FFE6
0013
0010
0027
FFC1
006E
007C
FFF1
003C
FFCB
FFE0
FFD0
0060
0036
FFD4
0030
FFD3
006A
FFE9
FFFA
009C
FFC6
0057
FFDB
0099
0010
005F
0001
FFDB
0032
005B
FFFE
0087
004C
000D
002A
FFF6
001F
0070
FFE6
009D
0026
008E
003E
FFFF
0066
007D
002E
0032
0064
0058
0074
0028
FFF9
0027
002B
FFCA
001C
0009
FFC1
0006
FFFE
FFB2
0030
FFCF
FFCE
0090
000C
0006
0021
FFC4
0006
008C
FFB4
006B
FFF2
FFE1
FFCF
0006
0080
FFDF
0040
0027
005E
0034
FFF7
001A
007B
006E
006A
FFE4
0037
FFDC
0051
FFDD
001F
FFCE
0054
0058
FFE1
FFDF
FFBB
0067
0073
004A
0034
0026
0048
FFC1
007D
0023
0066
0050
0003
0089
FFE7
003B
FFAF
FFD4
007F
FFCE
0085
FFE2
001B
0026
FFFA
003B
002C
FFE0
0028
0045
001A
001C
0074
0015
FFFE
0071
001D
007B
FFD0
003B
FFDA
0040
003C
003E
0075
0086
0087
0030
001D
FFE1
000D
002F
0079
FFD4
0024
0059
FFE7
0040
000E
0028
FFF5
001C
0006
FFE3
0047
FFE1
003A
0043
0045
0056
FFBA
0085
FFEA
001A
0077
FFE1
FFBB
0019
FFC9
0061
00B8
0065
0061
0076
0014
0072
FFF2
0000
FFC9
00A1
001F
003D
007A
0060
0039
0039
FFC0
006F
FFF6
007D
0028
FFC8
0004
FFBD
0007
FFF6
0093
0097
0038
007B
0020
0060
006C
0021
0026
0010
0061
FFE4
002C
0045
FFDA
FFE5
004F
0066
0033
0066
FFCE
0057
FFB3
008C
003B
002C
FFDF
FFCD
003B
006D
007C
0045
FFBE
FFC6
00BB
0008
FFE1
FFD6
0023
0049
007B
0099
0046
005B
0071
006F
FFF6
FFF3
0004
0036
001A
0084
0017
0022
FFE7
0052
FFC4
FFD7
000A
0093
FFF3
0069
0000
0000
005D
004A
FFB1
002C
006B
00BF
0012
0097
FFBF
00A4
FFB6
FFEA
0001
FFC5
0007
003E
0086
FFD2
0031
FFB8
0076
0028
000C
000A
FFE2
0073
FFF3
0074
001E
FFCB
003C
002B
003A
0019
004A
0065
0039
0034
0079
FFCC
004E
0010
FFB3
006C
FFFF
005B
0026
FFB6
0046
0094
006D
0018
0095
0034
002E
FFE4
FFF9
FFE8
0013
0048
0073
0042
0001
008C
FFF6
FFB0
FFF5
0053
FFD7
0046
008F
FFAB
00B4
FFC5
0046
003B
FFE7
0062
FFE6
0071
0091
0024
FFF9
0073
005F
0093
FFF4
009B
FFF5
0026
0016
FFB5
FFDB
FFEA
0075
008B
0017
005D
FFDC
0043
0065
001A
0037
006C
004B
FFDE
0065
007A
0036
005F
000C
001C
0097
0062
005D
0092
FFBE
0002
0070
0001
FFFB
0064
006F
0022
0076
FFEF
FFED
FFFF
FFD8
FFDD
005D
005C
0062
0003
FFFE
FFF6
006E
FFB7
0072
002A
004F
0034
0071
FFD4
009D
009A
0013
FFD4
000B
FFC5
0052
004D
008B
FFB7
0026
0096
0055
005F
008F
0084
FFD5
007E
0025
0006
005A
FFCD
FFFF
0081
0095
FFE9
007D
006B
0010
0078
005B
0082
0028
FFE8
FFF0
FFC0
FFF8
0062
0044
0065
0007
001B
004D
007A
006A
0000
0027
008D
00C6
00B0
FFED
009F
FFF0
FFD5
004A
0011
0026
003B
008D
002C
FFA6
0045
0086
008C
0006
0008
FFEA
FFD3
0016
0036
0046
0053
0030
0064
FFF2
0071
0008
FFC8
FFDF
0012
0058
003D
000B
0027
0061
FFF9
0070
0037
0076
0009
0037
FFB6
00A8
FFEF
002E
0046
003D
FFCA
FFB1
0031
0002
FFF3
0061
0031
FFD7
0063
FFD3
0023
0057
007C
FFFD
00A5
000B
FFF9
FFB4
FFF4
0074
0037
0004
008E
0045
0067
0027
0025
FFF0
FFCD
FFFA
000B
FFE0
FFF3
FFF8
FFD8
0043
0068
0046
0042
001C
0015
002E
0042
006A
004B
00AC
003D
0053
0051
004B
0029
0016
FFFA
0013
0002
00A6
FFC5
0050
004A
002A
FFB9
0070
FFD5
0032
FFF0
0050
FFE7
FFDB
FFD6
0013
0036
0043
0085
FFE0
FFFA
005C
FFB1
0069
007E
FFFC
001A
0049
000A
0056
009B
0010
FFFA
00B5
001C
FFBF
FFE6
0054
FFD6
0027
0069
0007
0078
FFCD
FFEA
004F
0083
FFF4
000E
0035
0000
0034
0072
007E
007A
FFFF
0078
007F
0038
003B
0056
001E
00A0
FFB1
0058
FFDC
0075
FFE5
0009
003F
00B6
0018
0059
0040
FFC6
FFC3
FFEB
0010
FFC0
006A
003A
0074
FFCA
FFF8
005D
FFE4
0051
0035
00AE
FFFA
FFB2
0062
002D
0031
0017
0070
0087
0009
000F
0034
003D
001A
0015
FFDA
003C
0055
004A
FFE3
FFDD
0065
0007
FFC9
0050
FFD0
0006
007D
FFD8
0041
001A
002A
FFCF
FFEE
0030
002C
FFCB
FFB1
FFE9
0020
FFE5
FFF1
003C
0058
0055
005C
FFED
FFFF
000F
FFD1
0011
FFFE
0082
0087
0052
FFF8
FFE2
0096
0011
0066
0011
0074
003F
FFDB
0051
0081
001C
0084
0068
FFCA
000F
0011
0070
0067
0081
FFF1
000F
0067
0082
0062
0093
FFE1
FFFE
0032
FFBA
001E
0011
0012
FFD5
0088
000B
0036
FFF0
0062
0030
FFD0
0088
0078
FFF9
0006
002C
0060
0053
0054
0009
004C
006F
008B
0062
0010
0073
00AB
0074
0065
001E
004F
FFDE
003D
0051
004D
0043
FFFE
007C
0014
004F
FFFF
FFC0
0020
FFED
0041
003C
0050
008B
0047
005E
002D
0014
FFC0
005A
0078
006D
FFB7
002D
0068
FFDB
0024
0045
FFFD
FFCF
0048
FFE1
0068
0032
006A
0057
FFDD
0021
0014
0064
0043
FFCB
0000
0042
00C0
0015
0084
0008
0035
FFC3
0025
002D
004C
0055
FFE9
0086
0006
FFCD
FFD3
0080
0037
0042
0013
FFC6
0016
0042
FFDB
FFE6
FFEC
FFB3
FFEE
FFEC
FFAC
0035
0038
0056
0065
004C
0007
0038
0045
0073
004F
0069
0014
FFD0
0038
005D
0000
0028
0046
0068
FFD0
0067
0000
0024
FFEA
0058
007E
004A
FFFF
0053
006F
004D
0074
0085
0043
FFE6
006A
0066
FFC7
0031
0025
FFD2
0005
FFEA
0007
FFEE
FFDF
0032
0019
FFF4
0002
0016
0014
005D
003F
007D
0019
0013
0007
0065
FFC1
FFFE
001B
000B
FFD8
0029
FFCD
FFCF
0049
00A6
0068
003B
0060
0008
0055
FFC6
0036
FFB8
00B7
0039
0066
FFB9
003A
002D
009C
FFD0
0012
FFAD
0017
000C
0037
FFF6
FFD0
FFEC
FFFA
0030
0027
0095
FFF1
0020
005D
0019
001D
0039
0075
0011
000F
FFBB
FFFB
001F
0090
0057
FFB2
0052
000A
0019
FFBF
0065
0014
FFF5
FFD1
0009
0052
003E
000B
FFF7
0085
002D
0016
005E
0075
0040
000F
0043
007C
FFF8
004B
0027
0015
FFFA
0053
FFFC
FFD4
0087
001A
0022
FFBA
0045
0030
0045
0058
0082
0040
0012
0043
004D
002A
002D
FFC4
FFB8
FFD3
0024
0080
FFB7
004F
0069
001E
0038
003A
0078
006F
005A
FFD1
000B
0015
001E
0015
FFEE
000C
FFEB
0022
0068
0036
0041
FFBA
FFFE
004D
0075
007A
00A3
FFAB
007D
0004
008C
004E
0046
0020
008B
0058
0031
FFC2
005B
0048
0064
0061
FFC0
FFDB
FFF7
002B
0023
FFB6
FFC2
FFD2
0048
FFFA
0067
001F
FFE0
0059
FFEE
FFCA
006E
FFEC
0010
000D
0081
0055
FFF7
0007
0057
004E
0041
001F
FFBB
0011
0065
0032
FFDC
0029
FFF6
007A
0084
0006
FFEB
FFD1
0024
004D
FFEE
FFED
0069
001A
0087
001C
FFBF
006C
FFD1
003F
FFD8
0094
0039
FFFC
FFBE
FFD9
0093
0078
000A
00A8
FFAF
0095
FFF0
FFFA
0036
FFD2
FFC0
007E
0057
0078
006B
001F
007E
FFEB
004F
004B
FFD1
0031
FFBE
004C
0023
0096
0086
005B
0005
0060
0090
0050
00AB
FFC7
0021
FFD1
0062
FFD7
005C
0072
001B
0067
0075
0076
FFBC
003F
0056
FFD9
FFC2
FFCF
FFDB
0049
FFBE
FFF9
FFC6
005D
0078
0030
00B6
0028
0047
0018
00A5
FFCA
FFC4
FFE8
006F
000E
FFEE
0077
FFF9
00BE
0020
005D
FFD8
0037
008D
00A7
FFB8
0024
004C
0053
FFDE
0024
FFD8
FFDC
FFCE
FFCB
0037
0091
009F
0094
FFC2
0071
004B
FFD5
0054
0086
003D
001A
FFFC
FFE2
007F
00A2
FFFA
0055
0087
FFD8
007C
006C
FFEE
004D
FFF7
FFD0
0046
0074
0057
FFAC
0041
00A3
0030
FFE4
0091
0023
0077
007B
FFFA
0054
000F
0059
0073
007B
0062
005D
0016
0035
0083
FFD6
008C
FFFD
001D
FFEF
0036
0014
FFC1
0007
FFD1
00AE
004C
0037
001E
0065
FFB2
004B
FFF3
FFDB
0038
009F
FFEC
0083
0057
0070
0083
0043
0033
0082
0032
FFDF
FFBE
000A
0051
0057
FFBF
FFBF
001A
007C
FFD2
FFAF
000F
0038
0080
007E
FFEB
0054
001F
0090
0094
FFC8
0061
FFD6
003B
0017
FFFA
FFD4
0042
FFF7
FFF1
FFB1
FFC4
FFBB
0059
000E
0047
0032
002B
0009
006D
0050
FFF0
007F
FFDE
000D
0097
0068
FFBF
0011
0052
002B
005D
FFEC
FFFF
005A
0072
FFD6
0074
0072
0001
0058
007A
0031
0013
0065
0068
0029
002F
001C
0091
0092
003C
007D
FFCE
0050
0007
007F
004D
FFF9
0041
0011
FFF7
FFEA
000C
0008
0081
0073
FFB7
007A
0095
0047
0020
003B
0014
0037
FFC6
0025
FFE3
FFDC
0070
001C
FFD1
0045
0015
0072
0094
0019
0073
0026
0023
003F
005A
0022
FFDE
0067
004F
FFEB
FFE7
003F
FFD9
001F
00A0
0026
003C
002E
0080
0050
0062
0029
FFE8
FFDB
FFE4
002B
0063
FFE0
FFCE
0043
0034
0057
0025
FFCA
FFBB
0015
FFBE
0090
0001
0055
003C
0051
FFF7
007F
0021
0035
008B
FFD4
0073
FFCA
003A
0036
FFF1
0018
007A
0006
0063
001D
FFFD
0075
0055
002F
003E
FFAE
0045
002A
0018
0087
FFE6
0019
0091
FFFC
000B
005C
007F
FFC2
0049
0000
0044
00AD
0032
FFEA
0003
FFF8
007E
006A
0019
004C
0054
0046
0049
001B
0031
0022
0060
0048
0079
0007
FFEE
0002
007F
0001
FFF8
0044
FFE5
002C
0092
000B
FFF9
0059
006D
FFE7
FFC8
FFD0
FFF7
0057
FFB6
FFEC
FFCF
FFBC
FFF9
001A
003F
FFD9
0003
0022
FFCC
FFE3
008C
0028
0058
0006
0060
FFF3
006C
FFCA
0074
FFFB
FFE7
000E
FFE0
FFFA
0025
00A6
000B
0002
0052
005A
FFC0
00AE
FFB9
0093
FFF9
0040
0038
FFCA
002F
FFC7
FFDC
0084
0048
0038
006D
FFE4
FFE4
0038
006D
FFC6
0028
0074
0078
FFCA
FFF0
FFFD
00A3
FFC2
0048
0078
005C
FFB0
0021
0011
0027
FFF9
004C
0018
0079
0054
0013
0083
0022
FFF4
008B
FFCB
0090
0083
FFF5
002D
0007
0007
FFC4
007A
FFBC
0045
0030
FFF4
0037
0010
001E
FFF3
0077
FFC7
FFDF
0084
FFCF
007D
0040
006A
0036
FFDF
FFE6
0086
005C
0017
FFE3
0052
0080
0029
FFB4
FFF8
0067
0010
FFE6
FFEC
FFF5
007D
FFC2
002C
FFFA
0039
0048
0038
FFD9
0019
004F
0071
0075
FFBF
006B
008E
000D
0066
0071
003F
003E
0064
0064
0089
FFBE
004E
FFC6
FFF4
FFE8
002C
0050
005A
001C
FFCC
0082
0044
FFE7
0049
001E
0014
0084
003E
008A
FFCF
FFFE
FFD3
0044
0043
0042
FFB4
0065
FFE7
FFDC
0061
003E
0038
001C
0015
FFD4
FFE5
006D
0062
008A
005F
006C
0013
0053
0070
FFE6
0030
003D
FFCD
FFC4
00A3
0029
0064
007C
0040
FFFF
009B
FFDC
FFC7
0006
004C
FFF1
FFDF
0035
0011
006B
003D
FFE9
000E
0080
001C
005A
0056
FFDF
000D
0059
FFBF
008B
0072
FFC5
0094
0025
005A
FFD1
0046
007A
FFEC
004A
FFD9
0007
FFD4
FFF8
0028
FFE8
0043
FFCA
005A
FFD0
FFD3
0044
0026
0001
0057
FFD9
0077
0064
FFE6
0017
002A
0034
0009
FFDE
FFD9
001D
FFDB
FFDB
0065
0001
0080
FFDA
0048
004D
FFB6
0053
FFE8
0047
0069
0022
0031
006E
001D
008A
0084
FFFE
008A
002A
0015
0002
0000
FFBA
FFF8
0028
00A3
0072
FFBD
0084
0001
0020
FFE5
0067
FFFB
FFF4
007E
004A
FFF0
0000
006A
007D
0019
0005
FFCB
FFE1
003C
0084
FFDF
004A
FFE0
006A
FFF2
006A
FFE1
FFFF
FFC5
00A6
0026
00B0
0013
0058
FFF8
FFE9
FFBF
0052
0017
006B
FFC2
FFBD
002D
FFE6
0007
FFD0
FFED
0026
FFF0
00AB
FFC0
FFF6
0005
FFCB
0089
008B
0040
0009
0043
FFEB
FFB5
0026
0040
0024
009C
0024
FFCC
0076
0044
FFFC
0089
FFEB
FFD0
0017
FFE8
0089
003B
006E
FFFD
FFD7
0015
0083
FFAF
0051
0039
002B
004A
0040
0067
0008
001E
003A
007A
0078
007C
FFD3
0008
0070
003B
0044
FFE4
0053
0038
FFE0
0009
FFBB
005B
0026
0034
006B
0024
0064
0057
FFA6
FFE8
FFD7
FFD9
0034
FFFF
000C
FFCA
FFC4
0040
0025
FFDC
FFF1
003E
FFD4
007A
0013
0016
0076
003C
008C
0006
005D
FFC5
FFE9
003B
FFD7
FFE7
0037
0029
0007
000D
0033
0000
FFF5
0026
0060
000C
0037
0026
0056
FFC7
0010
0075
FFF1
FFF9
FFE4
005A
0031
0040
004F
007A
008C
FFC0
0074
0098
009A
0018
0036
FFF9
FFFF
0033
0003
FFD6
FFC8
0055
0022
004F
008D
FFF8
002B
007E
FFEF
0017
005C
0012
0010
0053
FFC0
0079
FFE0
FFBB
00A2
FFFF
0068
0012
0024
005D
FFE3
FFAF
0072
0062
0019
FFCD
FFB1
FFF1
FFE1
FFCB
FFB5
0025
0037
FFC9
0065
003C
002C
0047
003D
0032
0015
FFD0
FFD9
0008
0059
FFF4
004E
0020
0056
000D
0026
0063
0053
0029
FFC6
0045
0086
FFAD
FFE7
00A4
0022
FFE2
0070
FFB8
FFBF
0012
0032
002F
005A
0020
FFB4
002B
0026
00A9
FFC1
0051
0077
001B
FFEA
FFD6
0076
0039
0023
006A
FFDC
FFDA
FFDA
0016
FFBC
0030
0046
FFB5
0051
FFF7
0005
FFE0
0084
0050
008B
000D
0066
004B
0024
003C
0044
0042
000C
0010
FFDF
FFFA
006E
0066
0043
FFD5
FFD6
FFF1
0062
0063
000D
0013
FFBA
000E
0009
005B
0083
FFDE
0015
0061
0025
00B3
0027
0053
0038
003E
FFDD
FFE4
0003
0068
0045
002F
001E
FFC4
002E
FFE4
FFD6
0052
0002
FFC5
003A
0053
004F
000D
0009
0048
0044
00A0
005F
FFB4
0005
0047
0051
FFD4
0034
FFDC
0087
FFC8
FFF2
0051
0020
0029
0048
0022
0023
0006
FF99
FFD6
FFBD
0045
FFC6
0068
0058
FFE3
00B3
00B0
008D
0034
000A
0021
005F
0080
0015
FFF2
FFB8
0012
0033
0012
0007
FFFD
0003
0072
0080
FFE2
0009
0083
FFCC
001A
0008
FFCC
00A0
005A
0079
003C
0053
FFE9
0052
0079
FFD8
0038
0075
002C
FFDE
FFF7
FFF8
FFE9
004E
0010
FFF5
006D
0003
0086
009A
FFDF
FFE5
FFCD
FFF5
0034
0000
0093
0063
002D
FFD9
FFF2
002D
00B2
FFD7
003F
0044
FFB0
FFFD
0063
0072
0047
FFD6
0065
FFCF
FFD1
0070
0080
002C
FFD0
0056
FFCC
0081
002B
FFFA
00A7
FFDF
000E
005D
0002
006D
0028
0076
0065
0009
0016
FFFC
0049
005F
FFD7
0035
005B
0026
003A
FFD5
FFF7
FFE2
0095
0022
003C
0038
0083
0099
0075
0015
002D
0072
006B
0020
FFCA
0083
007E
0057
0029
007B
FFFD
0060
FFF2
FFE0
FFD0
FFD6
FFBB
0042
FFF7
0027
004A
FFE3
FFD2
0003
005B
FFF7
FFD9
006E
FFC6
0037
0008
0022
005E
006B
0052
0036
FFE8
0013
0012
FFFA
00A8
0072
0088
003C
0029
007F
FFCE
FFE5
FFB4
0034
FFC7
0090
FFBF
002D
0000
0085
FFC3
FFF9
0050
006E
0034
FFCE
0071
FFE2
0029
FFF6
FFC4
FFDA
FFDF
0032
FFD6
FFE9
006A
FFE2
0031
007C
004C
0052
FFB9
002D
FFD0
0065
0014
0035
FFDF
007B
FFFD
0088
FFD4
0054
00AF
0063
0078
0009
FFF2
0073
0083
0001
0021
0020
004A
0022
004B
003F
002A
FFC1
FFFF
FFF9
005D
0008
001B
0041
009E
FFC7
FFE6
0037
00B5
003D
004D
FFEF
0040
0071
0069
006A
004D
0068
0008
FFC1
FFE7
000E
005F
FFAD
FFE2
FFDE
FFE5
FFA6
0054
0045
FFBF
0021
0086
FFEF
FFD6
0019
0027
FFD0
0046
002C
FFC4
FF9F
001A
FFC3
FFE3
0048
00A1
0094
FFCE
FFC9
0057
FFE4
0026
008A
0029
007E
0066
FFE7
003F
FFD5
0041
00BC
004A
0085
FFD8
FFF0
FFB1
FFDE
0025
0040
0057
0060
0012
0082
0001
FFD4
0082
001F
0049
FFFB
FFC8
0006
0025
FFE9
0054
FFC5
0073
0063
FFDD
0028
005A
FFF9
0094
0035
007E
FFC4
0092
009B
0023
007B
0046
0052
FFAF
000F
FFDF
FFD8
FFF5
0024
0061
0092
FFE8
002F
006E
FFF5
001E
002C
003B
004E
001F
0030
0086
0076
004A
0019
005F
0066
FFE4
008F
FFBF
0061
002F
0009
FFFC
0059
000A
FFD4
006D
0092
FFB4
005C
FFFF
FFBC
FFD7
FFDE
005F
00A2
009A
0056
FFBE
0009
0083
005C
0061
0061
0031
FFEA
0059
FFCE
FFC9
000C
FFF1
0006
0071
FFD2
0033
006C
002A
0006
0029
006E
FFE1
0078
0004
003E
0038
0082
FFFE
000E
0077
FFEA
0020
FFBE
004A
FFE7
005A
0032
FFDF
0075
0020
FFEA
0056
0002
FFF1
FFB4
006E
FFF4
FFDD
002F
0007
0009
0044
0045
0056
0022
FFD5
002E
0034
0095
FFF6
FFDE
FFB2
FFC4
0079
006E
0075
FFF2
006F
FFE8
FFB1
FFD9
FFF9
005F
0038
0078
FFC0
FFBB
0013
FFD6
0044
0043
0056
007A
FFD2
00A9
FFC7
0057
004C
0024
0073
FFE3
FFDE
0058
FFEC
FFD0
FFB1
0051
001A
0003
00A0
002A
0030
0013
0028
FFE5
001E
FFD1
0029
006F
004E
FFC6
0001
0033
FFC9
008B
FFE7
00A2
000F
0057
0055
004E
FFB2
0065
0022
003F
007D
FFE6
0038
008C
0007
FFBD
007E
000C
000F
0049
005A
FFE5
0006
FFCA
FFC7
0038
FFEF
0050
0036
0005
FFA8
0040
0046
0022
FFE5
0054
FFC3
002E
FFFD
FFF0
0025
FFC9
0074
FFCA
0078
005A
0010
0019
FFD9
FFF9
009A
0020
0005
0036
0067
FFE4
0086
003D
FFBC
0091
0035
FFCF
FFED
FFC3
FFDF
FFF6
FFCF
0087
0016
FFC6
008A
0070
0082
FFEC
0041
FFE1
FFE2
001D
007B
0092
0068
0054
00B4
003C
00B2
FFD1
FFFA
0021
009F
FFE7
007E
FFD1
006E
004D
FFAC
0058
0060
0031
0014
FFE6
0064
0041
0088
0031
0093
0079
003B
002B
FFC1
0052
00AB
0036
0025
005C
0004
0067
FFEF
005B
0032
FFE9
004C
003A
0067
0051
0007
005E
FFF8
002F
FFF5
FFEA
0003
002A
000C
0058
0051
0092
0075
0096
0034
00AE
FFE7
FFFF
0094
0052
0083
0063
0080
0082
FFD6
0048
FFDF
005D
FFAD
FFBC
0040
FFBE
0007
FFFF
0039
002F
0000
FFF2
0078
0035
0092
0002
0057
0045
FFFB
0082
000D
FFB4
FFFF
005B
0076
FFB6
003A
00A9
008D
007B
0097
FFEC
006C
00A5
0034
FFF4
007D
001E
FFC5
0075
FFFC
0000
0029
0036
002B
007C
FFAA
0091
007B
FFF7
FFE0
002D
0055
0075
005E
0045
0028
0079
0037
0019
FFEF
0075
FFCD
FFDB
004A
FFE3
0037
0079
004A
0028
FFDA
002B
006A
FFEA
000C
FFFC
0057
FFE6
0061
003C
0057
FFD9
0039
0078
007D
FFB5
0062
000E
002C
006E
FFE8
FFDA
FFD0
009E
0080
003A
007E
FFF8
0088
FFED
0060
0050
003C
0077
004F
FFE6
000E
0028
FFBA
FFFB
000D
FFD5
FFDB
FFC8
0042
0085
0037
001D
FFE3
004E
0085
0026
0098
0057
0017
002A
FFD0
0086
FFE2
FFDE
FFF1
0038
0081
005D
FFE3
FFFF
FFF8
0092
FFDD
0063
0057
FFC9
FFE8
0051
FFD7
000B
0078
FFE7
005A
0097
0036
0078
004C
FFC2
0009
002B
002C
007C
008F
0002
0052
FFDB
0029
FFE4
0081
001C
0069
0004
FFC5
FFF2
0067
FFFE
000F
FFC8
0049
FFB0
0076
0016
0064
FFC2
0059
FFEE
FFEC
0022
0092
0045
0041
FFBA
00B2
006F
0019
002A
0010
FFE6
FFE1
FFED
002B
001F
FFC8
007E
0069
FFDD
0088
FFEA
FFF9
FFD3
001A
007F
0050
0063
FFDD
0077
FFE9
008D
0076
FFB8
004F
FFED
0017
0044
003E
003E
009B
0019
0023
004B
FFC6
FFEC
FFE5
000D
000F
0001
007C
FFD6
0061
0020
FFC7
0067
0066
001E
004F
0071
0001
0093
0036
003E
002B
0059
FFE5
FFC1
005F
FFCA
FFDA
003A
001A
0079
0029
0002
0015
000F
004A
004E
0039
0038
0037
002D
0065
0028
007E
000A
0052
FFC2
FFEE
0055
002B
006B
0084
006E
005C
FFD7
00A9
FFDA
FFF6
005C
0001
005F
0014
0058
0080
00A5
0086
0043
000B
0007
FFF5
0068
FFC6
FFF2
0069
FFBE
0056
008F
FFEC
0053
0041
002C
005B
0069
0020
FFFF
007E
000C
0000
0016
0044
000B
0082
001D
0045
000D
0027
009F
FFD7
002E
FFB1
0045
FFFC
004E
0043
FFD6
006C
FFF7
0005
FFD4
0054
004C
002E
FFD8
0070
FFD8
0051
006D
FFE6
FFA7
FFFC
FFE9
0017
0070
001A
0062
FFCF
0004
004C
0051
0033
FFED
0051
FFF9
008A
FFC3
FFE6
0015
009B
0083
0041
0043
0056
0010
007F
0040
0046
0009
0031
008C
0019
0016
0095
000B
0035
0027
0012
FFE4
FFD0
0073
FFD5
0084
0067
FFB7
003C
0025
0024
000D
FFF9
0082
0052
FFD5
0002
FFAC
FFE5
FFFA
0097
0075
0020
0054
FFEA
FFDE
0087
0035
0000
0089
002C
FFE6
0021
0055
FFFC
0078
0026
003A
0037
0085
0051
008D
FFF2
0061
FFFE
FFD8
0018
FFF9
0070
FFDF
FFE7
006E
0009
0036
0000
0007
FFB9
0007
0074
004C
FFE5
006E
FFC4
FFE1
0020
004B
00B7
008F
0011
FFD5
0070
0039
003E
FFED
0059
0055
000A
0028
0036
0003
FFC4
005C
0035
0024
0055
002D
0015
005D
006B
000B
FFFC
0056
00B1
FFE1
0038
0050
FFB2
0053
0038
FFDE
002B
00AD
0037
FFFF
FFDC
003D
0075
002F
0041
FFC6
0041
0005
005D
0061
0043
FFCA
0013
FFE7
004C
000D
007F
0073
0063
0013
0032
000A
001B
FFE7
FFD4
0001
FFB0
0094
FFD9
005E
0053
FFB5
0019
0030
FFEE
0069
FFE5
FFCE
0007
0053
006D
FFE3
001E
0003
000C
0073
002E
007E
006D
0031
FFD7
0020
0034
0029
FFD5
FFF1
FFD9
0035
000F
0000
0086
007F
0069
FFDF
0058
0039
FFC7
FFCF
002D
FFC0
0066
FFEE
FFCC
008D
0035
003A
0009
002E
FFC0
0021
FFB5
001F
0016
00C9
0047
0039
0017
FFEF
FFEA
005B
0052
0043
0022
009D
0073
0058
006D
FFFD
0047
0018
0037
003F
FFDB
0041
0061
0050
FFD2
005D
FFEF
FFB7
005A
FFBA
005F
0079
0077
0031
FFCE
FFD3
0062
FFF0
FFE0
004D
0062
FFB2
FFCE
FFFC
FFF7
0013
FFEE
0028
0042
0015
007C
FFBA
0021
0073
005F
005F
0017
006C
FFD4
000A
000F
001F
0020
FFD9
FFB3
0069
005C
0049
004F
FFB9
008E
0047
0016
0069
006F
0016
FFF5
0062
0052
00B0
00A0
0030
0066
FFFD
004A
005B
0015
003C
0065
0021
009D
0097
FFDA
FFE8
FFC2
FFDC
0042
006B
001A
0063
FFDA
0076
003C
FFD0
007F
0016
006F
0051
0040
001A
0039
FFC9
0057
003D
003A
0054
0037
FFEB
FFBF
002C
003E
0050
0001
0002
FFCB
FFB5
004A
0090
FFC1
001E
0091
0034
FFD9
FFD1
0024
FFC1
0096
002E
FFC8
0014
009D
007A
006B
0020
0074
0043
FFE2
0043
FFC0
0071
0071
FFE5
FFDA
0088
007C
FFD2
FFF5
0081
FFF7
0091
FFC6
0076
0077
0081
0012
004E
0055
FFED
0005
0087
0036
007D
FFE3
FFB4
0061
0051
FFDA
FFD1
FFF6
0047
007D
FFF5
FFEC
0020
009B
008B
0030
004D
0072
00AD
0084
FFF9
FFE1
0068
0092
0081
FFE9
FFF9
0050
FFF7
FFED
002E
0008
0021
FFD1
001E
006B
003C
FFF8
004E
FFBB
005D
FFFE
0004
FFF7
FFEA
0085
FFD7
0049
FFFA
FFF8
0073
0041
0022
006B
FFE1
001B
007B
007F
0081
00A7
FFDA
0076
FFC6
003B
FFF5
007C
006B
FFF5
005B
0003
008F
0061
005F
0081
0034
000F
FFDA
000B
FFEE
008D
0012
FFC0
003B
FFC9
005A
FFD1
00B4
003A
0078
FFC7
0072
FFDA
005A
0013
0033
006E
00A7
FFBA
003E
003C
FFDC
006C
000E
000E
FFF4
FFE4
FFEB
FFBD
0034
FFC9
007A
0048
0078
006C
0032
001E
0032
FFB0
FFFF
FFF7
0069
FFE2
0051
FFCF
0038
0064
0037
0076
FFCA
0007
009A
0008
0057
003B
0050
0010
0039
0058
0070
FFCF
FFFA
004A
0010
FFEA
0001
009D
0073
FFF0
004A
0046
FFE5
0073
0067
00A9
FFBB
0022
002F
0026
0001
0013
005F
007E
FFB9
000E
0038
0004
0069
FFE0
FFE0
000C
FFBA
0035
FFD0
0039
FFBE
0008
000C
0051
004B
0002
009A
FFBD
0065
001E
0083
0032
005B
008F
0047
0003
00AE
0030
004E
004F
000F
0009
FFD0
0036
007E
FFCA
0031
FFF6
FFFC
FFF2
007C
FFEC
0050
FFE3
009E
0001
FFEB
0034
009F
0016
0066
0081
FFDC
FFE8
FFD5
003B
0069
00B7
0052
000E
0063
009B
004A
0013
FFF6
0025
0015
FFCE
FFF1
FFCA
FFB0
001D
0077
0025
000E
FFDB
007B
0032
001C
FFF6
0052
007D
FFD3
0013
0077
0035
FFC7
002E
0045
0058
0017
0013
0007
FFCA
0072
FFDD
0072
00A3
0079
0034
003C
0033
FFC5
FFC1
FFDC
0009
0041
0054
0013
0035
007E
00B9
0074
FFB3
0012
0048
0021
0073
0072
0061
FFD1
FFDA
0023
0072
FFC6
FFC8
0087
0033
FFBB
0023
FFC7
FFD9
FFD2
0042
FFBB
0089
0010
0047
FFC3
0047
0009
001A
002E
0043
0058
FFE6
FFF9
00B9
0036
0019
0090
005E
FFC4
0029
FFF7
002D
FFD9
FFEB
FFBF
FFEE
0024
0076
0054
001B
0019
FFF8
FFC4
008E
000C
0071
FFDE
0028
0072
0083
005D
001D
0088
0045
009D
FFE6
0079
FFBE
006B
0024
004B
005A
0065
0041
009B
006E
0004
0051
004A
0041
0060
0006
002B
001C
0089
FFDC
0075
000A
008C
0045
004A
FFE9
0010
0022
FFAE
0009
0037
FFDD
FFD5
009F
FFB5
FFEF
001C
0015
002D
0032
0067
0091
0005
FFEF
0043
008A
006E
006C
0046
008B
00A1
FFEE
0007
002A
004B
004B
FFDF
0020
006B
002B
0039
0080
0087
00A4
FFE5
0016
007B
000C
FF9A
0040
0089
0003
007D
003A
0037
0028
00A6
008C
FFDA
FFFC
0099
0012
0064
0050
FFE4
0026
0083
0070
00AE
0032
0054
FFC2
0071
0008
0099
0017
0004
0029
FFDF
FFC9
FFE7
001A
005B
FFE4
0082
0091
FFE1
006B
FFD3
0079
002B
FFF6
005A
0002
FFD3
FFCE
0037
0066
FFF9
0094
0086
0045
0077
FFE8
0039
005C
0045
007E
001E
FFBE
0068
0056
FFB7
00BE
0012
0060
FFF7
00AB
000C
0077
004E
FFF8
FFE2
0057
0002
FFEB
0069
FFCC
004E
FFE8
002F
FFDC
005B
0012
FFF0
FFB7
0052
FFF4
003C
0021
FFF7
FFF7
0055
004E
0088
FFFB
005F
004B
004F
004A
006F
FFF7
006C
FFF3
002C
FFC4
FFC5
0005
FFFD
0021
FFCA
004E
FFC7
FFE2
000B
0041
FFF1
0068
0033
0049
FFE4
0080
0030
003A
0016
001E
0070
0047
007B
001D
FFEF
0005
0061
0024
0067
0064
0055
001A
0020
0017
FFD9
FFF6
FFFC
FFFF
0051
0027
001A
003E
FFAF
0091
FFC5
0063
0034
006C
002B
FFB8
007F
0096
FFC1
0064
FFF6
00A5
001A
FFD8
FFB7
000A
0023
0065
FFEB
0049
FFE8
FFB2
0051
FFC3
004B
FFF6
008E
0064
007D
005F
FFCD
FFC2
FFFB
006E
0068
0077
000A
FFD7
FFFB
007D
0051
003F
0057
007D
0045
0019
0028
007E
0030
FFC5
0018
0094
0079
0047
FFE5
0018
0037
0010
0072
004A
0066
0061
004F
0021
FFDF
FFE4
002F
005B
FFC6
005A
0002
FFB3
0072
0082
FFE4
FFDF
0033
FFFC
005B
004C
006E
0066
001C
008A
FFF8
FFE8
000E
0012
FFB4
006D
FFD0
0011
FFBD
FFE4
0004
0057
FFD7
FFB2
0002
0030
0053
FFF3
006C
0086
0005
003A
FFC9
FFEE
0058
FFFA
000B
0036
0059
001B
FFF7
FFFA
FFCA
FFEE
FF9A
FFD9
006C
FFB6
FFE4
FFCF
0058
0052
FFC0
004C
FFEB
FFED
006D
001E
006C
007C
008D
001D
FFC6
0029
000C
FFB9
003D
0053
0033
0007
0059
0088
0064
0024
001E
0052
FFCB
FFE1
FFB2
FFDD
004D
FFDC
00BF
0013
0047
002E
0029
0008
0019
0093
002E
0071
000A
0044
FFD3
006B
0047
0059
0022
0058
0050
000B
FFBD
0038
FFD8
FFE3
FFE7
0072
005B
007F
FFDC
0022
001D
0048
FFF4
0072
FFE9
FFEA
FFD2
FFB0
FFF4
0078
0029
0069
0036
FFDF
FFE3
001A
0006
005F
FFFC
0013
FFDB
FFDB
FFFF
FFE6
0061
000A
005C
0073
008C
0074
FFE8
0014
000F
FFDA
0089
00BD
0089
005D
0079
001F
004D
0078
FFB9
FFF7
0038
0079
FFC3
FFA8
FFBF
FFC5
0089
0029
0039
FFAB
FFF5
FFC4
007E
0028
FFDC
009F
005D
0098
001A
FFEA
0041
007C
001C
001F
FFC2
003C
006C
FFD2
0039
00AE
0039
0017
00A3
FFD8
003B
003F
FFBF
00A8
0065
0014
0006
0018
008D
FFF9
004C
002A
0059
FFCD
0088
002F
FFEA
FFBA
007C
FFDA
0000
0048
001E
FFCC
FFE3
FFDD
0015
0069
0036
002F
005E
0014
002E
0085
0042
004E
007B
FFC7
0078
0055
FFD4
008F
0087
0006
000F
0012
003A
FFFF
0089
0054
FFCB
008B
FFDC
0005
0070
000C
0008
0014
FFD9
006B
FFE5
0067
004C
002A
0013
004F
0089
FFD0
0020
0067
0014
0069
005D
000C
FFB7
0044
FFC4
0021
004D
0079
FFB4
001E
0049
FFE1
0019
FFD5
0003
FFE4
005C
0078
0008
000C
0025
007B
004B
FFC7
FFDD
FFD5
FFC6
FFDF
0064
0096
003F
FFDB
0030
00B2
0041
FFCA
FFF9
005C
FF93
0005
0057
0038
0017
008D
00B3
FFF9
006B
0044
004C
FFDF
0053
006A
001A
0041
0095
0052
FFEC
0088
0013
0055
004A
FFE1
0088
FFE0
001A
FFC8
0015
0074
0046
0039
0048
000D
FFEB
FFE2
0042
0063
003D
006C
0041
FFC2
004A
0045
0012
FFF7
0043
0067
0038
002F
0004
0033
0054
0011
FFB5
0041
006C
0026
0075
0049
0042
0031
005A
0091
FFF0
FFD9
0033
FFD0
0060
FFD1
0027
0060
0028
0000
0000
004B
005F
002F
FFD5
FFFE
0012
005B
0092
0068
0025
FFE1
0038
FFF2
FFB8
FFB6
0038
0027
005F
FFF8
002D
FFDD
0063
0071
FFDF
000D
0021
0038
0067
004B
0030
003D
0059
FFBA
FFFA
FFD9
0009
FFDD
FFFC
000D
FFED
FFC9
004A
007F
0089
0046
0050
0045
0019
FFF8
007D
FFBA
004F
0046
0006
0052
003A
0009
0020
0045
0018
0049
006E
001F
0038
FFC8
004D
0096
0013
FFCD
0062
006B
0073
00A5
FFF3
0029
0072
006F
0055
0019
000F
FFC4
FFDC
0000
000A
0047
FFDB
0065
0069
FFEB
004A
0079
0006
FFEF
005C
0029
0061
FFCA
0027
001E
002F
0081
0045
005F
FFAC
FFF3
FFC0
FFF7
FFE3
0036
0063
0062
004A
FFD2
0031
001C
0060
0039
00B5
FFDB
0055
002C
0028
FFFB
FFDD
FFED
005C
00A3
FFCD
0059
0037
FFD4
FFD8
0090
0088
0052
0093
000E
0026
FFF1
0016
0057
0070
FFFA
004F
007E
FFDC
FFB5
006E
FFFF
0082
FFF3
FFC1
005B
000C
0009
FFE4
008A
000F
0080
0019
FFBD
0065
0003
0055
FFE7
0077
FFBF
0039
0007
0000
0027
0054
003E
008A
0085
FFF7
0093
0096
004A
009A
FFCC
FFF0
0041
FFC0
FFFF
004C
006A
0051
FFDB
001C
001F
FFCF
007E
0085
FFEC
FFF8
FFE1
008D
0078
0067
006D
FFEF
FFD1
FFC0
004E
0009
004B
008B
0027
FFC3
0040
FFF9
FFF4
0066
0017
002E
FFDA
FFBE
FFD5
0086
FFC6
FFC2
FFD9
0039
0021
0012
0018
0052
0021
FFF0
FFFB
006F
0086
FFD9
0069
001C
FFE2
0052
FFFB
0046
FFB2
FFD4
FFB5
0047
FFBF
FFBB
0003
000D
FFDF
00AE
0010
004F
001C
0005
0024
001C
FFE9
0054
0088
0084
0004
0019
FFF5
0062
001F
007D
006E
0012
0060
0036
0073
FFBE
006A
FFD6
0021
006D
FFDD
0070
0085
0023
006A
001A
FFB1
0045
005E
008B
FFFA
008B
006B
FFF5
FFF1
FFCC
005F
003E
FFD9
FFE0
0058
FFC5
0028
006F
005A
FFBB
0023
FFBD
0052
FFFE
000D
0010
0058
0018
0029
001C
FFE2
0003
0027
0093
0014
0075
003D
004E
FFF0
0053
FFF1
0063
000E
009E
000F
0051
0072
002B
008C
0034
FFF6
000F
FFC9
0048
006D
0038
0053
FFFB
0078
FFD8
FFDE
FFE5
0001
007B
0086
FFDC
0033
005C
FFDF
006D
0054
0075
0032
0031
FFBD
00B8
002E
FFC1
FFDA
0055
0072
000B
FFE2
008E
006E
FFF1
0093
0015
0030
0078
FFDD
0045
FFB1
0091
0083
FFC3
0026
0070
007F
FFB2
0097
0067
0033
006B
0082
FFE2
00A2
006C
FFAE
002A
006C
FFF1
0066
0059
0079
FFE5
0046
0049
001D
0006
0033
006E
0095
0028
003A
FFF4
0061
FFC6
0069
0047
0098
FFCF
0046
FFEE
0003
0038
004B
0028
00AF
003E
FFCF
0016
006D
0014
0058
0027
0054
0005
FFF2
00B7
FFF7
FFCD
FFA5
0039
000B
0050
002D
0021
FFE0
FFDB
0026
0085
FFE6
FFEA
003F
FFD6
000E
004C
FFFD
FFE1
FFCD
0096
0076
0043
008C
FFEF
0087
0051
002A
0046
FFCC
0069
002D
000A
0055
002A
005F
FFC7
004C
0019
0077
FFD3
FFF7
0030
FFD3
FFDD
0086
0010
FFC6
0004
0064
0050
0018
0024
0036
0063
FFF2
006E
FFCC
0065
0024
FFCE
0092
0012
FFF2
0003
0054
FFBD
0027
FFBA
001A
0094
FFEC
008E
0032
0051
0073
0010
0015
0025
FFEC
FFF5
0036
0072
0031
0016
0054
0056
009C
002E
FFCF
FFE9
0007
0056
FFD9
006A
0018
FFDD
000E
FFE5
003A
0068
FFAB
0074
0048
0087
0043
0046
00BC
00A3
0080
FFFF
0009
0012
0010
FFC1
007E
FFE6
0057
0002
0053
0009
0013
0014
0019
007D
FFAC
0040
0016
FFD4
FF9E
FFE0
0015
FFEB
0081
0004
0080
FFD4
FFF3
000C
003A
FFDC
009A
003C
FFD3
000A
FFFA
007A
FFD7
FFF5
0010
FFE9
0011
FFAF
0040
0066
FFE5
0026
FFEC
FFD4
0080
FFF6
0046
0062
FFCF
FFB7
006C
0069
006B
0073
004F
FFE8
0060
0082
FFFE
FFDE
004D
0078
FFEC
0046
FFE3
005C
0066
FFAC
FFC8
003A
0018
0086
FFE4
0009
0016
0010
0037
003B
FFEF
0032
FFC0
0086
FFF9
FFC0
008A
FFF9
00A7
007B
0038
0042
0051
0034
FFC0
FFB1
FFCF
FFE0
0038
FFF5
002F
0019
0058
007C
0038
FFFB
0091
0090
0034
0080
002A
FFD7
FFF1
0002
FFF3
0096
0014
000E
006C
0018
FFA5
000B
FFFA
FFF8
0074
003F
0069
006E
008D
FF95
0033
FFB6
0091
000B
0002
0088
0083
FFC3
006C
0035
0047
009D
FFF2
0000
004F
0056
008A
0041
003F
FFE8
004D
004F
007B
0063
0045
FFFD
0082
002F
0042
FFFF
0018
0035
FFE9
FFD1
FFE6
0078
002D
0002
0048
003B
0062
0079
FFEE
0077
0058
FFE2
0057
FFB5
0072
005A
0049
0082
0076
006A
006A
0084
005A
002B
001D
000E
0053
0036
0008
FFE7
FFE8
000D
0064
0068
001C
0062
002C
FFEC
0057
003E
001E
0040
0078
0065
0034
001F
FFCA
002F
002C
00A2
0071
0051
002C
FFE4
0079
FFB5
0066
007E
FFDB
0029
008D
0041
0006
FFDF
FFB5
FFEC
00AA
FFEA
005F
FFEC
007D
0047
FFB9
0007
002B
FFE0
FFFA
007B
0036
FFDC
FFB1
0023
004F
006B
FFAB
0014
002F
009C
0059
0037
000E
FFC8
FFDC
0046
FFE9
005E
007A
007C
FF9B
0060
0023
0082
003E
000E
FFED
0032
0000
FFEF
0059
0023
0018
FFCA
000C
0034
0019
0076
FFCC
FFF0
FFAF
0035
0090
FFE1
0006
FFD6
FFE9
FFEE
004F
0080
0065
002D
0018
0011
0051
0056
000B
0041
002D
FFE9
0012
005A
FFE5
0052
FFFE
0075
0054
008E
004B
0084
000A
FFF1
0070
005B
FFF4
000F
FFFE
00B5
0077
0077
001E
0026
FFBA
0028
0000
FFFC
0090
0013
0042
008C
0021
0071
FFF6
0086
0057
001C
0018
0081
0009
FFE5
002D
005C
0019
004F
0089
FFBC
FFE9
FFE4
FFB0
FFA5
FFE8
000C
FFEB
0085
0010
FFEB
FFF5
FFF8
FFDC
0071
0056
005E
006A
007B
002D
0028
FFE4
0030
0095
0048
0040
0031
FFF2
0020
0076
0074
0034
FFFF
0018
001A
001E
0097
FFEF
000A
001D
0051
FFC7
0069
0058
FFD5
FFED
001A
FFEF
FFE9
0078
00B8
FFE3
0076
FFAC
0092
FFE0
0031
0043
FFD2
FFF1
FFB3
004E
00B2
004C
0027
FFED
007A
0060
FFE0
FFC3
FFCF
001C
FFFE
0072
FFCF
0006
003B
005C
003E
005F
FFBD
0031
0018
FFE5
007C
004F
0052
FFF2
0034
FFDA
0003
000A
0056
000D
0003
0084
FFAC
0027
0040
0037
FFCC
FFE7
0087
0047
0028
FFEC
FFBA
0086
0066
FFDE
004D
0000
FFE4
FFF9
0053
004B
FFBF
001B
0035
0092
000B
FFF9
FFFD
0052
0073
0070
0000
007F
003E
002D
0011
0038
0060
0026
0028
0089
003C
006D
006E
0078
006D
003F
0037
0034
0071
005C
0005
005D
005F
0074
0007
0014
007F
0010
0055
0047
FFD5
FFD8
006E
0061
009D
004E
0048
002D
FFCE
FFE8
006C
FFBE
0003
FFEF
0080
FFCD
002E
FFEE
0048
FFA9
0054
FFE6
0051
FFF1
FFE2
FFAD
FFFB
001E
0010
0083
0086
FFDD
0016
0034
0049
0011
0059
0034
0020
0028
0040
005E
FFDC
005E
FFD9
0016
FFD7
0092
0033
0002
001E
0093
0081
000C
006E
007F
005A
0006
0015
003F
FFD9
FFC5
0064
0014
006C
0082
009C
FFC7
0026
0084
0078
FFDD
002E
0088
008F
0024
0079
0089
0073
0000
FFC3
004D
004D
FFBE
FFDF
0038
007A
0063
002E
002A
0027
FFCA
0004
FFF4
0053
FFC1
FFF2
007D
FFE1
003A
0013
00A2
FFEB
FFD4
FFDF
001B
FFDC
0028
0082
FFDA
0010
007F
0011
0050
FFCA
0098
FFD1
FFD1
0092
0082
001D
FFB4
0046
0029
002F
FFE5
006E
0066
006C
FFAA
FFCD
001A
FFD6
002A
003D
002C
0056
FFE9
004E
00A1
0016
000B
FFF1
0061
0011
0089
FFCB
0060
006C
0058
0047
0050
0033
FFCD
0048
007F
0005
0036
FFCD
002F
0028
0002
00B5
FFF0
FFF5
0050
0052
0027
0032
FFE7
006F
FFD7
002F
000B
003E
0023
0023
0080
001C
FFFE
0070
0005
005C
FFC1
0061
0020
0066
FFD9
0001
003D
004D
FFF5
0000
0013
0084
FFB6
FFAF
007A
00AA
0029
0056
003C
0012
0049
003D
FFEB
0067
0030
0024
FFA5
FFC1
0034
006D
0060
FFF2
FFDD
FFC5
0036
0036
000D
FFC4
0083
005D
0046
005F
0049
0047
FFBE
006C
FFB0
FFDD
001A
0068
FFFC
0059
008D
FFD4
0005
FFEC
005D
008B
0002
0024
001D
FFCE
003B
0039
0025
006C
003E
FFDE
006F
FFCB
0008
FFB9
0076
0041
FFDB
006A
0073
00B5
005F
FFFB
008B
FFEC
006C
0030
FFBE
FFDE
FFC9
FFBF
FFEB
0007
0068
000F
FFA5
0070
FFE6
FFC1
FFC8
FFEE
000E
FFF9
FFF7
0083
0005
0077
FFE2
FFB6
005F
0061
0054
0040
0063
0066
FFE7
FFF1
0078
0080
0006
008D
002B
FFC0
FFDD
FFAE
0059
00AC
0067
0057
0046
003B
FFED
0004
FFF4
0052
001C
002A
0045
0016
FFFB
0013
002D
FFF9
0000
FFCA
0034
FFE2
002E
0008
FFA9
0027
003B
007E
0058
0034
FFC4
004F
0034
0033
0079
0003
FFCB
FFD5
0072
0072
0033
0051
FFE7
FFEB
FFD0
FFFE
0096
0059
0023
0072
0055
001D
0030
FFD2
0011
0004
FFEB
FFCC
FFDF
FFD2
FFF7
005E
0000
FFEE
FFBE
FFBC
FFDD
002F
005F
FFF4
008B
FFC8
0014
0045
0093
FFD7
FFE3
0073
FFF3
FFEA
001B
FFED
0050
002B
006F
002F
003E
0000
003E
FFC9
FFE6
006E
0069
0049
00A2
006F
0073
003A
003D
0077
FFCD
0057
FFF4
FFED
0043
0008
0035
FFD2
0079
004C
0085
0045
0063
00A0
007D
006A
FFF3
003C
0009
0026
FFC0
0043
FFFC
00A0
FFD6
007D
001D
00B1
004B
FFDF
009D
0064
FFA8
FFD4
FFC5
000D
0009
0025
0063
FFB8
0024
0012
0021
0027
0058
0033
0044
FFAF
0018
0043
0016
005F
00A6
0010
FFFB
FFF5
0042
FFCE
0079
FFEA
0029
006C
00A2
006E
0062
FFC7
FFF6
FFDD
FFE8
001D
0095
005D
FFD1
0089
FFAE
005E
0007
0064
0012
006B
0063
FFCE
FFE2
FFC1
0061
006A
FFFF
0049
FFB9
0062
00B5
000C
0080
007B
006F
004B
FFB6
0049
0041
0011
0069
FFB7
FFF4
005B
003A
0061
008A
000F
0059
0021
002C
000F
0053
001E
004A
0067
005E
005C
0078
FFEE
FFF4
0010
FFC1
0081
0034
FFCA
FFD8
FFE1
002C
FFE5
0013
0026
0013
001C
002E
002A
0053
0088
FFE8
0082
FFE3
FFCC
007E
007B
001E
FFEE
0019
0051
FFF4
0083
FFF3
00B6
0016
0048
0059
FFF7
00B6
00A9
007A
005E
FFB0
005E
FFD9
0027
FFD3
000E
FFF1
FFE9
0032
0001
FFD7
FFCE
0081
009B
FFF8
FFE1
002D
0025
0050
FFF8
005E
008D
FFBB
0078
0049
0025
0018
FFD3
0067
001A
001D
0047
007C
004F
0098
0004
0070
0019
FFB6
FFEC
0059
003F
007E
0055
0087
FFFF
0036
0052
0032
0002
0028
FFDC
0036
0007
0031
FFDE
0029
0057
0043
FFAF
0083
FFE9
000F
FFD5
0048
002A
0025
FFF5
0034
0081
00A5
0042
0078
FFE9
0033
FFFC
0016
0068
FFCA
0084
006B
0030
0080
008E
001E
FFD1
005C
006A
007F
006E
FFE3
0006
0012
005A
005A
0073
0047
002E
0020
0071
0037
FFDB
0065
0004
0075
FFF6
001A
000E
0061
007A
FFC5
0082
FFBD
FFDC
0029
0070
FFE8
FFC9
0072
0095
0097
FFBF
0017
0086
FFBB
0065
0017
FFF8
003C
0006
0023
006E
0058
FFFF
000F
0047
FFE3
0020
FFD8
0051
0062
009A
002E
FFDA
FFFC
0099
0003
FFED
008E
FFBF
0073
FFF6
002C
0010
00BE
FFE4
FFBA
0048
FFFC
0081
000C
0077
0022
0079
FF9E
0035
0051
FFFA
0073
0082
FFDB
0062
0065
008B
FFF1
0071
FFE9
0086
004B
FFF2
00C6
0040
0089
0061
0089
FFD7
FFF7
0085
FFCC
000A
0025
001C
0020
0007
006F
0050
FFBE
FFCD
FFDD
0086
002E
FFC3
0027
0070
004F
FFFF
0058
003F
002D
0037
004A
0063
008E
002E
008D
0037
FFF5
0062
005E
0018
FFD3
006E
000F
0041
004C
FFBE
FFC6
0027
0047
004E
002C
FFEF
0022
0082
004D
003A
003E
0023
FFF5
004C
000B
0042
008A
FFDC
000C
0042
0033
0068
FFD2
FFF2
008F
0069
0003
FFF1
FFDA
000B
0047
FFE6
FFFF
0091
0012
FFE5
FFF8
0042
FFDB
0030
FFE5
FFDB
FFEC
009E
0072
FFD6
FFDB
006B
006E
0040
FFB8
0064
FFE1
00B7
004E
0049
FFC7
0026
006A
0016
007E
FFE6
0031
0044
006B
FFDB
0022
005F
0030
0024
008A
FFD8
FFF7
FFD8
FFF3
0060
FFDB
FFCA
004B
FFD3
0048
0021
003C
FFD8
0032
0002
0050
007D
FFB9
FFE3
0023
FFE7
004E
0005
0037
FFEC
0043
002B
0075
FFC5
000C
004A
FFD4
FFBE
0009
0056
FFF8
008B
004A
FFEA
0054
FFC0
003A
0014
0096
0052
0021
0057
0037
005B
0039
0057
0065
0065
001D
0067
001D
006B
002F
0058
FFD4
0016
003E
003D
003B
FFF5
0036
004F
0055
000A
FFEB
002E
FFF0
0076
002A
005B
FFE3
0031
002B
FFFA
FFCA
0006
FFC6
00B1
0051
006E
000B
FFCC
0010
0054
001B
0009
FFD0
005F
0025
007E
006F
003F
FFDA
001F
FFEC
007F
0033
FFF6
003A
FFEA
FFF8
004E
004E
FFEA
FFB0
0055
001B
007E
0052
009A
FFE3
FFD9
FFFE
0044
003D
FFC2
0013
0039
003D
007D
003F
FFA5
FFFF
FFCA
0047
002E
0040
FFE9
0078
0014
0013
0062
FFF9
FFC7
0074
0035
0084
0047
005B
0055
007E
FFD1
0077
001B
FFB4
FFDB
FFEC
0017
008A
FFF8
0041
FFFF
0034
0033
FFFE
004D
005E
0037
0013
0043
0069
00BA
007E
0081
0007
FFC9
0004
FFE2
0083
0073
004E
0069
0028
005A
FFCE
0056
FFB8
0065
0008
0061
0065
0058
FFFF
006F
0004
FFFA
0094
006A
0092
FFBE
0074
0039
FFD3
0047
002E
FFEB
FFF9
0071
0058
FFF4
003F
004A
009A
FFCE
0088
0058
0074
0001
002E
FFBD
0018
002F
0080
FFE1
0063
FFBF
0029
FFE5
0047
FFF9
006E
005F
FFC7
002D
FFD7
000F
0050
FFCC
FFCD
0009
005B
008D
FFD1
00B5
FFB7
0062
FFD6
000D
0065
003E
FFCC
FFFD
FFFA
0030
FFF6
0015
0064
0038
003D
0054
0071
004E
0050
0065
003D
0044
0031
001B
0058
FFEA
0065
0053
FFF2
FFBF
0038
0028
0018
0071
007A
FFEE
0083
FFBE
0089
006B
FFEA
003B
0070
003E
FFF2
0067
0040
FFDA
FFD7
FFCE
007F
0003
FFE3
0047
001F
0041
FFF4
0088
0071
0027
0076
001E
002E
FFE5
006D
FFB2
007C
008C
FFCC
FFCC
002C
0044
0054
00BE
001B
FFE6
FFFC
FFCD
004B
FFC5
004D
0030
0052
007B
FFE9
001F
0076
FFE0
0059
0060
FFC2
006A
002C
0002
FFAC
007A
002B
0004
FFBF
0054
001D
005F
0073
0043
FFD1
004A
0010
FFB2
008C
0026
0071
0065
FFF5
0089
FFF3
0049
0031
004B
005F
FFDE
FFD7
0064
0006
0022
002A
006F
002B
002C
0057
004A
008A
000F
004A
FFB7
00A3
0017
002B
0034
002B
0072
0030
0030
0069
FFC5
000C
0064
0029
001C
007F
FFF5
0065
FFC2
003F
0020
FFB6
0065
002A
0021
FFDA
FFF4
0084
FFF0
0071
003A
005C
00B6
0027
FFF6
FFE9
0013
00A4
0013
004E
FFFF
0077
0055
0070
0029
0062
0053
FFB5
003C
0082
0043
00BB
00A6
0067
0000
002F
FFD6
FFC0
004E
0073
003A
0016
0038
FFCC
FFDC
0002
FFE9
0013
0081
FFCC
FFE9
FFFB
006B
0010
0066
003A
006E
003A
0061
003B
FFC2
FFB0
FFCC
0006
FF9E
0082
001B
002A
006B
0007
000A
0077
FFB0
007B
0016
004D
0096
006A
0064
FFE5
FFFD
005A
FFC9
006B
FFBE
000A
003C
0053
FFF7
FFC9
FFE7
006A
00A1
004E
004A
FFD4
FFC5
FFD4
008D
0014
009E
FFF0
008B
004E
FFFC
000F
0007
FFE9
FFF4
FFFB
FFB7
FFDE
002C
004F
FFE0
007A
FFC8
0015
FFFA
0077
0083
006C
002A
0050
006D
FFFE
0031
007C
FFFD
0047
FFC9
002F
001A
FFF3
FFC4
0019
0078
0055
0048
006D
007A
FFD7
003C
000E
004D
0012
0042
005C
002D
0009
0099
FFB0
002A
FFD9
FFE7
FFB2
006C
007E
0050
006A
0039
FFB8
FFF3
0037
FFAB
000E
005E
0055
FFE8
FFFE
0037
002D
0062
0092
003F
0058
0094
000A
0056
FFFC
0064
0056
0040
FFDC
FFE4
0016
FFC0
FFF9
00B3
0035
FFE7
0045
005A
FFD1
000F
FFC1
0016
0042
FFE4
006D
FFFF
0064
FFFE
006B
0031
FFFC
0016
0027
FFD7
000C
FFFB
FFDF
FFC9
003E
FFF9
FFEC
0045
0014
0054
002E
004C
FFF3
FFB9
0076
0009
0032
0019
FFEE
0013
0053
FFBF
FFF7
002B
00AD
002E
FFE0
0069
003A
FFF0
0007
0046
005A
FFF8
0042
0039
001A
0010
0016
0020
0002
007D
FFD1
0032
FFEB
0074
0037
FFF2
0035
0064
00C0
0027
FFEF
0059
FFFD
FFCC
0051
003B
0014
0044
FFBB
FFE6
001A
0091
007E
0081
0007
000E
0009
0089
0063
0070
FFF6
0089
000F
0095
0071
003E
0063
001E
0042
000D
0006
0081
FFFC
FFCE
008C
FFDE
FFB1
0050
003C
FFEA
FFC2
FFD9
0029
005B
0041
005E
FFBB
FFB4
0011
0039
0090
0018
FFE2
004D
FFE4
008D
0054
0046
0067
0022
FFE0
0017
005E
000D
0022
005E
0020
0073
0083
0085
FFFF
0066
006A
0010
FFD4
004E
FFC5
004E
FFCD
FFBD
0047
005A
FFD0
0040
001B
005B
FFF4
009D
FFD8
0010
002B
FFC7
FFB3
00BA
FFDE
0037
0015
0030
0004
004F
0057
0013
0076
FFD1
006C
002F
0013
007D
FFDB
0057
0006
0079
0055
0043
0015
006B
FFC6
FFE4
00B3
FFE5
0045
0065
0099
000C
FFB7
FFD2
003A
002B
0046
0038
FFB6
FFFC
0081
003E
FFB8
FFCA
0039
007F
FFCB
FFD7
0056
FFDB
0028
001E
0006
0039
FFEC
FFE2
0046
0002
000C
FFFE
0017
FFC3
0069
000A
FFC3
0095
00A4
FFF0
0020
FFDF
0062
005B
0060
0069
0081
0058
009C
003C
FFCA
0018
000F
FFD4
FF9C
008D
FFFF
000E
003E
0050
FFD3
000F
004C
0029
0048
003B
FFE1
001A
0006
0059
FFDB
008E
0030
FFDB
FFF8
008D
008C
003E
0040
0002
0037
FFB7
FFC3
0044
007D
FFE7
007F
0081
FFEA
0032
0021
0027
FFE7
0034
0072
0018
FFF7
FFD1
FFE0
008D
001E
0084
0038
0032
0018
0031
00AF
FFE1
006B
008A
FFCC
0088
FFDB
002C
002D
FFC9
0062
0024
004E
002E
007C
FF9A
0003
FFFD
FFDA
0079
007B
FFE0
008F
0050
FFCE
002A
0085
0006
0055
007D
0095
FFD0
FFDB
0077
0038
007A
FFD4
FFEE
0021
0041
007C
0038
002A
0045
FFAF
002C
00B3
006A
FFD0
0049
002C
FFDD
002E
FFF0
0011
0081
001D
0027
008C
008A
000C
003C
0017
0056
000C
FFD9
0045
006D
003C
0046
FFDA
FFE0
FFF2
0050
003B
0050
FFC8
0071
0088
FFDB
005B
FFC8
007B
0004
0014
FFEA
0063
0019
0077
001E
001E
000B
0013
005B
0029
0061
006A
0073
0026
002E
00A5
003B
0072
003E
006C
0032
0083
0041
005D
FFD2
FFDE
FFF7
0031
FFD4
006F
001C
003E
0044
FFB6
FFFE
0059
0075
0002
0016
003D
0021
0011
008A
004E
FFFA
FFBA
0056
0075
0053
FFE5
FFF4
001D
FFE1
0083
008E
FFFA
007F
005C
003A
FFC6
0079
003E
0029
009C
001C
FFF8
001D
00AE
FFAF
0067
0049
005C
007C
FFD1
0039
FFD4
FFDE
003F
007C
0071
0020
005D
0019
006B
FFFC
006E
0041
FFC2
001F
FFDD
0032
0039
000C
FFCB
0074
0045
003B
0057
0035
FFC2
FFE7
0008
0070
002C
FFBF
000A
0072
0008
0034
001E
FFD9
0075
FFCB
FFDB
0016
008C
0019
0072
0053
000E
0090
FFEB
FFF1
FFE0
FFF3
005F
0016
002F
FFFA
FFF2
FFF9
FFF4
FFE8
007E
006E
FFB4
0062
007B
FFFB
FFD5
004D
0076
00A4
FFBF
FFED
FFD9
0042
0081
0088
004A
FFD0
0013
0052
FFD5
0071
0057
0026
FFDA
FFC7
FFCE
0090
FFC3
0006
0024
0009
FFC1
0086
FFD8
003F
0031
FFBA
00BA
0064
0009
FFF9
FFFE
0058
000D
0016
FFDA
000A
0056
000B
FFAE
0035
0040
0038
FFE1
007A
0075
0016
FFD5
0097
0088
FFF1
0063
0084
0035
FFE0
FFF9
FFF3
FFCE
FFFB
FFBD
0057
00A4
0004
FFD7
FFF6
0062
006F
0016
FFBC
0015
000F
FFCE
0043
FFFE
0039
0048
006F
0091
004E
FF9B
0087
0071
0074
0006
FFF6
0034
0059
0009
FFD5
0020
003D
005B
0063
FFC6
0056
FFEA
FFE7
FFA4
FFCA
0047
FFBD
002F
0008
001F
008D
000A
FFC3
006D
FFD7
0035
000F
009B
FFDB
0065
FFF8
00A6
0056
002F
0033
00B6
FFDC
001D
0049
FFF4
FFB0
0007
0042
0056
0037
0022
006A
0067
FFE9
FFB7
001C
FFFD
FFF4
0063
002E
001F
0035
007D
FFE0
0000
FFE6
FFFB
0089
0047
0034
FFCE
0026
FFBE
001B
FFBD
0060
006D
0060
000C
005B
0064
0058
0073
FFBB
FFDA
FFC3
FFDC
FFF6
006E
0047
FFF8
00BB
0080
000B
0000
0040
00B8
FFD6
0037
FFE1
0053
FFE8
FFEE
FFA8
0091
004D
0028
FFE5
003A
000C
FFDF
0066
0004
002E
0014
0085
007A
FFE0
0006
FFD5
0072
FFC7
0005
0034
0019
0005
0075
003D
0064
007C
FFF0
FFD7
0069
FFD3
003D
0063
0041
FFFE
FFE1
FFC6
FFF6
001F
FFEA
FFBF
0076
FFCC
0071
FFE7
FFE6
0082
00AA
0080
000E
0081
FFE8
FF9C
FFED
002E
FFDF
0065
00A8
0017
0018
FFC5
0004
FFE7
0080
FFF0
FFFE
005A
FFCF
FFC5
0041
0078
0088
0087
0023
0066
0078
FFF2
FFEE
005E
000A
FFB4
006E
004E
0068
FFEE
001E
0060
0027
0056
005C
000E
FFBB
FFD5
FFE3
0082
0038
FFD3
004C
005E
FFED
0020
0069
FFBA
009E
006E
FFCD
0051
003A
0042
0001
0001
FFE5
0048
FFC2
0053
FFDE
FFF3
0074
FFFC
005C
001D
0011
002B
0041
006D
0007
0081
FFBE
FFFE
0057
0024
001D
FFE8
FFC6
FFFB
FFFD
003F
FFB0
008A
0010
0083
FFD2
008B
0099
0017
0030
0020
004D
001B
FFF6
FFEE
0012
0056
FF9B
008B
00C3
0085
0051
008B
0041
FFE6
0000
0033
FFB4
0082
FFDD
0055
005C
FFD3
0058
0003
FFEF
0060
FFFC
0032
007D
0019
FFCF
FFDE
0073
0020
0013
004C
008A
0085
005F
FFE2
0018
0052
0049
002D
0057
002F
0040
0056
0028
00A9
0020
FFCD
0049
0018
0032
002E
FFDC
0016
005C
001C
007D
0087
FFE2
007A
0015
FFB7
000C
004C
FFB8
0080
0062
00A6
0089
FFF8
0010
001B
0027
0075
FFFD
0017
007F
0068
FFDA
FFED
FFCE
006F
FFCA
005B
FFD9
FFF8
003A
0027
FFDB
006D
0083
0020
FFE6
006B
FFB5
FFD4
0032
0031
005C
FFEB
FFBC
0039
0058
000D
0067
0071
FFDA
003B
0002
0055
0019
FFC8
002D
FFFE
FFDB
0076
0071
0008
0084
007E
FFD9
007D
FFC7
FFD8
001F
0019
FFFB
FFD2
0068
FFD3
FFF4
002B
0037
005C
0014
FFB9
0006
FFEF
0045
0022
0066
FFD3
0033
0072
0025
FFB7
FFF9
0056
FFCD
FFDD
FFF1
0009
0028
FFCD
FFDC
0056
003E
0039
0041
0034
FFC5
FFC8
003D
004A
FFCC
FFC1
FFC1
007E
0003
0053
0017
0010
0029
FFFC
FFDE
0086
FFFD
00B0
0085
FFD4
0076
002D
0004
FFF5
0002
FFE0
0028
006F
001D
0024
004B
FFBF
005F
007F
FFEB
000B
FFFF
FFAE
FFDE
FFF5
FFE9
001B
006B
FFC4
001E
005F
0087
0008
0035
FFF5
0034
0047
006D
0069
0084
FFD8
0004
FFAD
FFB5
0035
002A
0005
FFC9
004E
FFD9
0060
0037
006F
0040
0054
0074
0018
FFD2
007D
0009
0066
0024
0039
0053
0076
0029
003B
FFF7
000F
006A
003E
002A
004D
FFDD
0002
FFD8
0016
0042
008D
0067
FFBA
FFE5
005E
0060
FFD4
0060
003D
00B9
FFE2
004E
0033
0028
0073
0025
FFBA
009E
0051
002F
FFBE
0036
FFBC
0004
0062
0049
005A
FFF9
004D
0033
FFD8
FFFF
FFBD
008E
000E
0004
FFB9
FFED
FFF0
001D
0029
FFF9
004F
0055
FFE7
0005
007E
FFF0
005F
FFD5
FFFF
0073
000D
0044
FFE7
008D
FFB9
FFF8
0044
000A
0092
005D
0078
0062
0055
0077
0025
0066
0025
001C
0024
FFE5
FFD9
0016
FFE5
FFC5
00B3
003C
003B
FFD3
0046
FFF4
FFA6
0033
0059
005A
00A8
FFFF
005E
0031
0049
0038
006A
0000
008B
0008
0035
003F
FFC2
004E
006C
0063
0054
0002
0004
009A
FFE0
FFCE
0073
FFC8
002A
0076
FFC4
FFE9
005B
0049
0050
FFDD
007A
FFC1
0019
FFFA
FFDD
0015
FFC6
0023
FFCA
00A3
0054
000B
FFB8
0070
007C
0000
FFC8
005B
003B
FFE7
0046
FFC3
0079
FFFC
FFCD
FFDF
004A
0009
FFEE
0004
FFF5
FFDF
FFFE
FFF4
FFCF
FFC7
0027
00B3
FFF3
FFF8
0015
007E
FFA3
FFB6
FFC3
FFF7
FFBD
000F
00A8
005E
0003
0055
FFE2
0060
0075
0060
0010
FFB7
006A
FFF1
FFF5
FFEF
009D
005A
007B
000A
007A
FFBF
005D
FFEE
0081
0077
001B
0005
0004
FFB7
008C
003A
FFC6
0000
0000
004D
FFE2
0042
0022
FFC9
005E
FFDB
0046
FFFC
FFFD
001A
FFE1
008D
0051
FFD5
0018
007A
FFF2
002C
0048
FFD5
FFDB
FFCF
001B
005E
FF9A
006D
FFFE
0023
0030
006D
0005
FFE5
0054
001B
FFCF
FFE7
0003
001F
0069
FFEC
FFD6
002C
0097
0030
FFD1
0045
0071
0022
FFDF
FFD3
0003
009E
0045
0023
003D
005D
FFCC
FFB3
FFE7
FFF8
FFB9
FFF1
009C
0055
0062
0075
FFF4
0010
FFF8
007D
000A
0088
FFD1
0012
0004
FFC1
007E
FFE0
004F
0006
006A
FFA6
0059
0060
FFD4
005E
0052
0087
0022
FFE9
0013
FFE9
FFB8
003D
FFDF
0019
0020
00A9
002A
001C
0049
0088
0019
0023
000B
001A
FFAC
0072
0052
0063
008C
FFCE
0034
FFCF
0030
0018
0065
0001
FFF4
FFD2
0044
0074
0096
FFC8
0072
FFD2
003B
FFBB
005A
002F
0043
FFCE
FFF2
007B
0013
005B
00AF
0087
FFC8
FFF2
003B
002A
00A5
0092
003E
0029
0037
0061
0029
0049
005F
FFB7
005E
0010
004E
0019
0012
00A6
FFDF
FFDC
FFB7
0055
FFEA
003D
0050
FFFC
0005
0006
0014
FFD3
FFDA
0081
FFD2
FFDF
FFEA
0080
FFD3
008C
006F
0053
FFB0
0067
0005
00B8
FFDB
0011
FFC4
0037
FFBF
FFBC
FFD0
009A
FFBC
0044
003B
001E
0011
0061
FFFC
FFFE
FFBB
0022
004C
FFC5
FFF0
002A
FFD2
0013
FFC9
0031
0067
003E
003F
0012
0045
FFCF
FFA9
0030
007B
003A
0076
001F
FFEC
0041
FFC3
003D
009B
FFBE
00A1
001B
FFE7
000D
0043
0002
0033
0071
009F
0052
FFDE
0072
0012
0041
001E
0030
000B
000A
FFF9
FFBC
0016
0029
0038
FFBD
FFCC
003C
0052
0023
FFF1
0021
FFD7
003B
000B
00A2
FFCF
004A
001E
0031
FFCD
0087
0009
003B
000F
0093
007E
0052
0028
FFB5
0030
0005
FFE0
FFBF
0056
008B
0037
0047
0019
FFB8
FFD6
FFBC
FFAD
FFAF
0068
000D
0062
00AB
0014
0000
FFEA
0085
0023
0047
FFE9
0081
FFF0
0060
0048
FFB1
0085
0054
0009
0025
002C
0046
003E
0029
0038
0066
FFBA
005C
005A
0000
FFEB
0067
0009
005D
0046
0066
004A
007B
FFCD
FFD0
005C
002A
0055
005E
002E
FFE1
0014
FFF9
004F
0036
FFEB
FFAB
FFBD
007C
005E
FFFC
0052
000B
0086
FFD1
0069
FFBD
0081
009F
FFCF
0051
0008
001A
007F
FFE7
0058
008B
0077
0003
0001
002A
0071
0076
0023
FFCB
007A
006D
008B
001A
FFD0
0037
006B
FFED
009E
FFEB
FFDE
007D
0037
FFC9
002C
0044
0052
0088
0034
FFB9
00A2
FFE8
002C
0070
FFBF
0063
FFC9
002D
FFE3
0007
002C
FFEE
006E
0099
FFF5
FFF4
0060
002A
0058
0052
FFBB
007E
FFB7
0031
FFFF
0009
0040
0057
FFBE
0066
0006
0090
004C
0047
0002
FFF0
001D
007B
FFB3
005C
0046
006B
0047
0055
001A
0059
FFBA
FFDF
0004
005C
0084
000C
0001
0009
FFFC
0065
003A
009A
0045
0055
FFC0
0048
0014
008B
0022
0080
FFE5
0077
0018
FFF8
0030
FFFD
002A
0039
0086
0013
006E
0063
008B
FFA6
005C
FFC3
FFCA
FFF9
0011
0071
FFE9
0053
0015
002B
002B
0069
0044
0047
FFE4
FFF2
007F
0060
0055
006C
FFD6
000D
0025
FFF5
004A
007D
FFDF
FFB4
0025
0070
FFBF
FFCE
FFF2
FFDE
008D
FFFB
0065
FFDA
0009
0064
0005
0054
0009
0031
FFE1
FFE7
FFD8
0028
000E
006E
FFD2
000F
005E
004F
FFD4
FFC6
0073
0070
0033
FFDA
0070
FFBE
001F
FFA2
0042
FFDB
0021
FFC9
FFEF
0042
0030
FFD3
002F
FFC1
FFDD
0053
002E
FFD8
000B
0051
FFD9
FFD5
0000
0063
FFEE
009C
0000
FFB3
0083
FFD6
0034
006B
FFD7
0011
007A
0034
FFC8
FFD9
0036
0008
0080
0061
FFBA
004C
004A
0018
00A0
0077
001F
0018
0002
FFE1
007D
0016
FFE7
FFFB
FFC8
FFE8
0001
0035
005A
FFD8
0058
007E
003A
0073
FFD7
001A
0037
005F
0000
0037
005D
0083
0055
0069
0074
FFC0
003A
FFFE
FFBF
0017
FFD9
0078
0073
004B
002E
0047
0020
0021
FFE7
0023
0046
0049
0003
0053
FFF0
0045
0084
000D
0005
FFE5
FFFD
0059
000D
005E
0090
FFE1
0028
0003
0037
FFE5
FFEA
002B
0006
FFD4
004C
001D
0056
005C
FFC9
0006
006F
0042
FFF2
004B
0074
0026
006B
0097
0015
FFF4
0009
002A
009A
FFF7
0022
0095
002B
0065
FFFB
0045
0020
00B5
0003
0004
002C
004B
FFDD
002F
0084
FFC3
0080
006C
FFDB
FFF9
0081
0017
FFCC
0005
FFC5
00A1
0064
003E
0045
00A9
FFF0
FFBE
FFFC
001F
0036
002C
FFDA
0019
000D
000D
FFD9
0029
0085
0048
FFA1
0062
FFC2
0011
0048
0063
007D
FFD9
002F
005E
006E
000D
FFEA
001C
FFC9
FFFC
0014
008F
FFFA
003E
0038
0070
FFF0
0030
0068
0038
FFC6
0051
0025
000B
0058
0061
0022
FFB7
FFE4
007C
0051
0009
000F
000B
FFD2
0011
000A
FFD6
FFE1
FFFE
FFC5
007F
005A
FFC6
FFC4
FFDD
0086
007E
0058
0050
009A
0037
004F
FFEA
FFD3
FFC0
0068
003E
FFE4
005A
FFC5
0086
FFFB
00AA
FFEA
FFDD
FFF6
009B
FFF2
0030
FFCB
0006
FFFC
FFF3
0060
000A
FFE0
FFCD
0024
FFF4
0092
FFEF
002D
0071
0055
004F
006C
004C
FFF5
002B
0023
000B
FFDD
006D
005E
0085
0000
0076
003A
006B
FFDE
0006
0077
0038
FFCF
FFC4
0066
0062
000B
0057
FFAE
0090
0059
0059
0020
00CE
0086
0072
0036
0007
0046
0022
FFB7
006C
FFDB
0070
0070
0010
0030
0021
0085
FFE9
006E
0048
0036
0024
0076
FFAF
000D
00A5
003D
000A
003C
0040
FFD1
0031
0065
005E
FFFA
0079
0066
0098
FFF4
0056
0049
FFDC
0022
0097
FFD4
0026
003F
007E
0038
008A
000A
FFAF
0089
FFBE
FFDA
0075
FFF0
004B
004B
003B
0093
FFAB
FFE8
FFD3
0079
0047
0028
0010
006B
005B
005E
005C
008A
FFDC
001A
001D
0041
FFDA
0019
FFFA
009E
0050
FFDB
FFB7
FFDE
0046
0024
0079
0037
0068
0009
003A
0027
007E
FFC9
006A
001E
FFC2
006F
002F
003E
FFFA
0076
FFDF
0027
009B
FFF4
005A
003E
0048
0082
0030
0009
0088
002F
004E
0090
FFFE
0021
0047
0012
004A
FFDE
FFE7
FFAC
FFB5
0026
0033
0008
007C
0045
FFE8
0072
004B
007B
0088
FFF5
FFED
FFAD
0087
FFF0
005A
FFC3
FFB4
007C
0012
FFD4
0079
00A1
003F
0025
000F
0060
003D
FFAA
FFC2
000A
0019
FFDE
0036
003F
0083
0067
FFE0
0029
0010
003F
FFC3
0041
000E
0037
007F
0039
002E
00BE
006A
002D
000A
FFB3
FFBF
FFF4
0044
0068
0037
007E
0078
FFCF
FFE1
FFE6
FFEC
FFCF
0060
FFEA
FFFE
002E
0039
00AA
002D
FFC6
FFE3
0006
FFAD
FFF3
0040
FFD0
007A
0062
FFCC
005D
002D
0098
FFE5
FFF0
0022
0076
0039
FFDD
002D
FFA8
0070
0074
FFBC
008C
0071
006D
0064
003C
FFE6
FFD7
0085
005A
00A2
0099
FFD7
FFD0
FFBC
001A
0034
0033
0083
008C
004F
004D
000B
002E
00A4
0004
0011
FFED
0049
FFE5
0030
0040
0001
0025
0018
FFE1
00B7
007D
00B4
FFF6
006E
005A
0095
FFCF
0044
0010
008F
0012
FFE7
FFEC
FFC4
FFF4
0032
0029
0045
FFFB
FFE8
002C
FFF7
0060
004E
FFCD
FFCF
0003
0014
0075
FFE5
FFDF
0064
002E
000B
003A
FFEC
0047
0051
006F
002A
009D
FFD6
0036
FFDF
0063
0097
001B
0041
FFC0
002E
FFF8
FFBC
0041
007C
FFCD
FFBE
0036
FFD6
0099
002D
0064
FFCB
0056
FFD0
FFE5
FFF4
0014
005F
0027
FFE4
0055
0060
009E
0044
FFEB
002F
0017
FFE2
FFFE
0064
FFF8
006C
FFE3
0043
FFF3
FFF5
005E
007D
001F
0018
0091
FFCA
FFF6
0040
0085
000F
0087
0079
0070
FFB3
0041
FFE5
002E
FFE9
FFBA
FFCE
0031
0079
002C
FFD7
002F
FFC8
0093
0036
001D
005C
0014
FFD3
FFDF
0007
0061
004D
FFCB
0025
0056
FFAC
003B
FFDF
0022
0055
0067
0052
005D
0090
FFDD
0051
FFED
0033
0010
000C
FFDC
FFD0
0065
0014
FFC4
0003
0053
FFEE
0044
FFD8
006C
0009
FFCC
0059
0037
FFCC
004E
FFD2
0095
002A
000F
FFCA
0042
0086
007B
0041
002D
0019
0065
0033
0043
008C
00AF
FFD2
0055
000B
FFC6
001E
0075
003B
0060
0045
005B
0029
006B
001E
FFB8
0015
FFAB
007F
0064
FFCF
FFEB
0042
0079
FFB0
0068
0018
0057
FFC7
005D
FFF4
FFD3
0063
0064
0079
0087
0076
0006
FFD7
0038
FFDC
FFBC
FFA8
0047
0042
0040
0050
FFE6
FFE7
FFF4
0060
FFDB
FFF7
FFA8
FFE2
0031
0001
FFF5
009C
008F
006F
0051
FFFB
002B
0016
0072
0067
00A1
FFC8
0039
FFEE
0038
0062
008D
007C
0005
FFFC
005B
0073
FFEB
FFE6
FFF1
FFA6
FFDD
0075
0017
0001
FFED
008E
FFCD
FFF9
FFC3
003D
FFCF
0001
0007
FFDA
FFE4
005C
FFE4
FF9C
0088
0043
0065
FFFE
FFCC
0068
0022
0040
006D
0047
0024
001C
003D
0032
0035
0000
0075
0082
FFF1
0052
0019
00AA
0018
FFE0
FFD6
0027
002F
007D
FFDE
0056
0039
005F
0079
003E
003E
FFFE
0025
FFAA
0057
FFDB
0034
FFF0
FFF7
FFCD
0075
0005
005C
FFC5
0060
FFF2
FFE0
005F
0051
0022
000D
005E
000B
FFDD
0024
0049
0025
FFCB
003A
FFB4
005C
0043
0055
001F
006A
FFFE
0095
FFE6
001A
003A
006D
0063
0088
008C
0087
0056
FFDD
0035
0053
FFFB
FFA7
FFCC
FFBB
008C
FFD4
FFE1
0087
000F
0016
0002
FFBC
0028
FFFD
0068
0040
0097
FFF7
0045
0044
0044
00A1
0042
001C
001F
FFF5
0068
001E
003A
001F
FFC3
FFFE
0080
0057
002F
0036
00B4
FFC7
0005
FF9F
007D
003B
0013
0059
0017
0000
0059
003C
009E
003B
FF94
0071
004B
0004
FFBE
FFEA
FFEE
0062
0088
FFF4
001E
0016
001B
0008
0067
0020
FFD2
0001
FFD5
0075
0030
006A
008A
009B
0028
FFBD
0002
0060
0017
0044
0048
0036
005B
0047
0076
FFEF
0074
0053
006A
005A
FFFF
0034
0011
FFDC
FFFA
005D
FFFD
0029
FFFA
0019
FFC1
0075
00A8
0053
007D
FFC9
007F
FFB3
000A
FFD0
005D
FFFE
004D
0065
002A
FFF8
FFBD
FFCD
FFF2
0084
FFD7
00B4
002A
FFE7
0005
004A
002A
006E
002E
0006
0070
0094
FFCC
FFAF
0075
FFD6
008F
008A
006D
FFF3
005A
0038
003E
0059
FFF9
0086
FFF1
FFD5
FFE6
FFF6
0038
0078
FFF3
0059
FFD6
004B
00A6
FFFC
004A
0040
FFB8
FFEA
FFCF
0003
0031
0072
001C
0061
FFB7
007E
0073
FFD8
0012
0021
FFC4
0046
FFB1
0016
001F
0034
0075
005F
FFE5
007B
FFFB
FFEA
002F
0087
FFC5
003A
000B
0052
0067
FFFC
FFFA
FFB3
FFF5
003E
004E
005E
0024
004A
009C
0059
0032
005E
FFF5
0085
0037
FFC1
FFAF
0020
0000
0084
000F
00AA
0047
0044
0005
0033
FFF8
0055
0055
FFFE
0020
005E
0050
0099
0041
0011
FFC9
0046
FFE4
0004
0045
0074
005A
FFF1
FFC1
FFF0
0061
0041
FFF7
0061
FFC8
009E
0044
0012
008E
006E
001C
FFC1
FFD8
0033
007A
0014
0002
0031
0037
0040
0030
005D
003E
000B
0030
000C
0064
FFD9
0069
003D
000D
0087
FFE3
0004
0026
0056
0045
0071
FFF4
FFA8
0004
005A
FFC8
005F
FFDA
FFF5
0065
0014
0032
0081
003D
0065
0073
0052
005A
FFFB
005C
0023
FFC3
002C
007E
007C
0056
0057
0071
0032
FF97
0089
001D
FFD7
0015
005C
FFB8
FFCE
0024
001E
003F
FFEA
0054
003F
0000
0004
FFA5
FFC0
FFB5
007C
FFE8
000C
000F
0062
0017
006B
0041
000E
006E
003F
FFD8
0010
0026
0075
006D
0088
0055
0089
FFEE
001C
0050
0083
0027
FFBE
0010
0028
FFC4
0033
FFC9
0053
0009
0032
0084
0043
0037
0094
FFD4
FFCB
002B
0061
0092
004D
005B
0016
0046
003B
FFD0
FF9F
0031
0074
007D
00B3
0066
FFE4
004D
007C
FFEB
001D
0065
FFC1
009C
FFEB
FFE3
FFC9
0039
002D
00AA
0068
0041
007B
005A
004E
FFE7
0062
0004
0008
006B
000C
0001
FFD5
FFB7
FFB0
FFEE
0053
FFDE
004D
0045
008F
0033
FFEC
004B
0060
0092
004A
005F
FFEA
FFEA
001C
0045
FFD6
0019
008D
FFD9
002E
004B
0010
0001
FFFA
0030
004C
00B5
FFFE
0044
004B
0077
FFD7
007F
000F
0006
0064
00A1
FFF9
0008
000E
001B
FFEC
FFF5
0098
0029
0069
0089
0060
001A
0093
0066
007C
0056
0084
FFEA
0077
003A
0022
0067
0047
0038
00A7
FFE6
0033
0001
FFED
0041
0084
002E
FFF6
000E
002E
0068
00A6
0003
0077
001C
0055
0073
0039
FFD6
FFF6
0070
0008
0028
0025
0049
0088
0086
FFD6
008A
00B5
0053
0043
FFF9
005C
FFF3
0056
001C
FFEF
008B
FFB3
0080
0039
0073
FFCF
00A4
0010
0013
FFDE
008F
0062
FFD5
0041
0086
0055
FFEB
0015
008A
FFC2
008E
0075
00A2
FFD5
005D
FFF8
005C
000A
0027
0068
0084
FFF0
0061
0035
FFF6
0044
002D
0018
FFF1
0063
007E
FFBB
0025
0069
0047
FFEC
007E
FFFF
002A
000D
009F
0030
004C
0098
007B
FFE6
FFEA
003D
0071
0007
FFDF
0068
0077
FFC2
0069
0040
FFCF
00B7
FFC4
0045
0032
0036
FFDE
0023
FFEE
004B
FFCB
FFB8
0006
007A
0007
FFDA
0069
0008
0036
FFCC
FFE2
FFD8
0073
001B
0017
002D
006B
0078
FFAD
000C
006C
007C
FFFF
0061
0034
003D
FFB3
0008
FFFF
0038
007E
0058
FFD5
FFCA
006D
0070
0032
000C
007A
002E
004E
FFFF
FFBB
FFBA
FFE6
008C
003A
006B
FFDF
003B
FFC8
0044
0057
0000
FFFE
0013
00C2
002B
0092
FFF5
FFD3
FFFA
002B
0073
0057
003B
FFC0
FFB9
FFFB
FFC4
FFFA
FFF6
0038
003B
0095
0091
0031
FFD9
0098
0042
005E
003B
0040
00AB
FFF6
0012
FFE4
0071
FFD8
0015
0046
FFF6
0015
0038
0053
005F
0055
FFF7
FFDD
FFFD
003E
0026
0039
000C
0014
000E
00AB
006F
FFE1
FFED
003D
0024
006D
006E
0066
FFD0
0002
FFCA
0013
004B
0084
FFCA
0068
0060
0017
001A
004E
FFE1
FFF1
002F
008E
003A
0055
003D
003F
0088
0047
FFD6
FFB3
0037
0037
FFED
004A
FFD2
0051
0067
FFCA
FFD4
FFBB
0010
004D
00A3
0025
006B
FFD8
FFE3
0082
007A
005A
FFFA
0001
FFD6
0050
0067
006F
FFD0
FFEC
002C
008C
0053
FFD9
00B0
FFB5
0017
001C
0003
0080
0079
FFCD
004B
0083
FFEC
0031
FFAE
0022
0046
FFE1
0079
FFF2
000F
0069
FFBE
FFCF
FFBD
0030
0036
007A
FFEE
006A
0052
001C
FFF8
0042
004A
0041
003A
FFE6
0070
FFAC
007A
00A0
FFDC
006A
0073
0012
006C
00AE
0036
0080
FFE3
FFD0
0023
007F
0052
001D
0022
FFE3
005A
FFCA
000E
FFE6
003C
001F
0019
FFDF
0038
FFFA
0007
002C
0021
0021
0096
0006
0054
0021
FFD7
FFBC
00B1
0045
FFCF
0047
0035
0063
004A
007D
0093
FFD0
0026
FFC7
FFCA
007D
0074
FFC6
007A
FFDA
0005
FFEA
0077
FFD0
FFCE
003B
0031
FFE7
003C
FFE1
000C
007F
0047
FFEC
FFCF
0041
FFE7
FFC4
0017
00AA
FFC7
008F
0005
003E
001A
006E
FFE8
0088
FFE2
FFB5
0027
FFB6
0044
FFF1
FFB8
0032
007B
0044
006D
0011
00A3
0034
0018
0004
005C
0062
002A
001D
0014
0015
FFD1
FFE7
0076
003A
0003
0040
0032
001E
0070
FFD6
0076
0056
0049
0062
FFD4
0038
FFC3
0017
FFDA
00A4
000B
004C
0076
0059
0097
008F
0040
FFCA
FFFE
006C
0061
FFC0
0052
FFCB
0086
FFA6
0024
003F
0015
FFA0
000B
0077
0027
0054
FFBD
FFC0
FFD5
0090
FFC4
000D
0068
0047
005A
FFDE
FFC4
FFFB
0032
00AC
0010
0024
FFEC
FFFA
0014
FFB3
0058
0057
FFAD
0078
0064
000B
0080
0011
FFE2
FFAC
007E
0074
FFC1
FFF7
0009
FFCF
FFFD
FFD4
005C
001C
FFC7
002F
0033
004C
FFE4
006F
FFF6
003E
0028
0022
0068
FFD8
0074
002A
0039
FFED
FFC1
0010
00A5
002D
0081
0065
0053
0037
006F
FFE9
0092
007A
0071
0002
0051
FFD4
FFCC
0074
002D
0002
0053
0095
FFB3
0070
0053
FFEF
0085
FFE0
FFB2
FFA9
008F
0053
0030
FFE1
0084
FFE9
00A4
0021
0077
00A1
005C
0044
FFEA
004B
0086
FFBA
005D
FFCD
001A
0020
000D
0034
006A
FFC7
006D
FFCE
0014
0012
0044
0077
FFB5
0060
FFBD
004F
0058
FFF1
000C
003D
FFD3
0016
0047
0049
0006
FFA2
FFFB
FFE5
0043
008C
0049
0081
004B
FFF7
006F
FFD7
006D
007F
008B
FFC4
004B
FFD5
0045
FFAE
0040
0024
008A
0000
008A
FFE4
0036
FFE6
FFEF
002F
005B
FFB6
0054
FFE4
0041
000A
0010
0082
FFF2
0038
006E
0025
0000
0025
0078
FFD8
003F
0067
FFC4
FFD6
007A
0007
0003
004B
0012
FFF6
002B
002D
001D
0054
007B
004A
0036
007B
0067
FFDF
001C
000F
0000
006E
0050
0068
0008
FFDE
000F
0047
005D
0006
0087
0026
0037
0014
005A
0058
003A
0051
002C
008B
0029
002D
00AE
0038
000E
FFE2
FFC1
FFD4
0065
000B
006B
009C
FFFC
FFB5
FFE3
0095
FFFA
FFA3
008B
008A
FFF8
0079
0080
0074
0011
0028
FFE9
FFEC
0018
FFDA
FFD0
003F
0071
0039
FFE3
0003
0055
0011
0035
007B
0074
0026
0066
0029
0074
0045
0032
0010
FFE9
0042
0089
FFE0
0005
FFFD
0057
FFD0
FFDE
FFEF
FFC2
0004
0057
0018
0008
0011
0015
008B
0037
0024
0017
FFAF
0083
0024
003B
0051
0056
FFCA
002E
FFFD
0093
0072
004C
0090
0074
FFBA
0086
FFF7
FFD6
000F
0095
FFF5
008B
FFE5
0064
002A
005B
0037
005C
0000
0055
FFD1
0004
0006
0064
0069
0018
00A4
FFE0
0069
0003
0025
FFD1
0058
FFEA
0020
FFE4
FFBA
0009
006D
0056
0024
000A
0056
004A
008E
007D
005B
0012
FFCA
002F
FFB9
FFC9
0077
0013
0011
0019
008A
FFBF
FFBE
FFFE
0039
0033
FFCC
0049
0010
FFFA
006D
0048
0081
004B
FFDF
0032
0004
FFE2
00B8
FFCC
FFE8
FFAD
005A
001D
009D
006E
007C
0073
FFF8
005E
FFCA
0049
0098
0094
FFF1
FFFE
FFF3
001E
FFFC
003A
0025
FFB8
008C
0014
0066
000B
FFEC
007F
0070
002E
0071
0015
007B
0026
FFE7
001F
000F
003B
001A
0058
0050
0053
003C
0096
0037
006E
FFEC
006C
001E
0028
FFD9
000D
0000
0070
009D
006D
FFB9
006B
FFC4
FFD7
0063
0062
0070
FFFE
0037
005F
0044
FFDF
003B
FFDD
FFE2
000B
0023
FFD1
FFEE
FFBA
005C
0045
000B
004C
0039
FFF5
FFFC
0015
000F
0058
008B
0025
0070
0047
FFF7
0079
002D
FFBF
003E
003E
003C
006D
006A
FFDE
0020
0023
FFEE
0023
001A
0073
FFB9
005F
004F
001E
001C
FFF7
0089
FFEF
007F
FFBE
00A4
005F
FF9E
000B
001D
002B
008C
0032
0063
FFD1
0010
0007
FFD3
000A
0044
FFC0
001B
006E
0034
0065
FFDB
005C
FFCF
007F
0025
FFD5
0025
FFEC
004E
004E
FFE6
0071
009B
006A
008E
0081
006D
FFEF
0054
FFF4
0058
0076
0097
0001
FFAC
0078
002E
FFFD
003F
FFDC
009E
0036
FFFD
FFC2
FFBC
0010
FFDD
FFF0
005C
0036
FFB9
0045
0049
00AF
FFEF
0055
FFD9
FFEE
0039
FFCD
0065
000E
FFF7
0025
FFF8
FFE1
002C
0007
007D
FFD7
0074
0015
002C
0050
FFC8
0018
0054
0015
005D
0015
0083
0038
0011
0023
FFD0
0089
001D
0055
004B
0007
0074
0036
0035
FFCC
0082
FFB2
0029
FFF0
0069
FFF3
FFCC
FFCD
FFF8
007A
0055
0015
0007
0056
009C
006F
0091
FFCC
FFDF
007E
FFDB
007C
FFFF
002F
FFAC
0073
0077
FFD9
0090
007F
FFD0
FFD2
0048
0063
0047
FF9F
0055
0017
FFD7
FFEE
FFE4
FFC2
FFE2
0010
FFF5
0039
FFFC
008E
003D
0093
FFA1
0069
0064
FFDB
FFBC
0049
FFE2
0086
004F
0083
0049
FFEE
FFC1
FFCF
0067
001F
FFDB
0049
0001
FFED
009B
0095
005E
0042
0042
0052
0046
006E
FFDD
003F
0065
FFBD
0060
0049
FFBD
FFBD
0021
0084
FFD9
FFF3
FFFE
0097
003B
002B
0047
003A
FFBB
FFDC
002B
0052
005D
FFCB
0022
0000
0056
FFEB
005F
FFCB
0049
FFEA
FFDC
FFC3
FFB3
0060
FFD6
0079
0088
004B
FFF1
009D
FFB2
0030
FFB6
000E
FFF6
FFFC
003D
004A
001B
FFE0
0088
006B
0009
0039
0039
0080
0005
0078
0077
0013
007A
0074
0045
FFF2
0084
0052
0020
FFC8
FFE8
0059
000B
FFC9
FFF0
001E
0056
FFDE
002B
004B
0075
008A
FFF3
0078
0086
FFDB
008B
0051
0039
FFE5
0015
0081
FFD7
004E
001E
FFB3
FFB5
005F
001A
0020
000A
007B
002F
0027
FFE3
FFD1
0073
0088
FFEC
0029
0036
0069
0069
0008
007C
005F
004F
FFB2
0068
FFDE
0008
0037
0012
001C
00A7
0053
0046
FFBE
FFD6
0050
FFE2
FFF5
FFD9
001D
FFDD
0054
FFBD
0057
FFAC
FFE6
0055
004E
004D
000F
FFE9
FFCE
000C
00BA
FFED
0055
FFD2
0010
FFC3
0061
FFDE
0045
007D
0089
0082
FFD7
0030
0071
0048
0092
002A
0028
FFF4
FFFB
FFEE
0084
007F
FFFB
0052
006F
007C
0045
0087
FFE6
FFFC
FFC5
0058
FFCB
FFFF
FFC1
FFA1
FFF4
002E
0051
0084
0049
0024
0047
0081
0027
0056
0004
0048
001C
001C
005C
FFE9
FFDB
FFFB
002C
000A
FFBA
0090
0068
FFB0
FFDF
007A
0058
004A
004E
00A9
007C
008F
FFA1
0077
002A
FFB9
FFEF
002F
006D
FFBF
007C
0027
FFEE
FF95
0061
006E
FFE2
FFBE
006E
0013
0034
000B
FFF2
0050
0064
FFE5
FFE1
008D
00A5
FFA2
FFD8
0087
FFE2
0001
FFFD
FFD8
0078
000D
FFC9
FFD6
FFB4
0015
FFDA
0050
0051
004A
FFE0
FFAD
003C
0074
001C
0044
0013
0071
0080
0043
FFE1
005F
00AB
007B
FFBE
009A
0018
0006
000D
0075
FFEB
00B8
0094
FFDC
0072
0073
002A
FFCD
005F
0079
FFC8
FFDF
0015
0084
005B
0017
0023
000F
0015
FFD3
0072
0087
005A
FFF7
FFD8
001E
FFF4
008A
FFD1
004C
FFFD
0002
0073
0004
0047
0010
0031
002C
0074
0016
000A
FFD6
0026
0038
0037
0007
000B
0040
005D
0019
0077
0043
000B
000A
0083
008A
0011
0043
FFE1
FFD1
006B
002E
0068
0063
003F
0002
FFEF
004F
0055
001B
FFCC
0040
0055
0053
FFBF
FFA3
FFDC
00B4
FFD0
0083
000F
000F
007E
0020
0009
FFEC
0013
009F
0004
0074
0022
0054
FFD1
FFE0
009D
0038
002E
FFEA
004F
0010
0012
0066
0047
FFC4
FFD9
FFCB
FFB9
FFD8
FFF7
0075
FFB3
FFDF
FFD8
FFCE
007E
0058
000E
004D
0061
0037
0002
FFC7
00BF
0059
0018
006F
00B0
002E
FFE4
008E
006A
FFD6
FFF1
0039
005E
0063
0027
FFED
FFDE
FFFC
0011
0076
0063
005E
FFBD
004D
0047
FFEE
FFD8
FFD6
0023
007C
FFB5
0045
007B
0017
0060
FFFB
0017
FFBE
000D
002F
0055
0011
FFF2
0048
0052
0020
0077
FFFB
0036
FFF6
001B
0017
00A7
0007
FFB8
001C
FFDE
0064
000F
FFDC
003C
007E
0059
FFB2
FFF9
0064
003A
FFFC
0069
0069
FFA2
0087
001D
0034
003F
003B
003F
0061
FFF3
0081
002F
0002
004A
004B
0062
003B
FFFF
FFB6
FFD5
00A4
0078
002F
007E
FFBC
001F
FFF0
FFF1
FFB4
FFC3
FFDE
008B
0004
FFED
006A
00A9
0000
0012
0022
001B
0005
0019
007F
FFBB
003C
0002
0085
0005
FFC3
FFB7
FFD0
FFC6
0090
0006
FFB2
FFCD
FFD5
008E
0037
004D
0096
FFC6
0073
0050
00B8
FFE6
001E
0086
0017
FFE8
0046
0079
0032
0002
0062
0068
FFE4
0007
002E
0046
002B
FFFC
0010
006D
FFFA
0050
FFBB
001C
FFB2
0011
FFB6
FFB6
0020
006D
002F
FFD3
FFF6
005C
002E
FFE1
007B
004A
FFC6
0021
001D
FFC1
FFF2
001D
0029
002B
000F
FFD4
0006
0025
0043
FFC7
FFED
0039
004C
00AA
002D
FFDB
0087
FFB7
0096
FFC9
FFBC
0048
008E
FFED
0020
FFE4
FFCD
0086
006E
0040
FFAA
0008
0046
FFD3
0063
0006
0077
0006
FFF9
0082
FFE5
003A
000A
0038
0081
0020
0075
0010
006B
FFCA
0062
0014
0030
FFEA
0082
004A
FFE5
FFE9
004C
0036
FFF1
0044
FFD1
FFF5
FFFA
FFE5
FFD8
0023
0081
0018
003B
009F
002E
FFE5
008F
006F
001D
FFB8
FFE8
0051
005A
00BB
FFF7
0044
008B
FFF6
FFCE
0042
FFE9
FFFC
003E
002C
0032
003E
0020
0067
0070
006E
000E
FFF1
0079
009D
0085
FFCC
FFDD
000F
0029
0000
0055
FFF6
0006
0042
0067
002D
0073
002F
007A
000B
003C
000E
000D
FFD4
FFFF
FFB0
FFE8
005E
FFD7
FFF9
0045
006C
0039
0063
FFF7
000A
FFEC
FFD4
0051
002F
0001
0053
00A4
FFB9
FFC6
FFB7
0001
FFE9
FFE7
0049
FFF9
0041
FFED
FFC2
0082
FFF5
FFE0
0082
0051
005B
005F
0051
FFFC
000E
0068
FFCB
0075
FFB8
0035
003F
0085
002F
0065
FFF2
0006
0072
0071
000C
FFFD
FFF7
002C
FFCD
003D
FFD6
FFD6
002B
0012
0027
FFBE
FFF1
FFD7
FFDE
FFF2
0012
FFC3
FFBF
FFE7
FFBE
FFDA
0021
0083
0001
0032
FFCB
0015
0007
0050
0019
FFF3
003B
0070
005C
0037
008E
FFC9
FFE6
00B4
004D
0048
FFFE
004F
FFC0
00AB
0086
FFEC
0088
FFF0
FFA9
FFA5
004E
FFD2
0022
FFF2
0055
0066
0065
0070
006F
FFC5
007E
FFFB
0035
FFDB
FFEA
005E
FFFD
FFD7
004D
FFDF
008B
0055
FFD2
FFE3
001F
0004
FFDF
FFCC
006B
FFF9
0013
0044
005A
0095
004D
004F
0003
FFD7
0058
003C
0013
0063
0021
0023
0045
0050
008A
002C
005E
007A
004D
008E
FFC8
0062
0029
FFF5
0004
000D
FFDE
005F
0004
0011
0094
0070
FFE2
0046
0028
007D
FFDC
FFE4
FFD7
FFDB
001B
FFBB
007B
0075
0027
0005
001A
0068
007D
0061
0020
0002
005D
00A0
0077
007A
FFDC
002F
0011
005E
FFEE
002E
FFCB
FFFF
FFFD
0012
0000
007E
007B
FFF3
FFCA
FFBF
0021
0054
FFC4
0015
FFC9
FFD1
001A
FFC1
003F
0019
0000
007E
0045
0018
FFD1
FFE8
0000
0053
0089
0077
004B
0049
0052
00AD
0000
0014
00B6
FFD5
0099
FFF5
007F
0066
0087
FFFA
0077
0078
007B
FFB6
004E
FFF5
FFD4
0032
0044
FFBF
0061
FFE9
FFDE
000C
005D
FFF1
0042
FFD8
FFEB
0015
FFC5
006B
0010
0071
FFC5
0008
FFCC
FFED
002A
0064
FFB6
0067
0033
005D
FFC6
0060
0029
FFFF
0047
001C
0035
0076
006C
0053
007E
FFE4
FFFE
008F
FFC1
FFD0
007D
0069
FFC1
FFC5
008E
FFDC
0053
FFD0
006A
0000
0055
FFDF
0086
0035
0078
0007
FFD5
0025
0058
FFF4
0015
FFF7
0045
FFF5
FFCC
0085
0067
005E
FFC2
003E
0027
FFEA
0001
FFD3
0051
0066
0041
FFE7
FFBE
FFC5
FFC0
FFD9
FFD5
FFF0
FFFA
006A
FFD1
0047
004A
006D
003F
0022
FFFE
FFFF
000E
00A6
FFBA
003B
005D
000A
FFE8
0056
0086
0026
0086
0055
FFB5
001C
003F
0003
0064
0004
0053
FFF5
0038
000F
0097
FFE2
006B
0068
FFE0
0063
0046
006E
0022
001D
005A
003C
006D
0078
0080
FFF7
004E
0011
0073
006B
0004
FFEA
008A
0000
FFD0
008D
FFEB
0047
FFFA
FFEC
000E
FFF0
003D
006B
002F
FFEF
0006
FFCF
000B
006F
0037
001D
FFF6
0063
006E
0064
FFFD
FFEB
FFFA
0028
004F
0054
0065
FFDF
005F
FFAB
0018
0004
0022
FFF8
FFC2
FFFB
FFB4
FFF0
0024
0044
0030
0070
003A
0002
0006
009F
FFE2
FFB8
FFE4
0036
FFB8
001B
006D
0077
0013
FFEA
0086
0058
001E
002E
004E
0050
FFBE
FFE2
FFB6
0022
0017
FFCE
FFEF
007B
FFEB
0016
FFB7
FFD3
FFD8
008B
0048
001C
008E
0021
0026
FFCB
0077
FFBA
0052
FFEE
0090
0028
004F
0014
FFC3
00A1
FFE1
005B
FFC8
0048
0095
005B
0068
FFC1
FFDA
0096
0077
0054
001E
002D
002A
003D
0031
0061
FFD2
0063
005B
004D
0016
002E
0055
0055
0084
FFC5
FFF4
FFDA
002E
0049
FFC3
008D
FFB8
0000
004D
FFE3
001A
0048
0086
0001
0032
0026
001A
0043
0020
FFC9
007B
001A
FFF1
0026
006C
FFED
FFD9
FFCB
007B
0058
002A
FFD1
0059
FFF4
0060
0018
FFFA
FFA8
00A1
0020
0012
FFB7
0053
0031
006B
001D
00B4
0067
003F
0045
0079
0049
0064
0046
0048
FFEE
FFEF
000F
000B
FFDC
0000
007A
FFBD
0023
0082
0009
0070
0030
FFFA
008D
FFF1
0044
FFB8
007D
002E
0043
FFB6
FFFC
000A
0018
FFDC
0049
0081
FFD3
0061
0020
0069
FFF5
FFBF
0093
FFEB
0094
FFE7
0033
0045
004A
FFE8
009C
0053
0034
FFDD
0065
0017
FFC8
FFF2
FFF2
006B
0030
0081
004F
007F
003E
FFCE
0029
002B
FFEB
000A
0006
0057
0072
002E
0004
001A
FFEA
004B
FFC3
0063
0049
0036
004A
0044
009E
0052
0048
0081
FFE2
007E
0030
FFC9
FFE3
FFC3
FF99
0098
0087
000B
00A2
FFDE
0045
FFE0
FFE9
0016
FFC1
0058
0028
006B
FFDD
FFE4
FFBE
007F
FFED
000F
003D
FFBF
0048
003D
0062
0063
002D
007B
FFD4
0064
001C
002B
0092
FFF1
001F
0004
009F
0052
002C
0024
0018
0065
FFD7
0096
0010
0021
0057
FFD7
0074
FFFC
0086
0056
FFFC
0037
FFBA
FFC9
FFD8
FFCF
0024
0082
005D
FFF2
FFEF
FFD9
0002
0014
005D
003E
FFE0
0048
006A
0098
0004
005A
0088
006F
FFEA
0052
FFC9
FFB3
0006
006C
0005
003F
FFF5
004C
000C
006A
0089
004E
FFED
0023
0072
FFD0
0086
FFBF
000C
001D
0079
000C
0031
0009
004E
0065
FFF9
FFCD
004A
005F
FFCC
003E
0045
0014
005E
0009
FFCC
0070
0045
0003
003B
006D
0049
0039
0071
FFDF
FFF8
0052
0083
005B
006A
0083
FFDD
FFEB
0003
FFC5
0035
0054
0051
0045
0026
003B
0048
FFE3
0056
FFF0
0067
001B
005A
FFE3
0001
007A
FFF8
0005
0046
FFD7
002A
FFEB
FFCE
0025
000E
FFE9
009B
FFFF
0024
FFD5
000B
0074
000D
FFEC
005D
006C
0067
0060
0059
FFCC
0044
FFF3
0076
FFC6
004C
000C
FFB4
004B
FFEB
002C
FFFE
0034
FFDA
0063
002B
0081
0031
FFEE
001B
005F
003A
005A
002E
0050
FFCC
FFE3
0091
0078
0030
004A
0030
006C
00C0
009D
005C
FFF0
000F
007B
0058
FFCF
FFFB
FFCA
002C
0035
007A
FFB8
FFDF
0058
FFD8
00A5
0033
0028
001B
FFB9
0012
0008
FFB3
0012
006A
007C
FFE7
004E
FFC3
0012
FFEA
0054
0012
00A2
FFE1
0052
FFC5
0080
0020
007C
007B
000E
0023
003D
FFB9
0081
0047
0068
005D
004B
003D
0075
0075
001D
FFBD
0070
0038
0041
0004
FFE9
0082
004D
0050
0008
FFDE
000B
FFE4
FFF1
FFC6
002D
002B
0032
FFF3
0046
008F
FFD9
0096
FFCE
006E
0071
001C
0085
002A
FFC3
001C
000F
FFC7
002F
007A
FFF8
FFCF
000B
009A
0000
0057
0054
0091
0032
0056
000E
004A
FFE8
FFEA
FFF5
0029
006A
005E
003C
006B
000F
0007
000D
0085
FFD3
FFC8
FFF2
0040
003B
FFC5
0024
0042
0048
003F
00AE
FFE2
FFE9
0037
005F
0040
FFD3
FFCF
FFCF
FFB3
FFBA
006F
0066
FFF7
FFEA
FFCE
007C
FFD7
0019
0051
FFCD
008B
0017
0062
0083
0000
FFCE
0047
006C
001A
005C
FFF2
005F
FFF4
0062
0034
007F
006A
0056
0078
0005
0009
FFD2
005B
0069
0020
001D
004F
0020
FFF3
FFC3
FFE6
004B
FFFD
004C
0073
FFBE
FFD0
FFE5
0023
0094
003D
0030
00B0
FFE2
004B
004C
008E
0087
FFD2
007F
FFD8
FFB7
003D
0073
0017
003D
FFED
FFDD
FFC3
001F
0010
005D
FFE1
007A
0002
0018
0067
0038
FFAF
FFF5
FFC7
0043
0046
FFD0
FFDC
FFEA
FFDA
0042
0076
004D
FFED
FFD9
0020
0084
0003
0017
0063
0031
0082
FFD1
0077
0053
006A
FFBB
0093
FFB9
0087
0077
0060
FFAF
FFB9
FFDF
005A
003B
0033
FFE9
000F
0043
0047
0067
00BB
FFDC
FFCA
FFCC
0045
0073
0090
FFF9
0004
0074
0042
0068
0027
005E
0029
0020
002A
0068
0033
FFC9
FFCB
001F
0017
0021
0080
0032
0008
0044
0058
003B
0001
002E
008B
007C
000B
FFEA
0011
FFC3
0046
0011
0048
002E
0060
0082
FFEF
FFD0
0068
FFFD
004D
0061
FFBC
004F
003C
0038
FFE4
0038
0074
0074
0096
FFB6
FFEF
0025
FFE0
FFE7
004B
0003
008C
0097
FFE6
000E
0069
FFED
0068
0042
FFE4
0025
FFED
FFB6
0019
FFD7
0080
0034
003E
0036
0056
0035
0031
0035
0035
0080
007B
0088
FFCA
0031
0093
FFD2
0061
001C
0034
003B
0000
FFB6
0002
0021
0086
0025
0081
FFE9
001F
0063
004C
0068
FFC8
FFCA
0009
0090
FFEE
0022
007D
FFF7
0047
0065
FFD2
008B
005C
0000
0087
0047
0091
007B
002A
002B
FFC9
FFFC
0070
0086
002F
FFEA
FFF8
002D
0058
0043
FFF8
0040
0023
FFFF
0090
003F
FFEA
004D
0066
FFAD
0052
000A
003D
0013
0057
0065
FFBE
FFDA
004F
003E
0047
0074
0011
FFCF
0074
0073
0016
FFF6
FFEE
003D
0045
0083
0026
FFFF
FFB0
006E
FFC5
FFC4
006D
0004
0069
FFCC
0033
007F
00A3
0050
0087
0058
FFDE
FFC2
0041
0056
002B
FFE5
FFF4
001C
0030
000A
00A3
006E
0019
0049
FFE3
FFF9
FFC0
0070
FFD6
FFBB
0076
00B3
0037
0068
FFC9
001D
0054
0081
0001
008C
FFBA
00A2
0074
0014
006F
00B9
001D
008B
0026
0074
FFCF
0054
FFE8
0015
005D
007C
FFE9
FFDA
0006
006D
0046
0068
FFE4
0019
0068
000B
FFF1
009F
002B
008E
007A
0047
005C
0053
00B6
0050
00A7
0084
0079
FFEA
0096
FFDD
005C
FFD9
0079
0082
FFE1
FFC8
004E
004E
006B
0098
0073
0005
004E
FFDB
001A
0018
FFC7
0049
0030
FFF0
0011
0018
FFDB
FFED
0007
005C
FFE6
FFDC
FFFA
003D
FFBE
FFB3
0075
008D
006C
0032
004A
0068
0047
0016
0040
FFC2
0017
FFE5
0021
FFD9
006C
005C
0090
0029
FFEC
0020
006C
004D
FFC1
005E
003F
0057
0035
0062
0062
005A
FFBA
003C
FFE9
0079
0042
008A
FFD5
0012
007D
FFF4
001B
0009
0061
000B
0082
005F
0063
0053
00A0
006D
0067
0053
0027
000A
001A
0086
000C
0035
0008
0059
004C
002C
FFCF
0078
002E
0066
0074
0033
0011
0092
FFE1
0033
FFEA
007C
FFF3
002D
002B
0092
0043
0016
FFD1
004E
0030
0046
0024
0028
0071
0026
FFD7
FFED
0004
FFBD
FFE3
0030
FFD6
002C
FFF0
FFD5
0006
FFD9
FFEA
0061
0027
008D
FFF2
0056
0013
FFCB
0035
FFE4
004C
0010
006E
FFBA
005E
004D
FFCA
000F
008D
FFEC
0062
002D
0001
005C
0011
FFE0
FFC3
0077
FFDE
0012
003C
FFE6
004E
0011
005D
FFFD
0063
0003
FFBB
002B
0024
0050
FFE2
FFE8
FFC4
0039
0018
001A
0096
0004
00A3
FFFA
004B
004C
005C
0030
004C
008C
0092
001D
0032
FFFC
FFF0
FFF0
005E
0012
FFE0
FFCB
FFEB
0011
0051
FFCE
000F
FFF6
FFEA
004A
FFD8
0026
FFE8
FFFD
0020
FFF3
000B
FFE0
FFF3
FFBB
0024
0037
0043
FFB6
FFEF
0000
0002
0075
0073
001A
FFFB
0022
FFB8
0004
004F
006C
0051
003F
0023
0005
0076
006A
0081
001B
002B
FFD5
FFF7
003B
000E
FFEA
0064
FFAF
001C
0039
005F
0052
00A9
FFD6
0027
0078
004A
FFFC
005F
0036
FFFD
FFF1
008B
006E
005A
0029
005A
0068
0083
FFC5
FFB5
001D
0078
005A
0002
000C
FFD0
FFBA
FFEB
FFD4
003E
FFCF
0037
0029
0045
FFE4
006B
FFBB
0013
FFEC
002D
FFEA
0091
FFE2
003B
0049
0073
FFE6
FFB1
004E
0081
0085
0084
0024
FFD0
0068
006D
FFCF
FFCC
0059
0052
0069
FFE9
004E
FFE9
0044
FFC7
0080
FFC7
0072
FFF7
005C
FFEE
0020
005D
0044
000B
FFC4
000A
FFBF
0092
FFE1
0033
FFB7
003D
FFA3
FFFC
0010
00A1
0047
0072
009F
0022
0072
FFEE
0039
0023
002C
007B
003E
004E
FFF7
003A
008C
002D
0084
002B
0078
0080
009F
005C
0009
FFD6
0070
FFFE
005A
FFB3
FFF3
005E
00C7
FFBE
0003
005E
00A0
000B
FFCF
0001
006C
0040
0016
001A
0021
0064
002F
0029
FFDF
0008
0077
0080
0062
FFCE
0010
FFF1
0051
0021
0085
006C
0057
0059
0044
0029
0009
0007
003D
0062
001F
003B
FFCA
0048
0046
0021
0009
001E
FFD5
0045
FFFD
0021
007D
007B
FFE1
0067
0021
0030
FFFE
0057
0068
FFCC
FFF8
003D
0037
0013
FFCE
001F
003A
0086
0038
0099
0065
0058
FFE4
0093
FFF7
006E
001D
002E
FFE3
FFEF
00B2
00A7
0063
FFD4
006C
FFE2
FFB5
FFCF
FFD3
0026
FFFA
0039
0071
004B
008A
006D
0055
005A
0063
0056
0085
0061
0003
0046
003D
0081
0062
0013
FFCB
FFDC
0055
FFBC
0088
FFCC
0071
0015
FFB6
FFC2
FFE5
007F
FFEB
0056
FFBF
FFEC
0070
0047
0058
FFB3
0074
003A
0086
0011
FFF8
002B
0045
0053
0075
0071
FFFC
FFDD
0000
000B
007C
004E
FFFC
004C
FFE5
0031
0013
0090
0021
0017
00A0
001A
0038
FFE4
004B
0024
0052
001C
FFD5
0027
006F
0081
FFE2
0074
0037
FFEB
006C
0091
FFF3
0015
0034
0081
FFDE
003A
002A
002B
FFFD
FFFF
0027
0041
0071
0054
0035
FFDD
003B
006E
003A
003E
006B
006E
009F
0042
FFE4
0081
005E
0079
0053
0035
0018
0039
0015
0061
007E
0032
006D
000D
FFB9
0006
0065
0058
0016
0064
0081
007D
003A
0055
002B
0024
0000
0059
FFBC
0081
FFEF
FFCF
FFC5
0018
002D
FFE8
00AB
FFE1
FFF5
0023
0004
006D
FFE8
0062
004D
FFC7
0081
FFCA
0087
FFAC
003A
0010
005E
FFC4
0024
FFF6
0060
005A
0006
0034
FFC6
005B
FFF0
FFF8
0027
0036
00A5
0042
FFFF
0053
005E
FFC5
FFF9
FFEE
0023
001F
FFF8
FFCE
002A
0033
FFC0
0036
007D
FFDD
0041
005C
008F
007C
0070
0014
004E
0020
0056
FFFB
004A
FFEC
0063
0010
0038
000B
006C
FFD7
FFD0
0031
FFD9
0070
FFE1
0091
0008
0071
0011
FFE3
0023
FFF1
003D
0054
0014
FFFC
FFE4
007F
FFEA
004F
0018
0088
0048
0028
FFC5
0054
0080
006A
0051
FFF0
FFDD
FFE1
002A
FFCF
FFDE
FFFB
FFE9
0061
0083
FFC9
008B
003C
006A
FFE9
0034
0016
FFDE
FFDC
0064
0008
0029
001B
0031
0060
0077
FFE0
0000
0002
FFED
0039
001B
003F
0072
004D
0006
0084
007A
0010
006D
0068
FFF0
FFAF
0080
004E
007B
0051
002D
FFAC
FFE1
0025
003A
004F
0058
FFE8
0037
0029
FFAC
0003
00A3
004E
FFC7
FFEB
0011
FFD2
FFE0
0081
0068
002C
001D
004C
FFBF
002C
0079
0005
FFD3
FFB2
0001
000F
FFE1
004D
FFFE
0083
0072
FFC0
009E
004D
004C
0010
0006
FFE3
000D
0008
FFC7
0057
FFEB
FFBE
006C
0044
0036
0026
0044
0042
0037
0053
0023
FFB7
0040
FFEC
FFFD
005E
007B
007D
005D
0056
0023
005D
FFC1
0045
0000
0097
00A2
0064
0081
