00BB
FF5F
FFEF
FF0B
FF1F
00A2
FFF6
00F0
0085
FF3B
00CB
FF6C
FFCF
FF2A
0016
FF3D
00B2
FF14
009B
FF5C
00CC
00E1
FFDF
FFEC
FF1F
FEEB
0041
FF32
FF20
00D0
FFB6
FF8E
009E
00DD
009D
00AB
FF1E
00FF
006D
0105
FF76
FFD3
FEFF
FFAF
006F
0090
009D
008C
000A
002C
FFF3
FFC4
0018
FFBE
008F
FF71
00A9
00D6
0026
FF2A
00BA
00EF
FEFE
FF33
FF91
0070
FF18
FF82
FF88
0031
FF94
FF1A
001B
FF7D
006E
002C
FF5C
0071
FEEC
004C
00D1
FF5A
FFB9
FF15
FFF3
00DF
FF55
0091
FF82
FF47
003B
0081
FF48
009F
FF4E
FFD4
000C
00A9
FF0B
0038
00FA
003B
0059
FF75
00A7
FF85
003B
FFFC
FFD8
0105
0040
FF82
FEE8
FF5A
00E9
FFC7
00C1
FF53
0018
002F
FFCE
FF3F
00C1
00A2
FFFB
00BE
0016
00E3
FF50
0075
FF18
FF8A
0098
FFC0
009E
FF41
FF68
0013
FF7F
00BC
000B
FFB1
009B
FFB6
0092
FF92
FFBC
008E
FF36
FFF5
0056
0029
FFF6
FF94
FF3C
00E6
009C
FF5F
FFD1
FF5D
FF92
0075
00F2
004E
FF66
FF19
0063
00C7
FF2F
0000
FFDB
FFA4
FF15
0063
0092
FF81
FF6D
0086
00D5
007C
00B4
FFC7
FF82
FF35
FF4F
FFA5
0088
FF40
003A
008F
00AA
FFA8
009C
0105
FFD7
006C
FF6C
0107
00BC
00C1
FFBF
0118
FF98
FEF4
00BE
00DD
0067
0103
005C
FEE8
00EC
008C
FF4E
FF52
FF9C
FFBA
0082
FFFA
FFD9
FF77
00C2
0017
FF27
FF4F
0059
00D6
FF91
FFCE
FF56
00CD
FFE6
FF68
008E
0103
00B7
00F1
001F
00B8
FF32
009C
FFEB
FF9A
FF59
FF73
FFD5
FFBD
FFCB
FFCC
FF95
FF51
0075
FFE4
00C4
0069
FF06
002C
FF64
006C
FFBD
FF2F
00E1
00BF
0024
0103
007C
00C4
FF22
FF6E
00A7
0076
00AD
0074
006F
FF51
0099
0075
00D8
FF29
005A
FF69
FF02
0028
FF23
FFB4
00C2
FF61
00BD
FF46
006B
FF5E
FF1C
FF36
FFB7
00C7
FF65
00A5
0020
0076
00AB
0074
FF8E
FF65
FF75
004A
FF78
00E0
FF73
0028
FF71
00B5
0042
0081
0058
003A
0063
002A
FF8D
FF8B
FF3B
FF66
0062
00B7
0061
FF46
FF71
0016
FF4C
0061
00BD
0047
FF6B
00D5
FFC2
007F
0009
FFA6
0074
0090
0098
FF05
FFF3
FF50
00D5
FF1F
0089
00B8
0020
00A4
FF9D
009D
0037
0068
00A6
00DC
00EF
FF7E
00EB
FF5A
00DF
0061
0032
0004
00EC
00FF
FF5A
FFFA
FF3D
FF9F
006B
FFD6
FF9F
005A
FFFC
008F
FF64
FF72
FFFB
00BD
FF33
00E8
FF44
004E
FF1A
FF4D
0017
0058
FF25
00A2
FFE3
FFF2
FF7A
FF60
00E8
FF0F
FF3C
00DA
FF6E
FFD2
FF40
FF49
00DB
FF14
FF96
0076
FFFF
0026
FF63
00B7
0094
FFC7
FFB2
00E7
FFE6
FF99
FF68
FF6F
FF0E
0094
FF4D
00AA
FF38
FFBB
FF31
FF77
FF7E
007A
FF1D
00CF
0009
0080
FFDA
00ED
0066
0087
0042
00BA
0081
0026
00C4
003C
008F
00C7
FF3E
006F
00E1
FF60
FF53
FF7D
00A4
FFAC
0061
007D
FF69
00E5
00CA
FF5B
FFB5
0078
00AC
FF24
FF55
FF6D
FF74
FFD0
FF40
FF01
0037
FFD3
FF3E
FF3C
FFB2
FF52
006F
FF31
FFBF
000C
0000
0015
0083
0111
FFF5
007B
FF5F
0094
FF31
00EA
FFC2
0045
FFAE
FFA3
FF00
00F9
005E
009A
00DA
009E
0063
FF3C
FF86
FF29
FF65
FFF7
000A
FF77
FFBE
0057
FF8D
003F
0021
FFDB
FF50
FF54
0070
FF99
FF9E
FF55
00DF
0026
005A
0073
FF4C
FF5E
0018
FFDE
00A4
FF5A
FF29
0037
00F1
00F2
FFA7
FF97
FF35
FFB8
FFAE
0078
FEFF
FF78
0088
FF65
FFFE
FF6D
FF49
00BC
00A2
FF2D
FF30
00BE
FF06
00A8
00A9
FEF1
007C
0118
00A9
00E1
FF59
FFA5
00D0
0108
0025
0076
0089
007D
0018
FFA9
00D6
FF69
FF40
FF0E
FF9C
FF5A
00C9
FF65
005D
00D2
FFCD
00BB
FFD5
FFA2
00D8
00D8
001B
0058
FF4A
FF6A
FFAF
FFFA
FF19
008D
00FD
FFEC
00ED
FEFF
00E5
FFE7
FF94
00F4
00ED
FFE3
FFFF
0080
004A
0036
0083
0073
FF3E
006A
FF47
FF5F
0048
007F
00C7
00F5
FF39
00B8
0011
FF5F
FF2A
FF59
00A9
00F7
FF1D
0080
FF14
005B
FFCD
FF84
0068
FF07
003C
FFFE
FF88
00EC
0042
0054
FF57
0031
FFAC
FF17
FF8B
FF43
FF6E
FF99
0057
00E1
00A5
FF4B
FFC3
FFA3
FFF2
FF55
0023
00EA
FF25
00AC
0061
FF7C
FF9D
FFF9
00D7
00EE
0049
FF41
FF73
FF65
FF35
00F2
00A8
FF5E
FFD3
FFDC
FF81
0075
FFA4
00B6
FF6A
00CC
FF6F
FF3B
0092
0072
00AB
00E2
00C7
FF36
00D4
FF02
0071
FF92
FF5E
FF29
0021
0027
FFDC
00B2
FFCB
FF5C
FF0D
0064
005D
FFF7
FF6E
FFD1
0034
0063
FFFF
0089
FF5C
0040
FF7C
00D6
FFF7
010F
0091
00EE
0039
FF25
00F2
FFF9
0040
00CB
FEFF
FF65
00D6
FF1C
0025
FF66
005A
FF64
FF1B
FFBE
FFA9
0095
00CB
0047
FF71
FF29
00B7
FF65
00A0
FF9E
FF82
FF1B
FF9A
FF69
FF4D
0027
FFD1
FFCB
0031
FF97
00E6
00BB
FF7F
00FC
00F1
00F3
FF7A
FFAF
FF3B
FFA5
FF62
000E
FFB7
0062
0021
009E
0089
0053
FF61
FF18
0092
004C
FF5F
FF12
FF4A
FF8B
00B0
00C0
00B2
00DF
FFBF
FF18
00A7
00B0
FFC7
008D
00C7
0053
FF71
FF56
FFD9
FF56
0022
FFCC
FFEC
00AC
FFFA
008B
0011
002B
003F
FF4E
0035
FFF7
FF91
FFAF
FFBF
0110
FF48
FF4E
0007
FF31
00B9
0002
FF8A
0088
008A
FFB8
FF1A
0079
FFB7
0073
007C
FF07
00DA
00F0
FF63
00F2
FF3A
FF2E
0059
000E
FFDA
0049
FF30
00AA
FF4F
009F
0074
FF63
FFEA
FFA9
009A
0045
010B
FF72
00D9
00A9
FF83
FF36
FFDF
001F
008F
FF41
007B
FFC7
00CD
000A
FF96
FF35
FF55
00AC
0079
00C7
008A
FFD2
FF56
FF29
FF08
007A
FFF5
00B2
FFBC
FF01
005F
FFF3
FF51
000C
0026
0030
00A3
0041
00B7
00FD
FF69
00DF
FFFA
0096
FF2E
008B
FF60
0045
FFC4
0068
002C
FFCA
FF46
0007
009E
00D4
FF60
003B
FFF7
FFC2
FF35
FF83
0057
FF79
0076
0039
FFEA
FFFC
0098
0075
FFA3
010E
FF56
003C
FF2E
FFEE
FF60
FF2A
0055
FFF8
00B7
008E
FF2A
FFC9
FF83
FF40
00CE
FF30
006B
FF4F
FFD6
FFC4
0034
001E
FF12
0080
007A
008D
FF77
0074
0076
00B9
FF5C
FFCB
0027
00A0
0047
FF68
FF2A
0003
FFB2
00B4
FF25
FFA7
0097
FF1B
FF34
003F
FF1E
004F
006D
FFA8
00A3
00DF
00AF
FFBF
FF64
FFFC
008A
FF34
0072
FEFA
FFE5
FF47
0052
0089
FFDD
00C8
002B
FF98
FF3F
00E1
FF4D
FFFB
FFCA
FF33
0082
FFC8
FF33
FF11
0030
0061
0006
FF29
000E
00D4
FF8A
00A3
0044
FF46
00C5
0005
00AE
FF50
FF7A
00E2
008C
00B8
00B7
FFE8
FFD9
0075
00CA
0098
0068
004E
FF14
00D6
FF7C
FF7B
FFF1
00C1
FF5D
00A1
FF5F
00BE
0055
0097
0004
0056
FF47
FF9A
006C
0097
FF4F
00EB
FF18
FF8D
FF2C
FFA9
00F4
0077
00FC
FF08
0059
0032
00D5
FF12
FF4D
FF6D
0097
00EF
0068
FFAB
0026
0004
FFC8
FF0D
003D
FEF4
FF5B
FF91
00AF
0061
FFC3
FEF6
0099
FF5C
0013
FF9C
FFC4
00D2
FF77
006B
0049
00F1
FF7B
007D
FF8C
0082
00BA
FF74
FFB5
FF48
FF30
0026
FF5A
FFB4
000E
FF3F
00C4
FFBE
FF38
006D
FFC0
FF8E
FF52
FF7A
009F
FEF9
00D6
0025
0033
FFD2
FF5A
0066
0072
00CC
006C
FF51
FF9D
0093
FF6D
FF6C
FFBC
FFF8
FFEE
FF3E
00D2
005D
FF01
000A
000B
FF55
FF4A
00E0
FF46
010A
FFED
000C
FF39
FF55
FFF9
FF31
0093
00C9
FF3F
009B
FF9B
FFC3
00E9
00C5
000B
FFA3
00B8
FF36
FF5B
FF22
0046
FF4D
FFE6
00E3
FF29
FFCB
FF0B
FFDC
00C6
FF69
0020
00F2
FF8F
FF37
00EC
00AB
FFA8
FFBC
006B
00D8
0090
0077
00AA
FFF5
FF3C
FF9C
00D8
001E
FF4F
FF57
0016
FFA8
FFD6
00A2
002D
FF9F
00CA
0061
FF37
FFF0
007A
00D4
0105
FF58
00A5
0051
006F
FF10
FFF9
008F
00A9
00BF
FFEB
0042
0024
00E9
0010
00FC
FF79
FF9A
00EA
FFD4
00A6
0103
0050
FFD4
001B
FEFD
FF75
FF1A
FF5C
FFF4
0081
FFE2
FFCE
FF7F
FF2F
008A
FF90
0022
00D5
FF90
FFEA
00F0
007A
FF1A
FFC4
00A0
FF2D
00E9
FF3D
FFFC
00F5
FF09
FFDA
FFF6
FFFD
00BA
00E2
00B7
0073
00A1
005F
00FE
FF0D
0026
00BE
0020
FFC6
FFE9
FF3F
FF76
FF38
00DE
FFDB
00DB
FF6F
00E0
FF30
FF50
003A
FFD0
009D
0012
00B9
FF4C
0035
0088
FF5B
FF68
004A
00CB
FFFD
FF98
FF5A
00FF
00EF
002E
0069
0050
0033
00E0
FF78
007C
001B
0064
FFA5
002B
FF5D
FF0A
0025
FF73
000E
FF32
FF0A
FF95
0006
FFAE
FFC6
0082
FFB7
FFF4
0108
FF05
FF8F
FF8E
FF45
00E1
FFAE
FF41
FFC3
FFE6
00E1
00C8
0088
FFF8
FF16
0058
00BD
00B9
008A
0020
0041
FF78
FF4A
FF1A
FFC8
0010
001D
0012
002A
00C2
FF9A
00DC
005C
FF45
FFD9
0057
FFEA
000F
004E
00B1
0040
FFD8
00B2
00B9
FF9F
FF7B
00C1
0094
0060
003C
FFBE
006D
FF5A
FF17
FFC0
009C
FFA9
0079
FF78
FF9C
0028
FF69
FF9F
0023
FEFA
FF44
0084
00BF
FF0E
00BE
FFBC
008D
FF31
008C
0008
0089
005A
0058
FF3F
FFCD
00DD
FF15
0001
008E
0089
FF91
0075
0028
FF29
FFFA
0005
0049
FF90
FF6B
00E9
FF63
FFEA
0055
FF51
00A2
FF1E
FF48
FF50
006D
FF2C
001F
FF8E
FF35
FFFD
FF73
005A
FF13
005F
FF0A
FF68
0089
0047
FFB1
FF94
FF90
FF1A
FFB0
FF35
FFF4
FF38
00BD
FFEF
000A
00CD
0068
00A1
00C2
00AE
0093
FFDE
0075
FFEB
0007
00C4
FFC2
006D
FF40
00E9
FF9A
00A3
002F
FFC1
0033
003E
FF13
0116
FF0A
00A2
00A9
FF70
FF72
FFBE
FFC5
00EB
009F
0047
FF40
0095
FF09
002F
009E
FF77
0112
006A
FF2B
FF7C
004A
006B
00E3
001E
00E0
0037
FF8E
FF26
00C0
00B1
FF5C
00C1
FF5E
00C4
FF32
FF3E
FF57
001E
002D
006B
00B7
0098
006B
0066
007B
0000
FF19
FF0B
FF6B
FFB9
004C
FFD9
00B5
FFED
FF96
FFD0
FFD8
0019
FF7F
0091
FF1E
00CE
00B0
0003
FFCF
00F2
FF74
00C2
FF74
FFF9
FFB4
008A
0092
FFA6
0042
0030
0102
00A2
FFF9
FFC4
00B2
000F
0031
FFE9
FF86
00CE
000D
FFB4
0080
00F0
00C5
00D2
FFBB
003B
008D
0019
FFED
00D3
00D0
FF7B
0021
0042
FF4B
0085
0044
FF75
FF23
0087
FEFA
FFBB
0078
FF2E
0082
FF69
004A
FFDA
FF3A
0089
007D
FFA2
FF4A
00E8
00C0
FF31
FFDD
FF99
00A3
FFF1
0090
0003
FF1B
FF93
FF35
FF58
00B3
0064
00AA
0039
00BA
FF91
0104
009B
FF3B
00C4
FF89
FF3F
0040
FF2E
FFBA
0095
005C
000D
00C5
004A
FF18
FFD5
0022
00AA
FFC2
0079
FFB2
FF31
FF9B
007D
FFEB
FFC8
FFA3
0066
0000
00CD
0021
FF86
00A5
FFD3
FF82
FFE0
FF1E
FF03
FF8F
00E6
00BC
00F0
FFCA
001B
FF44
0013
FFBB
00CE
FFEF
FF8E
FF2E
FFAA
FF34
00C8
006D
00DB
00D7
FF50
FF24
00C5
0033
0002
002B
0021
FFFA
007A
FFA9
FF2C
FF9D
002A
FF70
0066
0003
001C
FF45
FF3C
0101
FF6F
0015
0053
FF3E
0009
006A
002E
00AE
FF7C
002A
001F
00BC
FF16
FFFF
00B8
FFBA
008C
0064
0009
FFED
0080
0027
0056
0102
0068
FF5A
008E
00E0
0003
FEEE
FF5D
007A
0042
FF70
0073
004B
003E
00C2
FF53
FFBD
FEF5
FF94
FF30
00B8
008C
009E
FF67
FFAC
FF19
FF42
FFEB
FF45
002B
FFED
00AE
00A4
FF46
FF78
FF5D
FFA6
FFBE
00F8
005B
00F1
FFCE
0066
00AD
0011
004B
FF82
00E2
FFA5
FFF4
FF61
006B
001E
FF90
0043
0046
FF0A
FFCD
FF4C
FFA9
00CE
FF83
FFAA
0110
FF40
FF9B
FF08
FFA2
0095
FF7A
FFB8
FF34
FF81
FFCB
FFC3
00C5
FF2E
FF55
FF0E
FF98
FFBA
FF69
FFE6
010B
0012
006B
0004
0069
0008
009C
FF89
FFA6
FF67
FF86
00A8
00CF
0071
FF31
00E2
00B0
FF78
FF67
FF58
FF92
0081
FF4B
00BA
FF03
00ED
0077
FF6C
FF6E
FF8B
0055
FFC7
000B
FF97
00A0
0014
FF8C
00A3
0001
0042
FFAA
FEF4
0049
FFBF
FF04
0098
FFAA
FFAC
00D9
FF38
0040
0049
FF11
FFEF
FF65
00CC
00B5
0035
006C
FF9C
00F1
FFD2
00A0
00A0
00C0
00AE
0095
002E
00BD
FF53
FF11
007C
0066
009B
FF46
00B4
009F
FF12
00C2
FFE5
0024
FF69
001B
FFE7
FF90
0048
FF65
FF0F
000F
00AC
FFF1
FF0A
008E
FF96
00D2
0079
009D
0051
FF76
0085
00A3
0015
FF6F
FF0F
00EA
FFCC
FF10
000C
010A
002D
00EF
FF1E
00E1
FF44
005D
FF53
FFA7
FF88
FF77
FF01
005A
0077
009D
FF4C
00D7
FFB0
FFD8
FF39
00DD
00F1
0022
FF41
FF80
FF72
00AC
FF9E
0006
0006
0014
002F
FF62
FF42
FF70
FFEA
FFED
FF61
00DE
FFAB
FF4D
FF04
00BE
FF5A
0043
FFD4
FF81
FF72
0020
0090
FFA6
0031
0012
0003
FF10
0059
FFC6
0075
00A1
00E1
FFC5
00B6
002F
FFB0
00D1
FF9D
FF63
00CB
FF99
00D5
FFC7
FFBF
FF76
002D
009B
00DF
00B9
00FC
0093
FF54
0023
FFB6
FF48
FF87
006F
00DB
FF5A
00F3
00D8
FFA8
FF13
FF56
FF1F
009F
FF9E
00D1
009B
000A
0030
FF34
00E2
FF7D
00C2
FFCE
0021
FF1B
FF73
FF57
004B
FFFC
003A
FFF7
00F9
0081
FF75
0040
FF22
FFD1
FF3A
00E7
00B8
FF23
FF80
FF9C
FFBF
00F3
0038
00B4
FFE5
FEFE
FFC5
FF54
00CB
0009
FFF5
FF5A
FF4A
0103
0065
FF7F
002A
00DB
FF9D
FEFB
0040
FF9B
FF33
FF73
0035
FF5C
FFD3
FFA8
FF91
004B
FF35
0028
005B
00F3
0021
FF94
0038
FF66
FFE8
0092
FFAF
00AD
00AE
008E
FF56
0017
FF85
FF6E
FF96
00A5
FF83
00F4
00EE
FF49
FF68
00B0
0045
FFED
FFDC
0016
004F
FF71
00EB
FF25
FFBB
FF64
00C3
FF8B
00DA
FF5E
FFB9
0061
00DC
FFDA
FFEE
0090
00AC
006E
002B
FFE0
004F
FFA7
00BA
00B5
FF2D
00CC
FF89
00C2
FF67
FFB3
00E5
0085
FF4A
FF45
00BA
0018
FF48
FF38
005F
00DE
006E
FF5D
FF16
0067
00BA
FF95
00CF
00DD
FF5E
FF17
FFA6
FF2D
FF37
0059
00B2
FF22
0035
00BE
FF62
FF5C
FFBF
006E
00C0
00EC
00AF
FFD9
FF95
00D2
00E2
FF8D
005A
0046
00CB
006E
0061
0064
0029
FF6C
FF53
FF5C
0003
00A8
FF4D
00E7
FF4C
FF3C
FFB2
FFD5
00E9
FFA2
007C
007A
FF7F
FFDC
FFCD
006F
00C1
00AF
FF89
FF5B
FF2A
FF59
FFA1
0083
FF58
00BA
FF82
FF50
FF68
00F4
00DB
FEFD
FF78
FFF9
FF44
FF8C
FF79
FF27
000D
FF5E
005D
00E0
FF67
000A
FF7F
007E
00D4
0084
00B8
FFD8
0080
0054
FF94
FFF7
00C4
0036
FFF4
FF3A
FF13
FF89
FF5A
FF9A
FFCA
FFBE
0021
00C2
00AB
FF46
FFDE
FF47
FF58
FFCB
00DC
FF1E
00F5
0048
FF60
FFF8
FF80
00F8
FF82
0076
FF06
FF26
FFD1
FFCE
FF58
00F1
FFDE
00CE
FF53
003D
00A9
FF1D
00E4
FF2F
0040
FF27
00A7
FF7C
FF36
00CC
FF41
FF5D
FF25
0008
0035
00A7
0060
0054
00A8
0045
00A5
FF9B
00A7
FFB5
FF95
0084
0087
00F4
0121
FF57
FFC1
0098
FF6E
FFA1
FF58
FF19
007F
003C
FF1C
FFA0
0040
0050
00DE
0065
FF3D
FFD2
FF7F
FFB6
FF09
00BF
00C6
FF9D
0071
00CD
FF78
FF61
FF32
00FB
FFBE
0073
FF29
0079
FF81
FFE9
00D2
00C4
FFE2
00EE
00A8
FF5D
FF16
00DA
FF56
FF28
00A6
FF55
FFEC
FF3C
FF58
FF9B
FF79
0045
00AF
0073
0086
FF9D
009B
0085
FFAE
FF44
001C
00C2
FF9C
005A
0080
FFE3
000E
FF12
0037
FF55
FF2B
FFC8
00D4
001E
FF8D
0097
FFD6
FF66
0065
FF52
0065
FF74
FF3B
0027
FFA4
006E
00A0
000B
00D1
0088
000B
0042
001A
FFF2
FFF3
00BE
FF29
0057
00E8
FF50
0060
FF5F
00CF
FF05
0090
00EA
FFE6
00D6
FF73
FF3C
FF1C
0069
FFD7
009D
FF5C
FFCA
FF59
00D9
00BC
0021
FFFC
00BD
00C4
FFD5
00CF
00C9
FF4B
FF1C
FF27
FF92
00C1
0033
FF1E
FF90
00B7
0042
FF99
FF77
FF7A
FF2D
00AD
00E9
FF62
FF7D
FFDE
FF31
004B
FF6D
FFFD
FF5B
FF76
00C7
FFC4
0038
FF98
FF59
0069
00D1
FFC9
009D
00BD
0037
0069
00DD
FF3A
0081
FFDC
008F
00DD
00F3
FFD8
00CA
FF7E
FF95
FF87
0080
FF8B
0054
FF3F
00B2
FF59
00B3
00BB
0091
FFE5
FFE0
FF80
FF82
FF62
FF87
0042
0033
001F
005C
FF9A
00BA
006E
FEFD
FFD6
0039
0022
FF4E
0040
0058
0034
00D0
003D
FF20
0026
FF60
FEFF
0024
006A
FF00
00C2
FFB3
006E
FF19
FF2A
FFF1
0008
FF35
0054
00FD
FF83
000E
FF33
002E
00AE
FFD0
00BE
FF39
003B
FF60
00FA
0043
FFCC
00FA
FF80
FF61
00A5
FF38
FF69
0100
008D
00C3
00D6
FFCA
004E
004A
008C
FF4B
0066
0085
FF4A
FF1B
FF32
FF96
FFE2
FFE5
00A5
FF38
FF78
0041
00C9
FF07
FF4D
0007
FF41
FF74
0034
003F
FFBC
FFA8
00E7
FF83
FF43
0080
FF8A
FF62
0040
009F
00CC
FF94
00C8
0078
FF15
FFCD
00AA
FF26
008E
00EA
010C
0041
003D
008C
FF42
008C
FFE1
FF37
00C7
0073
FF83
0031
FF42
FF20
FF59
FF3B
00A5
FF5F
0098
00A9
00AE
FFED
0005
008D
00F8
005F
FFE3
00E1
00AA
00A0
FF33
010D
0006
FF08
FFC8
0079
00DE
FFEE
FFEE
FFD9
FFA7
0089
0101
008B
007F
FF35
FF6F
FF41
00BB
FF8A
002F
FFA1
FF17
00AB
00A5
0022
002C
FF36
FF1B
FF27
FF57
FF6D
009A
FF3F
008C
FF96
0055
0060
FF7D
FF52
FF5B
FFAC
00DB
FF7A
FF1A
002F
008F
FF77
000D
0092
FF36
FFF7
00D7
FFE4
FF7F
004E
FF2E
FFC4
FF0D
00B7
0007
004F
FF0D
FF25
FF0C
FFF2
FF73
0038
FFB4
00C0
FF74
FFBA
00F1
0056
00DA
00AE
00F5
00CC
FF13
FF4D
FF1A
0069
0014
005D
FF2B
FFD4
0032
FF9F
FF9D
FFF1
0020
00AE
FFB8
0090
FFC7
00E4
FF6C
FF56
FFEB
FFB1
FF34
FFF7
FF19
010A
FF99
00A2
009E
FF65
00D4
00AC
FF56
0006
FF81
FFD6
FF90
0010
001D
FFDC
00BF
003C
0004
0071
0039
0001
00C8
FF6A
FF3F
009D
FF17
00D6
0024
0036
FF72
00E2
0003
FF12
FF3F
00E6
FF78
00C7
0089
FF59
00F3
00CE
FEF2
00FE
FF52
0002
0063
00CA
00E4
FF90
004D
00EC
0079
0091
0004
FFE7
0099
0043
FF2C
FEFD
FF7E
0056
FFF5
FFB0
00CA
FF41
FF52
FF2E
FF48
FFC9
0052
006E
00A2
0086
FF6C
0068
FFC0
FF2B
00CF
FF9F
0037
0028
FFA5
00B1
FFE2
FF66
0031
FF3C
FF5C
FFBB
FFBD
FF77
FFCF
004D
FF1D
0028
00D5
0058
FFCA
00BE
0045
FF15
009E
FFD0
0030
FFAF
0067
002A
008D
FF92
0021
0067
FFBD
FF72
00B9
0052
0090
FF6D
0025
FF94
FFC5
00E5
FF13
FFC2
00D1
00AC
FF9E
0044
FF08
00BC
FF98
0063
FF15
0107
00A3
FF28
0040
008B
0098
0046
002A
006E
FFD4
FF53
FFBE
FF01
FF98
00DE
FF2F
FF0B
FF7F
0027
0010
0025
FF79
FEEC
0006
FF72
FF78
FF39
009A
0090
FF54
0095
00AF
FF56
FF81
FF26
FF95
FF16
0045
FF32
0046
FF67
0002
FF4B
FFE6
FF5B
FF5E
0015
0090
00F3
00BC
FF17
FFBD
FF5E
010A
006B
00CC
FF05
009B
009A
000F
FEF0
0024
009A
FFD9
FFD0
00CD
00B6
00A0
FFC9
FFE5
FFD5
FF66
FFB3
0095
FFE7
FF20
00D2
FFF1
0069
00F3
00EB
FFA9
00EB
001E
FF1E
FF53
00C8
FF4A
FF77
FF13
FF72
0030
008D
006D
FF93
FFD5
FF80
00F6
0080
FFE3
FF4A
005D
00E2
00AF
0062
FFB9
0051
00E2
0022
0047
FF45
FFE7
00D2
FF66
FFB1
FF34
0067
0080
FF63
FF89
00A0
0071
FFC1
FF88
FF7A
0062
FF50
FF5E
0073
00C7
003A
0077
0033
00DF
FF29
005B
FFE1
00EE
000F
00A4
FFDF
FF32
FF51
0005
FF8A
FFA5
00C0
FFF2
000C
0035
00EB
0064
FF28
FF8A
FF77
0090
00A7
FFBD
FFFA
0071
FF7F
00F9
00B4
FF75
00BE
0014
FF32
FFFB
0015
00B0
00C1
005C
FF9E
FF5D
006E
FF48
FF0B
004E
00BF
0036
000C
FF04
0053
00E0
001D
0004
0075
0075
005C
FF1F
FF3D
002C
FFF6
0094
00B3
FF88
0029
FF9E
00FF
00C4
009D
FF12
FF7A
00C0
0099
008E
FF48
0005
FF68
0105
00CA
FFC3
FFD4
00A4
FF2B
FFA8
00DF
FF6C
0074
FF37
FF4A
00C2
00FF
0037
FFEA
000F
0028
FF3E
005A
00BE
0090
FFB2
0063
008B
0101
0065
FF39
0061
008F
00E0
00F7
00EC
00A3
FFD6
00E7
FF62
0089
002D
009E
FF3A
FFC4
FF3E
00D5
00F8
FF67
FF3D
FF57
FF5E
FFC3
FF51
FEF5
0052
FFCA
FF71
003C
0080
FF91
FF44
FF52
FF64
00A7
FFA4
0082
FFA3
00EE
FF84
FF85
006D
FF53
FFE0
FFB5
00C1
FFEF
FF19
008B
FF37
FF6E
FFF3
FF62
FF1E
009E
FFC9
00D6
FF83
0028
00AB
FF61
006B
0090
FF04
00A3
0020
00F8
0076
FF5F
0066
0072
FF86
009A
FFA9
FF4D
FF51
001A
008E
FF09
FFD1
FFFD
0102
FFAE
FF58
FFCB
006F
FF74
003B
0092
FF64
009B
FF8E
FFCA
FF61
00B1
004C
FF9E
00D0
FF92
FF4E
0082
003F
0068
FFDE
FF64
00C1
00D9
0110
FF63
0024
FF8B
FF1A
FF77
00C1
FF7E
FFC9
FFEB
0057
0056
FFA9
00D3
FEFB
0109
0083
FF29
FF07
0067
009C
FFB1
FF5F
00A7
00A9
0037
0048
005A
00C8
FF0B
FF5B
0074
003D
FF33
0022
0090
00A3
FF5B
0033
005E
0075
FFF5
FEFF
FF1D
00DE
FFB4
007E
0064
FF4F
00B8
FF52
FFE9
FF98
FF9A
FF54
0027
00DA
FF95
007F
00B6
00E4
FF86
0096
00FE
0005
FF6F
00DD
0037
00AC
0007
FF4A
0080
FFF0
FFED
FF04
FF38
0049
00B6
FF8E
0073
FF25
FEFC
0087
009A
FF45
00A0
00FE
00E1
FF21
FF74
00A6
0100
003F
FFF4
FF0B
FFF3
FFC9
FF31
FFBF
FFE6
0085
0044
FF86
0074
FF82
FF33
0065
0062
00C7
FF6B
FF93
00CA
00BE
0051
0051
FF0A
0063
FF4E
FF9C
FF27
00BC
FF26
FF85
00AD
FF56
0009
FF46
FF92
0095
FEF2
FFD5
00E6
00D1
FF3B
FFB1
FF3C
0086
003B
FFA0
FFB7
FF95
0041
0049
00C1
0084
0044
0083
003B
FF6F
FFB0
FF8C
FFC5
00D9
005E
FF52
FF9B
FFEC
FF36
FF1A
FF07
FF11
FF25
FF18
0097
00D3
FF24
00BF
006B
0097
00CE
FF32
009F
00DE
00EC
00AB
007E
FFE3
0086
FF79
003E
00FB
FF64
FF58
0007
FF88
0037
FEF2
005E
004C
FFE0
FF48
FF8A
0052
00DA
FF32
FFC1
0098
FFAE
00EA
FF79
0027
FF89
00A8
FF63
FFAA
FF10
FF0F
0052
FF72
006D
0094
FF71
FF30
00BC
000A
006E
00B0
FF56
00BF
FF72
FFF2
00C3
FFDE
008E
0001
FF21
00F1
00DA
FF97
FF1B
00D4
FF39
0021
0086
FF2E
0016
FF4B
00E2
FF19
FFEF
FFEA
00A8
006F
0044
FF16
FF3E
FF14
FF63
00D3
FF77
00FC
00E3
FF64
0062
FF34
009E
FF26
FFA4
00BE
009F
00C2
FFEB
00B8
FF2F
00D1
FF20
0017
00C4
FF4C
FF75
FF3C
FF1B
FF81
00B1
FF2E
00BD
0047
00CE
00A2
FF94
FF02
00D0
00DB
FFDB
00D2
FFDE
0054
00A6
0038
00CB
FF65
00F0
0090
0110
FF58
00B0
FF8F
FFF9
FFFC
010C
FF91
FFB0
0092
FFD3
FF04
0033
FFA8
00E2
0046
005D
FF65
FFD6
0000
FF8F
FFDF
FF34
007F
FF5B
00F2
00E4
0015
FFE8
00DF
003D
FFCC
005D
0036
00F9
0058
0103
00D0
FF7D
FF5A
FF81
FF37
FFEF
00C6
FF15
FF70
FF84
FFE8
00C4
FFD6
FFD5
FF7D
FF6F
0089
FEEE
00AE
FF76
00EB
FF54
0028
FF19
010E
FF49
0003
FF74
00B1
FFC0
FFBC
FF66
0033
007C
FF4E
FF5F
00A5
FF8B
00CA
FF91
FF3F
00E5
003E
FFA7
0042
FF0A
002C
0068
0045
0073
FF69
FF34
00BC
FFDD
FFB8
FF06
FFEE
FF3A
FFF4
FEFD
004F
FF12
00EC
00AA
FF60
0070
0091
FFBB
FFFF
00BF
007C
FF98
0055
FF24
FF28
FF77
00CE
00F1
00CD
00DD
FF64
FFA8
FF5D
0073
FF13
00FC
00C2
FF80
FF89
004F
FEFE
0023
FF33
FF77
007A
FF5D
FFDD
FFA9
FF67
FF6A
FFD9
FF78
FF6E
FFFC
FF22
FF2B
FF78
FF24
007A
FF22
00CA
00A6
00DF
FF42
00D3
007E
FF88
FF27
00A6
FF2B
FF5C
008E
00AF
FFD5
0077
007F
00AD
FF42
FF0F
FF86
0044
0062
FFAA
00C7
FF57
007C
0055
FFEE
FF83
00B5
0097
008F
FFDD
FFEF
FFA7
FF3A
00CC
FFF4
FF37
FFB9
FF25
00FF
FF97
FFDB
0074
FF82
007B
FF8B
FFCD
001B
FFAA
0033
00BD
00C2
FFA4
00C0
FFAC
00D3
FF99
0085
00A0
00EB
FFC8
FF5C
FF4D
FF96
003D
00B9
FFC9
FFA0
FFBA
FF84
0105
0027
0062
FF25
0055
FFEE
FF3F
00E2
FF62
00DB
0081
FF7B
0053
FF4D
FF61
004A
001C
FF57
FFEC
FFD0
00BF
00DC
FF83
FFF2
00AC
00B2
FF1E
008B
00CA
FF10
FF19
FF0B
008C
FF39
FF75
FFA5
FF11
FFF3
FFA2
FFD3
00CF
FF57
00AA
006F
FF43
FFF3
FF19
FF3B
FF24
007B
00E2
0046
FF44
00D1
00D2
0092
FFF6
005A
00CD
FF83
FF51
FF5A
FF5E
FF86
FF78
FFD8
002F
005D
005B
00AC
00AF
FF2C
00A9
0091
FFE5
0057
0091
006A
0025
00C6
FF31
FFFB
FF9C
0068
FF06
FF53
FEFB
FF48
00D9
FF04
FFA0
00F9
008A
FFDE
00E3
FF7C
FFFC
FF55
00E7
008A
0065
00DD
FF34
0023
0053
00AD
00EC
00AE
FF57
FF88
00C2
006B
FF4A
0082
FFDE
0061
00E1
00D8
FFD9
008B
0002
0074
0131
FF28
FF27
00B9
FFC1
00CA
00AD
00A0
FF45
FF20
0021
FFD9
FF78
00DF
FF94
008D
001F
008C
00D4
0016
FF69
FF48
FFF5
008A
FFAB
00D5
001E
FFC4
FF2E
0070
002E
00C4
FF2F
FF78
00AA
FF59
FF63
FFB5
FFCA
FF22
007A
FFCD
0023
FFC2
00D4
0014
00E3
FFC4
00D5
FF7D
00D9
FF3E
00C1
004C
0046
FF89
FF31
FF40
FF96
FF3C
0007
00F4
0005
FF74
FF95
0007
00B3
FF57
0087
FF21
FF31
FFFD
FFA5
00BD
00F1
FF65
FFB7
00A0
FF95
003E
FF61
0081
00CA
FF5F
006F
00A7
FF9D
FFBC
0054
FF2A
00ED
00A6
00B7
00CA
FFEA
FF9C
FF5F
FF03
FFB7
0082
00B6
FFA5
FFEC
004F
0084
FFED
FF62
FF70
FEFC
FF25
FFDF
FF15
0062
FF55
FFDC
FF4B
FF50
0027
FF63
008E
0091
FF98
FF03
00DC
010D
FFAA
00CE
00A9
FFF3
FF12
FFAB
00E2
0015
FFF4
010C
FFAB
FFC3
FF2B
FFB3
FF52
006D
FF5A
FFA9
00D2
0097
009F
FFA5
001B
FF77
FF1A
0048
FF96
FF42
00AE
0010
00CE
00DA
00AF
FF75
FF3C
FFE3
FFBD
00B3
FFBE
FF53
00F3
0018
FF13
00B3
0054
0022
00B2
0073
0073
FF56
FFD6
005C
010C
0077
002F
FF11
FF4A
FF87
FF5C
FF03
0098
00C3
FFDE
FFAE
FF7E
0057
FF61
00AF
FF1C
FF06
FFA1
0050
FFFD
FF80
0051
00E7
FF6A
FFE3
FF4C
00B1
00F9
0098
003A
0011
FF8F
FF70
0098
FF42
FF08
00D8
FF03
00EB
00AE
FEFD
0055
00DC
FF60
FF50
FF1A
00BC
FF46
00CA
004D
0066
0100
FF19
00E2
FF05
00A9
FFE1
FF50
FF9B
0097
FF75
FF86
0098
FFE4
FFDE
FF44
FFA8
00BA
00C1
FFFD
FFD8
002C
00EF
00F9
0091
00E1
00BB
00A2
FF10
007C
FFCE
00E8
00DC
0020
00E5
FF8B
FF79
00D0
00D8
0094
FF76
FF16
00CA
003B
00B9
FFBB
00E8
0001
FF9D
008A
008F
0071
00A2
002B
FF3D
FFE4
FF83
FEF5
00BE
FF43
004F
FF8E
0033
FF60
FF8E
FFEA
FFB4
006D
00A8
000B
00BD
FFBC
FFCA
FF3A
FF54
FF08
FF30
0074
00A5
006C
FF44
0071
005F
FF1A
0060
0078
FF8E
0065
0009
FF91
00B2
011A
00C3
FF4C
0039
FF6F
0026
FF97
00B9
FF81
FF61
0078
00A7
FFA3
FFA5
0037
008E
FF7A
0089
FF39
FFD1
00E3
FF2F
FFB5
00CB
FF98
FF5A
00D9
00E0
009A
006A
0064
00D8
FF93
FF93
00F9
00D1
FFDF
00A6
FF9A
FFE4
00DD
00C1
FFCA
004F
FF4B
FF0B
FF2C
00DD
FF4A
0014
001C
FF61
FF52
FF6D
FFDE
FF80
0019
FF46
FF8D
FFB3
FF3F
FF69
FF63
00FE
FFEF
FF8A
0111
0098
FFDB
FF8C
0063
FFED
0071
0096
006A
00A8
FF6B
FFFE
00EE
FFA5
FFF0
FF26
FF6E
FEF7
0036
0113
FFA2
FF62
0079
0035
FF72
006B
00BF
0070
005B
FF89
FF00
0001
FF66
00E9
00FF
FF70
FFD5
FF34
FF9F
0002
FFCD
00CA
FF6C
00AE
0064
FF7F
FFB9
00F7
006C
004D
007C
0015
FFA1
FF42
FF4B
FF44
0083
0019
FF69
00AC
FF69
00E1
0035
00FB
00B6
FFB1
0091
FF93
0073
FFE9
FF7B
0018
00E7
FFC1
00AB
FF87
005E
003E
FFE1
FF97
FFA3
0063
0081
0108
FF74
FFE5
FF8E
FF27
FF64
0047
FF28
FF53
FF51
FF7E
FFDF
FFC7
FF32
FFFD
0016
0076
00F4
00D9
FFA6
FFFB
FFF3
FF90
0035
0086
FFA8
005C
00B0
FF81
00FF
FF59
002C
0068
FF2B
009C
0051
000E
002B
00C2
00E8
FFE6
FF16
0058
FF5C
FF52
0013
FF79
FFCA
FF4D
FF2E
FF1C
00EE
009B
FF91
003C
003B
FF5E
00C0
00C9
FFB5
00AC
0095
0035
0092
0034
00A8
00AE
00B3
FFDC
FF04
FFBA
FF3B
003F
00EE
00BB
0076
003F
0091
004B
FF8A
FFA1
FF8E
FF78
011B
004C
0090
00BD
00B3
0084
FF6B
0092
0078
FF54
00DA
FFDD
FF0D
007D
FF94
FFE3
0099
FF85
0031
FF3B
FF27
FFAF
00B9
FF20
FF8C
FF5D
FF4B
009A
00C6
000E
FFEB
FF5E
0008
FF74
FF8E
FF6D
0092
FF55
FFE6
0008
00E2
0058
0057
FF34
FF6B
FF13
00C4
0052
FF9B
00D0
FF5E
FF43
FF9E
FF4E
0107
FFE3
005E
FF97
FFBC
00DF
FF75
0065
00CF
005B
FEF3
FF11
0086
FF6A
FF94
FF9A
FF16
FFBB
FFB9
0095
FF45
004D
FF97
00A7
00C6
FFEA
FFE6
007F
009A
00D6
FF90
0043
0053
00EF
FF6E
00E0
00C1
000F
00BA
FF86
005C
FF19
00B9
00B0
FF5C
FF88
FF9A
0080
FFD6
FF5C
005C
008C
FF5B
0043
0068
FF37
FF11
FF54
FF26
FF4D
FF42
000E
008D
FFD6
00B1
00FC
FF0F
007F
FF7E
FF13
FF7C
00BB
00B2
0045
FF6F
00BC
FFF1
00E7
0042
FFD5
FFE5
00E4
00AC
FF67
00F3
008F
FF94
FF80
00D8
FF43
FF32
007D
006C
FF1C
FF5C
FF7A
00DB
006F
FFBE
FF9E
FF62
00F1
0097
00D5
FFDE
FF9E
00D4
FF2F
FF5A
00B2
FF68
00CE
FF97
0093
0032
FF73
FF38
00B3
0057
FF4F
00EC
0075
00C4
FF1A
FF70
FF05
001E
FF15
00CF
FF5B
FF90
FF63
FEFD
FF5E
00A0
FF26
009F
00E9
00E7
FFDC
FF63
00D8
FF39
FF6D
FF48
008F
00E2
FF47
0075
00DB
0098
00E3
FF2F
FFA6
0053
FF49
0102
00EA
00E7
FF6F
FF8E
0084
0104
FF3F
FFBA
FFA9
00B9
FFF9
FFC5
FF16
00D7
FF65
FFDD
00BB
FF1B
0027
00E4
00BB
0005
FF5D
FFD0
004C
0004
FF8D
FF4D
FFB4
00B3
FF5A
FF93
FFD0
0012
FF75
0094
0077
001C
0078
FF66
0063
FF06
FFEC
0056
FF67
00FF
00F2
008C
FFD8
FF9B
FF9E
FF45
FF22
FFAB
FF4E
00AF
00B1
FF67
0085
FFDA
0002
FF9F
00A2
0081
00F0
0046
FFF3
FF0D
FF42
FF71
FF8A
FF32
FF9E
002C
005F
00EC
00D8
FFC9
FF8D
FF40
FFB1
00B5
00DD
FFA5
FF87
FF20
FF40
FF2A
00B3
FF92
00ED
00BA
008B
FF8E
005A
00C5
00B0
004B
FFDB
00E4
FFDE
FF10
00BD
FF35
FF1E
FF74
FF55
00B7
0025
002C
FFDA
FF7E
FF60
FF9E
00D8
002E
0052
00EB
00CF
00BE
00A3
FF27
FFC1
FF67
FF4E
FFDA
FFAA
FF5B
FF8B
FF86
0099
FFEF
0107
FFA2
FF32
FF1E
FF07
FF51
FFD0
FFB0
0092
0076
FF95
00C7
FF90
FF90
FF89
FF71
FFF9
00BF
00E9
0078
FF80
00AF
007B
FF2A
00D0
00B9
0082
0023
0094
0051
FFD5
FFDD
FF40
FF85
FFEE
00DB
0012
FF9A
FFB4
FF44
005B
0064
FF7B
FF13
00A0
FF25
FF9B
00AE
FFB5
0089
FF53
FF75
00CB
007A
FF96
FFF8
FFE8
00AB
00FE
FF0C
FFB2
FF57
00DC
00A7
00C9
FF6F
00D4
FF16
0087
0091
FFA1
FFF1
008C
FF81
FFEC
005C
FF89
0077
FF50
FFE4
FF89
010E
FEEE
0026
FFFA
00CE
FF39
FF4F
0014
0104
FF8B
005A
00DF
0102
FF82
FF78
0105
FF2E
FFAC
FF67
0039
FF19
00F5
FF92
00C6
00DB
0066
00C2
FF7B
FFAD
FF88
FF92
00B1
FF5D
FF71
FF92
0098
006A
FF00
00FD
FFFB
FF3D
00D1
008A
00BF
FFB6
0051
0008
FF79
FEF1
0129
010B
00BD
0066
00E3
0066
FF99
000A
00B7
FF87
001E
0049
FF58
FF80
0056
FF05
00BA
FF97
FF92
FFA2
FF28
008C
FFEE
FFAD
FFE4
FFAF
FF8F
00D1
00AD
00B5
006C
FF36
FF2C
003E
0036
003B
00AC
FF5C
FF7C
FEF0
FF43
0008
0105
00C4
FF4D
FF21
FFF7
FF34
004B
00C5
00C6
FF94
FF56
0084
005B
00D9
FF0E
0014
004E
FEF0
0053
010F
FF55
0031
00AB
00AF
0071
FFA5
FFB5
FFD8
FF96
FFE6
FF0D
FF85
00E9
FF8E
FF53
FF98
0041
00EB
FF50
009D
FFAE
FFBF
009B
FF36
0057
FFE0
00A6
FF32
00DF
FF50
0059
FEFB
FF54
0074
FFDF
00B3
FF41
00A7
FFCC
005E
00E4
009D
002A
004D
0042
0038
FFC5
FF71
FF3D
FF2B
00C6
FFB8
009B
FF1C
FFE6
0080
00DA
0044
FF54
FF73
FFD7
00A3
000C
0056
FFA5
002E
00DB
FF53
0035
0090
010E
FF70
FF10
007C
0010
FFE9
00C4
0006
0040
0067
0067
FF2A
0097
0001
FF92
008A
FF6D
0089
FFDB
FF8E
FFEF
0059
FF45
FFEB
FF38
00C3
FF41
00B5
00C6
FF27
FF12
000C
FF2E
FF4B
0077
00A9
FFD3
0048
FF3E
0067
FF6D
00C4
FFE1
FF7C
FFC3
00EE
FF2A
007F
FF25
00D8
FF6A
000F
FF4A
0082
00BA
FFB5
005B
009E
FF4C
FF89
FFB5
00FB
FF2F
0008
FF53
00CA
FF82
00EB
00E3
0057
00AB
006E
FF3F
FF68
FF59
0092
001A
003D
FF4F
FFF6
006A
0067
0073
FF06
0021
FF78
FF04
0072
FF80
00DC
00BD
0108
0061
00EE
FFD2
FF35
FF3B
FF18
0008
FEE5
FF84
FF42
006B
00A2
FEF7
007C
FFB8
FF85
00EF
00A3
0048
FFD1
FF16
0020
00A3
00C5
0054
0054
FF35
0039
FFC5
0067
0081
FF78
FF3C
00FA
00A9
FF88
FF3E
FF33
FF78
FF0C
0022
009B
FF88
FF1B
001C
007D
FFC2
00C9
00A8
009F
00DC
006E
00F1
FF66
FFCB
FFC4
FFE5
0000
009F
FFAF
FF39
00F7
FFB5
FF7D
FF47
003C
FF52
0033
FF31
FF51
FEF9
FFEE
005E
FF82
FF6C
FF27
005B
0099
00C1
007E
007F
FF62
0044
FF21
0034
0075
0036
FF90
FF13
00BF
0092
00F3
FF45
00D7
FF5C
00E7
FF28
FF9C
FF60
007B
00DB
00F8
FF6A
006B
FF14
006E
FF37
00B4
00A8
FF4D
FFEE
00EF
00EB
FF40
FFBF
00EA
FF54
FFDA
0057
006E
FF88
0041
FFDE
FFD8
0081
008F
FF54
FF21
00C7
FF79
00A1
002F
FF3A
FF96
0032
00CF
FF15
0048
0002
00D0
009F
00E6
FF8C
00E8
FF07
0048
FF23
009B
FF6E
FFDB
FF54
002D
FF3B
008C
FF5F
FFB1
FF59
0063
FFCB
007E
00D9
00AC
00DF
FFF0
FF58
0004
FF8E
FFDD
00AA
FF40
FF2D
0003
FFA1
0073
FF8C
FF41
007C
00D7
FF97
006E
00A8
FFC7
00AC
FF9A
0004
004B
00F0
00C1
0061
FF5B
FF19
009E
FF1F
0056
FF58
00C7
0082
0045
FFFF
00CF
FF78
FF32
00AB
0066
FF89
FFAA
FF8F
0093
FF83
00E4
0058
FFB3
FF73
FF6C
FF4C
0008
004B
0060
FF9D
FF9C
0011
FF7E
FFC4
0074
00CE
0063
FF25
FF5D
FFC9
00FC
FFBB
00B1
FF61
000A
006F
0071
FFB5
008D
009B
010D
00CC
00E5
FF1F
00C5
008D
00DF
0054
FFD2
00D3
FF8B
FF21
FF90
FEEF
FF65
0094
0028
FF8C
00FE
FFFA
009C
FF42
FF23
FF48
009C
FF7D
FF4F
0034
000D
FF52
000B
0041
FF3D
FFB7
007A
00B9
0063
FF01
0071
FF8B
FF16
009C
0080
FFFC
0081
0087
FF20
FF8F
00F5
00DD
FFF7
0016
FF08
FFC6
0005
0034
005B
FF30
00F3
006F
00D6
00C3
FF2E
FF45
0080
FFA1
004E
FF36
FFA6
00DD
FF5B
0091
005E
003E
FF5F
00CD
FF64
0096
0086
0006
FF41
009B
FF79
FFBB
00AA
FFAA
00B1
FF62
FF68
000A
006C
FF4D
FFAF
00CE
FFEC
00BA
008E
FFEF
0033
FFDE
0042
FF4B
FFFB
FFBE
FF07
00B7
FF5C
0103
FF03
00AE
FF2F
FF76
010A
FF87
FF0C
001C
0083
FF77
FEF6
00B8
FF8A
FF2E
0065
FF8C
005A
FF44
FF5E
0096
00E1
004E
FF38
004B
FF73
FFA2
002C
0085
0073
FF4E
0078
009A
FF7D
0097
00A9
00B2
00CD
FFF9
00BB
005E
0094
FFBF
00B6
005B
0041
FF3C
00FA
FFA6
FFC7
0067
001E
FF65
FF8E
0002
0032
00D5
0042
009D
0068
006F
FF28
00CA
006F
FF9A
0087
0082
005E
FF3A
00B1
0063
FFB4
FF52
0017
FEF0
FFD6
FF1A
0059
003C
0069
FF7E
FF62
004B
FF3C
0060
FF1D
0013
00C2
00C0
0054
0034
0013
FF35
FF80
FF66
FF9A
00B6
00DB
FF4B
FFBE
002B
0035
00BC
00DD
FF13
003A
FF79
0073
FF33
00D5
FF9D
FFD1
FF2A
FF94
00A3
0082
00DF
FF74
FF7B
00F0
0023
FFE0
FF32
00DD
009A
0057
FF61
FF93
FFEB
0090
00CA
FF6A
00EE
FFB4
00DC
00F0
00A4
0080
FF19
FFBE
0098
0049
008B
0061
FFB4
0095
005B
00B2
0025
FF86
0082
FF6A
0063
FF58
0072
0057
FFE2
010D
00B4
FF9D
FFF6
FF30
FF44
FF42
FF69
FF1A
FF59
FFCB
FF3A
FF83
004C
FF96
FF18
FF80
FF24
0032
002C
FF2F
00A2
00A3
007E
FFF4
FF0E
0019
FF50
FFEB
FF0C
FFA3
009A
FF44
0092
00B2
00DD
FFB5
FF8E
FFA7
FF68
FFEA
006E
00B0
FFA9
FF1C
00BE
008A
FFF6
FFFE
00EB
FFBA
00F1
FF32
FF4C
009D
0065
FF22
FF57
FF92
FF19
FFEF
FF98
FF76
00B9
00BA
FFA0
FF3B
00EF
FFA4
FF74
FEFD
00BC
FF6E
FF61
00BA
FF4A
001C
FF05
FF82
FF14
0022
FF15
FFE4
00ED
FF88
FF81
0010
FF15
006E
00B4
FFDB
FF4D
FFB6
0034
FFC7
006E
FF5C
002D
0049
00CC
0064
00AB
004B
FF16
0094
FF8B
FFE8
FFBF
0012
002F
00ED
0087
0072
FF95
FF98
0081
FF75
0073
005A
00DD
FFD4
006E
FF7F
0075
FF5E
FF38
0051
00C0
FFD1
00C7
FF23
00DD
00B4
FF92
FFCF
00D8
00DB
FFC9
FFBB
FF1E
007E
FF49
FF66
FF0F
00E2
FF52
0035
0020
00EA
FFAF
FF5E
00B9
FFF3
FF5E
FF7A
0045
FF82
FF34
FF42
FF9D
FFDC
00C6
00AD
00FF
FF87
FFC5
FF5B
00D6
FFC5
FF08
009C
00F4
FFEB
0023
0060
0087
00B0
FF60
FFF9
00E3
FFA6
000A
FF21
FF74
0093
FF0D
FF52
FFEB
003C
00FE
FF06
FF43
FF0D
FFC9
FFB7
FF16
0031
00D1
FF79
00D7
FFC6
FF4A
0028
00B9
FF07
FF39
0066
0052
00C2
FFDF
00EE
0091
FF31
007B
0088
0066
FFBD
FEF8
00C7
FFB1
0004
00AF
0040
00BD
FFB1
FF7C
0032
FFCE
0030
FF6F
000A
FF66
0035
FFF2
0075
FEE5
FFEC
0098
001C
001F
00E7
FF75
FF6B
007C
006D
0081
FFFB
0031
0058
00E1
FF10
00C7
FF7C
00E5
00CA
FF4F
000A
0004
004B
FEF2
FF3F
0032
FF55
00E3
005C
FF73
FFFA
FF32
00DE
FF9F
0085
FF35
00F6
0107
005D
FFC5
00DE
00C3
00D7
00AB
FFC0
00A9
0000
00B1
00C7
FF1C
00E3
0054
FF3B
FF19
FFA9
FFA6
FFCF
FFC3
FF02
0090
00DF
008B
00FD
00D2
FF14
0023
FF43
FF43
FF51
FF6E
008C
FF42
00EF
00AF
00C0
00D5
FFB7
FFBD
FFE2
00E7
008C
FF2A
FF53
FF6C
FF4A
00A2
007F
FF43
FF68
FF30
008B
FF79
FF5F
FF10
0012
FF58
FF90
00E9
008F
0093
FF81
0058
FFB6
000D
00B1
00FE
FF03
00AB
00C4
00A8
FF7B
0061
FF2C
0029
FF5C
FF9E
FF14
0032
FFF2
00A4
FEFD
FF58
00B9
0045
000D
FFE1
FF3E
FF13
0004
FF33
FFF7
FF49
002A
0098
0095
00E2
FF95
008E
00A8
FF36
00F2
FFDE
00CA
FF65
FF8C
00F0
FF8A
001B
0060
0075
FFD2
0099
FF57
0090
006F
0038
000F
00BB
FF12
00F4
0011
FF92
005B
FFD5
007F
FF4E
FFB4
FFDA
00BD
FF75
00D0
00A0
FF14
00EA
FF7B
FF2C
0086
0049
FF97
0095
00E9
0099
FFEB
FF43
FF45
009C
0077
00AC
FF90
0088
FF6E
00EF
00DB
FFF8
FF7D
005D
009A
0046
FF66
FFD6
FF4E
009F
0092
FF55
FFCF
FF50
007D
00E1
FF46
007D
007F
FFE1
00DF
0036
FFD4
FF48
FFC6
00A7
FFFE
FF4F
00DA
FFB9
002D
0060
FFD1
FFC7
FF60
000F
0053
0063
00F0
FF74
0104
00A9
00BB
0013
00A8
FF44
0107
006E
FF7E
0098
0091
00F8
FF93
FF37
FFAC
009D
001C
0075
FF67
FF20
001F
00FA
FF84
FF42
FF42
FF91
FF03
FFEE
0105
006E
FF8F
FF6F
FF86
0056
FEFC
FFA3
FF84
FF88
FF47
FF29
FF9D
010D
FF6D
00A3
0112
0073
00BE
FF1D
FF5D
0060
FF45
FFAD
FF39
0021
FF0C
FF77
00E2
00B8
0094
FF7D
009A
FF4D
00BF
00A8
FF52
FF15
008A
003F
0076
00BF
FF34
0001
FF7C
FFB2
FFEB
0040
00CF
FF23
00A5
00A0
FFF9
FF5A
FF79
000E
FF19
0129
00D5
FF3C
FF10
FFC4
FF3F
FF50
FF71
FFE3
FF1B
009E
00E6
004D
FF36
FF46
0011
FF50
007C
FFAD
FF77
0015
FFD6
FFE2
004E
FF5F
007C
FFD0
00D7
FF2F
FF6A
FFC5
00DE
FF22
0034
00D0
FF68
000E
FF5B
FF08
0033
FFF1
0099
FFCA
FFFF
FFE2
FF18
FFA5
FFCC
003C
FF65
00E5
00B9
005C
00CE
FFA8
0014
0066
FFB3
0028
FF32
0056
008E
008C
00CD
00E7
001F
00EE
00B1
00AB
005E
0042
0063
FF2C
0066
0100
0032
0097
FF7B
006E
FEF5
00D4
FFF4
0057
FF4D
0025
FF53
FF60
FF5B
FFC2
00DD
FF63
FF45
FF62
0103
004F
FFB9
FF91
008D
FF38
FFA9
00A4
FFCC
FFC9
0097
FF87
0096
0069
00CE
FFC9
FF48
00A9
FF45
00C5
003B
00B3
FFC0
000A
FF53
FFB6
00FA
FF0A
003C
FFC7
0028
FF4C
008E
FF1C
0027
00E9
FFD5
00AE
00C2
FF54
00B0
FF11
FFCF
FF96
FF2B
FFAD
FF3E
FF3E
002B
0020
FF57
FF77
0044
FF04
FFBF
FF41
FEFF
0063
FF11
FF68
0014
FF13
0058
0083
FFA6
FF6F
007D
FF11
0009
00E8
007C
00C2
00BE
FF2A
FF54
FFB6
0058
FF3B
00AF
0066
0057
FF8D
00A9
FFF4
0049
00D8
0092
00CF
FF9E
001C
002E
00A0
FF37
FFD0
FF84
FFBC
FFD1
00E7
0040
FFA4
FF65
FF59
FF42
0012
0084
0024
00B0
FF8E
FFC6
003E
FF66
FFA7
009C
005B
FF2E
FF2D
006A
0019
FF4E
006E
FF25
00DE
FFCD
0046
006D
00A4
0072
FF81
0047
0080
00BA
0080
FF2C
FF6D
FF3A
0114
FF82
FF29
FF65
FF00
FF74
FFC9
0098
FF18
00C1
0083
009C
FF24
FF75
00BB
FF9B
0108
0098
0067
00AC
0030
00BB
00E2
FFEC
FF8B
FFBE
FF57
00BC
FFB1
FF21
00EC
009F
FF4B
004C
00DC
00B6
FF2D
002A
FF26
000E
FF86
00CE
00C6
FFBC
FF98
0082
FF03
FFEB
FF33
0070
0020
FF88
FFEF
FF4E
FF14
0062
FF79
FF1E
FFD9
00AD
0092
00CB
FFC9
FF8D
FFD1
FFCE
0045
FEEF
00C0
FF46
00B8
FF32
FF19
FFC2
FFAB
FFB7
00ED
FFDE
FF39
FFCA
FFA8
009E
0033
00CF
FF62
FF42
009F
0092
FF53
FF11
FF20
FF81
0106
004A
00A9
FF8F
004B
FFF8
FF5D
FF41
00EC
FFB5
0064
0062
000E
000A
FF7E
0096
FF09
FF7E
00A7
FFBD
00D1
FF2F
00D2
00BC
009E
FF72
00B2
FFE1
0083
00FC
0051
00D3
FF6D
FF3F
FF30
FF61
004C
FFEE
FFA9
FF46
FF65
005E
FF5D
003F
00C2
00B8
FFF5
004E
FF34
0073
FF5E
000D
0031
FF30
FF56
FF65
00FF
FF55
0102
00B5
0047
001D
00D6
00DE
FFBB
FFE5
00FD
FF34
FF26
00D6
FF6B
0013
FFD3
FF8D
00DA
FFC8
FFB2
0039
009B
0030
00F1
FF5E
0063
00CD
00F0
FEF8
00A1
FFA7
FF1F
FF65
FF53
000B
0098
FF73
00EC
FFF1
00DC
0048
00E6
FFCF
0029
FF2D
0009
FF28
00A8
FF0B
FF2B
00BD
FFE4
FF85
FF79
0010
FF30
FF13
FFF0
009F
FF29
0008
FFEE
008E
FF69
00D7
FF1E
00EC
FF89
FF38
FFA3
001B
0096
00C8
FF86
0030
008E
FFD2
0069
FFFC
0056
00E6
FF43
0094
00B0
00F7
003F
0001
FF9A
FF65
FF6A
00B8
0112
FF45
00E8
0087
FF58
FF7C
FEFD
00A2
0058
001F
00A7
FF6F
FFE6
FF0B
FF9F
FF91
0087
FFC7
FF80
00D3
00C1
FFC3
0040
00DC
00BC
FF42
0068
00D3
00E5
FFF6
FF3A
FF48
FF04
0089
001E
00C5
0018
00AD
FF73
FF5B
FFF0
000D
FF7D
00EC
00E0
006C
FF5C
004D
FF70
0098
FFC5
00FB
FFA3
FF0F
00C5
FEF2
004E
0110
FF0C
00DB
0074
00A1
FF93
006A
FFA1
FF37
FF9D
00AB
FFE5
FFA4
0054
006D
00DA
006F
FF7B
00A7
00ED
FF77
FF71
00C3
0058
FFE8
0101
0065
00AD
002B
0051
FFCF
FF74
0037
FF9B
004C
FF84
FF88
00C5
0079
FFBF
FFC0
FFDD
FF73
FF5F
FF6F
009D
FF10
FF49
005F
FF46
FFD0
FF14
00BC
FFBE
00A6
002B
FFC8
FF79
FF23
FF7F
00C1
FF6A
0070
FF8F
008A
FFC1
00F6
00B3
00A8
FF3C
FF86
007E
0098
00C6
0063
0081
FF71
0084
FFF5
FFD4
003D
FFB5
FF76
FF3B
00FB
0023
FFA6
00B9
FF50
FF01
00DC
0080
FF68
FF56
FF90
0073
00D6
00AD
0035
0078
FFF8
FF43
0003
FF40
FFF3
008E
FFF6
FF19
FF43
FF2A
FF9E
0031
FF99
00AC
0009
FFAB
006B
0089
00E2
004A
0076
00B4
FF94
FFC8
FFEA
FFC9
00E9
0077
FFEA
00AA
001C
00D7
0068
002A
009B
FF8F
FFDA
FFD2
FF46
FFA7
0087
FF5E
FFAE
00B9
FF89
00F2
0035
0067
0048
FF7B
00D1
00D0
FF30
FFDF
FFA9
FFD6
FF57
FF50
FF3C
FFB7
00CE
006F
FFC7
FFCE
005A
0050
FFDB
FF4E
FFB8
00ED
007A
0019
FF59
FFD6
FF77
0071
FF45
0010
001C
FFFA
004C
004F
00B2
FF2F
FF65
FFA1
0047
FFC2
FFA2
FFA8
00C3
FFC4
FF4A
0032
001B
0067
FFB1
FF67
FFC1
00C5
FF1D
FF4B
FFD6
00BA
0000
FF84
006F
0059
004C
FF16
FF8C
FF93
006A
0091
FF30
FF74
FF5E
FF27
003E
FF42
0033
007E
00D2
FF72
006A
0045
00A2
FF11
FF76
006E
FFBC
00CE
FF47
00E1
FF62
FF99
FFB4
FFE4
FFA9
006E
0058
0096
FF94
0105
0003
FF8C
00D7
003B
0093
00CF
001C
FF57
0076
FFFC
00BB
0087
FF1D
FEFC
0042
FFAD
FFA9
FF30
FFCB
FF3A
FFD6
FF85
0078
FFC6
00E8
FF4F
00BE
FF39
FF8F
00B5
00BD
007B
FF51
0079
FFA7
FF19
FFB7
FF93
FFA5
0011
FF69
0051
0053
FF1F
0031
FFFC
005C
000C
00B7
00D0
FF1C
FF81
002A
FFD9
FF25
FF03
001D
FF1F
FF6C
006B
00EB
002B
FFF6
0004
0066
FF43
FFB9
000F
FF8B
FF31
00D7
0051
FF35
0051
00A1
00B4
0070
004A
0094
00E4
FF52
00A9
FF3D
FF95
FF7B
00E0
007B
FF3C
00E2
FF1A
00BD
FFA0
00B6
FF5D
0090
FF95
0066
00DA
FF77
FF32
004E
FFA1
00CE
00B0
FF38
00B3
FF09
00D9
000C
FFF8
000E
FF60
0049
FF9E
004D
FFC8
005A
002B
FFB9
0062
FF3F
FFDB
FF22
0069
FF6B
0069
0029
FF71
009D
0063
00CE
00CB
FFAE
FFFB
FF81
FFA2
FF54
FFB2
FFF0
00C1
0016
FF2B
00E2
00FF
FF74
FF74
FF8B
FF3D
0091
00C4
FF90
0044
0074
0078
00A4
FF6C
00A3
FF23
00E8
00DD
FF39
FF29
0050
00BF
0069
FFF4
0088
FFFB
00DB
FF1B
FF47
0033
FF49
0019
003F
FF02
00A1
FF1D
FFFA
FF18
00C5
00D4
00CA
0083
FF53
FF91
FF22
FF37
FF94
002C
0022
00C3
006E
0082
002B
00B4
FF25
0074
00C3
00D6
0070
FFB2
FF70
00BD
003F
0091
FF08
0060
FF1B
0040
FF99
FFB8
00C3
0015
0098
FF4D
0089
FF62
000D
00F3
007A
0094
FF1A
0094
FF40
0078
FF3D
FF62
FF1B
FFDD
FFFA
00DC
FF28
FFC6
0051
00E3
FF49
00AE
FFDF
00FE
FFF8
0046
00BA
0056
FF60
FF76
0047
00E2
0022
00CA
FF12
FF67
FF55
FF56
FF12
FF95
00B4
009C
00C0
00D4
FF8E
FFF3
FEFE
FF13
FF0F
00C3
FF09
007D
00B7
0097
FF45
000F
FFA9
FF26
0095
0079
FF68
0095
00B2
FFCA
00A2
00C9
FFFD
00A8
0055
006D
FF77
00BB
FFFC
FF46
0040
00BC
00E5
00F7
FFEA
00CB
0063
FF6A
007C
FF00
00F0
FFA8
FF18
FFAF
0073
0036
00CB
FFA5
0004
FF57
FF2E
FFED
FF66
007E
011D
0046
011B
00E7
00C6
FFA6
FFCA
FF90
FFA8
FF83
FFE2
FF63
FFC0
001D
FF8F
008F
003A
006D
0034
FF74
FF80
0003
FF4B
0074
FF24
0046
00CE
FF67
FF6B
FF30
FFB4
FFB6
001E
FF47
FF0E
004D
003A
FF80
FFCE
FFC1
FFDD
FF48
FF3B
00CE
002F
FF2B
FF62
FFA3
00CB
00F2
FF75
FFB3
0009
0018
000D
0006
FFB0
008B
FF6B
00A2
00FA
FFB0
FF47
00DE
FF36
FF38
FFCE
002F
00EF
FF15
FF30
FF49
0086
FF0A
0015
FF50
FFAA
FF19
FF5A
FF76
00E6
FF63
FFE1
0073
FF4E
FFBE
00C2
FF7C
00C9
002D
00A7
FF56
FF7E
FF4E
00B6
FEF6
FFA8
FFE7
FF47
00DA
00E1
0012
00D3
FF7B
FFE1
0088
00D3
001E
FFC1
FF97
FFDF
0029
00F9
FFD2
0068
FF29
0090
FF8B
FFAB
FFA7
FFAF
00AB
00F0
0092
FFB9
0058
009D
FF40
0012
0023
FF4E
005B
000B
FF75
FF48
FFE3
000F
00D0
003F
FF71
00B5
00DF
FF94
FFB8
FF87
00B2
009A
FF5C
FFEE
010D
0017
FF58
FFA3
FEEA
0027
FF65
FF71
00C9
FFF9
000A
FF46
00AA
00E4
FFE9
004D
FF67
FF09
0080
0005
00D6
0063
0070
FF6E
00CE
0023
00B1
00EA
0094
FF66
FFC6
00C7
FF45
FFCA
0049
FF39
FF7B
FF30
00DA
FF2A
FF40
FFE9
006F
0019
009C
FF5C
FF79
FFAF
FFFB
FF92
FF6B
FF94
FF70
00A6
00A2
00C3
FF81
0088
FF44
00AD
008E
00D9
0006
FF53
0011
0020
0063
FF96
0095
003E
0060
0071
FFBA
00CA
FF52
FF4D
00A2
00EC
FFD7
FFF0
005B
FF3F
FF75
0056
FFDE
FF20
000B
0066
009F
FF9E
FEFC
FFE8
0097
FF5D
00F8
FF73
00D4
00B2
FF32
FF21
FFFA
007E
0017
FFA2
00D7
0013
FF02
00CB
FF76
007F
008C
00CC
FF6F
FF4D
00E0
0035
0069
FF82
0024
00DF
004A
FF4F
00DE
000D
00C8
00B0
0065
FF2C
FF03
00AB
FF83
0049
FF24
0085
00C6
FFD6
FFA7
0051
FFE4
00B9
0094
000C
00AB
00D7
00B8
00C8
00C6
FFB0
FF15
FF76
FF42
FF7E
007F
FF9A
005F
00E5
FEF8
005D
FFEA
008C
FF56
FFF5
FF4E
FFD7
FFB6
0034
FF79
FFA9
FFA4
FFC9
00D2
00EF
002D
FF99
FF73
FF16
FF65
FF60
FF2F
009A
00F0
00B8
FF45
0024
00DB
009F
0013
001C
FF2D
FF8B
FF51
FF96
0073
007B
0117
FFBE
00AE
FF20
0092
0080
FF3F
0054
FFF6
FF7C
FF86
0038
00B2
00FE
FFE4
0020
FF99
FF65
001F
FF3B
FFAC
00E2
FF4E
FF25
00DD
008F
008A
00BB
0071
0075
005F
FFAE
00A4
0058
0056
00BD
FF16
FF2F
FF7F
0034
0058
004E
FF45
FFAA
00C3
FFFD
00B4
FFCE
FEFC
FF85
00BF
FEF9
0095
FEFB
00EB
FF1D
FF6F
FF32
0050
001A
0078
005E
FFC6
FF17
0082
FF9C
000A
FF82
0085
0063
FF34
00C7
00E0
FF33
FF02
007C
00D0
007E
FF90
00ED
FF9A
007C
0110
00A5
FFD0
FF17
FF21
FFB2
FF62
0098
009A
FF38
0073
FF46
FF4D
FF4A
0027
0058
00C2
FF7E
FFA9
FF5E
FF17
003A
FF21
0010
0038
FF4E
000A
FFA3
000D
0095
00AD
00F2
005B
0098
00D3
FF1D
FFF9
FF3D
FF5E
FF5D
00A7
FF7B
FF13
0089
00A7
005D
0061
0006
003B
FF4C
006F
FF94
0057
0044
008B
00BD
0054
FFBE
00B3
FF51
000B
00AB
0095
0080
FF50
FF5E
00AD
00AF
FFDB
FFE3
FF66
FFBE
FF1C
FF6C
010C
006D
FF11
00B2
FFBC
00A8
FFB9
0056
FFDE
FFA4
FF27
FF60
FEEC
008A
0044
00F1
00B6
FF62
00B6
006C
FF25
FF42
00B1
0062
00BA
FF10
00DE
009C
0006
00C3
0090
FF98
0004
FFC0
00BC
004F
0083
FFE3
0064
00A2
00AB
00AF
0058
00A1
0066
FF54
FF43
FF50
0011
FF18
0058
FF51
FF51
00C3
FFD8
00C2
002E
0103
00E1
FF1A
0069
FF55
0069
0099
00C7
FEFF
FF9D
00BD
FF31
0062
0047
FF9D
00CA
0100
FF85
FFC9
FF1A
FF6D
FF0A
FF61
00E0
0090
FFF4
0092
00C8
00D8
0013
FF93
0082
FF67
FF41
00BE
FF8E
FF03
FFD7
007F
FF97
FF6C
00B8
0057
00DE
0042
FFC5
FF32
FFA0
FF88
FF63
0051
FF9F
00E6
00B1
009B
FF18
00D7
FF69
FFE4
FF17
0079
00E7
FF2B
00AA
FFF4
009B
00A7
FF3A
007E
FFB2
FFFA
FF0E
FF9C
00D0
000B
00D3
005F
FF4F
FF2B
FF6A
0020
FF55
0079
0088
0001
FF37
003D
007F
FFDA
FFDB
0007
FF85
FFD4
FF0D
FF4D
FF50
0081
0020
0047
FF82
FF79
0021
FF21
FFA7
FFF5
FEFC
00D6
FF03
0069
00C6
00B7
00AB
FEF6
FF82
FF45
0081
00EF
FF42
FFCF
006D
0018
00B4
FEFD
003B
0044
FF0D
FF4A
00D6
0080
00D2
FF5B
FFF2
0004
FFB6
0028
FFE1
002B
00AB
FF63
006E
FF78
FF56
FF29
FF6B
FFD0
FFB3
00A2
FF73
FF48
FFB3
FF8E
00BF
FEFF
00E3
00E5
FF42
FF7F
005A
FF4A
0008
00CD
FF4C
00CC
0085
0091
FF21
0090
FF55
007C
FFB2
0090
00A5
0011
FFC3
FF77
0060
004F
0027
0097
FFDE
FFBA
009A
00D1
0074
00D2
00A4
000B
FFB1
00B6
00BE
00C5
0048
FF9F
0087
0000
FF84
0053
FFD4
FF05
00C9
00C0
FF7E
00DA
0065
FF2A
FF79
00AE
0087
00EB
00F1
0095
FF38
FEF7
FF68
FF00
FF2F
000F
FF64
FFA2
00E8
FF6E
FF63
0013
FFB3
FF72
FFB1
0031
FF3D
008C
005B
FF72
00CC
0041
FF2E
FF8E
FF60
FF98
0028
FF8F
FFB5
FF93
008D
00C9
FFAF
FF2E
0025
FFC6
005B
00B9
FFE8
00B5
FF12
FF5E
FF50
0037
FFAF
00D2
FFA1
FF56
0054
FFED
006B
00D8
00B8
FF97
00CE
FFF0
FF66
FFA1
0077
005F
0093
FFF8
007D
007C
00FC
FFD3
FF45
FF50
FF65
FF2E
00EC
00D0
FF47
FF7C
00C5
000B
0006
FFD7
00D4
0072
00A5
0073
00E2
00CA
FF8F
FF33
FF57
0043
002E
FF86
FF4D
FF6A
FF5E
FF7A
FF04
FFB5
FF70
FF33
002D
006E
FF72
FF8F
0051
0089
0018
00EF
00A8
FF29
00C6
0005
0004
FFFC
00B1
0094
FFFC
000D
FF88
FF9D
0070
00B2
00D4
FF9E
0049
FF4B
FF85
FFE3
000F
004F
00D2
004B
0055
00E7
0097
0067
0096
FFE3
FF21
FF29
00A3
00C3
009C
FF4E
00CB
FFEE
FF46
006F
005C
FFA4
FFE2
00E1
0012
FF48
FF49
00B2
00B8
00F3
FF41
FFEF
FFBD
FF6E
FF0A
FFFB
0040
004D
006E
FEEC
FF5B
00B0
008E
FF97
FF25
0040
FF56
FF15
0016
FF96
0008
00B9
FFD3
FF56
FFAB
FEFC
FF5F
FF2E
00C7
00A4
FFBD
00F7
0074
FF53
FF72
FF33
0082
0101
0012
FF72
00AE
FF79
FED5
FF46
FF47
0064
FF78
FF95
FF90
010B
FF1F
0036
009A
0107
FF44
FEF7
00D0
FFE3
FFD3
FF82
FF2D
FFCC
FFFD
0027
000A
003C
008A
FF80
00C3
FFC6
003F
FF3F
FF66
FF45
0051
0012
00C6
FF23
0049
FF3A
0089
FF62
00D5
0013
FFC3
FF84
00A6
00C3
008A
00E3
FFAA
FF29
0092
0093
FFB7
008F
0097
FF6B
FF9C
FF4A
FF40
00C8
FF60
00E2
FF49
007A
00D5
FF88
00C1
FFDA
00C2
FEF1
FFD8
FF49
0066
FFDD
FFEB
00D3
FF2F
0094
00B0
003C
FF47
FFAF
FF79
00A6
FF50
008F
FFA6
FF62
0034
0059
00B5
0086
FF92
FF1A
FF4A
FFBD
FF75
00F3
FF4A
FF7F
0079
00C7
FFC1
FF8C
FF3C
006F
00AA
00ED
FF73
004D
FFE6
00E0
FF82
001B
009A
0094
00C4
00A6
FF91
FF08
00D1
001F
0017
FF45
000B
0076
000D
FF56
FF61
005F
FF52
0022
FF03
0066
00F7
FFF2
FEF5
00B2
0088
FF10
FFF6
FF82
FFA9
0090
0049
0050
FFEF
006B
FF2D
00CB
FF45
FF48
FF10
003A
001F
00DB
0096
0060
00E5
0006
FF88
0088
0004
FF43
FF83
FF28
FFBA
00DC
FFF6
FF20
00FB
00EA
0017
0038
FF66
FFBA
00AD
FFFA
FFDB
FF69
FFDF
0090
FF18
FF57
002D
00DB
00D3
00EB
FF2B
FFBF
0041
FFEE
FF48
FF69
0005
FF1E
0076
FF0B
000D
00EA
FF7E
00C8
FF5A
00A3
FFBF
00A6
003C
FFF5
00DE
FFE9
0019
00B9
00CC
FFF0
008E
FF38
00E5
004B
00D4
FF9A
00B6
00B4
FF33
008B
0060
FEEB
FF97
FF7B
FF11
00C2
0061
00DF
008B
FFC3
006B
0065
FF8B
FF47
0034
0027
FF22
0033
FF34
FFFD
00F8
FF23
FFAB
009A
FF7B
FF36
FF2A
00E0
007E
0045
FF3C
00CD
FFA7
FFAA
FFA8
FF75
0057
FF9E
FF1D
0047
008D
00B6
FF46
FF80
FFEE
FFBC
FF45
FF34
FFE0
FFC6
00B1
FFD3
FFF3
FFDC
006A
FF6D
FF81
FF47
FF16
004E
006E
00CF
0056
00CE
FF2E
0099
0055
FF22
FFE7
FF48
00A4
FF40
00D2
00AF
00A0
0063
00CF
FFE4
00AF
FF5D
00C5
0047
00C2
FF0D
FF9C
FFD4
0062
FF70
0080
00B4
FFEF
00D1
FF47
FF19
001E
006D
FF3D
0054
FF43
FF70
FFDE
00B5
FFCC
FFAD
FF35
006D
00F2
0069
00DD
FFED
0071
FF87
00E1
FFC2
000A
FF1B
0053
0086
FF25
FFDB
FF12
0039
FFFB
FFF6
0099
FF64
0022
00E3
FF43
FF73
FF44
FFFF
0087
FFE3
000C
FF9D
00AA
FF1F
0006
FEF0
FFB3
FF6A
0017
FF66
FF6E
008D
FF30
0070
004E
00AE
0066
00A2
FF51
0099
00DE
FFBC
FFC6
0008
00D0
0094
002A
005A
0031
0087
00BE
009B
FFD1
FFC1
006F
0013
FF53
FF1C
005E
0027
006B
FF3C
00D6
0063
FFD1
0044
0100
FF51
00C1
003A
FFD8
FF85
009D
FF7D
FF85
0002
FFC6
00F2
FF43
FF78
00EB
0002
FF42
FF37
FF24
FF95
003B
00AE
00EF
FF62
00AA
001A
FFCE
FF75
00E1
007B
001B
FFD3
FF57
0011
00CD
FF40
FF25
002C
FFB7
FF81
FFE6
00D1
FF3E
FFD2
FFD2
005D
FFE1
FF9B
FFAA
008E
FF5B
00C1
00A6
FFA2
FF4A
FF96
0059
FF1B
FFE3
00C8
0080
00E0
FF53
FFA7
007A
FFD7
FFBF
005E
FF1E
FF7B
FF20
00A9
FF14
FF67
FF9A
FF1A
FF5B
00C0
008A
FF5D
00E9
00EE
0014
002A
0095
0083
0000
00AF
00C3
0086
FF68
FFD9
0050
002A
FF6A
FFB4
FFD5
FF41
FF9D
FF4A
FF5C
FF4D
FFC8
0101
FF77
00DD
FF82
00D3
FF6A
00FE
0063
FF53
0095
FF4C
FFB2
FFF6
FF8D
FF20
FFE9
FFFA
FF5F
FF2B
00E5
FFA3
00A8
0093
00DD
FF9F
FF0A
00C2
FFDD
009F
FF5E
00BB
FFAD
0074
FFA8
FFEE
FFB9
00AC
00EE
FF8C
003D
FF7F
00B9
FF74
008E
FF1F
008D
FFC2
0110
009A
FF16
FFAD
00CD
0032
FF2A
0071
FF24
FFFA
FFA9
004A
FF6D
00EB
FFE1
00BB
001C
FF0C
0041
FFA4
FF3C
0086
009B
FF3F
FF60
00CB
0093
FF5F
00A7
FFB5
0037
0059
0006
FFA7
0032
FF49
009C
FF4E
FFC1
FF78
00CE
00AC
FF52
FF30
FFCE
FF94
FF51
FF33
FF52
00B6
FFDD
00E0
0043
FEF8
FF83
00B9
FF53
0044
FEF5
FF6D
FFF8
00D8
009A
FFFE
FF77
00AD
00F7
00CE
FF5D
00A1
FFD3
000E
FF74
0072
00D7
00C1
00D6
FF76
0032
FF68
00AD
FF70
FF04
FF6E
FFBF
FF38
FF9C
FF47
0075
007B
00A7
FF42
FFF6
FFD1
FEFE
005F
FF6D
FF19
FF5D
FF40
00C5
00BF
FF82
FFE6
FF86
0093
FF0F
008E
FFC0
00DB
FF48
005F
FF59
00DA
FFD3
009D
003E
FF22
FF52
FFB7
0061
FEFA
00A2
00F4
FF9D
00D4
00BB
00C8
FFED
00A6
0018
FF6D
FF9A
FF73
0093
FFA7
FFD5
0070
FFE0
FF2F
00D3
FF79
FF0B
FF2E
00AD
FF14
0055
00B9
00DA
FFCD
00DC
0045
FF48
00B0
FF9F
0037
FFBF
FF34
0031
FF43
00B8
008A
FF3C
0020
FF88
FFE5
FEF6
FFF6
002B
FF96
FF36
00FC
FF8B
FF1A
0080
FFF4
FF5F
00E9
FFC2
FF17
00BF
FF30
00B3
FF0B
005E
004A
007C
00A4
0073
010B
FF76
0006
FF1F
FFDB
00C0
007F
FF6C
002E
FF94
0081
FFA3
FF4A
0037
00A2
FF7E
00A2
00CF
0085
00CA
001A
0022
FF4A
FF6C
FFEB
FF75
00F8
FF14
002B
003F
FFB8
FF2B
FFDA
FF4B
FFCE
0072
00DE
FF3F
00DB
FF25
0027
0010
FF65
00ED
006A
00DF
FFF6
005C
0053
FFB1
FF8B
000B
FF39
00B9
00FA
0036
FF9C
FF6D
0095
009D
007A
00A0
FF2A
FFF8
0009
FFA3
FF66
FFD6
FF5E
FFB9
00EE
FF8D
012B
FF55
FF27
FF9C
FFD4
0061
00D7
0070
00C0
004F
0062
00B4
FF37
FFEB
FF6D
007A
0036
0086
FF44
FF0D
0051
0004
0012
00B9
FF66
0022
FFB4
0108
004E
002C
FFD0
FFBF
010F
003C
0076
FFF6
FF6D
0002
009E
FF2B
0060
FFFB
00A8
00A7
0073
FFCA
00F0
002B
FF5A
FF75
FF37
00E0
0076
FF39
003C
FF90
FFDF
00EE
FF74
FFDD
FF90
FF25
005B
000D
006A
FF9F
FF64
0095
FF28
FFC6
00CF
0017
00FF
FF97
FF69
FF3E
FF2F
0049
FF53
FF35
00F1
0085
00EE
000A
FF62
009E
FF52
0109
FFCD
FF93
0078
0088
FF5B
FFB9
0082
0056
FF79
00A2
0064
004E
FF46
002F
FF31
FFB1
FF92
006F
FF8A
0014
FF53
0017
FFE4
FF2B
FF19
009D
FF2E
0019
FF1B
0008
FF90
FF67
00ED
005F
FFB0
FF31
FF99
FFC0
FF5D
FF0D
00A8
002E
FFD6
0091
FF79
FF1B
FF55
002E
00B0
00F3
00F0
FF74
00EB
FFD1
FF78
00C8
FFE0
0102
0066
006C
FFCC
FFEC
00BB
009E
00F6
FF8F
FF3E
FF42
FF15
0032
FF14
FF86
FF07
00C5
FF48
0098
00D3
FFDF
FF6E
FF32
FF96
00DB
FFCE
0069
0050
00CE
00D6
FF9A
0054
009F
FEF9
FFF7
FF9E
FEFE
FF39
009B
0010
00CD
FF74
FFFC
00EC
FFC8
00E6
0086
FFB8
00F2
0088
00D5
00AD
FF52
FF85
004C
FFCF
000B
00B6
FF0A
00FB
0015
00BD
000D
FF20
FF0E
FF4F
FF60
0073
FF44
0051
0069
00FE
00C3
005F
00A3
FEF6
FF2E
0117
0055
FEFC
FFC1
0023
FF8B
0045
FF5F
00BE
008F
00A5
00AA
00CC
FF4D
00CD
FFBF
FF82
FF62
FFA0
FF29
007D
0028
FFCF
00EC
FF40
FEFB
00EB
FF70
0024
FF3D
FF92
00A4
00F1
00B3
FFCC
00F9
FF6C
FF0B
FF1B
009D
00B3
FF6B
003C
FF3A
FF3D
FF58
0079
002B
FEF6
00DE
FFBE
0098
FF1A
00B6
00B0
FF8C
000B
FF70
0062
FF47
0059
0084
FF53
FFB3
008F
0088
FFB7
00C8
FF84
00A6
00D9
FF92
FF83
FF45
007F
FF79
FFA6
FFB9
0074
FF80
0063
FFDB
0058
006A
FF1B
004F
008B
005D
0065
00B7
FF08
FF8F
FF68
FFBE
0114
004B
00C3
00C6
FFBE
FF19
00D0
00B8
FF69
FFCC
FF33
0097
FF75
00C4
00A0
009F
FFB5
0064
FFB7
002B
FFD0
0109
FEFA
004F
0108
FF86
FFDE
0102
FF9B
00FA
0065
008A
FF53
00AD
FF7B
000B
00C5
007F
FF84
0101
00BC
FF33
FF61
FF36
FF78
007E
FF96
0003
00D1
0007
FF55
FFD0
0055
FF5B
FF4D
FF4D
FF09
00CA
FF64
FF79
00E7
00A4
00AE
0074
FF87
0083
FF70
FF71
FFEC
0086
FFE0
FF99
0044
FFA3
FFB1
00D0
FFCF
00C4
0004
00A2
FF32
0058
FF6F
00CB
0050
0035
00EB
005C
0055
FF39
FF26
0029
0028
0020
008B
0082
FF8B
FFBE
FF0D
FFC1
FFA9
FF61
010D
00D0
FFD1
FF14
FF47
FFC4
FF11
0060
00A3
FFA9
FF75
FFEB
00B1
00B6
0113
FFAE
FF5B
00B2
FF5A
FFB5
009F
FFB1
FF6C
00D0
FFFF
FF79
FF80
FFC7
0039
0074
FF08
FF8A
FF24
FFC8
0069
FF30
FF84
00AB
002D
00EB
003B
FF7C
FEF6
0053
FF39
FF57
FFF4
00F8
001B
002B
FFA7
FF84
FF8D
FFCB
001D
FF5A
FF2E
00A4
0019
FFC0
FFEF
FF9E
FFA2
FFEA
0011
00FA
0011
FF67
0068
0085
0035
001B
FF08
FFE9
FFD7
FF95
00F5
0077
0054
FF51
FF7B
00C6
FFC9
FF06
FF6D
00F8
000D
00E0
FF62
0016
FFD1
0013
0036
FF23
00EF
005A
00D7
00C8
FF54
FF36
0083
006D
FF1F
0064
0004
00B8
0112
FF95
FF08
00B3
FEE6
FF37
00CA
00B4
007F
FF35
00F7
000C
FF63
0096
00D2
FFB1
FF6E
FF35
FF57
00B8
FF72
FF0E
006F
FF5E
00B9
0082
FF92
FFC1
009C
00B2
FFE0
00CA
FF8E
FF95
FF52
FFB3
FF54
FF9A
FF7B
FFCD
FF6D
FFAD
FFF1
FF72
FFB0
FF6D
FFCD
FF50
0011
0053
FF27
0056
FF57
FFB5
00AA
FFC8
000E
00A4
FF73
00AB
00CE
0022
0072
FF2E
FFE8
FF39
0064
0093
00DB
FF33
0033
00D3
0037
00D6
FF45
00E0
004D
FFF9
FFF1
0065
FF46
FF66
FF41
FF6E
FF5F
FFA3
0002
FFF5
00AD
00F3
00B6
FFA4
004B
FF18
FFF2
FFAC
FF81
001C
FFFC
00E5
00E0
FFEC
FFFD
00AB
00C9
0004
FF1E
FF55
00E7
FFAD
0060
FF95
FEEF
FFEC
008B
FF2F
0014
FFD3
00D5
FF28
FF98
0095
FF7A
FFDF
00B1
00AB
FF83
004F
001B
001D
FFA6
00AC
FFF6
FFEF
00F9
FFC6
0092
FF9E
010C
0058
FF74
FF3E
FF3D
FFB4
00BE
007F
FF18
0091
FFEF
FFA4
FF04
0057
FFCB
009C
0026
00A7
FF40
0088
00B4
0002
0079
FF2D
FFA4
009C
FF43
FF3C
00B3
FF9C
00DE
00F8
0033
00A6
00F7
FF25
FF53
00C0
0090
FF81
FF7A
0089
00C7
0020
FF51
009A
001A
00F4
FF5A
0025
FFBA
00A3
FF0A
0016
FF31
0011
FF08
0046
FFEB
FF28
FFF4
FF15
FF16
0098
00D2
FF7D
FEEC
0069
FF5C
00E4
00E6
0098
FFDA
0058
FF20
FF34
000B
FFF5
0045
007C
FF76
0004
0008
0078
0061
FF2C
00C5
00CF
FF46
008E
FF37
FF44
008C
00A2
00EA
FF31
FFD3
FEEA
00B2
0025
002C
00E3
FF41
001D
FF61
010A
008C
00C2
00E2
0082
00BF
0067
0025
FF97
FFC5
FF4D
FF34
FF17
FF49
0065
FF11
FF76
FF44
0038
FF6E
007A
FFE8
0050
0099
FFEB
FFB0
0060
00BB
FF47
FFFF
00DD
004F
0089
FFCF
FFA7
FF95
FF60
FFB0
FFF0
FFBC
FF99
00AF
00DE
0072
00AA
0097
00C9
00C3
0029
00F4
0031
FF7A
00C1
004D
00E2
FFBC
0027
0030
FF0F
0037
FF67
FF0C
FEFF
002C
00B9
009A
002B
0062
009F
FF8F
0060
009E
FF4B
FFC9
0000
0035
FFB2
00E6
007F
008E
FFDB
00DF
FEF7
00A8
00A8
FF4D
FF39
00BC
0032
001E
0016
00B3
0062
00A1
FF1E
006D
FF3A
FEFE
0000
0010
0093
0023
FFBC
FFB1
001C
FF8C
FF94
00A5
00DC
FFED
FFE6
0015
FFC2
FF81
FFD1
00D7
FFAA
FF0C
FFA5
FFA0
FF8A
00B2
00CB
00B5
FF8B
FF43
0085
004A
00A9
FFCB
FEF7
006C
FF8E
FF67
0041
FF68
FF82
FFC3
FF3F
FF10
00D5
FFE1
009F
00AC
FF30
007F
009B
FF4D
FF83
FF22
FF29
FEF8
0041
FFCF
0005
FFD8
FF99
FF3C
FFD0
004C
008B
FF3B
FF3F
FF85
00BB
0010
001E
FF6E
FFCC
0015
FF31
0071
00DD
FF0E
FF09
0014
00BC
00AE
0061
005F
FFDE
FF28
00D5
00A4
FF44
0118
00B7
000A
0037
00D3
FEED
FFDC
0025
009C
FF19
FF3B
FFE3
0017
00A7
0106
0091
007E
00C1
FF4B
FFB5
00F2
FFD7
FF66
FF75
FF49
FF1C
0085
000A
0089
FFB6
FF5C
FF1B
00F6
FF15
00C1
FF2E
FF3F
FFCE
FF37
0108
00A3
0024
0081
0072
0035
00AF
FFA2
FF6F
0090
0076
FF3F
00BF
FFA6
0057
FFAC
00D1
0052
00D8
006C
FF3B
005A
FF73
0017
004D
00B5
FF0B
FFB1
FF10
0023
FFE8
0022
00CD
009A
FFF9
FF6E
FFD4
00CD
FFCD
0031
009C
FF3A
FF82
00BD
FF22
FF4F
FF74
0095
00C4
FF54
FF92
FF16
FF08
0064
005B
FF8B
0062
FFA6
00D4
FF90
FFA8
FF36
00CD
0020
00B9
FF1C
00CF
0025
FF9A
FF4E
0049
FF31
FF82
00C1
FFD4
FF29
00A2
FFEB
FF66
FF69
FF88
0090
00A8
FFB4
0020
FF54
00D7
0049
0091
00A6
FFB4
FF03
FF5B
010C
0050
FF72
0057
FFFC
FFA7
00C8
FF80
007C
00DF
FF3E
FFB2
FFD1
007E
FFB9
FFA0
00A7
FFC6
0057
0048
0084
00E9
0043
00EF
FFF1
FF06
FF8F
FF6A
FFED
FFDB
006D
FF52
00C2
0001
FFEF
FF44
0097
FF81
004C
FF00
FF6B
0009
FFCB
FF3B
FF5A
FF98
00C6
FF0F
FFA0
FF25
FF94
002D
001E
FF28
FF05
FF94
FF92
00B5
0066
FF66
0054
FF4E
00C0
00CD
008D
FFA4
FF34
00D3
FFCE
FF97
00B0
FFDF
FFD6
00CD
00CC
007E
0053
FFBF
00E3
00AE
FF6B
008B
00D9
00D6
005D
0107
008C
FF69
FF48
009D
FFE2
004D
FFFF
FF14
00AF
FF41
FFB0
FF4D
FF31
006A
00F9
00B4
FF8F
003F
FF95
005E
00E6
FF94
0062
FF45
0055
00A9
00B9
FF7F
FFFE
0045
00AF
FF71
0077
004B
00C8
FFF8
0111
FF70
FFC8
00A2
0014
FFE0
FF31
FF41
FF22
FFC4
FF75
00AD
FF04
FF26
0043
00B9
003B
FFF3
00DB
00D4
FF62
0090
FFC9
0066
0089
FF45
FF1A
0026
FF34
FF4B
00E6
00C3
FF9E
FF4D
FFD3
00C8
00B5
FF5C
FF7C
FF2B
FEEE
000C
0054
0089
003A
004C
004D
00A3
0040
0059
FFF3
FF8E
008E
00B2
FF3F
FF27
005C
FF3F
FF75
00E2
0026
FFA0
FF48
FF9B
002F
FF0D
FEFF
FFAD
0005
00BC
FFB7
FF06
00AE
00B0
FF47
FFDA
0002
0024
FF86
001E
003D
FFF6
FF56
FFBB
FFA9
0074
001B
0064
0023
007A
0108
FFB2
FF2C
00ED
00C5
FF8E
00C0
00BA
00DD
00D5
0078
006B
FF48
00C2
FFF8
00BF
00EB
FF22
FF41
FF47
FF57
FFE7
0069
FF81
FFA0
00DC
FFBE
00CE
FFDE
FF5C
FF44
FFEF
006C
FF45
008C
0089
00B1
007D
00E5
00FC
FF5D
FF26
0036
0012
0062
0104
00D5
FFA7
00F2
00E7
0093
FF30
FF51
FFA4
00AD
FFB6
0051
FF6F
007C
FFDE
FF01
FF4D
00A9
FF7F
FFE0
00D8
FF79
FF1A
FFEC
00CF
0053
FF28
0003
00BE
FFDD
FF72
FFF2
00AD
00EE
FFB4
008D
00F6
FFBC
00BB
00A1
FF67
000D
FF49
0084
FF10
FFAC
FFD7
00EF
0047
0007
009E
00FF
00B0
FF45
003E
FF90
00BE
00DF
FFD7
00D9
FFE1
FF75
FFFF
00C7
FF4C
FF58
FF96
FFE3
002C
0027
FF2F
0097
0038
FFC7
FF45
0095
FFB3
FF76
0049
00B6
FFB0
0052
FFA9
FFB0
FF2D
0035
00A5
FF8D
FF27
FF36
003B
00E9
FF58
00D2
0055
0041
FFD6
006D
0069
000D
00D7
FF45
FF16
FF55
00BA
FF5D
FF5E
FFF1
00D3
FFB0
00DA
00AA
FFC1
FF7A
FFFE
FF78
FF5A
FEF4
FF9A
FF0F
0009
0066
0071
FF3A
FFF4
FF36
009F
FF50
010D
006E
FF7F
0007
00A8
FF47
FF52
FF4D
FFF5
00F6
FF72
FF64
00C2
FF3A
FF23
007B
FFA8
FFF1
00B9
FFCC
00D6
FF01
FFB9
004E
FF23
FFB8
00B3
FF64
FF5D
FF80
FFAA
FF2B
FFA5
0095
00A0
00BB
00C7
FFE5
00ED
FFA7
FF28
FFBC
FFC8
00A7
FF6F
0078
FFAF
0000
009D
005F
00BB
00DF
007F
FFBB
001B
00C7
FF78
FF64
0044
FF92
FF31
00BB
0054
FF54
FF4D
FF7F
0099
FF38
005A
008B
FFBB
FF4C
0005
FFBF
FFF4
008C
FF05
0068
FF78
FF4C
0071
00D9
007D
0108
FFB9
FFC0
FFF3
FF8D
00CA
005D
FF8B
FF54
00DF
FF9F
0035
FF61
FFCE
FF79
FFF4
FFBF
00C3
FFF2
FF70
00E7
00C9
FF55
FFC2
FFD3
00CD
FFE1
0033
0063
FF93
FF18
00C2
FF25
FF56
FF9C
FFDD
FF52
0075
FF42
00DE
00EC
FF9C
0054
FF44
FF4B
FF31
000E
00D4
003A
0051
0021
FFE0
00C6
00DE
FF46
FF45
00BF
FF56
006D
00F2
FF7F
00F5
FFCB
FFD8
FF41
FFB9
FF7C
FF35
FFA2
FF0A
006F
00AE
FF8B
00D8
FF30
00CA
00A7
FFAB
FF65
FFBC
FFE3
FF5D
FF3E
FEEC
FF27
0017
FF31
FF36
002E
FEFA
0031
FF50
009B
00DC
00CC
00E0
00F3
FFC7
FFA7
FF21
0025
FFB0
FFA8
FF3C
00F1
007A
FF17
FFC2
FF72
FF69
0076
FF42
0050
FF5D
FFFC
001B
FF81
00EC
0038
FF7C
00BA
004B
FF93
0058
005E
0078
00F6
FF12
0012
005D
FF7F
FF23
000B
00CF
008F
FF9B
FEFA
000E
00A9
00BC
FF46
007F
00B3
004A
FF56
00EF
FF4B
FFD9
FF65
0081
FF13
00D7
005B
FF6C
0082
008B
00D7
FF08
00C1
006F
00AF
00AE
0084
00B8
FF36
001C
00BC
0094
0023
00FC
0013
FF3D
FF8F
FEFA
FF49
0040
0072
0099
0001
009F
FFCE
FF5B
00A0
00F3
FFFE
FFFA
FF3C
0072
001B
FFC5
FFC8
0096
FF4A
FF90
FF0D
FF38
FFB6
00D8
006F
FFA7
00D5
FF1A
008E
FF3E
0075
00C1
FEFA
FFB5
00A4
FF50
FFBC
00BA
0092
FF70
FF5A
FF81
FF5B
FFEB
FF5A
FF74
0048
0016
00B7
0029
FF45
0027
FF8C
0053
00AC
00D1
FF99
00C8
FF7D
0009
00BA
006F
FF5B
FEFF
FFD2
FF47
FF86
FF6D
FFF2
0029
FF55
FF70
FF71
004B
00C1
00C5
0028
FF62
FF8E
0057
00EC
FFC9
00E3
00D1
FF1A
FF4E
00CC
FF20
00AB
FF8A
00E0
007D
00A9
FF89
0027
00D2
FF62
0077
0082
FF84
005F
00CA
00BD
005C
0039
FFCC
008E
FF97
FF75
009E
FF55
FF9A
00D4
00BD
00B5
0068
FF35
FF7D
0096
FFBA
FFD7
0036
FFA4
00BD
005C
FFD0
002F
006E
006B
FF64
00CE
FF91
FFF6
FF81
00A2
FF54
FF79
009A
00CF
FF2B
FF78
0053
FF03
FF84
00BD
FF63
0083
FF66
FF28
009F
00D5
0075
0019
011C
FF57
FF48
00BB
FFE9
007B
FF39
0033
0062
00C5
FF50
FF58
FF7E
0027
0011
0080
004B
FFC2
00DD
00A0
FF33
FF26
009D
0014
FF60
00CF
FF26
00B8
009B
00C3
FF7B
FF4A
FF52
FF6A
0008
0035
004A
FF3B
004D
FF51
FF7C
FF6C
FF6D
0013
0045
FF80
000F
FFBE
FF38
FF61
FFC3
FF35
0047
FF5B
001C
0036
00F0
FF7D
FF19
FF70
0115
005B
0031
FFD6
FF59
005F
0082
00B6
00C7
002B
0058
009E
0017
00E3
00BF
FF74
FF98
00B1
0059
00B8
002B
FF84
FFA4
FF34
FF44
FF25
00FE
0003
0017
0055
FF6C
002E
FFC3
FF64
FEF9
0106
FF27
FF30
00B8
FFB6
FFB5
00C4
FFEA
FF48
FF77
0081
0032
000B
001E
0000
FFF1
007D
FF95
FF43
0020
00EF
FF3B
0095
FFB5
FF3E
FF71
FF0B
00FF
00D2
FF98
FF6C
FFBD
0061
00AE
FF35
0051
0032
FFF0
FF3B
00B5
FF24
0089
00E0
FF7F
002E
0067
0068
00EA
FF31
008A
00B5
0096
FFC7
0081
0020
FF5A
0102
00CC
FF4B
FF47
FF80
0023
0029
FFA4
00BF
FF6B
00B6
0012
FF9F
0078
00F2
FEFA
FF66
FF2B
0031
00F0
FF32
00C1
FF9A
FF4E
FF3F
FFF2
00D5
0095
FF68
FF13
00F0
FF9D
003F
001D
FF3D
FF44
0043
FF59
008D
FF6C
FF04
FF27
FFCF
FF18
0011
FF9D
0043
FF4B
00BD
00C4
FF5C
FF4E
FF4C
FFAB
00EB
0048
009F
FF2F
0049
00E3
FF46
002A
0080
FFBD
0087
FF47
00C4
FF66
00B7
000D
FF61
003B
009A
0033
00DB
0061
010A
004C
00CA
00A2
00CB
FF89
009D
00A3
FF74
FF6D
0086
008B
00AA
FFD6
00D3
FF17
003E
FF6B
FF8C
FF60
FF60
FF9E
FF7E
FFCD
FFFD
009C
FFAE
FF48
008F
FF5A
0091
FF48
00A8
0018
0026
FF10
007C
005A
FF30
FFDF
FFC3
FF43
FFED
FFA5
FFCB
006F
FF41
FFFD
FFA6
FF2D
0026
0098
FF3C
00AA
FF9E
008D
FF82
FF01
FF1E
FFFE
00F4
FFC4
FFFB
0009
0040
0096
FFF6
005C
FFED
00C1
0087
008C
FF43
FF1B
FFF3
FF4E
FF71
0096
00A2
00E5
0017
FF94
FFD8
0083
00D1
009A
FFA4
00F7
FF11
0018
00B5
FF83
FF3A
FF7A
FFFD
00D4
005C
0082
FF26
00A1
000A
FFB5
0095
00E4
FF2D
FF2A
FFB7
004A
0048
FFC9
FEF6
008E
0046
FF44
FF59
00CB
00B2
FFC2
006A
006E
00F6
00A6
FF7D
00B1
0106
FF1A
FF14
0016
FFB2
00D7
009F
00E3
00B0
FF60
004C
00E6
00AC
00F4
00B8
FF07
FF64
00C5
00B2
FF35
00AE
FFCE
FF10
FFE6
00F3
FF6D
FFFB
FEE4
FF59
FF09
FFA4
FFCD
00DF
0028
FF0D
0049
FF3A
FF20
006A
FF7F
009F
00CF
FF73
FFF7
FFD6
000C
0065
FF41
FFD2
0051
0010
FF5F
FFD9
00D9
004A
FF83
0053
0080
0084
00B4
FF41
00AA
00EC
00EA
0048
00D4
FF68
FF82
FFFD
FF6F
FF6B
0071
00F6
FF54
005A
FF52
00C5
00CD
00BC
FFB3
FFC8
FF68
FF4B
003F
008A
00CB
FFE0
FFEC
FF40
FF43
00B6
FFE3
00C9
FF82
FF35
FFE7
FF44
FF43
FF31
FF2D
0017
FF81
00C0
00C6
0025
FFA0
FF56
00C5
0067
FFFD
FF2D
00FC
00D4
FF27
FF3F
FF7B
00CC
0024
002D
FF9F
FF1A
0035
0075
00D0
FF65
FF28
FF8F
008C
006D
FF2E
FF29
0095
FF11
FFB9
00EF
008B
00B5
FF91
FFD3
FF56
0033
FF73
003A
00D5
FF78
FF9D
FFB0
FF51
004A
0048
FFBE
00B5
FFDA
0079
00ED
FF09
FF2D
0073
FF01
FF52
00CE
FF37
0058
00F8
FF65
FFA8
00CF
00B3
00BA
FF4F
FF8A
00A1
008B
0112
0040
00F8
0078
0052
006C
FF87
007E
FFF7
FF25
0058
FFED
FF30
00A5
00C4
00AA
FEEC
0019
FF4C
0055
FF8E
002A
FF41
0032
00CE
0031
FF77
FF5B
FFCD
FFE6
00D6
010A
FFF5
FFBA
FF89
FF33
FFEF
00CB
0069
0009
0051
FF4A
00C8
00D1
001E
0092
00FC
FF5C
0077
FFDB
00A1
00EB
FF96
FFE1
00D2
00DD
00BA
FF52
FF43
001B
FF62
FF0E
00E3
007A
FF69
00D8
FF1C
00A2
FFCB
FFDA
FF30
00A4
FF9E
FF4B
FFC6
00EA
FF30
FF85
0017
FF28
FF3E
FF55
FFE5
0055
0052
00F2
FF40
FF98
FFDC
FF34
00B7
FF95
FF49
FF90
FFD2
FF0A
FF55
0036
0077
00A9
FF48
FF27
FF75
0052
FFC8
00C7
FFC6
FF7B
00C6
FF11
0107
009D
00A9
003B
00CB
FF2F
FF8C
0104
FF88
FF6C
00B1
FF31
FF70
FF19
00C8
0090
0004
0083
0004
0034
FF41
0036
00A8
FF55
FF69
FF9E
0005
FF75
00B9
008C
005F
00A8
00D3
0078
0016
0065
00F2
00F2
FFE2
FF64
FF6F
00B8
00EF
FF71
00D8
0033
FFB6
0099
FF37
FF44
FFF9
FFB7
0086
FF57
0032
00E0
FF22
FFC1
FF45
FF54
FF60
FEFE
FF36
FF36
FF25
00A2
00B7
FFF8
FF46
00EB
00D4
FF43
FF79
000C
FF76
0029
00AD
FFFA
FFAA
0083
FFB3
FF75
00A2
0090
FF00
FF40
003F
FF4E
00BB
FF1B
00E7
FF9B
FFB7
FEFF
003F
FF42
00D0
00D1
00D0
0079
00D1
FF33
00E8
FFDE
FF9F
FF41
0062
007C
00CB
FF7A
00C8
FF19
00E8
FFE4
FF9D
FF33
008B
FFCD
00DF
FF05
003C
FF8C
008A
FF80
00DB
FF9C
FF2D
FF3E
FF11
00A2
FFA0
FF5F
000F
FFF6
FF07
FFD7
001D
0063
004B
FFE8
FFD1
FFD0
0066
FFB8
FFFF
FF1D
FF9C
FF4D
FF51
0052
0073
FF41
00B1
0097
0050
0096
0044
FFAA
FF6E
FF0D
FF7F
FF11
00C8
0036
FFF2
0058
005E
FEF4
FF5F
FF11
FFCA
00C8
0083
FF3F
00BE
001D
0048
0032
FF31
FFEC
0020
FF1D
003D
0082
FF0C
00DE
007E
FFB4
FFDB
00D6
0047
FFDB
FF98
FF31
00D7
00DF
0059
FF30
FF74
FFB5
FF44
FFCA
002A
FFCF
FF4F
00FE
0013
FF33
0086
FFDC
00DC
00B9
FFF4
00E4
008C
00FE
0032
FF73
FFCD
FFFF
00F7
FF55
FF39
FEEF
FF96
00AF
0073
00B7
0026
FF45
FF27
FF43
FF12
FF39
0025
007B
00FF
00AA
009F
0031
0086
00E6
00DC
00C2
FF51
FFA9
0050
00C5
FFE4
0105
FF27
0082
002D
FFCB
FF78
000A
0012
0110
0070
00A3
FF2C
FFC9
0099
0057
FFFE
00A8
00E7
00F4
FF30
FEF6
00F1
009C
0017
0065
0041
005A
FF46
FF36
FF34
0099
FF5B
00C4
00CF
FFD2
FF29
00CE
FF26
003E
FEF5
00B0
FFE2
003B
FFCA
FF28
FF28
FF34
0022
FFFF
00C8
007B
FF2B
FEFE
FF6D
FEFA
FFBC
00C1
FFE2
FF8D
0064
FF51
0059
FF28
FF89
0093
0107
0028
001D
00EA
00A0
0040
FF1D
0042
001A
0078
0097
FF6A
0055
FFEC
0099
0041
FF8A
00A8
FF3D
002F
FF81
0096
000B
00AE
008B
FF64
00B7
004B
0029
00A3
002C
FF77
FF3F
0060
0048
FF68
00B5
00C2
FFAA
005A
008D
007F
FF4F
FF0D
00C8
FF09
FFE3
00D8
FFB2
FF9C
FF21
0049
FF97
00E7
FFD5
0005
FF6B
0092
FFED
FF71
FFBA
FF64
FF59
FF3C
00B9
00E0
0031
0061
FF06
00BA
00C7
FF7F
00B4
0052
0062
FF7E
0083
004D
FFF1
FF4B
FF1C
00AD
008B
FFD1
0098
00E6
00B6
00AE
FF5A
FFC5
0099
FF6A
FF4C
FF7D
FF58
FFF5
FFA5
0081
FF5B
FF4D
000D
FEF5
FF38
FF49
010C
009F
00B0
FF48
007B
FF6D
009B
FF07
0006
FF07
FF8B
FF4C
FFCE
FFFA
0026
0009
003B
0005
FF47
00C5
00AB
FF33
004E
FFE7
002B
FF93
00C0
00AF
00D5
FFA9
0049
00D5
FFA4
FF25
FF0D
FF50
0012
00FC
0073
00A9
FFB9
FF1D
FF97
FEEF
000E
006A
00BA
00CE
0101
FFC8
FFF6
006B
00A1
000A
FFA7
0098
006D
0088
00F3
FFC7
FF7D
FF5F
FFF8
FF46
008B
00C1
0024
009E
00D8
00FE
FFD1
0037
002D
FF98
FF84
00D5
FFEB
0062
00B3
FEF9
FFB5
FF97
006F
0074
FF3A
FF17
006D
0069
FF9E
FF33
FF9D
0068
FF73
FEE0
FF2D
FF5F
FF2B
FFE0
0014
00A1
003E
00F1
0051
00EE
001D
FFB7
FF53
00C2
0077
00C9
FF6B
0059
005C
004E
FFB8
FFC5
0032
FFB2
FF7A
0102
FF7A
00B2
FF84
007C
FF74
00CD
FFC6
FFCE
00CD
FF46
FF8C
FF55
00AC
FFC5
FF95
FFB3
00D5
0093
FF1E
FFF5
FFE7
001B
FF10
0032
0023
00B5
FFA6
0008
0091
00DC
FEFE
0012
00E7
FFC6
0010
FFD5
0036
FFBB
FFB4
00D4
00AE
0007
00B8
FF24
003D
FF54
FF1E
00A0
FF10
FF4A
0063
FF67
FF3D
FF02
005A
00BB
009A
0001
005A
FFDE
FF34
0094
FF7C
FF35
00EB
0092
0054
00E6
0091
006D
FF61
FF30
FF21
0025
00CD
FF58
FF38
FF74
0052
008D
FFD2
005C
FEFB
FFC3
FFBB
00DE
FF2C
FFCA
0009
004A
FFEF
0064
00AB
00A4
00E4
0045
FF6E
0047
010C
0010
0026
FF18
FF9C
FFC4
0086
FF3E
FF0B
FF41
008D
0038
FF35
0075
005F
FF13
FF20
00E6
0098
FF24
008F
FF8F
00D1
0065
FF2A
FFAD
FFA1
0095
FF70
004D
00CA
FF62
00A1
007C
FF39
FFDC
FFB4
009A
FFBA
FFB3
FF47
00DC
FF98
FF26
FF33
FFA0
FFD1
00F7
00A2
006C
008F
FFCF
00B1
FFD5
FF2C
0030
005D
FFB6
FF49
FF37
FF2E
0058
FF49
00BB
006F
00D2
FF6C
008F
0073
FF80
0035
007C
0068
0099
004D
0115
FF68
FF50
007E
FF87
FF80
00B6
0086
FF33
004A
FF64
FF53
0098
FFD2
FFA0
FFA2
FF5E
00BB
0027
0070
0051
FFD1
0027
0052
005B
FFBB
FEEF
0098
FF50
00E2
00A9
009C
FF38
FF3F
0084
0096
00B1
FF14
FFFE
FFB1
00CD
006C
00B5
003E
0076
000D
0107
FFF2
00C8
FF7B
FFA3
000E
FF3E
0070
FF6C
006B
FF76
0019
00C0
0028
0077
FF54
FF97
FF4B
FF3D
0052
00CB
FF3D
FFF1
009C
FFC1
FF3D
FF12
FF90
FFAA
0075
FF87
FFEB
00D5
FF2D
0007
FFDA
FF4D
FF11
FF4A
0057
FF1A
0093
0031
008A
FFBD
FFAC
FF3F
007D
FF58
FF67
FFED
FF39
009B
FF9B
0088
FF50
0038
FF56
FF31
FFE0
00B0
FF81
FF20
FFA6
FFA5
005F
00BF
FF5D
00C5
0082
0047
FFE6
00C7
FF61
FEF9
FFD2
FF37
00DE
FF6C
0034
FF97
00A4
001F
00DC
00B7
00D3
0070
FF36
FFA3
00A4
FFE8
FF67
006B
009F
FFF3
FEFE
FF57
002F
FFD2
FF83
FF24
FFF4
00A4
FFC2
FF98
FF98
00C8
00C0
FF66
FF34
FF8B
00E9
FF9E
FFA0
FF01
FFAB
FF6E
FF5B
FF69
0058
FFB0
001A
FF52
FFFB
0079
0048
FF78
FF39
009C
0001
0050
FF20
0077
FFC2
0017
FFB5
FFF4
FFC2
FF08
00B1
005B
FFC3
FF14
003C
0029
010A
0068
005F
FF56
002F
0107
FF1E
FFA3
00E0
00CC
00DE
0048
FF13
00E3
FFA8
00F5
0010
00D3
FF31
0073
003C
FF95
0055
FF72
008F
FF7B
00D4
FFCA
0104
00C2
0004
FFF9
00C9
FF0F
FF53
0026
00D7
FF3D
FF73
0087
FFB5
FFC9
FF34
FF6D
FF88
FF9A
00BA
00B4
00D0
000F
004E
00EB
FF63
FFE3
00A6
00AB
0036
0048
FF8F
FF08
0101
0036
FF1D
00E8
0092
009A
0088
FFB4
0057
FF2B
FFC5
FF3F
0095
00DB
0047
007E
FF48
FF58
00DB
FFA7
0036
00C5
002F
FF43
0087
FF0B
0094
009A
00B5
002C
0035
004F
00B4
0096
0095
005F
FF92
0117
FF75
003A
FFB5
FFD8
FF25
FF8D
FF5B
FFE4
00F4
FFD6
FFF5
005A
0007
FEF0
FF4E
00E4
FF84
FFAB
0051
FF3E
0078
008B
006B
00DF
FF79
FF89
00AA
FFD2
0048
FF3D
FFF6
00A6
00C3
FFF0
FF1C
FF6D
002A
000F
004A
0060
001F
FF82
FFED
FF65
0093
FFC1
0093
FFAB
FF73
FF2D
0097
FF57
0040
00A2
009E
0045
FFEC
007A
00B6
FFD5
FF24
0056
00C4
FF0F
FF87
00C3
FF30
007E
00F2
FF95
0092
FF49
FF75
009A
FF0E
FFEB
00BE
0048
0075
FFC8
00E3
FF75
00E9
FFCA
0090
002E
FF32
FEEF
FFDA
FF91
00CA
FF68
FF4F
FF4C
008A
FFB1
00AB
FF95
00C8
FF95
FF7C
00B6
00B8
FF02
0024
0095
002E
006B
FF18
00C3
0068
FFAE
0009
FFB9
FF03
FF76
00BD
FFF4
003A
00B2
FF97
FF81
FF1D
008A
00F4
FFCE
FFB9
00E9
0043
FFE4
0079
FF30
FFF3
FF2F
00DE
00BF
FF28
FF44
0011
FFA0
00D2
FF85
00A2
FF12
FFBA
FF76
00AC
0023
FF3E
FF6F
FFBF
0003
007A
0080
FFEB
FF7F
0087
00C6
00E4
0098
FF8A
FFF0
FFB1
FF6C
FF67
0067
0051
FFA7
00BD
FF61
0032
00C9
008F
00F2
FFEB
FF4E
004B
FF90
0048
FFB9
FFFA
FFF7
006D
00CC
FFC6
00F0
FF5D
00A8
00EC
00F3
FFA4
00D2
FF44
00D0
FF43
FFC2
0080
FFFF
FFF9
0056
FF39
FFC5
FF37
0063
FF91
00A9
FFB7
0056
0072
FF0F
00D3
FF72
FF77
FFA1
000C
0003
FF3F
FF8E
000E
00E5
0071
FF87
008C
FF21
FF9C
FFD0
0023
00BE
00A2
FEF8
FFF3
0031
FF14
FFEF
0039
0003
00A9
FEF3
FFFD
0090
FF40
FF5A
FF27
00AE
00B2
0059
FF26
0055
008C
FF34
FF42
0001
0076
00EB
0036
00AD
FF12
0067
FF58
FF1F
00BC
FFA6
005B
00EB
0025
FF13
00B8
FF8A
00CB
FF62
00E5
FF95
FFC8
0065
FFBE
FF44
0068
FF8E
009C
008A
0116
004B
00CB
0039
FF35
FF09
006C
FF1B
FF49
FFF7
0033
FF64
0089
FF7C
FFBC
FF90
FF68
007D
00AA
0021
00AE
00A2
0096
FF7A
FFE1
0093
00E5
FFD3
00D0
0099
FFBF
FF38
FFF6
FF7A
FF51
00F0
FF52
00FF
FFAA
010D
FF04
0064
FF1F
0012
FF7C
FF6E
FFB8
0018
002C
FF4D
006F
FF8C
0096
FF4F
FFB1
001E
005F
FF4F
00CA
FFC5
FF9C
FF28
00D6
FF03
FF44
FF42
006C
0054
FF63
00E9
0010
00BC
00B1
FFA0
FF55
00D1
FF87
FF82
00DA
006F
FFF9
00D2
002D
00D7
00B7
FFB6
FFD9
0017
00D0
00BB
FF4E
0043
00C0
0065
0043
0072
00CF
FFBE
0029
FF8E
FF46
0077
004A
FF22
00D3
0089
FFD9
00AD
002E
0087
00CA
0008
007D
FF40
0059
0099
00C3
0093
00A7
FF63
FF07
001C
00B2
00A2
000A
FFE6
FF6B
FF1F
FFBE
00AB
FF0D
FF66
FF72
FFAC
FF71
0006
0067
004A
FF3C
FF0E
FFBA
FF20
FFE6
FFE3
0104
007D
FF37
007B
FFD1
FFAA
FF72
0086
FF15
000D
0089
007F
002C
FF5D
FFC0
002E
FF62
FFC2
002F
0037
FFAF
FF39
00D3
FF25
FF56
FF6B
FF4F
00B5
FFBB
0040
0093
FF98
0077
FF23
00B0
FF72
FF33
FF40
FFA5
FF58
FF58
0027
00D0
004D
001A
00A0
FFDD
FFB0
00A7
FF80
FF31
003B
FFD1
0023
FF8D
0022
00E5
0049
FF89
FF24
004D
FF88
002E
00C7
004C
0037
FFAE
00B2
FF3E
FFAE
0065
FF00
0045
FF44
FFBD
FF38
FF19
00CE
00FD
00E5
0085
FF34
0046
00F3
0033
0105
FFE8
FF8A
008A
FF54
00A9
0081
FEFD
FF42
00A6
FF9E
007C
00BE
0086
00A6
00E4
00CC
FFF9
00B0
FFC4
FF55
00AC
FF9C
FF62
0071
009B
FF7E
004B
FF97
009B
FF18
00A6
FF24
FF1D
FF68
FFC3
00F9
FF3B
FF01
FFC7
009E
004F
00AC
0034
0076
FF25
FFFA
FF1F
FF32
FF79
00B8
FFED
FFB4
003E
FF44
FF22
FF1E
0063
FF2E
FF26
00BA
004B
FF4A
FFE0
FF10
0028
FF8F
0015
002B
FF4D
FFB7
FF50
0076
FF31
FEFE
00B0
00C5
FF0A
00AA
0095
00BE
FF62
00BC
006D
007A
0000
009C
00B2
0000
00A8
010D
00F9
FFA4
FF51
FF40
FFBD
00F1
FF8A
00C4
FF69
00C2
0091
0053
FFB8
000F
00CE
FF05
0081
00B0
00BD
0094
FF1F
0034
00C6
FF40
FF1B
00B3
FFEA
FF22
FFDC
FF4E
FF6B
005A
0040
FF9B
0015
007F
FF44
0081
FF8E
0084
002E
0034
0092
FEEF
FF53
FF7A
FF52
FFAD
FF36
0041
FF3C
0046
0022
005A
0085
00BC
FF28
0013
001D
00FB
00DC
007A
0031
0047
00C2
00FB
005D
FF1A
FF17
FF44
FF29
0039
007C
00B3
FF8C
FF7E
FF89
FF74
FF76
00CB
FFBA
FF73
FF5D
FFC3
0008
00D0
FF6F
FF39
FFFC
0019
0095
0086
0098
00C8
FF88
FF83
008E
FFCE
00D9
00F0
00AE
FFF6
007F
FFF8
FF55
FFD5
00C8
0099
007B
FF84
00B8
007C
FFFE
009A
00E7
FFA7
FF6C
FFAC
00A5
0065
FF63
FF2D
FFAF
FF63
004A
0097
00D8
0018
FF59
FFC5
FFC2
FF67
0085
00D4
FFB0
00BB
FF4F
FF0C
004C
00E0
00AE
0039
00A5
FF51
FF54
00DE
FEFF
FF40
FF43
FF83
0005
000B
FF80
0061
00A3
FFC9
FF5E
007E
FF26
0038
005A
0089
FFE9
FF09
00BB
00B5
FF1E
FF38
00CC
FFC2
00B5
00D7
FF2C
FF28
004A
FF1C
00DE
00DD
FFF9
00C6
FF61
FFA9
00D6
FF7B
FF3D
FFC7
00E3
008B
0031
FF99
FF7E
00E5
FF06
004B
FF38
0050
FFA7
00C5
00C4
FF20
FFD1
0013
FF29
00DB
00A0
FF67
FF1F
00AE
0090
FF85
00C9
0044
FF94
FFB8
FF2F
0063
FFAC
00EE
00C5
FFAB
FF87
FFED
00BB
005D
FF09
FF69
FFA4
0007
FF6C
0030
0070
006F
FFBC
00D3
00BE
0095
0041
00C6
FFD8
0113
FFEA
FF89
FF5C
003E
FF8C
00CD
0054
FFAE
00A5
FF9B
0101
FF0D
0001
FFF3
FF14
FF73
FFCD
00B3
0088
FF50
FF15
0077
0095
FF24
0043
004A
FF54
004D
00C1
0049
0016
FF45
FF60
FFF3
FF4A
FF3B
00FC
FF60
FF62
00B1
00FA
00B6
FFA4
0002
0098
FFB9
0026
FF98
FF4F
00E4
003B
009A
00DF
0049
FF92
00D2
008B
FF53
0078
00EC
FF0F
0019
FFAE
009D
FF1C
00A4
FF71
FF82
009C
FF6D
FF8F
00D0
010C
001A
FF4A
0126
0035
FFC0
00E0
000B
0050
FFD7
001D
004A
FF7D
FF74
FFC4
FF76
FF7A
FF76
00E8
FF21
FF59
00AB
000B
FF75
000E
0089
00B0
00BF
FFBC
001A
007E
FFB7
00F8
007F
FF32
000F
0036
FFE2
00D4
0104
FF90
003D
FF3E
FF45
FFB5
00E5
00D1
0074
FF99
FF69
0034
FFEB
FFCB
FF2E
FF1D
0043
00BB
0035
FFB3
0075
FFC0
FF1A
FFFF
0071
0027
0019
00AA
00BA
FF5C
FFF8
FF6C
0065
FF28
0093
FEFF
FF70
FFFE
00FE
004A
FEE9
FF32
FF13
0084
0056
004C
0064
FFA3
0006
FF5F
00F7
00BD
00D1
FF1D
0007
002C
FF56
FF47
00AA
00CD
FEF1
FF81
00F5
FFAE
FEFF
0042
00AC
FF29
FF7D
00D0
FF7A
002C
FF14
FFC1
FFA2
0025
0010
FFF2
00F1
FF71
00BE
00BE
FF82
00AD
0071
FFD2
FF5A
0051
FF09
00CE
0078
FF7C
FEFC
00A0
FF19
FF66
00E6
FF6E
FF56
00E5
FF18
FF4A
FFAC
FF32
0029
FF61
0005
FF4C
FF90
00E2
00B5
00EF
0037
0084
0098
FFA8
003B
FF32
FF51
FF60
FFEF
FF9A
00B2
FF23
00C7
00D7
0103
FF7A
FFD6
FF21
FF34
FF33
00AA
FF77
FF33
0108
0109
0060
FF57
FF95
FFF7
00B8
FF1F
0069
00EC
FF42
00B2
FF78
00D6
FFD4
FFB6
0098
00D3
FF26
FF56
00FC
00F7
FFF3
FEF8
FF46
00EE
0011
FF15
FF15
FFDD
00E6
FF81
FF2B
FF23
FF60
001C
FFC9
FF76
0071
FF8E
FF9B
0069
FF25
FF34
FFF7
FF99
000E
002C
007B
00C4
00E6
0054
FF6A
FF35
FFBB
00F2
FFFA
FFAD
FFCC
FFA1
00BA
FFD8
FF39
FF67
FF60
0012
FFB0
FF1D
FFFB
FEFB
FF9B
FF3B
0048
00BE
00B9
0091
007B
0067
00CB
00CD
005F
FFAE
00AE
0023
FF8A
00D0
FF56
0096
FF1B
FFC0
0056
0042
0042
FF96
0085
0018
00CB
00B7
00DF
FF4A
0017
FF64
FF7E
FF1A
FF37
FF34
FF7E
009B
000D
0009
007F
FFD7
FFA8
002B
00C9
FF86
FF1B
FFE8
FF33
000F
00C0
FF67
FF3B
0018
00C6
FEFD
00BB
FF3E
FF21
00A3
007A
003B
FFDB
00DA
0006
00CF
FF01
FFBF
000D
FEEB
00CF
0080
FF9C
005B
FF93
FF30
FFA0
FF8A
004E
00D9
FF48
009C
00FC
FFB3
FF91
00CE
FF07
0016
FF80
FF61
002C
0012
FF4C
00B8
FFF5
FF5B
FFC2
009B
FFDB
FF06
FF61
FF7F
FF05
007F
0075
00DE
0024
0090
FF37
00C2
FFEF
FF53
FF72
00D2
FF3C
FF29
000D
00FF
0065
FF10
008A
009E
00CF
00DA
00B4
00A7
009C
FFED
FFF6
0033
0054
FFFC
FF49
00B7
00D9
FF4F
0076
0009
00A5
0085
00BF
FF11
00DF
FF55
0015
FFDB
0072
FF19
002E
FF32
0018
00B4
00A1
00BA
FFAD
FF6F
FF1D
006C
00AA
0056
00C9
FFD4
00E6
0063
FF80
FFBA
006C
006C
00A8
FF53
009A
FFC2
FFAC
00F0
FF45
FF48
FFAA
FFB3
FF5D
00E3
004D
00AF
FF50
00D6
FF29
0040
004A
FFA2
FF2D
FF69
FF0E
FF8E
00D9
FFAE
FF29
00DF
00CB
00E6
005E
0079
FF7B
FF40
0011
FF92
0100
00C0
FF9E
00BD
007B
FF43
0042
FFE2
0085
FFED
00B0
0042
FFC3
00AF
FFAB
FF2E
FF97
008E
00ED
FF41
FFF1
FF57
0007
FFEB
0042
00A9
FFD8
FF4A
FF3E
0019
FF17
FFE1
00CC
FF54
00D5
FF69
00C0
FF4F
FFA5
FF11
0094
FFBD
FF59
0046
FF36
FFA7
002F
00A2
FFA5
0036
0071
FF39
FF92
FF33
00B2
0082
FF83
0086
0094
00CF
00D1
FFF0
FFFD
004E
FFFE
001A
00B0
FFE6
FF7C
FF41
00AC
FFEE
FFE6
FF7C
00AE
00C6
00BF
FFA1
FF22
007D
FF7F
FFF5
0005
FF3A
FF20
FF9D
00A0
008E
0074
FFD6
00AE
FFC5
FF4D
00C9
0042
FF38
008A
0099
FF17
0050
FF40
00B8
FFE2
FF49
00C3
00C3
FF8D
00DB
FFD7
FF1F
0028
FF09
FFF2
00EF
FF68
FF5C
0079
FFAB
FF0E
FFEC
FEFE
FFBB
FFF3
007C
FFC2
00E9
0094
FF55
FFC8
FF1F
FFFA
FF96
FFB1
FFB2
003D
0088
007D
00E4
00BF
FFEC
FFE3
FFCE
0070
0112
00EC
00A2
0037
FF73
FF79
00EE
FFF8
0066
00CF
002E
00D2
00CB
00E9
FFD4
00DF
FF51
00E8
00CB
FFB2
008C
0066
FF81
FF14
0015
00B1
FF42
FF7D
0073
00D3
FF86
FF4B
FFCC
00D2
0091
00A2
000C
FF6E
FF23
FFF3
FF96
FFAC
FF84
0029
FF78
FFDC
0103
FF43
0043
FF3A
008D
00AE
0037
0059
000F
0065
001A
FF3E
0016
FF40
FEFD
0034
0098
FF55
0081
FFA0
FF12
FF5C
FF5B
FF26
009C
0080
FFE2
FFB7
0067
004E
FF71
FF72
FFE7
001D
003A
FFFC
00F9
FFC6
0002
FFC4
FF01
FF8D
FF3B
0050
00B4
0057
FF30
FF62
00F3
0002
00F3
0097
FF47
0041
0095
0069
FFD8
00FA
00F8
0037
008C
FF25
FF5D
003B
FFA7
FFC9
FFAB
00B6
0087
FF1D
00D8
0045
FF2D
00BD
FFB3
00E0
0016
FF67
0031
FF6D
FF46
0003
FF10
FF6A
0003
0079
0059
0046
FFE9
00C0
FFD9
FFF3
00CB
0083
0084
00F8
FF5D
FF66
FF4B
FFCC
FF37
FF58
FFC9
FF99
FFC8
0042
0113
FF4E
00C3
00CB
0065
FF6D
FF59
FF0D
FF9A
FF53
FF64
0056
0044
009C
00C3
FF80
FFB6
FF7B
00C3
FF7C
0003
00A4
00A5
FF86
FF65
FFE6
0036
00FC
FF86
00E6
FF79
FFD6
006A
0063
FF0A
FFA6
FF04
FF3D
0065
FF83
FFB9
FF2F
0095
0030
00A0
FF46
FF37
0084
FFA5
0007
001F
FFB7
0056
00DB
0020
FF76
FFFF
0026
FF5D
FF85
00CA
FFAB
0035
FFF5
00E9
00EA
000B
FF4A
FF8C
0040
FFDD
FF83
0091
FF93
0097
00BA
0068
0063
FF89
00EB
00A6
00F8
0062
00A7
003D
FF27
FF8E
00B9
FF3D
0019
00F2
00CC
FF49
FF5F
001E
FFDC
0070
FF2D
008B
FFD0
00E1
00C9
FFDA
005F
00EC
0034
FF1B
FFBA
FF29
0054
00A3
0095
FF41
00EF
0067
0032
FF9B
FF19
00A5
0006
00E7
0099
003A
FF6F
0051
FF47
FF65
FF5A
0014
FF61
0102
FF7E
FF88
00D6
FFC7
004D
FF05
00D6
FF1C
0010
00B1
00F9
0096
00B9
FF5C
FFA5
FF00
FF99
FFC6
003D
FF3F
0099
FF17
00A3
FF1A
FF23
FF53
0025
00A4
FF71
002F
0129
FF39
FF86
FFD3
FF77
FF51
00AB
0011
FFB9
FF51
0052
00E7
FF8A
FF66
00F0
FF0E
0050
FF93
0072
00A6
FF11
FF61
FFE7
FFFC
FFC1
00F0
00BE
00B5
00A8
006F
FF77
FF9E
FFC5
006F
0081
0026
0065
00E5
00B2
00DA
FF0B
00A6
FF80
00D1
FF8A
0084
00CA
FF68
FF52
0028
FFA9
FF8A
006A
FF75
0023
FF67
00DC
FF43
00D0
FF5B
FF65
FFC5
00B1
FF08
008C
0088
FF6A
FFFB
FF64
FFCF
00B0
FF68
FF62
00C3
FEF7
0034
FF4E
FF85
FF2F
009B
0100
FFC7
FFC0
006A
FEF9
003D
FFBF
0093
FFE4
FF3A
00B0
0065
0013
00AE
0018
00F8
FF2F
009D
FF28
0050
FF0B
00A5
0071
00EF
008B
00C0
FFE8
00C2
00C8
0023
FFAA
00E2
0022
0023
FF68
00B7
007E
009E
FFAF
FF88
009E
FFAD
007E
00D8
00EF
0042
001C
0043
FF21
FFA4
00FF
008B
FF17
FFB0
FF81
FF46
0064
FFD0
FF84
00BC
FF32
FF09
FF32
FF33
FF57
00BA
FF78
FF87
00EE
FF40
0065
00E2
FF38
FF3A
FF08
000D
FF64
FFD5
0017
00E0
FF60
0071
FF07
00B2
FF16
FFFD
FFC8
002D
007A
0002
00DD
FF24
0029
FF45
FEFA
FF9D
009B
FF22
FFD7
FFD1
FF47
FF40
FF58
FF37
00AA
00CF
0029
FF03
FF3A
FF4F
FF5C
FFE4
009B
FFDE
FF1F
00CB
FF48
FF04
0099
009C
0077
FF90
FFB7
009B
00B7
FF6B
0085
003A
FF11
FF9D
00F5
FFA8
010A
FF82
FF53
004F
0097
FFB7
00AC
00F2
FF31
00D3
FF48
004A
0077
00F0
005A
00F5
FF4B
0062
0070
00E0
FFD2
00E2
002F
0016
00B4
FF9F
FF4A
FF86
FFA9
FF8C
003B
FF93
FF01
00F0
004E
00D9
FF91
FEFD
0059
0083
003B
FF36
FF83
00E3
00E2
FF62
FFC1
FF70
FFB0
FFC5
FF93
FF2F
0007
FFE4
FF4E
0044
00B4
00C8
0058
00D3
FF76
0026
FF1D
FF63
00E0
00AB
FF8D
00A2
0097
008B
FF46
00AE
FFFD
00C6
0097
FFD7
0071
00C6
0067
00C1
0033
000B
007A
FF49
00B1
000F
FF62
00DC
0025
FFA5
FF64
FF6D
00B8
00D4
0078
FF2D
FFD3
00B6
FFAC
00E0
FF4B
FFC5
FF4A
00C4
0061
008D
0099
007E
FF4D
008D
004B
0091
00BE
FEFF
00AC
FF37
00F6
FF36
00C7
004C
FFFC
FFD8
FF7D
FF4D
FEF5
0032
00B4
FF42
FF49
FF21
0047
FFD5
0060
006B
000E
FFDA
FF5A
0034
FF89
FF3B
000A
0053
FFD1
0084
FF89
008B
FF32
FFC0
00C9
FF7E
FFA2
FFA5
FF90
FF7F
FF77
FF1B
00D7
0033
FF3B
003B
FF41
0094
0066
FF0F
FF37
FF73
FF4A
0064
FFA9
FF47
0031
005B
FF7B
00C0
FF2C
0011
FFF3
0033
FFEC
FF7E
FEF9
FFBF
FF90
0051
0025
00E8
FF28
FF0C
00A7
FF64
0047
FF41
FFB5
00AD
007E
00D7
00D8
0064
FFFF
00CF
FFB8
000A
FFCA
FF9C
FFEF
00D8
00DA
00BD
FF69
FFD5
00C3
FF60
00DB
00D4
00C8
00CA
FF85
0093
007D
0073
00BE
009F
0021
FFEB
FF65
00E2
FF6C
FF68
FFC7
00D1
FFB0
FF1C
0051
000E
FF13
FFDD
FF21
00D8
FF0F
FFF2
003E
FEF7
FFFC
0094
FF29
009A
0048
00AD
FF48
FF65
0056
00A5
00F4
007E
FFC3
FFBF
FF99
00D6
FFA0
004A
00AE
FF5E
00B9
0063
FF67
0057
00EA
00B3
FFA9
00AE
0079
FF65
FFC2
0028
009C
0045
FF4D
FF7D
FF9E
008D
00EC
00AC
0062
00BB
FFA0
FF0E
FFBA
0016
FF4D
FFBB
00C9
FF24
0047
FFED
00A7
FF15
FF69
000A
005C
FF01
FF8C
00A5
FF91
FF0F
0072
FF5A
0044
0089
FF66
FFFD
009A
FF91
FFC5
FF54
FF35
FF40
FF6B
FFBD
FF44
0056
FF18
FFA4
FFB4
FFD5
FFB9
006B
0025
00BC
FF44
00A0
FF48
FF50
FF71
001D
FF50
0075
FFA4
FF4C
004F
FF07
FFEC
00B9
00B9
00A5
0103
00DE
0012
0029
FFBB
00A9
FFF8
FFB5
FF6B
FFEB
0027
001F
FFFA
002B
0002
FF0D
FFD7
0113
FFBA
FF90
FF2E
00B7
0049
FFE7
0064
00E1
0088
FFF1
007A
0088
FF06
00BF
FF67
FFB8
00A3
00A1
FF7B
00A8
0039
FF03
FFDB
FFA3
FF7B
001B
0009
FF22
FF1B
00C7
FF45
0077
00BB
FFE0
0022
FFE0
FF19
0065
00D8
FFB1
0046
00A1
003D
0038
008A
0063
FFD6
FFB5
FF9F
FF90
00B1
FF59
00A5
0075
FF68
00C2
FF74
FF1B
FF3C
FF8A
00E2
007A
FF09
0008
FFE4
FFEB
0042
FF33
00CD
00C2
FEF9
FF66
000E
FFDB
FF62
FF68
00CB
00DC
0004
FFA2
FFB6
00A9
FF1A
FF50
FF34
00C4
00DF
0035
FF3F
00DB
FF45
FF4F
FF02
001F
FF96
FFEF
FFB0
00A5
0076
0070
000F
FFAE
FFBE
FF23
FFF7
FF76
0023
005F
FF76
00E0
0020
008A
FF54
003A
FF20
FF20
FF79
007E
0073
FF50
FF99
0077
FF6A
FF7B
0080
00D6
0052
FF4F
00C8
FF70
FFB1
00F8
00EA
FF6D
004B
0097
00A4
00CE
009F
FFDD
FF7A
FFE7
00AA
004A
FF87
003E
FF94
FF2E
00C6
00D4
FF43
FF5F
FF46
0040
0023
FF6B
FEF7
FF47
FF5C
FF02
FFE2
0114
FFD9
00D7
00BB
FF09
FFB9
0067
FFA7
00DA
FF5D
00C5
0083
00E5
FEFA
005D
003A
FF3E
FFC3
0018
0090
FF3A
FFC3
0074
FF9A
FF13
008F
00CD
00B1
0057
FF90
00EE
003A
FF33
0118
FFD0
00C8
FF3B
00BA
FF75
00E3
0097
FF3D
FF42
00C1
00D7
0034
0013
FF25
005F
007E
009C
00B8
FF6F
FFE5
FF91
00C7
FF76
FF7D
FFD7
FF35
FFE7
00CB
FFE3
FF78
FF99
FF39
0089
007A
FF2C
FFA4
00B7
00B4
FF16
00E2
FF9E
00B8
FFF2
00AE
FFA3
0072
FF69
0083
FF60
00E2
FEFB
FFCB
00A5
000A
007E
0001
FFEA
FF4D
00DA
FFE4
0056
FFDE
00B2
0103
FF14
FF40
FF28
0054
0084
FF5E
FF60
FF1A
0070
FF05
FF97
FFE1
FFF3
FF50
00C1
00A6
008C
0034
0024
0076
00D1
00BE
005F
004A
FF40
00A5
FF32
009C
008B
00B7
005C
0076
FF99
FF1C
00BA
FF0F
FF7A
FF49
FF7B
FF32
008B
FFD6
FF7E
0075
0048
FF3A
FFD1
0101
FF30
FFCD
FFA0
00DF
FFCD
0095
FF3B
FF00
FFFF
0093
FF30
FFB4
FF48
00B9
00D5
FFE9
0112
00B3
FF25
FF46
001C
0081
FF9B
00CC
FFAD
FFAA
005D
FF6D
00C7
FFF0
009B
FFF8
FF1F
0032
0095
00E9
FF49
FF42
004B
001F
FFDB
0044
FF58
FF1A
FFA8
FF6A
00CD
FF93
0083
00D7
00E7
FF81
00D7
008B
FF91
FF42
00C3
FF45
FF30
FFC8
FFA8
FFAE
FF98
003E
009C
FF31
FF81
FFE0
FF7A
FFCA
007A
FF27
FF2A
002E
004C
FFAB
FF7D
00E2
007B
FF3F
FFAA
00D8
0051
FFF6
00D4
0034
00D4
FF3C
00D3
FF6A
FF54
0024
FF37
FFE1
FF64
00EA
00C1
00F5
0045
FEE9
FFBE
001E
00DA
FFD1
0081
00C0
00BA
00BD
00E3
00B7
FF1E
FF76
FF82
0053
FFA4
FF02
FF22
0048
0038
FF21
FF23
FF7D
003C
FF46
FFBD
003D
FFDD
00E2
FF21
FF4D
FFCC
FFF5
FF6C
007B
FF5A
00B5
00FA
00B5
00A0
0086
0013
00B5
FF5A
0044
0107
0060
0085
0015
0002
000A
0092
FFA5
00BD
009B
009C
FFCA
FF82
0026
FF92
FF9A
FF91
000B
0047
FF78
FF7A
FF81
00BF
00A1
00C9
005E
00B5
FF62
FF4A
0076
0091
FFCD
FFFE
FFA6
FFFB
00EE
FF47
FF55
FF10
007A
FFE1
00BB
001C
00CB
FF99
0085
FFE4
FF73
FF37
FF24
FF90
FFFD
00A8
0063
FF50
0108
FF89
FFAA
00F8
00D1
0028
FF44
FEE5
FF02
00DA
009A
0067
009B
00FB
FFE7
005C
0050
FF46
FFA0
00A3
008A
FF7F
0098
00E9
FEFA
FFFA
009A
FF4B
00B5
008E
FF4A
FF44
0025
0093
00E6
00C9
0090
00DD
FFAC
00CC
0043
00EF
00E7
FFB8
FF7D
000B
0097
FF7B
FF70
00EC
FFB3
FF6C
FFFE
00CB
003D
FF18
FF5D
FF7C
00B2
FF4E
003D
00D5
FF32
00EF
FFEF
FFC9
0077
00BF
00F8
0083
007C
FFC7
FF0B
00EC
FFD5
00DC
0085
FF64
FEFF
007F
0015
0051
0072
FFF0
0081
0050
FF37
FF4B
00D3
FFE6
FEF4
FFD4
0059
00D3
FFDD
FFEA
009C
FFB7
0108
FF76
FF56
0069
0042
FFFE
FFB6
FF50
FFAF
00A6
008C
FF96
002B
FF95
FF73
0066
000F
0110
FFF6
FFAD
0090
0082
FFFD
FF02
FFC1
007D
00BE
00D3
FF10
002E
0045
00C2
007E
FF29
00C8
FF35
FFD5
003D
FF4A
0088
FFF7
FF59
FF58
0009
FF9F
FF25
FF18
003A
009F
00A7
0064
00F0
0069
0046
009A
001C
FF05
FF6F
0002
00CF
FF85
FFBD
FFFD
FF39
00EE
FFC9
00DB
FF67
005F
FF02
008F
006B
008E
FF6C
FF04
FF39
FF4B
FEFA
00ED
FF22
00A7
FFA5
00CD
FFB3
00B1
FF48
00BF
00C7
FF34
FF8A
FF3F
FF39
00EA
FF26
FF27
FF83
FF7D
00F0
0066
FF51
FFC5
FF0D
006F
FF31
0042
00D8
FFF2
FF3F
FF27
FEF3
0023
007F
FF61
FF04
FF3D
FF3E
FF12
FF07
0011
FFDB
FF1B
0081
FF0D
FFA0
FF49
0029
FF97
0093
00B4
FFF9
FF42
00D5
00D4
0093
002B
00BA
00A0
FF2D
FF1D
FF13
0064
FEF8
FF6D
FF7B
000C
FF70
0004
0038
FFFC
FF13
00DB
00B9
0072
FF16
0085
004E
FFA3
FF91
0022
007C
FFE4
00E2
0021
FF35
00B3
0121
FF7E
009B
FF4D
0081
FF92
FFCF
FFFD
00DE
0007
00D3
FF34
FF3E
00B3
FFB5
FF67
0012
FF84
FFFB
FFEF
FFA4
FFD8
0038
00D0
FFE2
00BA
008D
FFB9
FF9D
FFC3
FF9C
0080
FF59
FF30
00A9
0107
0065
001A
0031
007D
FF29
0099
FFE0
FFF0
FFE5
0045
005A
00B7
FF8D
0061
0078
0004
00D0
002B
FFC8
002D
002C
00D8
FFA3
00C8
FFD5
FFC7
FFCC
FFC6
FFF1
0047
FEF4
0058
010D
FFB7
00AB
0027
00B3
FFC0
0015
00A5
00B1
005B
FF4A
FFA6
00C2
FF12
FFFB
FFBF
FF41
FF57
FEFE
0083
FF2A
0033
0088
0082
00CC
0001
FF94
FF2E
FF46
FF6D
FFBD
FF24
FF5F
00A1
00B1
FF45
FFD3
000A
0041
00EA
000B
0092
FFD7
FFF9
FFC5
FFF3
FF21
002B
FFAC
FF48
FF2A
FF46
00A1
00EB
FFD2
FFD0
00DC
FF69
FFD6
FFC3
0066
FF3A
FFA6
FF30
FF5F
004C
0082
000D
FEF5
008B
00EA
FFFF
005A
006A
FF3E
008B
FF59
FF27
FF33
0110
0063
00F5
002A
FF34
005E
FFE5
006B
00CC
000B
0077
00E8
00D0
FFDC
FF5D
FEFD
FF44
FFAC
0010
009A
002F
FF39
001B
FF7B
0049
FF5C
008F
FF40
FF69
0097
00DD
0078
FF76
FF37
FF53
0002
FF50
FF32
FF5B
FF2A
FF78
00E7
FFC7
0034
FFDA
FF0D
FFAD
00FB
00A7
00F6
FFC5
FFB7
FFB8
FFB8
FF1E
008C
00CD
002E
FFC4
FEFB
FF63
FFC5
00C4
FFC2
00F4
FF71
00D0
FFC0
FF5C
0071
0012
0043
FFC4
00BA
FF2C
FF08
0080
FFD1
FF58
00C8
0084
0086
FF02
0018
FF11
00E5
0043
FF48
00B0
FF3E
0057
FF44
FF9E
FEEA
00B6
FF69
FF8C
00F2
007E
FF6D
0065
000E
00D9
FFDB
0034
00B5
0034
FFAA
FF31
FFE2
0077
0002
0031
FF52
00A7
FFE8
FF87
0079
FF21
FFA6
00B7
FF4B
006B
FF8E
FFB0
FF4B
FF9F
0054
FF2A
00F0
006E
FFB5
FFDF
FF91
FF30
FF7C
FF61
FF95
00AE
FF20
0029
003D
0049
FF7D
FF29
00A2
FFBC
0093
FF69
009C
FFB5
FF1C
FF65
0045
00D2
FF26
FFF4
00BF
FF7A
0037
FF8D
003C
00A4
0030
0083
FF03
0075
0061
FF43
FFB3
FF18
FF80
0023
FF3D
FF19
002B
00AD
00A5
0050
FFCB
00E9
0099
FF27
00A2
FF3D
00C5
FF7E
00BE
0035
004F
FF39
FF84
00E8
0047
0094
FF01
0014
FF4B
FFDB
FF9C
00C6
007D
FFFC
FFA3
00B4
FF6E
00B2
0085
FF90
00CC
0056
FFB3
FFED
FFE8
00BA
0068
FF7F
00AB
FFC2
003A
FF72
0035
FF68
00E4
0091
FFDF
002D
FF3B
FF19
FF6D
009D
0029
FFDD
FFFF
007F
00B0
FF52
FFFF
001B
FFAD
0095
FF22
00EA
FF72
FF8C
00A5
00E2
00E3
0077
FF8C
FF45
0085
0057
FF69
FEFE
005B
FF40
FF42
0070
009D
FF8C
00F6
00CD
003B
FEFF
0047
FF51
FFEC
FF2B
00E6
FFB5
FFE9
008B
FF28
00B0
FFE9
FF6D
00BB
FF74
FF77
FFED
FF8E
FEFA
FF42
FFBF
FF8C
FFA3
FFE4
00D0
005E
00D6
FF1C
FFEC
0021
00B3
00B1
006A
00D9
0091
0077
FFB0
FF4D
FF40
010D
00E7
00D2
FFCF
FF27
0003
00F1
FFBD
00D8
00A3
FF31
FFAA
FF24
0087
FF32
00B6
FF6A
003D
006D
00B0
00C9
FF30
FFC2
0066
FF52
FF70
FFC3
00A7
FFD2
006D
FF2A
FF6C
FFFC
0072
FFCB
00C2
FF55
0032
002D
FF2F
0080
00A7
FFD5
0071
FF3D
FF00
00D2
00B2
FFC4
004B
007E
FF3F
FF51
0085
00B6
FF96
FFC0
FF9A
0003
FF7E
0061
FF02
00DD
FFFE
FF18
00A9
FF45
FF60
FF00
00A3
007A
FF19
FF7F
00D1
FF3F
00A4
00A1
FF4A
FFBC
FFF4
00C6
006B
00A8
FFB1
FF9F
FFE5
0028
FF93
FFDE
FF11
0005
FF77
00CD
FF5C
FF2D
0078
FF1F
00E5
0093
0056
00C3
00B4
0062
FF1A
00E2
FF56
00E4
FF7C
0061
FF58
0079
0061
0095
FF95
FF60
FF32
FF85
009B
FF2A
0078
0035
00CE
00CB
0081
FFA3
00FA
00A7
00E3
FFAA
00D9
00B8
0092
0075
0053
0048
FF69
FFDD
00B4
00C5
004D
00E8
FF94
FF3C
FF8F
008A
009A
0025
FF4B
006C
FFA1
FFD1
FF61
008C
FF1E
FF56
FF72
FFCE
FF57
FFE8
FF5C
0041
00CA
FF13
00DA
FFF0
008B
00FF
FF98
010D
FF49
FF2F
FFB2
FF60
00A5
008B
00EE
FFF6
0081
FFCA
FF2A
FF21
0066
FFA5
0041
FFAE
FF6D
0080
00CD
00A1
00E0
007E
0068
FF79
0061
00C4
FFE7
FF3A
FFBF
FF1C
00CA
0010
00A8
FF3B
FF39
FF09
0087
FF06
FF66
00CE
0078
FF50
00C2
00E9
000B
FFD5
0017
0091
FF49
FFE6
00D0
0037
0082
FF03
FFD5
00E5
FF8E
FF45
FF99
FF9A
0022
00EA
FF29
FFE9
00C3
00C3
009B
FF96
FFDC
FF10
FF1C
FFC6
FF9B
000F
FF61
FFAA
00F1
FF70
00A2
0055
00CC
FF5C
0036
FF13
FFA1
FF8E
FFBF
0087
FF59
0072
002E
FF76
0097
FF98
0085
009E
0092
FFB4
FF28
0102
00A7
FF25
FFC6
0078
FF5C
0029
00F6
007A
