0019
0023
005C
002C
002F
0016
001F
0034
0049
0036
001B
004F
001C
001A
0015
0026
003D
0029
001E
0018
0042
0030
0018
001D
0044
0022
0004
003D
0069
004C
0050
0049
0021
0020
0038
001E
0020
0028
0032
0020
0005
0029
0025
002A
0008
0024
0011
0017
0017
0029
0008
0025
0052
0020
0035
0025
0029
001B
0032
002A
0019
0019
0051
0009
002B
0018
004C
001C
0018
0046
0036
0012
0043
0018
0054
003F
002D
001B
0016
002F
001C
0025
001A
0026
001D
001C
0026
0044
0012
0028
002A
003E
0021
001C
001C
002A
001D
0061
0017
0041
0020
0052
001C
000F
0025
0017
002C
003E
0020
0021
001C
0020
0036
0020
0049
002D
0020
0050
001C
0027
002C
0024
0052
0029
0025
001C
0054
000F
0019
000E
0030
001D
003C
001F
0007
0030
0022
001D
001F
001A
002B
0038
0032
002A
0048
001D
0020
0023
0049
0041
0016
0012
0017
0019
0014
0021
0037
001D
001B
001D
001B
003F
0053
0005
004C
0015
002B
0005
0037
0024
0022
0027
0035
001F
001E
0052
004A
0033
FFF9
003A
0028
FFFC
001E
0017
001A
001F
003D
0054
0024
0021
0022
0033
0026
004F
000D
0026
001B
0034
0034
002D
002C
0055
001C
001D
0030
001D
0018
002B
0025
001A
0025
0023
001A
0022
0020
0020
002E
001A
0038
0053
0018
001B
001E
003F
001C
0028
0036
002B
001C
0010
0055
0019
0057
002D
0015
001D
0047
0038
0032
0021
001C
0017
0003
0013
0027
0005
002B
0035
0016
005B
0023
0039
0026
0019
0017
0030
