FFA8
FFE0
0018
0012
000B
001F
0033
FFEB
FFAB
000F
FFB0
FFB1
FFDE
FFF2
FFE9
FFBF
FFBA
FFBC
FFB7
000C
FFDA
FFC9
0030
0004
FFDC
0032
FFCE
001D
FF9C
002F
FFE2
0006
FFE2
FFC5
FFB9
FFF8
FFF7
0026
FFE4
FFF4
FFCA
FFC9
FFC8
0028
000B
0033
FFA4
FFB3
001D
FFDA
FFDE
FFF7
FFEE
002C
0002
FFB0
0037
FFF0
FFEF
FFF7
0006
FFC9
FFA9
000B
FFB5
FFA3
FFB1
FFC5
000E
FFAF
0023
000B
FFFA
FFC0
002A
FFA6
FFF3
FFF8
FFAB
0008
FFC2
FFD3
0000
001E
FFEC
002C
FFEA
0020
FFC3
FFEE
FFAE
002B
FFEC
FFEB
0013
FFC7
000E
FFD9
000A
FFD4
0024
0010
000A
0004
FFCA
FFEC
0022
FFE9
FFAC
0009
FFE6
FFAB
FFEA
001C
0034
FFD5
FFE8
FFE0
FFCF
FFC8
FFA9
0016
0025
0025
FFD4
FFE0
FFB4
0011
FFCB
FFD9
FFBB
FFD3
0008
000D
000F
002E
FFC6
FFDE
002F
0001
FFB8
0008
001F
FFB1
FFEE
FFBE
FFC6
FFDD
FFA4
0012
FFF0
FFB1
FFD2
FFFB
FFC5
FFC6
FFFA
001F
000F
0033
0019
0010
003A
FFCA
001A
0012
FFB3
0026
FFA4
002C
FFB7
FFC4
FFFB
FFC2
FFD9
FFCA
FFBA
FFB6
FFE8
FFB4
0025
FFD8
FFFA
0034
FFB0
0036
FFFC
FFC5
0023
FFBD
FFDE
FFB0
0002
0023
FFFE
FFDC
FFA6
FFAB
FFD4
000E
FFBA
FFF3
0031
0016
FFCC
003B
FFAC
0000
0014
FFA7
FFF9
0000
0035
FFD4
FFAB
0035
002F
000E
FFD7
FFC9
FFC3
FFE3
FFDF
000A
FFDC
FFE5
FFEE
0014
FFCE
FFE3
000E
000E
000C
FFBC
FFE0
0043
0007
000D
0033
FFC3
FFFD
001A
FFF4
0008
FFFF
0004
000A
FFCC
FFAC
FFAC
FFC8
FFC5
FFC1
001A
FFCC
FFD1
FFFD
0008
000B
FFF9
FFE8
0015
FFB7
001C
FFC0
FFAC
000E
FFA4
FFE5
FFC2
FFCF
001C
FFB7
FFF3
FFF7
FFB8
FFCB
0033
FFDC
FFCF
0018
FFAF
FFAC
FFC2
0021
FFEB
002F
FFA1
FFF8
0033
FFE6
FFD2
0002
FFB3
FFC1
FFAB
FFCE
FFF5
0012
002C
FFEA
FFD5
FFFB
001C
FFBA
0023
FFC6
0033
000D
FFE4
FFB9
FFC5
FFEA
FFA3
001B
FFB5
FFAA
FFB7
0017
0016
FFC8
0033
FFFB
FFC6
FFBE
FFEB
0000
FFCF
0029
003C
FFC2
0028
FFCC
FFF2
FFC1
FFCF
FFAD
0037
FFE2
FFF8
0030
FFB1
FFBD
FFCF
FFD8
FFBF
0021
001D
FFC8
0006
0033
0006
0024
0021
FFE0
0010
0015
FFD8
FFA8
0002
FFAC
FFCA
FFD5
000D
FFF0
0008
FFF7
FFB4
0030
FFDF
002C
FFF8
0004
FFC1
FFDC
FFD2
FFAB
FFB2
FFAA
0002
0008
0006
FFAE
0038
FFE8
FFDA
FFE4
FFF0
FFED
0006
0014
FFF7
0031
0016
001A
000E
000F
FFC6
FFDC
000B
0011
FFCB
FFEF
FFD8
FFD8
FFFB
0029
FFFC
FFCA
FFEA
001D
FFB3
0019
002E
0002
0041
0011
0025
003D
0010
FFA8
FFD3
FFFE
FFB1
FFFD
FFED
0010
FFC4
FFE5
0003
FFB1
0037
FFC1
0018
FFBC
000F
FFC8
FFAB
FFAC
FFB4
FFCC
0013
FF9F
FFBF
FFFC
0037
FFB0
FFAC
001C
0016
FFC6
FF9F
FFBE
FFA4
FFD6
FFBA
FFA4
FFFE
FFDD
0007
FFB1
0004
FFC0
FFCB
0013
000E
001B
0019
001A
FFCE
FFCE
FFF5
FFCE
002D
0011
FFB2
FFCE
000A
FFFB
FFF2
FFC3
FFF3
FFD2
FFF9
003A
FFCE
FFB2
FFB7
0010
FFF6
FFD9
0015
FFE7
0036
0014
0008
000E
001C
0013
0017
FFF1
FFCE
0027
FFB4
FFAA
FFBA
000C
FFD0
FFBC
FFAB
0035
FFCA
0036
FFE8
FFE2
001C
0035
FFB4
FFB0
001F
FFC8
FFE9
FFD3
FFCE
000A
FFAA
0039
FFE3
FFFE
0015
FFD7
FFD2
0025
0002
0011
001B
0019
0028
FFA8
FFE7
002D
FFE4
FFC0
FFE9
0006
FFD3
0007
FFC7
0016
FFB0
0004
FFD4
FFA7
FFF2
0025
000F
FFB3
FFBD
003B
FFB9
FFC2
000C
FFA6
0024
FFBE
FFF9
FFED
FFE6
FFD8
0012
FFDD
0019
FFE7
FFDF
0022
0037
FFC1
FFC8
FFEA
FFC2
0029
0027
001C
FFC1
FFD7
FFC4
002F
0005
FFB5
FFD8
0013
FFA8
0028
003A
FFD6
FFE3
0017
FFAF
FFFF
FFD3
0006
FFC8
0027
FFA2
001A
0008
0034
FFDF
002E
0008
FFE9
0036
000A
FFFD
FFB4
FFF9
FFCF
FFBE
FFB9
FFF0
FFFA
FFC1
000E
FFE2
0002
FFB1
0000
FFEA
FFB5
0033
002D
FFD0
FFE7
FFCD
0027
FFB1
FFEB
000F
0014
002A
0024
000A
FFBA
0033
0013
0018
FFD9
0004
FFA4
0019
FFBF
FFD9
FFCF
FFFB
FFEE
FFBB
FFDE
FFD5
FFFE
0002
001B
0001
0038
000B
0020
FFD1
000B
FFF6
FFBE
FFB4
FFE8
FFDE
FFB1
0028
0010
0013
FFCF
FFA4
FFD0
FFAF
FFE2
FFA5
FFE9
0018
FFE9
FFEF
FFFD
FFC9
0023
001C
FFCA
003C
FFF7
0023
0029
0024
FFD2
FFF2
FFF7
FFF9
FFEF
002B
0029
FFC7
000A
FFE4
FFCE
001E
FFB1
FFB2
FFFB
0010
001D
FFA5
FFF3
FFE7
0013
FFE3
FFC6
FFF5
0010
001F
FFD2
FFD2
FFD3
FFE7
0002
0009
0037
002B
FFAF
0011
FFA6
FFAF
0027
0037
FFC8
001F
FFF8
0010
FFFB
FFAD
0032
FFCB
FFAD
0034
002C
0024
FFE6
FFAF
FFDC
0024
FFEF
0015
0032
003C
FFB5
FFD0
FFD6
002E
FFC1
0028
002F
FFE5
FFAC
FFE9
003C
FFDC
FFB1
FFD3
FFAB
FFAB
FFB5
FFBB
FFF3
FFD2
FFC0
FFF7
0017
FFD6
FFEB
0009
0040
FFAC
0040
0044
FFBB
003C
FFDC
002C
0009
FFC2
000B
FFC1
FFDB
004A
0050
FFF9
000E
0044
FFF4
FFCC
FFBA
FFBE
FFC0
0015
004B
003B
FFEE
0046
FFEC
FFF9
0047
FFFB
001A
0019
0011
0015
0010
000C
FFFA
0043
FFBF
FFBF
FFB9
001F
0019
001C
001D
0017
0033
0032
0009
FFF0
FFE3
FFEF
FFC3
FFC4
FFFB
FFE5
FFF6
0049
004F
FFCD
001B
FFDC
FFC7
003B
0013
FFD6
FFD5
FFB9
0049
FFF5
0014
003A
FFF2
0003
0008
FFC9
0003
0040
FFD9
0009
0021
002E
FFE7
FFD9
0002
FFF2
FFB8
003B
FFDD
FFD5
FFC8
002E
FFE1
004A
FFB7
0028
0006
0032
FFBD
0047
FFC0
0054
002E
FFF1
FFC5
FFF2
0034
0040
0039
0029
001F
FFF7
003D
0038
004C
003D
FFFC
FFBA
FFB7
FFBD
FFCF
004D
0000
004D
FFFE
0004
FFD5
0035
FFCA
FFE3
FFED
FFDF
FFD7
0056
0037
0007
FFF9
FFE6
0035
FFD4
0003
FFC4
0019
0042
FFF1
0036
FFB9
004E
FFDB
FFC6
FFBE
FFC7
0009
0030
0016
0047
000E
000D
FFB7
0021
0045
0048
0028
001C
FFF5
0043
0044
0032
0015
FFEF
FFB3
FFD8
0025
0013
0027
0034
FFC0
FFCD
0034
0005
FFD0
003D
004A
0023
FFF6
0041
FFF2
FFE7
FFE1
FFE7
0047
001F
0025
0030
0049
001B
FFC4
001F
0033
0020
FFCB
FFBC
0029
0000
002D
0025
0002
FFF2
0049
FFEA
0020
0030
FFFD
FFD1
0005
0024
FFF6
0034
0059
FFD9
0001
FFFA
000B
004F
0043
0007
FFEF
002E
0019
0002
0022
FFCD
0036
FFC4
FFD9
FFFA
003C
0039
FFCF
FFC2
002F
0043
FFF6
FFF9
FFE5
FFE3
0030
004B
0029
000E
0032
0007
FFC3
FFD2
FFC9
0027
001E
0017
0021
0039
FFC2
000B
002D
0048
003F
0000
FFE5
FFB5
FFDA
001B
FFBD
000A
001B
FFCA
001E
FFCC
FFD2
0041
002C
0030
001C
FFE2
FFE6
FFF1
0030
004B
FFC5
FFF8
FFF7
FFDA
FFC4
FFF4
0013
FFC9
FFF1
0037
FFE7
FFF0
FFE2
002D
0009
003A
0053
FFCB
0054
0009
FFF1
0015
FFC0
FFD1
000C
FFEB
0007
FFFF
FFCE
FFF1
FFDC
004D
FFF7
FFD9
FFBC
0028
FFCD
0031
0032
FFCC
0051
FFFC
004B
0002
0053
0046
FFD5
FFFE
0047
FFD7
0040
FFE1
FFE2
0044
FFF6
FFFE
FFD3
FFE2
FFCE
0015
0004
0033
FFEE
002E
FFED
FFDE
FFEA
0052
FFC0
0027
0028
FFC1
0004
FFD4
002F
FFEC
002F
003E
FFCD
FFBE
FFC4
0027
FFBB
0053
0007
FFE3
004A
0038
004F
004B
FFDD
FFD4
0053
0043
0016
0044
003B
0007
0018
0041
FFEC
0035
004F
002C
FFEB
FFEE
FFC5
002E
0031
FFE8
0002
001C
003E
000E
FFC4
0008
FFC3
0001
0010
FFF5
FFD6
0024
002F
0049
0012
004F
002D
0008
0026
0040
FFFA
004E
FFD4
0019
FFBF
FFFE
002F
FFD9
0048
FFB9
0027
FFEE
FFE2
0002
0048
FFBE
FFFE
0003
0025
FFDF
004F
0035
0012
FFC1
FFC9
FFEF
0003
FFC9
002C
FFCD
FFFA
FFC6
000C
0042
FFCC
001B
0023
FFE1
0018
0041
FFD9
0049
0015
004B
0009
FFF5
000F
0057
0030
0023
0000
0050
003C
002E
0041
FFDF
0002
0005
FFEC
FFD1
0013
FFF7
003D
FFC2
FFBA
FFC2
FFC2
0012
0047
FFD4
002A
004E
FFFF
FFD1
FFE8
FFF7
0053
FFF4
FFEB
002C
000A
000E
FFDD
FFFA
FFB9
0050
FFBE
FFFC
0025
0030
003B
0047
FFCD
FFFE
FFEC
0051
0001
003F
FFFD
0018
0025
FFBE
FFE1
0039
0001
0007
0034
FFBC
FFF2
003A
0041
FFBC
0033
002E
004D
003D
FFC3
FFB7
000E
FFE5
FFD1
004C
FFE1
FFFA
0040
003D
FFCD
003B
FFD3
FFF1
FFD0
0052
000B
0034
000A
000B
0003
000E
0050
0037
0042
0020
0046
FFEE
FFC3
000E
0020
0030
FFC3
FFEC
FFEB
FFBC
0018
003A
0010
001E
FFCB
FFFC
0036
FFBC
001C
FFD0
FFF2
FFFE
004C
FFE3
0045
0029
FFF8
FFCF
FFC7
FFFD
FFDE
FFFE
001E
FFD6
0017
0044
FFE8
001D
0043
0045
0001
FFDF
0029
0022
0030
001D
003E
003A
0012
0013
FFC6
FFDB
FFC9
FFD7
0011
FFE8
004E
FFE7
FFD7
FFCF
002A
002B
0051
FFC7
FFDE
0036
FFF4
0038
0005
0054
0026
FFC8
004A
0047
FFF7
FFFF
FFF7
0013
0025
0045
0057
0007
001F
0025
0040
FFF8
001F
FFE0
FFE5
0001
FFF0
FFDE
FFCC
001E
FFDA
0043
0047
0022
FFF7
FFBD
0040
0032
001A
001D
FFDE
FFFC
003D
FFD9
FFCB
004F
FFFD
0025
000E
FFDD
FFC0
0047
000B
FFD8
FFF8
FFD5
FFEA
FFE4
0019
0039
001D
0022
FFB9
FFBD
0009
FFFD
FFFF
0025
FFEC
0053
0002
FFC7
FFE1
0039
0021
FFF8
FFC6
002A
0013
FFB7
001A
FFF7
FFBE
FFE5
0007
FFDE
FFE6
002D
002F
FFEC
0026
0014
FFDF
002E
0044
003B
004F
004E
0007
004A
0034
0005
FFFA
FFED
FFDD
FFCA
FFCE
0022
FFE5
FFC3
FFE7
0048
0010
0009
003D
0003
FFFD
0007
FFE1
002F
FFE8
004E
0054
0040
FFD1
FFFB
FFC3
FFCC
FFEC
FFCF
0006
FFFB
0051
FFFE
0018
FFF6
0038
FFF1
003C
FFBE
FFF9
0028
FFD7
000F
FFD0
FFC1
FFF4
FFBC
0039
002E
004C
002A
0011
0046
0008
002F
0015
000E
0029
0014
FFF6
FFE0
FFCE
0030
001A
0043
FFDD
0024
0022
FFF1
0005
0043
0014
001B
FFC8
FFC0
002D
FFC1
0048
FFEB
FFEA
0011
0039
004C
FFFC
FFC9
0048
002C
FFC3
0021
FFCB
003E
FFD9
0008
0018
0048
FFDC
0028
FFE0
FFDF
FFEE
000C
FFCC
FFFA
FFD4
FFCF
003B
0004
FFD5
0040
0039
FFFB
004B
FFDB
FFD9
FFC6
0044
FFEB
FFBA
FFDD
FFBF
FFF0
FFC3
FFF1
0032
0050
FFFF
FFE6
0038
003B
FFE3
FFC9
002D
0008
FFE3
0029
000B
0003
002A
FFFC
0037
0040
0031
FFFB
FFE3
FFF0
0025
0031
0043
003C
001E
FFFB
0017
001C
FFFD
0007
002E
FFEA
0048
FFD4
0043
0019
0032
FFF0
0043
0004
FFBA
FFF9
FFD4
FFD7
FFC9
FFBB
0036
FFE7
0008
FFC5
000D
0013
FFF6
0036
FFB1
FFD3
FFD3
003D
FFF7
FFF4
FFB8
FFFE
0000
FFFE
FFE3
001D
FFCF
0000
0036
0000
0013
FFEF
FFCC
FFE4
0010
002D
FFBD
0032
FFBF
003F
FFE7
001F
000E
FFE2
000F
0044
FFF5
FFC4
0020
FFFF
FFBC
FFB7
FFC2
0026
FFD3
FFE8
0036
001A
001B
0012
FFDF
FFE0
0009
FFF6
FFB8
FFC0
0004
FFEC
FFC0
FFC8
FFE8
FFFB
FFE2
001B
0047
FFBC
FFD0
003C
0041
FFCF
002B
FFCE
FFED
FFD3
FFFE
0038
FFD7
FFDB
000C
003F
FFEE
001C
001A
FFCF
001C
0000
0002
FFE2
0011
000B
FFD8
0032
FFDA
FFC9
FFD7
FFBA
FFD9
0045
0024
FFD9
FFFD
FFEB
000B
FFE3
0053
FFC1
0028
002E
0038
0037
0008
FFEE
FFBD
0038
000D
001F
0014
001D
0039
0006
FFB4
0024
0032
0012
FFDC
FFD2
0022
0049
FFD3
FFCB
FFDC
003E
FFEB
0015
FFF8
FFFE
0018
FFCF
FFDF
0026
0002
001B
FFE2
0024
003D
001D
FFCA
000B
001E
003C
003C
000A
FFDA
0036
003E
FFF8
FFC1
001C
0047
FFCE
000B
FFC3
FFFA
FFDC
FFC0
0012
FFFE
001D
FFE7
002B
FFDB
FFCF
002F
FFB5
0034
FFDE
FFF1
0048
004B
FFB7
0024
000A
FFDB
FFFD
0019
0009
FFD2
FFF9
0030
FFC7
0022
FFDA
FFE1
0031
0011
FFCB
FFDF
001A
0037
0034
0042
000D
FFCE
0023
FFF0
FFD8
FFCA
004B
0026
FFD6
FFC0
004A
FFEE
FFF9
FFC2
0044
0007
FFE1
FFF0
FFC1
0009
003F
0019
FFB3
FFCB
0015
FFD6
FFEB
FFC8
FFB4
FFF6
FFC2
003B
FFD4
000F
FFD6
001E
0023
FFE0
000B
0015
FFD7
FFE5
FFBB
0040
0024
003E
0048
FFF0
0029
0003
FFFA
0045
0028
FFE4
FFC7
FFF9
0033
FFE2
FFDA
003D
FFCE
003A
0039
FFE3
FFE9
FFF0
FFC3
000D
003F
FFF5
FFEC
FFDE
000A
0000
0046
0008
FFC2
FFFD
000E
FFC7
002C
0013
002D
0018
0053
FFD5
FFD0
001B
FFF7
0036
0024
003B
FFFB
004D
0019
FFEA
FFC9
0024
0027
FFC9
FFE5
FFBC
002B
FFBD
FFE3
0005
0011
0010
0019
0001
002F
FFB5
FFDB
FFBB
FFDC
004B
FFBA
FFD5
0016
FFC6
0029
FFE0
FFE4
FFFB
FFF6
0004
FFBD
0008
0008
0048
FFBF
0018
FFE0
0042
FFC9
FFC6
0017
FFF3
FFF8
0025
FFD8
FFB8
0046
FFFE
0030
FFE4
FFC8
0031
0050
0025
0040
FFFA
003F
004B
FFC5
0008
FFD6
FFFF
FFCA
0001
0048
003A
FFF6
0036
FFF3
FFBE
0012
FFC2
FFE6
0029
FFCC
FFFA
FFE9
FFE8
0020
FFEF
0019
000C
0037
0048
FFCF
001B
FFE9
FFC5
FFFB
FFD3
FFDA
0049
FFE9
FFEC
FFFA
002A
003D
FFC1
003E
FFD9
FFB8
FFAE
FFCA
0027
003A
0009
FFE6
FFC1
0014
0031
0029
0024
0033
0027
002C
0039
FFD2
FFBE
0011
0003
0033
FFF4
FFE3
0040
FFDC
003F
001A
0010
003F
0037
FFFB
002C
001F
FFF5
FFF8
FFCA
0021
0038
FFF2
FFDA
0044
004D
0049
0006
FFE1
0048
FFD8
0041
0045
FFDC
FFC9
FFDE
FFE5
0005
FFD1
0049
002B
FFCB
0002
001E
FFF0
FFB1
0009
0043
FFBA
0044
0045
FFD8
0041
FFFD
003E
FFE5
0026
000C
FFF7
0039
FFC6
FFFE
FFF6
FFEF
FFC7
FFEF
FFC0
0019
FFDC
FFFA
0001
0004
003F
0027
FFBD
0012
0006
FFFC
003C
FFEA
FFC0
FFCC
0017
0014
003A
004A
002C
FFBF
FFFA
FFDE
0012
0032
FFE3
FFFD
FFF3
FFF7
0008
FFD2
FFBD
FFC9
FFF5
FFF4
0005
FFBC
FFC4
FFDA
FFBA
FFFF
002D
FFCB
0026
0000
001C
000A
003F
FFC9
FFD8
FFB0
0047
0022
0047
FFE4
FFB2
FFC4
002A
0020
000E
FFBC
003D
0013
FFE7
FFB4
FFC8
FFD6
004D
0040
000C
FFE7
FFE6
0020
FFDE
0014
FFCA
0017
FFE8
FFE0
0008
001D
000B
FFE4
0047
0047
FFE7
FFF2
FFC9
FFBF
0027
0040
0011
0032
FFDD
FFE4
0032
FFE0
FFEC
FFF1
FFDC
FFD7
FFF5
FFED
0010
0036
000D
001E
FFC6
0022
FFF2
FFFD
FFE3
0038
002B
001C
FFD9
FFD8
0027
FFE5
0033
0024
FFBB
FFF7
0015
0005
002E
0010
000F
FFD5
FFDB
0000
0028
0001
FFF6
FFCE
0031
FFDE
FFE5
FFE1
FFCA
FFF5
0037
001E
FFBD
0042
0011
FFC6
FFDF
0037
FFF3
FFED
001B
FFC3
FFD3
001A
0050
FFC7
0048
FFF2
0000
FFFC
0013
FFE1
FFE8
0022
000E
003B
FFB6
FFFA
FFFB
0024
0041
FFC4
FFE9
FFB2
FFBD
FFF5
0012
0004
FFEF
0041
000B
002E
FFC1
FFCE
0008
FFE7
0023
0038
0050
FFF1
FFE7
FFC2
FFCA
FFD8
FFFC
0021
0002
0025
003B
004A
FFB9
FFE2
FFC3
FFD8
0003
0011
FFF9
FFE9
0005
0038
FFE8
0020
000C
FFE7
FFE0
0038
0046
000B
FFB4
0026
0028
FFB7
FFE0
0033
000E
FFD4
FFEE
001F
FFE3
0022
0044
001D
000D
0011
FFE1
003D
FFF7
FFE3
0005
0028
FFE4
001A
0020
000A
0004
FFB6
0030
FFCC
0007
FFF2
FFBD
FFB8
0013
000E
0003
0033
FFB4
FFBE
FFE9
FFB8
FFC6
FFBA
0036
0017
000F
0046
FFEB
FFE5
FFC5
FFD2
001A
FFE6
0048
0043
FFF7
FFC4
0031
FFEE
FFD9
FFEF
0022
FFE8
FFB0
001E
FFC7
FFFA
0045
0009
0016
0040
FFDF
FFBD
001B
FFE0
FFBD
FFB8
FFBC
000D
0012
0003
003D
FFB7
FFE7
FFF4
0026
0000
FFD2
FFB5
FFCF
0043
0022
0042
FFF4
FFDC
FFBC
FFE6
FFCE
0012
FFBF
0032
0032
0006
0048
0000
0019
FFD0
FFDB
FFB4
001E
0048
003C
002F
FFFE
FFF7
FFD1
FFDA
002B
FFCD
004F
FFEA
0023
001D
003F
FFB6
0042
0045
0047
FFD5
FFE9
FFFF
FFDC
001F
0036
004A
0038
FFC7
0024
0046
FFE7
FFF4
0001
0003
003E
FFFE
FFC0
004C
FFDB
000C
FFD0
FFDB
FFBD
FFE4
000C
0003
FFEE
0009
001D
003C
FFB6
FFD0
FFBD
FFCB
FFFF
0008
FFFF
FFDB
FFB9
FFC8
0017
002D
FFC7
FFBD
FFF5
FFD1
0003
FFCF
003B
FFE8
FFF3
FFDF
FFC5
0015
FFFC
FFF8
001F
0000
FFFA
0044
FFE0
FFEF
0026
FFEE
FFF0
001B
FFB2
0013
FFF5
004E
003B
001E
FFE7
004B
001D
FFB8
FFF0
0017
002D
002E
002D
0012
FFB8
0030
FFE8
FFC8
FFC0
FFD6
FFF8
FFC8
0022
0007
FFB8
003B
001D
0024
004D
FFC0
000B
0034
FFC3
FFC4
0036
003F
0042
002F
0020
FFBD
FFE2
004C
FFBE
FFD9
FFC6
0027
001A
0014
004A
FFDB
FFD4
002E
FFD9
FFDA
FFD2
0017
0016
002A
FFEA
FFED
003B
003E
0009
000B
0042
FFCE
FFD6
004B
FFDB
FFC0
FFFB
FFC0
FFDC
FFF8
FFF8
0022
0023
FFFD
FFEB
FFC9
0010
0024
FFFD
0015
0006
FFCD
0031
004A
FFFA
FFE3
FFE6
FFE6
0027
FFFE
FFE4
FFD2
FFEE
FFCF
FFD7
FFCD
FFC0
FFB8
FFCE
0019
0044
0017
FFC0
FFE3
FFDB
FFB9
FFDD
FFFD
0019
001D
0008
FFB3
0040
FFB6
0028
FFBE
FFC1
FFB6
003A
001F
FFE9
FFEC
FFCE
FFD4
FFE3
003F
0039
0039
FFE9
001A
001D
003D
001D
FFF7
FFF0
0026
FFB8
0035
003A
FFE2
003A
FFDB
004A
002E
FFB9
002E
0025
0039
0045
0018
FFDB
0049
FFDD
0015
FFB3
FFD1
FFB9
0013
0046
FFBF
FFCA
FFDF
001A
FFCB
FFEE
FFE9
FFD8
FFD7
000A
0042
FFCE
0030
FFC8
FFE5
0031
0005
0036
0030
0029
FFC1
0037
FFF2
FFB5
0047
FFE4
FFBE
0025
0022
FFFF
0021
FFD8
0035
0031
001D
0015
FFC4
003C
0008
FFDD
FFC5
FFE6
0021
FFF6
0040
0014
FFE8
FFD4
0035
FFEC
0033
FFC5
FFBA
FFE9
002E
FFB5
001D
FFEB
FFFB
004A
0000
0002
FFFA
0026
FFCF
FFFC
FFFE
FFD8
FFEB
FFDD
FFD0
FFD0
0027
0019
FFD5
003C
002F
0019
002F
FFC5
001C
0046
0021
001D
0007
FFF9
FFB9
FFEE
0039
0021
004E
FFE0
FFFC
FFC7
000A
FFBA
0034
FFE2
0018
FFF2
FFB9
FFFE
0014
002B
004C
0038
002E
001B
FFBB
0041
0048
0004
003D
FFD1
FFC9
0007
0005
FFE4
FFB8
FFCF
FFD4
FFE9
FFEF
0033
0015
FFD6
FFDD
0014
FFCD
002C
002A
FFE5
FFD4
FFBF
FFD4
FFD3
FFFD
001F
FFD6
0003
FFE0
FFCF
0033
FFFB
0001
001C
FFDD
0020
FFF1
001A
FFDD
004C
0028
FFB8
0016
002E
FFF4
FFB2
001F
FFFC
FFF0
FFE0
0038
FFE0
FFD5
FFE4
0049
0004
000F
FFB6
FFFD
FFC6
0022
0013
0049
FFFB
0017
001A
0038
FFD6
FFC5
FFF5
FFC9
FFD1
FFE3
0000
FFD6
0039
FFF5
FFDB
FFF6
0025
FFE9
FFF6
FFF7
003C
FFBF
001E
FFDF
FFE1
003D
0010
003E
FFCF
FFC9
0046
0047
0048
0023
FFBC
0044
FFCB
FFB4
0044
FFF3
0002
FFE4
000E
0042
0009
003E
0049
003A
FFFD
000C
FFE4
FFFC
FFDC
000F
0031
000C
FFBA
FFE3
FFD7
004C
000B
FFC5
000C
FFC8
001A
001B
0025
003A
FFC8
FFE9
FFE9
FFE7
FFEB
0035
002E
FFF7
001D
FFCB
002A
FFDD
0001
0035
003B
FFD2
003E
FFF5
FFBC
0006
003C
0030
FFC6
FFEC
FFCD
FFFF
FFC6
FFF3
FFDE
0035
FFC4
0049
FFE6
FFE1
003F
FFC1
0027
FFDC
FFEC
FFDC
FFF0
0021
FFEB
FFE7
0034
FFDA
FFC1
FFFE
0035
FFF6
FFED
FFEC
FFCB
FFEA
0008
000E
0017
000E
FFE0
001D
0017
0018
FFC1
0040
FFDE
FFF5
FFDF
003C
001F
000D
0013
FFF4
FFED
FFD8
0000
0004
0044
FFB2
FFD7
FFF5
FFFD
FFC7
FFBD
003E
FFAC
000B
FFB9
004C
FFFB
002E
0043
001A
FFB8
FFDC
000C
FFE0
002F
001B
000D
000C
0044
0011
FFE6
FFBB
FFE3
FFF0
FFFE
0049
FFDF
004B
FFC5
FFB2
FFE1
FFFB
000E
FFB8
FFBE
FFBF
FFC7
FFE3
0030
0003
FFB8
000A
FFE6
FFED
FFDE
FFFE
0026
FFC4
FFD7
000A
000A
FFD7
FFBE
FFCF
FFCE
003C
0011
001F
0029
FFB3
0002
FFE2
FFEF
FFC0
FFC7
FFF9
FFCD
0025
0035
FFBE
0029
0030
FFE9
0032
FFF1
0036
FFF0
0042
FFC6
0039
FFE2
0044
FFC9
002A
FFD5
0041
FFF6
0042
FFF9
0017
FFF4
FFF5
000E
FFE4
002F
0036
0025
FFD1
FFC8
FFF8
FFE9
FFF8
FFBA
FFFA
002E
FFEF
003D
0024
0048
FFD7
003A
FFEC
0022
FFEF
FFD6
0041
FFBE
003E
0025
FFD8
0034
FFDF
FFE2
0033
FFB8
0032
0012
001B
FFD3
FFDC
000C
FFD2
FFD8
000E
0004
FFE5
FFEA
FFC6
FFDE
0047
FFBF
FFD9
0048
FFFF
FFD6
0008
001F
0049
FFFB
FFDD
0034
0014
FFF2
001C
0042
0032
002E
FFCF
FFCD
FFEB
0010
001A
0034
FFBF
002F
FFF5
FFCC
0011
FFE8
0039
0011
0049
0012
0052
0022
002A
FFD1
FFDD
FFB8
FFB9
0027
FFD3
0041
FFBF
FFC0
002D
002C
FFB9
0004
004E
FFB8
FFFD
0031
FFDE
0003
0025
FFE8
FFD3
0028
FFCD
002F
000F
002B
0041
0036
FFDA
FFD0
FFD0
002B
000F
004A
003B
FFE5
FFF8
001C
FFFC
0001
002B
003E
FFDD
FFFD
FFDD
FFF6
0036
004E
0055
001D
0022
FFC8
001C
004D
002C
0040
0030
FFBC
FFCB
002B
FFE1
001B
FFFF
003E
0026
0005
0011
FFD4
FFD0
0011
FFC2
FFFB
FFFD
FFCE
FFDD
0039
0026
004D
FFBC
004B
0030
FFE5
0005
0040
000A
0043
004B
0053
FFB3
002F
FFF4
0011
FFC4
004B
FFCD
FFE4
0007
004B
FFBD
FFF8
0026
002A
0006
0018
0025
0005
FFD5
004E
0034
0042
FFE9
FFE4
002F
FFC3
0050
0051
0023
0030
0019
001A
0051
001B
0041
0013
FFF8
FFFD
FFF7
FFC2
FFE1
0002
FFF6
0000
FFF3
FFBE
001F
0031
FFC7
FFB9
000A
0006
002D
FFD8
FFC1
FFCE
FFB7
FFEB
FFD7
0002
0034
0008
0021
0014
0004
000D
FFCB
FFC0
FFF3
000A
0040
0026
002D
FFE5
002F
000E
FFD7
0053
0049
FFF6
0040
0009
FFC7
0030
0024
FFDD
FFC6
0026
FFC0
0006
0049
002B
FFF7
FFE4
0010
FFCD
0004
FFC2
003D
FFEB
FFEB
0028
0044
FFC3
FFEB
0030
FFC7
FFC1
FFD9
FFC8
0008
FFEA
0048
FFC3
004A
FFDA
0029
FFC6
FFCF
FFFC
0045
FFC7
FFBF
FFE4
FFD7
FFBB
FFEE
0033
004C
FFBD
FFD0
FFD1
FFDD
002A
000F
004C
0046
FFF3
FFCC
0002
FFD9
004B
002D
0002
0004
FFB8
FFFD
FFE5
0018
001C
0052
FFD3
FFBD
003F
0026
0008
FFBD
FFEB
0001
004E
FFFF
000D
0008
0042
004A
FFF6
FFDF
FFF4
0043
FFBF
0000
004A
FFC8
0041
0032
0003
000F
FFC4
0029
FFBE
FFCF
FFE8
FFD4
FFC9
002F
FFD9
002B
002A
FFDB
FFD3
0027
0059
FFCC
000C
0012
FFF2
0039
FFE0
003D
FFDE
0025
0037
0012
FFD3
000B
FFE1
0048
FFDE
003E
003E
FFBE
0016
003D
0034
0021
002A
001F
FFEE
0038
0018
0005
0016
004D
003A
FFE1
FFDF
FFF3
FFC2
0038
FFB7
0029
0002
FFD4
0009
003F
002C
003B
FFFF
0058
FFFD
001C
0015
FFD5
FFE3
003E
000E
0036
FFE8
0016
FFD8
001B
003B
FFF7
0045
0041
0042
002A
0040
FFCC
0046
001C
FFDC
FFDC
000C
0046
FFF0
FFF1
FFEC
FFD9
0027
FFE9
0049
FFE6
0011
FFED
0018
000D
0042
0027
0033
FFF7
0046
FFCE
0020
0004
FFCF
FFD8
FFD3
0030
0040
000F
FFBC
0034
FFFB
0032
FFCE
FFD7
FFC9
0013
004F
0043
0028
0032
000A
003C
FFFF
0018
0029
0004
0012
FFD3
FFF4
002E
0042
FFF6
FFD5
FFD6
FFCE
0035
000C
FFEF
0034
0017
0024
0027
FFCE
003F
FFD9
004B
000B
FFC1
0007
002C
FFBE
FFF1
0039
000C
001B
0018
FFC3
FFDC
002D
003E
004B
FFBA
000D
0030
FFB9
003A
FFE7
FFE2
004A
FFBE
000A
0019
001F
0002
FFDF
FFDF
002D
FFEC
FFF0
001B
0033
0032
FFC1
002F
FFAE
002B
000A
0000
0029
FFCF
0042
FFFB
FFCF
002A
001B
001C
FFE9
FFEA
FFDB
FFF0
0042
FFC0
002B
0019
FFC7
0019
004F
0009
0008
FFD3
FFFE
0023
FFFB
FFC4
003A
FFE4
FFD6
004B
FFBC
FFCA
FFD9
0008
004E
FFF2
0023
FFD7
0055
FFE2
003F
FFF6
0008
0003
FFBD
0022
000E
003E
FFBF
001B
FFCF
FFFD
FFB7
000C
002C
FFC6
0008
FFC8
0044
001C
001D
FFED
001B
FFB8
FFE7
0011
FFBD
001C
0043
FFC4
FFF5
0054
FFF2
003D
004B
0043
003F
FFC6
0028
FFF7
FFDF
FFE7
FFEB
0004
0049
FFCB
FFE4
FFB9
0021
0030
FFEC
FFDC
0020
FFFE
FFF5
FFCC
004F
0031
FFC5
004A
FFDB
FFB9
FFD0
FFC5
0046
0043
FFF7
FFDF
FFE2
FFDD
0039
0010
FFF2
003E
FFB7
FFE1
FFCC
FFB7
0020
0000
FFE9
004A
FFCF
FFCF
0024
FFD4
FFC4
0032
FFCC
FFDA
003C
FFEE
0028
0024
FFE2
002F
000A
FFFB
FFB6
002D
003D
0027
001D
FFE1
FFC5
FFC1
0032
FFCB
FFD5
0002
0032
FFC7
FFDA
FFC3
FFC8
0020
000A
002F
0011
0004
FFDA
FFDB
0031
0001
0048
0035
000B
0047
FFE0
001F
FFCA
0046
0036
0033
FFDF
FFD0
FFE1
003A
001A
FFC2
0044
0009
FFCB
0015
0048
FFBD
FFC3
FFB9
0039
0034
0001
FFC9
0042
FFF6
FFF7
000D
FFDD
003E
FFDD
0020
FFBF
FFEE
FFFA
004C
FFBC
FFF3
002C
FFFE
0032
0012
001C
FFDA
FFE0
0035
0019
0033
0018
FFEC
0038
000E
0026
0004
0043
0045
FFFC
0003
000B
0044
FFBF
FFC6
0020
0015
FFC6
0008
002A
003B
FFE2
002D
FFCD
0009
0025
FFF9
000A
0029
000A
FFC9
000B
000A
0028
0051
0046
FFEC
FFDF
002A
FFFC
0002
0022
0053
0000
FFEA
002D
0033
001E
0022
FFE0
FFEB
FFDA
FFE0
FFF4
FFFB
0010
FFBA
FFFF
0001
FFC6
0005
004F
FFC5
003A
001C
003A
FFE2
001D
0046
FFDC
001F
FFF7
0035
004F
FFF0
0043
004F
FFD6
0046
001B
FFFA
004F
FFC8
0005
004F
FFC8
002C
0020
FFEA
0029
0031
0053
0040
0022
0006
FFF2
004B
001D
FFEB
FFDD
0030
FFF4
FFBD
0014
0058
FFF1
FFC1
0006
0034
FFDF
0039
FFF1
0005
0052
0040
001B
0032
0009
FFEC
FFF6
FFEE
003C
0007
004C
0045
FFDE
001B
FFDF
FFE3
004B
FFEA
0019
0050
FFBF
0045
FFF3
FFC4
000C
002C
001A
0021
001A
0046
000E
FFBC
0050
0002
FFFF
FFD0
0020
FFDA
FFF6
FFD6
0041
003C
0028
FFCA
0004
FFE9
001E
FFD9
0036
0011
FFCB
0026
0029
FFCC
FFE8
0040
002B
0011
0010
0035
0050
0023
0020
0013
0014
FFE2
003B
FFBF
0033
004D
001B
0014
FFB7
FFD6
FFEC
004A
0022
0002
0017
001C
FFF3
0033
FFD9
FFC9
001D
0022
FFEC
0038
FFCF
0015
001D
FFD4
0001
0029
004A
FFD6
003D
0048
0017
0021
004E
0054
0016
0041
FFF0
0019
FFC3
0036
0030
0029
0032
FFC2
FFEA
FFBE
0045
0045
FFCE
0002
001D
004B
0000
0059
FFD7
001C
0030
0018
0009
FFCE
003B
0001
FFFE
FFE6
0001
0045
0048
003D
0037
0048
001B
0049
0012
FFC0
FFC5
000F
FFF8
FFDA
FFF6
0037
FFD6
0052
FFFC
FFF9
FFF5
003B
0047
FFF1
002A
FFD5
FFFB
FFF2
0052
FFC8
0036
002B
002D
FFEB
FFFE
FFC6
FFDC
001B
FFEC
FFF5
FFC8
002A
0043
FFDE
0052
FFCC
0023
0039
002D
FFF9
003C
0006
0008
FFF0
FFE2
0038
0035
FFC0
FFD8
FFE4
FFF3
FFE2
FFCB
001F
002C
0031
001A
FFCE
FFDA
0047
FFEA
0014
001E
0050
003F
FFC6
FFD9
0020
FFC6
FFC5
FFF5
000B
FFC5
FFE3
0039
FFD9
FFC4
0005
0027
0009
FFD6
003A
0011
000B
0011
001B
FFB8
FFE2
003F
FFC4
FFCE
0016
FFF1
003D
003B
FFD1
FFD3
003D
0020
FFCC
FFC7
003A
0036
FFD2
FFD7
FFD8
FFDA
0000
003F
0006
FFE9
FFED
FFF8
002D
FFBD
FFDC
FFF1
003B
000C
FFC7
FFC5
FFE4
FFE7
FFFA
FFE7
001D
FFD5
0038
0048
FFC4
001D
0058
FFE7
003E
0012
0045
0049
0018
000F
0016
FFF9
FFF2
0005
0033
0009
000E
FFFD
0002
0019
FFD3
0057
FFEB
0000
FFFC
FFD7
FFCF
004A
0001
FFE7
003F
0035
0043
000B
FFC4
0014
FFE8
FFBC
FFCA
0048
003B
0033
FFE3
FFF4
0015
FFE8
FFFA
FFD2
FFD5
FFCE
0029
0001
0049
FFDB
FFC0
002C
FFC8
002F
0006
FFDA
0004
002A
FFD0
FFD4
FFE5
FFD3
0032
FFDE
001B
0008
0037
FFC7
FFC2
000C
FFFE
FFC2
0044
FFE0
FFDA
FFDE
0049
FFC2
FFC0
0025
FFCB
004E
0021
FFD7
FFC6
003D
0036
FFC0
000C
0019
FFCA
0036
0039
FFC9
0005
FFFE
001C
FFB9
0004
0035
FFE6
FFE3
FFC2
FFD5
FFD2
0009
0014
FFF0
0034
003D
FFCD
0035
000D
0047
0038
0000
FFCE
0011
002F
0051
FFEB
0030
0003
0037
005A
0010
FFDA
FFE4
FFF1
FFC4
004C
FFC2
FFF7
FFF4
FFFC
FFFF
0032
0041
0049
001B
0030
0036
FFDD
FFFC
000D
FFCE
FFE5
0039
0001
FFB8
FFF6
003F
0050
000A
FFED
0021
001E
FFFE
FFCA
004E
0034
0042
0001
0058
0042
0034
FFF0
0033
004B
0021
0048
000C
FFBE
0030
000B
0042
0035
0005
0002
0049
FFFB
FFF1
FFD3
FFC8
004B
0010
FFEB
FFC7
FFD1
001C
0029
004F
FFEE
001A
FFE2
003D
FFFE
FFEC
FFCE
FFC7
FFD6
FFCB
000A
0022
003C
000B
0022
0024
FFE0
004C
FFF9
FFF4
0011
FFF8
0007
FFE4
0031
FFF1
0006
FFD2
FFDA
003B
0026
0041
FFDE
001F
FFD2
000E
0025
FFFC
000A
001A
FFC0
FFC5
0051
0027
FFC7
0023
FFDE
0031
0034
0042
FFD9
0024
0038
0021
0014
0052
0035
FFF9
FFEE
0005
FFE9
FFBD
0015
003A
FFDE
FFC8
FFFB
0041
003A
0050
000A
FFFD
FFE6
0046
0033
FFFE
FFCB
0052
004E
FFC4
FFF8
0032
003C
0006
FFD7
0043
0032
FFD2
FFF6
FFDB
FFD9
FFC2
0031
0002
FFE9
0041
FFD0
0003
0049
FFF7
0003
FFF2
0004
0049
0039
004C
FFD4
FFC3
0049
002B
000F
FFFF
000B
0049
0055
0052
001E
FFEB
003A
0028
002D
FFF5
0029
FFF2
004A
FFCE
FFEA
0011
001B
FFDF
003F
FFD2
003D
0009
002E
FFD5
FFE6
001D
0017
0049
FFD0
FFBB
FFFB
0052
0023
000E
FFDC
FFEE
004D
FFFB
0028
FFBE
FFF0
FFC2
FFD2
FFC4
0001
0050
FFD6
0041
FFFC
0027
FFE8
0018
001E
FFFA
0052
0033
003D
FFFD
0000
FFFC
0012
FFFF
FFCD
FFD4
FFFB
001D
0017
0005
001E
FFE4
FFF9
FFC8
000A
0050
FFF5
000E
0019
000A
003D
0047
FFD9
FFC2
003B
FFFB
0034
0028
FFD7
0042
0032
FFE3
0051
0037
000B
004B
FFE9
001F
FFB3
FFDD
FFDD
FFC5
FFFF
0019
0002
FFA2
0000
FFA5
FFA5
FFA2
002D
FFA3
FFCE
FFA2
000E
FFB1
0008
FFBD
0033
0008
0030
0022
FFE8
0000
FFBB
FFDE
000B
FFD5
FF9C
0031
000C
FFB4
FF9A
0021
FF99
001B
FFF0
FFCC
FFBA
0017
0029
002D
0031
FFDC
FF9E
FFE9
000C
FFD2
FFEB
FFFC
FFC6
0005
FFCD
FFC9
FFFB
FFEA
FFDE
FF98
002C
FFFF
0008
FFAE
FFAF
FFCC
001B
FFA8
FFF0
0007
0019
FFA5
FFED
FFEA
FFA9
FFBC
002A
FFEE
FFFB
FFE3
FFCA
FFB5
001A
FFD8
000D
FFC2
0005
002C
FFD8
FFEF
FFD6
FFE1
FFFC
FFBF
FFA1
FF9E
FFD3
0022
FFC9
0016
FFD3
FFE7
0027
FFEC
0018
FFA3
FFC6
FFD6
FFFE
FFAD
0002
FFF7
FFE2
FFF1
0032
FFCE
0014
0019
FFB0
0013
FFF8
FFD7
FFEC
FFFC
0027
FFA9
0014
0013
0000
FFEC
001F
FFB6
FFD5
FFD4
002D
FFE1
FFBB
FFBE
FFF8
001D
FFF7
FFFC
FFA6
FFDC
FFB0
FFA1
FFBF
FFDD
FFDF
FFA2
FFEF
FFA0
FFFB
FFC7
FFFB
001F
FFA1
0024
FFC6
FFB5
FFCD
0017
FFA6
FFFF
FFCF
FFC3
FFFE
FFF0
0020
FFF3
002B
FFCA
FFA5
FFA1
FF9F
0025
000B
0033
FFF6
0029
0024
FFD4
FFA9
FFF5
FFCA
FFF9
FFD0
0002
001D
FFC3
FFE9
0040
003D
0003
FFB8
FFB4
FFF2
FFA3
0027
001B
FFDC
FFDA
FFCE
001E
0034
0018
FFC7
FFC9
001A
FFFD
FFE3
FFAD
FFCC
FFC7
0017
FFB0
FFEB
0037
FFD4
FFB3
FFE9
0017
FFDA
FFA9
FFCB
FFE5
FFA3
FFE3
FFD6
FFCB
FFBB
0012
FFE2
FFCF
001C
FFE8
000A
FFDA
0007
0030
FFA6
FFBB
FFF9
0020
FFFA
FFB1
002A
0014
FFF4
FFAB
FFBE
FFE8
0003
FFCC
FFE6
002D
FFA9
0026
FFD7
FFC3
FFD7
FFF7
0032
FFC4
FFE7
FFF9
FFAE
FFBA
FFC8
FFE7
FFD2
FFED
0005
FFB7
FFAC
FFEF
FFA6
FFAA
0032
0003
FF9F
FFCB
FFA7
0027
FFC8
FF9D
FFA0
FFDF
FFDE
FFEC
FFC2
FFB3
FFFC
FFEA
0020
0009
FFD9
0006
FFDC
FFB6
FFE7
FFD1
FFE6
FFE4
FFE9
FFE2
FFDD
FFF2
FFDC
0009
FFF3
0027
FFA9
FFD5
FFE3
FFB5
001E
FFF9
FFAC
0025
FFD5
FFBA
FFF6
000D
FFF4
FFE2
0031
001A
000D
FFDF
FFF7
002E
0016
FFE9
FFB7
FFBD
0020
FFBD
FFFC
FFD8
FFA0
FFFA
001B
FFDC
FFE0
FFD5
FFEC
FFFE
002D
0024
FFF6
FFC5
0003
FFF8
002E
FFBA
0032
FFE3
FFF4
0030
001A
FFB8
002B
001B
FFB7
FFB6
FFC0
0018
FFE2
FFAC
FFA8
FFD1
FFFB
0012
FFC5
0001
FFCF
FFBB
0000
FFB4
FFEE
0005
0027
FFF0
FFAD
FFF5
FFC2
FFF0
0026
FFC2
0017
FFCE
FFD4
FFDB
FFF9
000B
FFD0
FFC0
0023
FFB5
0011
FFB5
FFBD
0003
0026
FFA0
FFD0
0021
FFFE
0036
FFEB
002F
FFBC
001D
FFCB
000D
FFAD
001F
FF9F
FFB3
FFA7
FFB0
FFFB
0008
0028
FFD4
0014
FFE3
FFFC
FFE4
000C
FFA7
002D
0031
FFD8
FFE6
FFFB
001B
0026
0013
0018
0013
FFD0
FFB2
002C
FFFC
FFAB
FFCD
0025
FFEA
0002
FFF0
0003
0025
0017
0014
FFD9
FFD5
FFC3
FFD6
0019
FFCC
FFA2
FFDB
FFB0
FFDE
FFEB
0031
000B
0022
FFF5
0039
0027
FFBD
0008
FFBB
0025
FFFC
FFA9
FFEE
FFF3
0006
FFA4
FFDA
FFDB
FFD0
FFF7
002E
0009
FFE4
0021
FFDC
FFAB
002E
FFDA
0010
FFEA
FFCA
FFD3
0028
001B
FFF6
FFE8
0004
FFC3
FFE1
FFDB
FFE9
FFE8
0002
FFA2
0022
FFD6
FFB5
FFD3
0017
0019
FFB8
FFDD
0003
FFF1
0006
FFBD
FFD3
0033
FFE7
0011
FFF1
001C
FFCC
FFF3
FF9C
FFA5
002A
FFFF
FFA0
FFE3
0011
0002
0017
000F
0018
FFBC
FFA5
FFD1
0034
0018
FFEB
000B
FFE9
FFDB
FFAA
FFB8
0020
0024
0027
FFEA
001B
FFBB
000C
FFAB
FFE4
0023
0007
FFD9
FF9B
FFB0
FFE3
000D
FFBD
FFF1
FFA2
FFD1
0018
FFEC
0012
FFE5
0019
FFD2
002B
FFBB
FFC9
FFFA
FFD4
0027
FFD1
FFE4
FF9D
FFC0
FFA6
0000
0022
FFE6
FFFA
FFC6
FFCB
FFFB
FFD8
FFA9
FFE5
FFD8
FFE5
FFB7
FFC9
0017
FFB0
0016
FFBD
FFC8
FFF4
FFFC
0027
FFC9
FFB6
FFB0
FFC3
FFB7
FFE5
FFEF
0021
FFA9
FFEE
002D
0003
FFB4
001C
FFFF
002F
0017
FFAB
FFF4
0029
FFFA
FFF2
FFEF
FFD1
FFC3
0017
000E
FFDD
FFBE
FFD5
FFB4
FFAE
FFC2
FFA9
0012
FFB1
FFD1
FF9A
002C
FFF0
FFBA
FFA9
FFA6
0003
002C
0039
FFF2
FFEB
FFAA
FFCC
0014
0016
000C
0006
FFBA
0044
000E
FFE4
FFA1
0025
000A
FFC0
FFC4
FFA7
FFD3
FFD1
FFE6
FFD7
FFB2
0007
0026
FF9F
FFE4
FFE8
0018
002E
0003
FFC7
003E
0008
FFFF
0031
0005
FFD8
FFB1
FFD1
FFE6
FFDF
0009
FFEC
FFF7
0004
FFFC
FFA9
FFE6
FFB2
FF98
FFE0
FFDD
FFD6
FFAD
FFBE
FFF1
FFCF
FFEF
FFBD
FFFD
0006
FFFC
FFC3
FFE1
0030
FFC4
FFD9
0002
0014
FFAE
FFE8
FFAD
FFFF
FFE1
001D
FFC7
FFE9
FFBD
FFEE
0025
FFB2
0015
FFE1
FFD1
0034
0016
FFBD
FFC6
0024
FFCD
FFF5
FFD7
FFE9
003E
FFC3
FFCF
0008
0017
FFF8
FFE7
FFAE
FFE7
FFC5
FFCF
FFB8
FFC4
FFB6
0007
0022
0032
001A
FFFD
FFCE
0012
FFED
001E
0029
0033
FFCF
002E
001D
000C
FFCD
FFDF
0005
FFDC
0050
0013
0001
FFC1
FFEC
FFD9
003B
FFB9
000A
FFB7
FFF7
002D
FFE0
004A
001D
001A
0045
001F
0022
FFD9
004A
FFED
0051
0020
0043
FFBD
004D
0049
FFC0
FFC2
FFDF
FFD3
FFDF
0005
0043
FFB9
FFC5
FFB8
001A
FFDD
FFFC
0001
0006
0001
FFE1
003D
0031
FFC6
002A
0021
0047
FFE0
0003
000E
0002
0013
FFCA
0029
0043
0009
0000
FFE2
001E
0024
FFB7
FFE8
FFEC
0041
003A
FFD7
000D
FFFC
0031
FFE6
FFDF
0011
001A
FFFA
FFD6
0027
FFC8
FFFC
FFE6
0049
FFDE
FFE0
FFD9
FFF9
FFD1
0039
000C
FFDE
0008
000E
003F
004B
FFF7
003A
002E
0046
004E
FFCB
FFCE
0001
004D
FFCB
FFEE
FFF3
0050
FFC7
0023
FFBC
FFEC
FFEB
0049
0025
FFD4
0014
FFD5
0020
000C
0049
FFD1
0009
0030
FFCD
0020
FFDE
0018
FFE7
0008
FFF0
003E
FFDC
FFE0
001F
001F
FFCD
FFF4
0021
0040
FFFF
FFBD
FFBD
0027
FFC0
FFD5
FFF1
0013
0027
0002
0046
0040
FFEE
001E
0031
0000
004A
FFD6
003E
001B
0048
0021
0006
FFF4
0023
003C
004B
0015
0018
0020
0045
FFE6
FFFF
FFC0
0034
0036
FFF1
FFFE
0043
FFE1
0049
001B
000E
004B
003A
FFDF
FFEC
FFD0
002B
0045
0022
001D
FFC5
FFEF
FFF7
FFEB
000A
001C
FFC7
0038
FFF9
0037
0046
001D
0019
FFF6
0034
FFDB
002D
000F
FFCE
0003
FFC5
FFFE
FFC5
FFC6
FFEB
FFDF
0003
002F
0046
FFBA
FFC2
0013
FFF8
0027
0012
0049
001C
0004
FFE7
FFB8
FFC4
0004
0011
FFC9
004C
FFD5
0029
FFD2
002E
001F
004E
FFDC
001D
FFDB
FFE3
0005
FFC7
FFC2
002A
000F
FFD3
0011
FFE7
FFCD
0019
FFCD
FFD1
FFB8
0027
003B
0055
001D
FFF3
FFF8
0036
004B
0001
FFF0
FFB9
0030
002A
003D
FFD6
FFF0
002A
FFDC
FFE1
0047
FFBF
FFC1
0010
002D
0035
FFB7
FFB5
FFEC
FFFF
FFCF
FFE2
FFDF
FFEA
FFD9
0023
FFD1
001D
000D
FFE9
FFEC
0021
FFD4
FFB9
0009
0021
002C
FFDB
0029
FFCD
001A
FFBF
004D
FFBC
FFE0
0034
FFDF
0037
FFB6
FFC8
FFEF
FFF2
0026
FFD1
FFBE
0053
0019
0049
FFF0
FFC2
FFE6
0054
FFC3
0043
FFDB
FFC9
FFD1
FFCC
FFFA
001E
001B
FFDA
FFDF
FFBE
000B
FFE0
001E
FFDC
0003
004D
FFCB
0047
0004
FFFE
FFF7
0018
FFC1
004C
FFD4
002A
000D
002C
FFEE
FFE1
0011
0037
FFE5
FFC2
002A
0011
002B
0029
0022
FFDB
FFF1
000A
FFF5
0036
0022
002A
FFD6
003C
0001
0042
FFD2
FFC9
FFC6
FFD3
FFD4
0047
0015
002B
004D
FFC7
003C
FFEE
002E
FFF6
FFC4
FFFE
FFDD
FFCA
FFED
0039
0051
FFC9
FFF2
FFE0
0003
004B
001F
0048
FFCD
004A
003E
FFE3
0010
FFEF
0036
0000
FFFF
FFB5
0048
FFE9
0007
FFF6
FFF9
FFD4
0015
0009
0038
0036
0029
FFC4
0009
001D
0039
FFE6
0047
0005
004B
0025
0028
0017
001A
0027
002E
0015
002E
0034
FFED
001C
002E
FFC0
0021
0000
001F
FFFF
0040
0009
0018
001B
0011
0016
FFF7
0000
FFCE
0011
FFEF
FFFC
FFC7
0010
FFC6
FFE5
001E
0014
0048
002A
003E
0003
FFB5
FFCB
FFD6
FFFE
0032
FFDB
003F
000B
FFDC
003D
FFF0
0054
FFE1
FFDE
0044
FFCF
000E
003D
FFF3
FFC5
0015
FFB8
FFF0
0040
000C
001D
FFD8
FFD2
FFF6
0036
FFCB
004F
000B
FFEB
FFF2
FFEE
FFC5
FFF4
0004
0020
0015
0019
FFEF
004F
FFC6
0009
FFBB
FFCD
FFD6
FFC7
FFFB
FFD9
0015
0004
FFEA
003B
0027
0029
FFFC
FFEB
FFC7
0030
0000
0002
003E
002C
FFC9
0037
0028
FFC4
0038
0033
FFCD
FFE9
002D
0015
0019
0027
FFE8
FFD2
0043
FFC0
0017
001A
FFF8
003F
FFFD
FFD7
FFD6
0039
FFC7
0005
FFBC
FFE4
FFDF
FFF5
0026
0034
004F
0034
FFE1
FFDD
001D
0028
FFD0
0032
FFE8
0039
FFF7
003D
004D
FFF8
FFD6
0005
002D
FFFF
FFDB
0010
FFF2
FFE2
FFF8
FFDD
FFDC
001B
FFEE
FFCE
0031
004C
0051
0035
002E
FFC8
FFCB
FFE9
FFF4
0008
FFF2
004B
FFCC
FFD9
0036
004A
FFE3
FFCE
FFCE
0028
0057
FFF2
0040
FFE2
0054
002D
001E
0037
FFEE
003C
0012
FFF5
FFCE
0005
FFF5
FFB7
0046
FFCB
FFEA
0045
FFF1
001D
0016
0021
0018
0047
0046
FFBC
002A
003E
FFF0
0001
002E
003A
FFF8
FFF8
FFCD
004F
000A
FFBE
FFEE
0044
0000
002D
000B
0043
0031
FFF5
FFFC
FFE5
0015
FFC9
000A
FFF2
FFEC
000A
FFB6
004A
FFD7
0042
FFE4
001B
0034
FFED
FFC0
FFFB
FFFD
0018
0030
0001
0002
0037
FFE2
0035
FFC0
0040
000B
0002
001E
000D
0027
FFBF
FFFB
0006
0046
0009
FFBB
FFD1
000C
0039
FFB8
0041
0018
FFE9
FFC9
FFF0
0041
0028
001B
0022
0020
FFDA
0008
FFB5
FFF9
FFEF
FFD5
FFBC
FFC3
FFFC
000A
003E
0031
0007
0049
0009
0002
FFDF
0033
0000
FFE2
FFF4
003F
FFFD
FFE6
000D
0024
0035
FFCD
0018
FFDA
0041
FFBA
FFF7
FFC8
FFBB
003E
0005
FFF0
FFE1
000B
004C
0028
0008
0039
FFBD
002F
FFBC
002E
FFE7
FFFB
0038
0017
0045
0010
0016
003E
FFE1
004D
004A
FFB6
FFF0
0047
0003
FFE0
FFE3
0006
FFEE
FFD0
002F
0011
FFCA
FFBD
FFFD
002D
0000
000F
003E
0034
0026
0009
FFF6
0050
001D
FFDB
FFCF
0044
002B
FFB4
002D
001B
000B
FFC6
002A
000E
000F
0050
0056
000E
000D
0024
0034
FFF5
FFBD
FFCD
0048
0032
0000
FFFC
0000
FFEB
0016
004F
FFCA
FFDA
FFBA
FFB2
000E
FFC4
004F
0024
FFEF
FFC1
FFF3
004B
FFEB
0018
0009
FFCC
FFBE
0020
001F
0043
FFD5
000C
0052
0044
FFCB
FFE2
0026
000B
FFDB
FFD6
FFC4
FFED
FFE8
0046
FFDA
FFC3
0008
0018
003E
FFE7
003D
0036
0041
FFB8
FFCB
FFE9
FFF2
001D
000F
0017
FFF5
000D
0026
FFBD
FFBC
0004
002B
FFB5
0009
0034
FFD3
FFB6
002D
0000
FFC6
0046
001C
FFE7
0032
FFEF
0016
000E
FFC3
0036
002B
0051
0003
FFDD
004C
004C
0048
FFFD
FFB1
FFEA
003F
0040
0018
FFB2
004A
FFFC
001D
0005
FFD7
004D
FFCB
FFE7
001D
FFC1
FFCC
FFC6
0048
004B
001C
000D
000D
004C
0023
0019
FFF1
FFCC
0017
FFE2
FFCE
FFCF
FFCB
000E
FFD3
FFBE
FFF8
0001
0003
0035
0022
0003
0012
004C
FFCB
0011
FFD1
000B
0027
0013
0046
FFFC
0003
003B
FFE7
004A
000C
FFF3
001C
0044
0004
FFB4
002F
003F
0050
FFCB
000B
0015
FFE4
0048
FFE9
FFC2
0020
FFE2
FFD5
FFDF
004D
004F
FFC9
0021
FFF0
FFCE
0011
FFCC
0047
0038
FFBA
FFDE
FFFA
FFD5
FFFA
FFCE
FFEF
FFB7
0007
FFB5
FFF8
FFD5
FFF1
0037
FFF1
FFC2
FFFC
FFC3
FFDA
FFC1
FFDE
002A
FFE7
0008
FFC2
0005
0032
FFFD
002F
002D
FFE3
0031
FFD9
0009
FFDF
0042
FFC3
001F
FFE7
0048
003D
0039
FFC6
0012
FFE7
004A
0042
0049
0035
0040
FFE8
FFE1
FFEA
FFCE
0025
0048
000F
FFF7
FFE2
0005
FFB0
0028
FFE1
FFF2
001F
0037
FFBB
002E
FFE4
FFC2
0013
FFF6
0030
FFFD
FFC9
FFDF
0007
0022
0050
0032
0049
000E
FFDB
0040
0030
FFCB
0010
0005
002A
0003
FFF5
0044
FFC7
0033
001E
0041
000C
FFC1
FFEE
FFD0
FFF9
0016
0012
FFD6
0006
0016
0030
FFF1
FFFC
FFD1
FFF5
FFDA
0015
0041
0047
FFC0
0021
0019
0050
FFE1
003D
000E
0031
FFCE
FFDA
FFD3
004A
002A
0043
004E
0001
FFED
0017
FFB8
FFD4
004E
FFF1
FFC2
FFF7
001D
FFE5
FFE1
0017
000B
FFBB
0015
0014
000A
FFF8
0025
FFC7
001C
FFBA
FFD2
003F
0025
0038
0021
0021
FFD5
FFFE
FFE4
0034
0015
000B
FFFB
FFBE
002E
0041
FFC4
FFD5
FFFF
FFD1
FFE3
FFDA
002E
FFD0
0053
0038
0045
000A
002D
0007
004E
FFC2
FFC1
003D
002B
0041
0046
0030
0024
FFED
FFBE
FFE4
FFE4
FFCE
0007
FFE2
001B
FFC4
0021
FFD7
0019
0010
0019
FFF4
004B
0009
003F
0031
0017
FFCE
FFF6
004D
FFCE
004A
0000
0040
0022
FFE7
0014
0037
0041
FFCE
0042
FFC7
0026
0000
004E
FFEE
0035
000A
002E
FFF5
0013
004A
0000
FFD2
0023
FFCF
FFF9
FFF5
0027
FFD4
FFF4
0004
FFFD
0030
FFF5
FFC3
0009
001B
0003
FFE6
FFC5
FFFB
003E
0002
0002
0037
FFCE
004F
FFD5
FFC3
FFF2
004F
FFBB
004B
003C
FFC5
0026
FFED
FFE6
FFB6
0007
FFB6
FFEE
000F
000B
FFFC
000F
FFEE
0011
FFF2
FFD4
0023
0020
0003
FFEC
0011
002D
FFD9
FFF3
FFCF
FFE6
FFD8
0039
FFC3
FFE2
0000
FFFA
FFCC
0033
FFE9
FFCE
0022
FFE5
FFEB
FFCC
FFB4
FFDF
FFF6
0000
000E
FFB9
FFCD
0034
0004
003A
FFD5
FFC5
0048
FFCF
FFDE
0028
FFFB
003B
0034
FFE6
FFF2
004E
0001
FFF1
0017
FFBB
FFB6
FFEB
FFD2
FFE2
FFF4
FFD0
FFE4
0000
FFCE
002F
0010
FFD2
0016
001B
002D
002E
0020
000F
0005
FFF3
0020
0012
FFC0
000D
0013
001F
FFE3
FFC5
FFD8
FFE1
002B
FFFC
000C
FFD2
FFC7
FFD8
FFEA
0049
FFF4
FFE0
FFE3
FFD2
FFD6
FFE7
FFE9
FFDC
FFEB
FFF3
FFCE
FFF6
FFFB
FFFF
0005
0035
FFB7
001F
FFEC
001E
FFF6
004A
0000
FFFA
FFF8
0048
0037
0050
FFDB
FFEE
0004
FFCE
0049
0044
000A
FFE0
0019
0023
003F
002A
000A
FFF7
004C
0010
FFF9
FFF0
0039
FFCC
FFF1
0045
003C
FFD8
0014
FFF7
FFF9
0007
FFD1
0007
FFC0
001F
0017
FFD3
FFF6
FFBB
FFD2
FFF8
FFD4
FFBA
FFD5
0017
0042
0046
001B
FFB3
0045
003E
0009
FFC4
FFEF
0042
0041
FFBA
0003
0032
0022
FFBF
0027
0047
0014
0044
003D
FFD5
000B
0049
000F
FFDB
FFCA
0044
FFC7
FFC1
FFDC
FFD7
001C
0019
0026
FFF0
FFF4
002A
FFF7
0020
0001
000D
FFCA
FFCE
0001
FFF1
002F
001B
000C
0044
FFD8
FFFF
0034
0007
004F
0029
0042
0008
0036
FFE4
FFE3
0039
FFEC
0012
003A
FFFD
0001
0026
001C
0045
FFB4
FFE0
0026
002E
FFFB
000A
0015
002B
0045
003E
FFCD
FFD8
001E
0034
FFEE
0040
FFC4
FFDB
FFD3
FFF4
FFDB
0002
0043
004F
004C
FFF8
0023
002B
FFB7
FFEB
001A
0001
FFDA
001F
0011
0016
FFC1
FFBF
FFBF
FFDA
0016
0000
FFB8
FFEA
0047
FFE2
FFE8
FFD8
0003
0005
0023
0029
0037
FFE9
FFD5
FFDC
0022
0011
FFCB
003D
0017
0031
0007
002C
FFDB
0003
FFCE
0026
FFF7
FFBD
003A
0019
0014
FFF3
002D
FFBB
FFF9
0001
0035
FFF9
0038
0028
FFB8
0025
FFEF
FFC6
FFCD
0021
FFB2
0016
002F
0051
FFFC
FFCC
0028
FFFC
FFC3
0035
FFD5
FFDD
FFF4
FFCD
FFBF
0050
FFBD
0028
FFC5
0029
FFD4
FFB9
0042
FFFC
0043
0023
001A
0032
0002
0018
0054
FFDF
003D
0031
001F
FFE4
FFD5
FFF6
0007
0048
0018
004D
0044
FFDC
FFD7
FFD0
FFBD
FFB6
0045
0033
0020
003B
FFDE
FFD1
0035
0050
002A
FFDF
FFD0
FFCA
000A
FFBD
FFF3
FFCB
FFCF
FFC2
FFC9
FFCE
002C
FFF4
0000
FFFB
FFD2
003A
0020
000A
0006
FFC0
0013
0037
FFE7
0032
FFF6
003B
FFF4
001E
FFDB
FFFE
0047
FFD1
FFDA
0026
0046
FFDD
0024
0003
000A
0032
000C
FFFC
FFDC
0042
0012
FFC9
FFEE
0040
FFC4
0050
0021
0017
000E
0019
001A
002F
FFDE
0026
002E
004A
FFCA
0029
FFEC
0031
FFE1
FFC1
FFD3
FFB6
FFF3
0036
002D
FFE6
FFE1
FFDE
000E
FFC8
FFBA
FFFC
FFF0
0001
FFEC
FFF7
FFB0
001C
004A
0007
FFFA
002C
0050
0035
FFC5
003E
003F
0013
FFB8
FFE7
FFC8
FFE6
FFE1
FFF9
002B
0000
002D
FFBB
000A
0017
001E
0025
0043
003A
0011
FFE7
001A
FFF1
FFF2
FFBC
0030
0037
FFD9
003B
0011
004F
0025
0030
FFF4
0003
FFD4
FFF3
0026
FFBC
FFFA
001E
FFE6
0013
FFC4
0018
004A
0017
0038
0030
FFBA
0047
0024
0029
0040
FFB6
004C
FFF1
FFF9
FFBE
FFF8
FFB8
FFE4
FFD0
FFDA
FFBD
FFC5
0032
FFC5
0049
002F
FFCC
FFF9
0004
0024
000C
FFFF
FFC0
0046
0029
FFD5
0009
0035
FFF1
001B
FFBE
FFCF
FFF1
FFD7
FFDA
0030
FFDB
0033
0025
000D
FFB5
FFEE
FFC8
0022
0029
001D
FFF3
002A
0031
0009
0022
002E
0034
0055
FFE0
FFC4
004F
FFF0
0022
003E
0059
0011
FFC8
0038
FFE6
FFC3
FFD9
000E
FFFF
FFBE
0017
0006
FFC0
FFDD
0049
FFEA
0034
0039
FFDD
0010
FFDB
004D
FFDE
0032
0023
FFB4
FFF5
0018
FFCD
FFF5
FFD3
FFF9
002C
0017
FFF7
001B
001C
0014
0006
003C
FFC1
0052
004B
FFFE
0037
002E
0012
0011
0005
003B
FFCA
FFC2
0050
000D
FFF2
001F
FFCC
FFDB
003D
FFBF
004B
0000
FFF1
0048
FFCF
FFD1
0000
FFD7
004F
FFDD
0005
FFE3
000B
0005
0010
0003
0017
0036
FFBF
FFDD
0046
004D
0028
FFF6
0000
FFE8
0047
0034
0001
FFD2
0005
FFFE
FFC9
FFCE
0017
FFE9
003F
003D
0021
0032
0037
0048
0041
FFD5
0002
000A
FFF9
FFC4
FFEC
0023
003B
000A
0040
FFD8
FFD6
FFB9
FFE4
0038
FFF0
001C
FFEB
0036
003F
FFCC
004A
FFC9
0027
0005
FFC8
000D
FFC5
0010
0015
0032
0012
000A
FFF4
FFB8
0038
FFBE
0057
003B
FFF3
FFB9
FFF7
0013
0004
FFFA
0052
FFC9
FFF6
FFD6
FFFD
001E
FFDC
0024
003F
FFDB
FFBB
0035
FFFA
0025
0045
FFD2
FFE3
0037
FFD6
FFF4
0001
001D
0035
FFB0
FFC7
0026
FFEA
FFBE
FFC9
FFC4
002C
FFC5
0024
000A
FFF6
FFCA
0044
0025
FFF0
FFEA
FFF4
FFC3
0001
000A
0040
FFE8
0057
0051
FFE8
0037
FFDD
0017
0037
FFDC
002C
0030
FFE5
FFBE
FFF7
0002
FFDA
0039
0027
FFFB
0013
FFCE
FFE1
FFEA
002B
FFBD
0050
0003
003F
FFDD
0055
FFD7
FFFF
001E
003E
FFBE
0039
0041
002F
003C
FFEE
0000
0012
FFFB
0043
FFBC
0010
0045
FFC8
001F
FFC9
FFC0
FFFD
FFF6
FFD8
000D
0020
002A
FFEC
FFD6
0046
FFEC
FFCF
FFB5
FFD8
0010
FFF5
FFCD
0033
0006
FFFF
0033
FFF6
0049
0017
FFE2
FFE0
FFDB
0033
FFCB
0017
004A
FFDB
000A
FFE4
0005
0005
FFC0
FFF8
0017
004B
001A
FFBE
FFBB
FFE7
FFBA
FFDE
0035
003D
FFE0
FFB8
0000
002B
001D
FFFA
FFCA
0036
FFF0
0007
0032
0055
0007
0043
FFCC
0039
FFCA
0044
001F
FFF3
FFE5
FFE9
FFC5
FFD0
FFEE
000F
000D
FFC8
0032
002F
002A
FFFD
FFEC
FFC4
FFE2
FFED
FFE8
0012
0029
0026
004A
0046
FFB5
0034
FFD2
0021
FFB3
FFD6
0049
FFB8
000B
0006
FFC8
FFEF
003B
0037
000F
0039
0017
FFC5
002A
FFFC
004D
FFCC
0052
0006
FFE9
0046
0036
FFCF
FFBA
001E
004F
FFF7
FFB4
FFF5
FFBE
0028
FFBF
FFD5
FFE6
002A
004A
002F
001F
0045
0042
000C
0004
FFDD
FFE9
FFEB
0054
FFBA
0004
001F
FFCF
FFD3
0021
0024
0033
004B
FFDF
FFBE
FFCF
0033
FFEB
0012
0024
0038
0032
FFFB
FFD3
0001
0025
0016
FFC9
0037
0016
FFC3
FFDF
FFC0
001C
002E
FFE8
001F
0004
0019
0007
FFE3
0037
0035
004C
FFEC
0045
0005
0033
FFFB
FFC2
0008
FFD3
FFE6
FFF8
003D
0011
FFE4
0036
FFE3
0048
0045
003B
002D
0029
0024
FFE2
004A
FFEC
0029
FFE5
0002
FFF4
0001
FFD7
0042
004D
002C
0019
001F
0018
0021
FFD7
FFCC
FFC3
001E
FFD0
0048
003B
004D
0049
0016
FFE9
001B
FFDA
0019
FFBA
FFFE
FFF3
0007
0023
0025
003A
0044
0035
0048
0006
001E
FFCE
FFEB
0027
0027
FFD6
004A
0007
0000
0043
0032
0003
003C
FFBE
FFDF
0012
FFF1
0030
FFCA
0027
0021
0030
0049
0048
0030
FFF1
FFC6
FFD5
004A
0008
0003
FFF1
0003
000B
0020
FFE4
0019
0037
FFE4
0034
FFC2
FFD3
0008
FFEE
FFFC
000A
000E
FFBD
0058
FFDD
0013
0034
0004
FFFC
0012
FFD1
0008
FFC9
FFFB
001E
0028
FFBB
0045
FFD3
002C
0054
003F
0038
004E
0022
003E
0047
0003
FFD6
FFE8
FFF1
FFC5
002C
FFC5
003C
003C
FFF5
FFB9
003E
0003
004C
0041
0044
0054
004D
FFDC
FFEB
FFC8
000B
0018
FFED
002A
FFEE
004F
004C
002F
FFDC
FFE0
000B
FFED
FFFF
FFC9
0009
0025
001B
FFCF
0011
0007
0002
FFD8
0028
FFF8
FFF2
002C
FFF9
004A
0009
FFD1
FFEF
0037
001A
FFD5
0045
FFCF
001E
0017
000F
FFF3
0037
FFE0
FFF3
0049
FFE5
0007
002C
0018
003D
0035
0010
0020
003F
003A
FFF2
FFF1
0032
0049
FFD6
0016
FFDC
0017
0051
0041
000E
FFD8
0004
0035
0038
001F
FFE1
FFC1
0006
0046
0019
000A
FFBF
0012
004C
FFCD
FFE5
FFC8
0028
FFFB
FFE8
FFFB
0013
002B
000D
FFC1
0051
0013
003B
0019
FFF0
0004
FFC8
0001
002C
0006
0046
FFE5
0003
0007
FFFA
FFD1
FFD6
FFC2
0045
FFCD
FFE7
0027
FFD4
003E
FFBF
FFCA
FFFE
004D
FFE8
FFD9
FFF1
FFE2
004E
0011
0039
0047
FFFD
0000
FFF1
002D
0010
0019
003F
FFD9
003A
004F
002E
0041
FFE4
0012
0040
FFC1
FFE5
FFF2
FFC3
FFD9
001D
0052
FFD5
0017
0051
FFE5
001A
FFD9
000C
FFC6
003D
004B
FFE4
0025
002B
FFD9
003B
FFE4
0017
FFEA
FFDF
0010
001D
FFF2
0019
0042
FFD0
0010
0045
FFF9
FFD3
FFEC
0004
003E
001A
004F
FFBC
0000
FFFC
FFD8
004C
0013
0034
0024
002A
0019
FFC0
FFEE
0008
001F
004C
001E
FFDD
0031
FFC0
FFCF
FFF9
0034
001E
001F
FFB9
003A
001D
FFC1
FFBD
FFEA
FFDA
FFBE
0005
0023
000D
003D
FFFB
FFDE
0014
FFC3
0013
0047
0037
FFFB
0022
FFD3
FFC4
FFC4
000B
0032
FFCA
0029
004D
0006
FFFF
FFD4
FFD1
0036
FFC3
0004
FFFD
0050
FFDE
0051
0047
FFEB
FFE6
FFCD
0000
FFBF
FFE9
FFDE
FFF1
0053
FFF7
0048
FFB9
FFDE
0019
000D
FFB8
FFC4
0019
FFC5
FFE6
FFE7
003F
FFE1
FFC7
0039
0012
0031
0042
001E
0034
0034
0005
0022
FFC6
0049
0018
0046
FFD0
FFE1
0027
0002
FFDA
004F
0029
FFDB
FFDC
FFE3
FFEF
FFED
0030
000B
FFE3
0054
0037
002B
002A
FFD9
000D
0023
0049
FFEA
001A
0022
0035
FFE2
003C
002A
0019
0005
FFE3
0033
FFBE
003D
0047
FFE2
FFC7
FFF0
FFEC
000B
003B
003D
0031
FFE3
0043
004C
FFE2
FFF1
0037
FFBA
001A
0027
FFDA
0048
0020
0048
FFDE
FFD0
FFDD
0004
001B
001C
FFED
001A
FFBD
FFDF
FFB9
0007
002A
0002
0053
0039
FFCE
FFE9
FFBB
FFCD
0017
000D
0039
FFF2
0003
0052
0056
0001
000F
002F
0056
FFCF
0017
FFC6
003E
FFD5
FFFF
FFD6
FFE6
0015
FFCC
FFCC
FFE7
FFFB
FFFA
FFEA
0024
FFC9
FFFA
0037
FFEE
0013
003A
001D
004A
FFCF
FFC2
FFCE
FFE8
FFE8
000B
FFE0
FFD0
FFB4
FFE2
FFC8
0018
0048
0048
004C
FFBD
0028
FFBB
FFE6
002F
0048
0020
000B
FFD2
0047
0030
0020
0026
0046
FFFA
000A
FFFF
0046
FFD6
0036
004A
0000
0017
0005
0003
0042
0014
0015
002E
0042
FFC2
0035
FFC3
004C
FFF8
0016
0033
0056
FFCF
0030
FFC5
0032
0011
FFF2
FFE6
0000
0023
FFF7
002D
FFFC
FFF5
0003
0047
FFD0
FFF9
0012
0035
FFE9
FFDB
FFFC
000E
001B
FFE4
0021
0044
0022
0037
0039
0043
0013
0012
FFE2
0020
FFCE
003F
FFF1
FFC3
000F
003B
FFBC
FFF4
FFD2
FFCC
0025
0048
FFDD
FFD2
FFEC
FFF7
004C
0055
0043
0048
0055
FFDF
FFF1
FFF4
FFFF
FFDF
0033
003A
0007
002B
003E
0002
0003
FFDD
0013
FFF7
003B
FFE1
FFE2
FFCE
0002
001F
0015
FFFF
0030
FFFF
0030
0038
002A
0014
FFFD
0018
FFCD
004E
0032
FFE7
FFFF
0033
FFDB
0040
0020
FFD8
0007
0025
FFFA
0009
0001
FFBF
0014
0048
0059
002E
0012
0040
003C
0011
FFFC
FFDA
0011
0046
FFE9
FFEB
FFFF
0040
000D
FFF8
000E
001D
004D
0029
FFD4
004A
FFD1
003C
FFC0
FFBA
FFE2
004C
FFBE
FFFF
FFC1
FFF2
FFE0
FFC1
002B
0055
FFFB
0040
000C
FFC9
0013
002A
002A
0020
FFEF
FFCB
001F
FFBF
002C
004D
0013
FFBF
0055
0033
FFE8
FFC4
0020
0025
0000
0004
FFF6
003C
000A
FFD4
0022
FFD9
FFF8
FFEC
002A
0004
FFDD
0049
0010
003F
FFE1
0035
FFE3
FFF5
0022
FFE2
FFC7
0026
0045
0028
FFE1
0037
FFF1
0039
001E
FFC6
FFF1
0057
002B
FFE1
0029
001B
0035
FFFB
003C
0052
FFF6
003D
002F
0006
FFE3
FFEA
0020
FFBC
FFD1
001D
FFDB
001A
FFCD
0042
FFDD
FFC6
FFDF
FFBE
0044
FFF2
003B
FFD8
0031
0034
0031
FFD4
FFEA
FFD7
0029
0042
FFFD
FFDA
0019
FFEC
FFD1
0046
0046
FFF2
0027
0009
0017
FFF4
FFD4
0034
0016
0001
FFDD
FFBF
003B
0029
0007
003E
0035
FFFA
0021
0019
003E
FFE1
0035
0020
0008
FFF9
FFB6
FFDE
000A
003D
FFCF
0022
000E
FFF0
0010
0037
001C
0030
000E
FFF4
0015
FFDE
0020
0049
FFC2
FFF5
FFDC
0036
FFF3
0032
0005
001A
FFF8
0014
002E
FFBE
FFEE
FFFB
0017
FFFA
FFE7
002B
000F
FFEC
000D
FFEE
FFBC
001E
FFDE
FFF4
004F
0023
0005
FFE3
0013
003F
FFF5
FFFE
001A
002E
FFE7
002B
FFE6
0046
003A
FFE4
0034
FFEF
002E
FFD3
0005
FFEC
FFEC
FFEB
FFF3
004A
FFDA
002D
FFF5
003B
004A
0028
FFB8
FFC3
FFE6
0043
0013
FFC1
002C
0034
FFC3
FFFF
FFBD
FFBA
FFC7
002C
FFD1
FFDB
FFBD
FFC0
002B
FFFB
001E
0042
FFF0
000F
0008
FFEA
0034
000E
FFBB
000E
000C
0024
FFBA
0032
0025
002B
FFE0
FFB8
FFB9
0027
0036
000A
0013
003C
0013
FFCE
FFFC
0029
FFCA
0008
0048
FFCD
FFCF
0009
0045
003F
FFC4
0022
FFE4
FFBC
000B
FFCE
003A
001C
FFEC
0037
0039
000A
0044
001C
FFE2
0033
000F
FFE8
FFBF
0007
FFF2
FFD6
FFFE
FFB7
001B
0046
FFFD
001A
0010
FFC8
FFB4
0029
FFB7
FFBF
FFB1
FFED
0038
0005
FFFB
0011
0014
003F
002C
004A
FFBE
003F
003B
FFE2
003A
0006
004E
0004
0035
FFE0
0054
0003
003F
0040
0037
FFE4
FFC1
0028
FFBC
0015
FFCA
FFB9
FFBA
0007
003A
004C
FFDC
FFE3
FFE0
FFDF
0036
004A
0009
004E
FFF5
FFF9
FFE5
0046
0044
0025
000D
0005
002A
0000
FFF8
002B
FFE7
0007
FFDD
FFCB
0024
0002
0032
0037
FFBA
0024
002A
004E
0032
0009
0020
FFDA
FFF3
FFED
001D
004B
FFF4
003B
003A
FFF2
FFB5
FFBA
FFE3
FFB1
004C
0043
FFE7
001A
FFCF
FFCD
0022
000F
0008
001D
0040
0035
FFD1
001D
FFFC
FFCA
001C
FFE8
FFD4
0016
001B
FFD1
0012
0018
FFE5
FFE7
FFBE
FFF4
0040
001F
004B
FFB8
0013
FFCA
0006
0036
0006
0047
0048
0039
FFC2
002C
002F
FFD3
002F
0028
0042
FFFC
0038
0020
FFD6
002D
000B
0031
0018
FFF5
0026
FFD6
FFDA
FFFE
0024
004C
FFBF
FFBC
FFCE
0010
0046
FFE9
0024
FFBB
FFD7
0038
FFDE
0009
FFF6
FFCC
0018
FFF4
0006
FFDA
FFD7
FFE6
FFB7
FFC3
004D
FFB7
0025
FFF5
0004
FFF7
0032
FFCB
FFD5
0033
FFDD
FFBB
FFD8
FFCC
0011
0034
003E
0042
002D
FFE6
FFE8
002C
0037
FFBB
0011
FFDD
FFC5
FFC2
0022
FFEA
FFF8
FFDB
FFEA
FFF5
FFE7
0001
FFC8
FFDD
0047
003E
FFEC
FFCB
FFB1
FFEC
FFF1
FFD5
002A
003F
0041
FFFA
FFD0
0044
FFBA
FFEE
0047
FFD0
000B
FFEA
FFC3
FFF2
0013
0020
FFDE
FFE5
003F
003F
FFBA
FFBF
FFFD
FFD4
003D
FFC8
FFC3
0028
0031
0018
0031
FFE9
0030
FFF3
FFF7
FFC3
002F
FFCC
FFC2
0041
FFC3
0017
FFCD
FFD1
0045
FFE1
002B
FFDE
0005
0019
0021
FFCC
0029
0033
FFD2
004C
0040
001E
FFCF
FFD5
0012
FFC5
FFF6
FFEB
FFE5
000A
FFC2
FFF3
0004
0046
0038
0028
FFD7
FFD6
0033
001E
0042
0025
0030
FFFC
FFFA
0014
FFDD
FFC4
FFF7
FFB4
FFF4
FFC2
000A
FFDE
FFD3
FFB4
FFED
FFEB
002E
0003
FFBB
0017
000E
0032
FFB5
0042
000A
0010
FFE0
FFEE
FFFE
FFC8
000C
002F
FFCF
000B
FFEA
FFD2
FFC7
001B
003B
000B
0042
FFF4
FFED
FFE3
FFBC
0035
0045
0032
0019
0005
FFC2
0033
FFFD
FFE5
FFEB
0021
0051
0045
0018
FFD4
FFF3
003A
FFE6
FFC5
0028
0040
0025
000A
000A
0032
FFF9
0006
0045
0019
FFD8
FFCC
FFB8
0032
FFDC
0038
0023
FFF4
FFE0
000A
FFFA
0051
001D
FFE0
FFE1
FFC4
002A
FFC3
FFF5
0042
002E
0000
FFB2
FFBF
FFE9
FFC5
FFDB
0045
0021
FFEA
FFCB
FFC6
0034
FFE7
FFF0
FFD6
FFEF
FFF2
FFFE
FFE7
FFBB
0019
0035
FFED
0021
FFC7
FFD1
000B
FFF7
FFCE
FFFD
0019
0006
0009
FFB5
001F
0012
FFEB
0008
FFE6
FFC7
FFC4
FFF8
FFF1
FFF1
FFFE
FFCF
0029
0004
FFBD
FFF7
0010
FFCA
FFF3
0008
FFF9
0053
0028
FFD2
0026
0036
003E
FFFC
003B
0026
0041
0001
FFBE
FFCF
004D
0032
FFE4
FFD0
0038
0040
FFFE
0033
0046
FFC9
FFFC
FFF9
FFE8
FFEE
0011
FFDB
FFE7
FFD9
FFD7
FFBC
001B
FFB7
FFAD
FFFD
FFAF
001F
0031
000C
FFDF
FFCE
0019
0000
FFCB
FFDA
000A
FFEF
002F
FFD0
0037
004A
0030
FFBD
003D
FFCE
FFF8
003D
0029
0036
FFF7
001A
FFE9
FFDA
0043
FFD6
FFC1
FFBA
0038
FFF3
0025
FFFF
001F
0037
FFDA
0034
FFDF
0028
0001
FFFB
FFC0
0039
FFC2
0000
FFEA
002C
003C
0025
0031
001D
003E
FFFC
FFCE
0033
FFEF
FFBF
FFAF
FFC1
FFEE
FFEC
0009
0051
FFBE
FFD0
FFF4
002D
0017
FFFF
0027
0035
0004
FFCF
001E
FFFF
003E
FFC0
000E
000A
FFC6
0026
000D
003A
FFE3
0035
FFBA
FFD1
0033
FFDB
FFE8
FFE9
FFD8
FFC0
FFE4
FFE7
FFF7
FFB3
003A
0023
FFC4
FFE7
0003
003E
0032
FFFB
0019
FFE0
000C
FFCF
FFE3
0030
004C
FFEE
FFDE
FFBE
0028
0030
0044
002A
FFB7
002D
FFB8
FFD0
FFED
001A
0004
0026
0003
FFC6
FFE4
0036
0007
0009
002C
FFBF
003A
0023
0009
0003
0019
FFC1
0030
003F
0049
FFB4
0014
FFE7
FFF2
0006
FFB4
003B
FFF4
002C
FFC5
0045
FFFA
0016
FFB3
0003
0041
0011
002B
FFED
0019
FFE6
FFDE
0020
0006
FFE8
0047
002C
003B
FFE0
0036
0031
001A
FFE2
FFDD
FFBC
FFB5
FFE3
000E
FFDD
FFC5
0002
003A
FFFF
0039
002E
001C
0028
0007
0041
003F
FFE9
0024
0034
003A
0028
FFC7
FFFF
003B
000F
0009
FFDA
FFC7
000D
0019
0019
0014
0014
0039
0049
FFBC
FFDA
FFEB
0017
0011
FFB8
FFE7
002D
0042
0021
FFE4
002E
0019
0020
FFFC
FFEA
002D
FFF0
0014
0043
0049
FFD4
FFBC
FFEE
FFE4
FFE3
0009
001F
FFBE
FFC7
001B
FFB8
001A
003D
FFE6
002C
FFC3
FFDE
FFF4
001D
FFC6
0011
FFB5
FFD6
0015
FFE0
FFD1
FFC2
FFB7
FFAF
FFC3
FFDC
FFC0
0036
0008
FFFD
0040
0021
001E
FFC0
FFAF
0012
FFB8
0001
FFC1
FFB1
0030
FFD0
000E
001C
FFD5
0047
FFC8
FFD8
FFF9
0028
FFB3
0003
0034
FFF3
0043
FFC3
003A
0010
FFC7
FFF4
FFE1
FFED
FFE9
FFD9
003E
FFB8
0001
002D
FFB1
0045
FFC6
001D
0044
FFC0
0027
0010
0005
FFF2
003D
FFCD
FFE7
FFB6
FFF7
001B
FFC1
FFCA
0034
002F
000D
FFE2
FFE7
FFD0
FFED
FFC8
FFBC
FFB1
0024
0020
0005
0045
FFCD
0019
0027
0037
FFEB
003E
000F
FFBE
FFB2
002A
FFE0
0020
002D
0044
0023
FFFA
0018
0030
0036
FFF8
FFE9
0020
FFEC
FFF0
0036
0036
FFEE
0000
0038
FFCE
0018
FFD1
FFC2
0021
FFD6
0003
FFAF
FFC9
FFC4
FFF4
FFB9
0039
FFFC
0021
FFF8
0022
FFB7
0015
FFEF
FFB5
FFC5
0018
0032
FFC2
FFB3
FFB8
FFCA
0019
FFB5
FFDF
0034
FFC0
0021
FFBA
FFD4
0034
001B
FFC2
FFDE
FFCA
0014
0016
FFDC
FFB0
FFB5
FFC6
FFEE
001A
FFEB
FFED
FFB8
FFC8
FFE8
0033
FFEC
0015
FFF0
0012
0027
FFE9
FFDA
FFFD
0028
FFC0
003C
FFC6
0019
003F
0011
0038
FFB7
0033
FFC1
FFC9
003C
000E
FFFC
0028
FFF5
0043
FFE6
001A
FFFF
000D
FFD6
0016
FFEB
FFE0
FFE4
0000
FFC1
FFE4
FFC3
0018
FFD0
FFCA
FFF7
FFB3
FFB2
FFC3
0032
0028
FFAC
0041
FFF7
FFBF
0020
0020
FFE5
000D
0013
FFFA
FFE9
FFC7
FFE3
FFE7
FFF5
FFC4
001F
0043
0000
0039
FFF1
003C
FFD0
000A
FFBC
FFDB
002E
0002
0014
0019
FFEE
0026
FFE8
FFB8
FFE2
FFF2
FFC3
0032
FFBF
0026
FFDD
0005
FFC2
FFF7
000B
003C
0017
FFE3
FFEA
001B
FFC0
FFEB
0043
0033
FFE9
FFF5
FFB2
FFCE
0037
000C
FFFC
FFFE
FFC4
003C
0041
FFDB
0041
FFC8
0010
0043
FFB6
FFF8
FFC8
0022
000C
FFB9
001C
FFC1
FFC3
FFC4
FFF2
0012
003A
0041
002A
FFEB
0006
FFEA
FFE0
FFFE
FFE1
001B
000F
FFF8
FFCB
FFE0
0023
0022
0035
FFED
0029
FFD9
FFD1
FFCC
001D
0006
FFD0
001B
001E
FFE8
FFDF
001F
FFB1
FFCE
FFE4
FFCD
0013
FFC1
0046
0046
FFCF
0042
FFF2
FFF4
0017
FFFF
FFD2
001A
002E
0012
0015
0028
0049
FFFC
FFFE
FFE0
FFC8
0041
0029
000B
0000
0012
FFCB
0024
0041
FFCC
FFEB
FFE2
FFF7
FFEB
FFD8
FFCA
0007
0048
0023
0038
0007
FFD9
0033
001F
0014
FFDD
000D
FFBC
FFEC
FFD4
FFE3
0025
FFC1
003B
FFEA
000C
FFBE
FFC0
0029
FFBC
0020
FFC9
0027
001F
003A
001D
FFCE
0009
0029
0003
0006
FFF8
0018
0039
FFF3
FFC2
0007
FFE3
0044
FFAD
0021
0008
0033
FFB1
001C
0038
FFE0
001C
0023
0016
FFB1
003F
FFDC
003D
002B
FFEA
001C
0023
0007
0003
FFC3
FFF6
0032
0018
FFDE
0013
FFC7
FFB6
FFC7
0001
FFDA
FFD8
FFFD
FFFC
0037
0038
0035
FFE6
0031
FFC5
0013
FFF6
FFD6
FFE5
FFE4
0036
0034
0037
FFD0
0018
FFBB
001F
0033
FFB6
0043
FFAC
000F
0034
FFD3
FFB9
FFB9
003D
FFC2
FFFD
0042
FFF3
FFE0
FFDD
FFBB
FFCD
FFC7
0023
FFE8
0033
FFFD
FFDB
FFD6
FFCF
FFCB
FFB7
FFDD
FFDC
FFFB
FFB3
000D
FFD9
FFE9
FFB1
0004
0014
FFF5
0041
0032
0001
001B
FFD4
FFF7
0018
0029
FFF0
FFED
0003
0020
FFFA
0009
0034
FFE1
0031
FFE0
0029
0004
FFF3
001D
0037
0004
FFF2
000F
FFBF
0027
FFDD
FFFF
0011
FFC7
FFB5
FFD1
FFC4
FFE7
000D
001D
FFF8
000A
0004
FFC9
002F
001E
FFB9
FFD9
0017
FFE4
002A
FFC7
FFF8
FFDE
FFF9
0018
FFCE
FFB3
FFC0
003C
FFF1
FFFC
000E
FFCB
003F
FFB5
FFED
FFD0
003C
FFFA
FFC8
FFE6
FFF0
0032
0013
0017
FFFE
FFC3
003A
001B
0016
0015
004B
FFAB
FFCB
0043
FFB5
FFB7
FFC1
FFF5
FFFF
0009
FFD3
0018
FFE7
0010
002F
FFF4
0018
FFD0
0000
001F
FFBF
FFFD
003D
0014
FFEC
000F
0039
FFAF
FFAB
0016
0028
FFF1
FFD7
0009
FFB3
000D
000F
0041
FFBC
0021
0044
FFAF
FFB5
FFC8
FFC3
0003
FFF0
001E
FFDC
0035
0050
0009
FFCB
0003
0018
0041
FFF3
FFF4
0020
FFF0
FFFE
FFFA
0036
FFDD
0006
FFC2
FFC8
003B
0032
0028
0001
004A
FFD6
001A
0005
0043
000E
0049
0045
0016
FFBF
0037
FFC5
0045
0014
0035
FFFA
0034
FFD3
FFBA
FFFC
FFD1
0018
FFF1
FFCB
0018
FFF2
FFEA
FFDE
0024
001D
FFE6
FFB8
FFBE
FFF0
0034
FFD4
0047
002F
FFFB
FFBE
FFFE
0035
FFFB
001F
0038
FFEC
FFE9
0035
0035
FFE1
FFE5
FFB7
FFB0
000A
FFBF
0018
FFCB
FFCB
001B
0030
0033
0018
0009
FFFA
FFDF
0024
001F
004C
FFD0
000D
FFED
004E
FFF8
FFBC
004B
FFDF
0028
004C
FFE1
0038
0011
FFCA
FFED
FFF6
000F
FFF4
000D
0009
FFF4
FFBA
FFF4
001B
FFEA
003E
FFEF
FFBC
FFFF
FFF5
002A
0040
002B
FFD7
FFF2
FFB5
FFE8
FFFC
FFF5
FFD9
FFD6
FFF3
FFE4
0003
FFC0
004B
000C
003B
0033
FFBA
0013
FFE8
0048
0015
FFFC
0017
FFE5
FFF8
FFD1
FFEB
0042
FFD0
0017
002A
FFCE
FFE7
002A
FFDA
FFE4
FFEE
FFDF
FFCE
FFCD
FFC3
FFF8
0003
0014
0011
FFD6
FFF9
0029
002A
0017
FFEA
FFCD
003F
0010
FFB4
FFF2
FFCF
FFCA
FFD3
FFDF
FFBC
FFC3
0027
FFBD
FFE5
FFB7
0006
0021
FFF8
FFE3
FFD7
FFF4
FFB2
FFD0
FFF3
003B
FFC9
FFB3
FFD4
FFCF
001B
FFBA
FFF4
FFF9
000D
0021
0011
000F
FFEB
FFF2
FFEB
0029
0034
FFC1
FFE9
001E
0034
0023
0010
FFEB
0010
FFCD
0042
000B
FFB7
002D
FFC8
003E
0040
0024
FFD3
004B
FFCE
FFD8
004B
0010
000F
FFEB
FFF8
0014
FFBC
FFD8
FFC3
0044
0024
FFF5
FFC6
FFDB
0016
FFC6
FFF5
0010
FFBD
000E
FFC0
0029
FFC1
0025
0029
0004
0000
FFF3
FFE0
FFED
FFC1
FFEA
FFB6
FFE4
001E
FFEF
0015
FFE1
FFC1
0003
FFEB
FFFB
004C
0027
003A
FFE3
FFCB
FFD9
FFB7
FFC8
FFFC
0037
FFFD
FFB3
003F
001F
0046
0000
FFB1
0023
FFF5
FFD9
FFF9
FFBE
003A
FFBE
FFF5
0004
FFBF
0038
0041
0021
FFBB
0008
FFC9
0008
004D
0013
FFF0
FFEA
0020
FFD3
FFB8
FFB3
FFE0
001D
FFCB
FFFB
FFB7
0039
FFD8
0046
0039
FFE4
FFEE
FFBB
0021
0024
0012
FFE0
FFF6
001D
FFC8
0040
000F
0032
FFDB
FFFB
0044
FFD9
0001
FFFE
FFDF
FFCE
FFB7
FFEB
003D
FFC2
FFDD
FFF5
FFDA
0039
FFF0
0014
FFE8
0029
FFC8
FFC4
FFBD
FFEA
0031
0043
FFF2
FFEE
000E
001D
002F
FFE2
FFFF
FFC3
000D
FFEA
0008
0005
001C
002F
0007
FFBE
FFEF
0026
0043
FFFB
FFC3
FFD8
001F
0019
0015
001C
003B
FFD9
FFDB
FFCC
001A
FFB6
0020
0025
002F
FFC1
FFFD
0007
FFF9
FFB8
0012
0011
0012
001B
FFC8
0005
FFD1
FFD6
FFC2
FFB0
FFE6
004C
FFFA
0011
FFEF
FFDB
FFDF
0014
0016
0038
0032
FFB1
FFE5
004C
FFE0
FFEB
0032
FFE8
0046
FFC2
FFEA
003E
FFCB
FFDA
000E
0013
FFBC
0008
0001
FFDD
FFF9
0012
FFC4
FFFA
003F
0043
0003
FFC6
FFB8
FFED
0045
FFDB
001D
FFC6
FFB1
FFFA
FFC4
FFD4
0010
000D
0048
FFB4
FFC6
FFF1
003C
0028
002D
0045
FFB5
FFD8
0042
0030
0033
FFB8
0022
003A
000C
001E
FFFD
0026
FFCF
FFDA
0021
0003
0028
FFE9
FFF6
0048
001B
003C
FFCC
FFF2
0016
FFC6
0018
FFC1
0034
0001
001C
FFC5
0026
FFFB
001D
0003
FFE0
FFB1
FFEF
FFFC
0030
001D
000D
000F
FFFC
0035
FFDE
0039
0042
0003
FFBA
FFE7
FFB6
0000
FFEC
000B
000D
FFCB
FFC8
FFE8
FFD1
FFF6
0038
FFB4
FFBD
0044
FFE2
FFBF
001D
FFCA
FFF9
0038
FFFA
0013
0027
0001
FFC7
001C
004C
FFC3
0018
FFD2
FFB7
FFC9
FFE9
0006
0032
004F
FFEC
FFF2
FFBC
FFB0
FFED
FFB2
FFB8
0035
001F
FFF1
FFFB
0037
002C
FFBF
0008
0009
001F
0016
001E
0004
FFE1
0008
FFD8
FFBF
FFF2
003B
FFEC
000C
0016
FFFF
FFCA
002A
002A
001B
0018
004D
FFBD
0012
0009
0037
FFDB
0039
FFD6
001F
0029
FFDB
FFD3
FFFF
003F
001D
FFEE
FFD0
004C
0033
0006
0024
0016
0012
FFC0
FFCF
FFE4
0027
003D
0041
0036
0025
FFFD
0042
FFDB
0010
FFC5
FFCB
0024
0019
FFD7
FFFB
FFDD
0022
0009
FFD6
FFD2
0035
002B
FFC7
003F
003B
0012
FFCA
0022
FFCC
FFC5
FFC5
0015
0017
FFEB
FFD2
FFD7
FFF0
FFB6
FFE2
FFF8
FFEF
FFB1
002C
FFB9
0016
FFD1
002A
0011
0047
FFDA
0028
FFCD
FFFA
FFBF
FFF1
0046
002B
FFCC
FFC7
0027
FFED
003B
FFCE
000E
FFF8
FFDA
003B
FFD4
0000
FFF6
FFE7
003E
0002
FFEE
000B
FFEB
0022
FFFC
FFDA
0016
004B
FFF4
0022
001A
0045
FFE0
FFB3
000A
0006
FFE7
FFB7
FFE2
FFEA
FFD5
FFF7
0005
0018
0000
FFE7
0047
FFDD
FFE3
0026
0010
0047
004C
FFD7
002A
0037
0016
FFD7
0005
003E
FFF2
004D
0041
0024
FFC9
FFC4
FFCE
FFCD
0015
FFF5
0029
0031
FFE1
FFDC
0037
0016
FFCA
FFCD
FFFB
0005
000F
FFB9
002F
002B
FFC4
0025
FFF0
0004
0013
FFB4
0008
002A
FFDA
FFB1
FFDC
0022
FFCD
FFE8
FFCB
FFF2
FFEF
FFD1
0042
0036
FFC0
FFFD
FFF5
001D
FFE9
001C
FFDD
0041
003C
0029
0043
FFE3
0047
0006
003B
0022
FFFA
003A
0020
0021
003A
0023
FFF2
FFB2
FFE9
0042
FFF4
0021
FFDF
FFE9
FFBD
0012
FFE7
FFB2
000D
0049
001F
000F
0040
FFC5
0022
FFFB
004A
FFD4
FFF9
FFF9
0030
002C
003E
FFED
FFD8
003B
0018
000F
FFC3
FFDB
FFD5
0044
FFE2
FFDA
0021
0016
0033
0045
001B
0038
FFB4
FFC4
FFFF
001A
0002
FFCA
0027
FFBD
FFBD
0044
FFBF
003F
0023
FFE7
002A
0048
0021
FFB0
FFD5
FFB0
FFCC
FFD6
FFFD
002A
FFC3
FFC6
FFAF
0009
0011
FFC9
FFD8
0030
0006
FFF2
FFE2
FFC7
001F
FFC1
FFFE
0040
0043
FFC4
000D
FFF2
003B
004D
FFF1
FFEE
0043
FFD2
0045
FFD5
FFC4
FFC9
003B
FFF5
FFE1
FFD9
0036
002F
0048
FFFA
FFE1
FFD4
0026
000C
002E
FFCF
000C
0028
FFBB
FFCD
FFF1
FFD1
FFDF
0020
FFE3
0047
0027
FFD1
0041
FFF1
0011
0016
0024
0040
FFFC
FFD2
FFB0
0036
002F
0034
0020
FFBB
FFD5
0021
FFD9
0003
FFC5
FFE5
FFE2
0003
002A
001F
FFD3
FFB9
0016
001E
000D
FFD3
FFD7
002E
FFDC
0017
0002
0015
FFC5
0027
FFF2
0047
FFF3
003E
0034
FFEF
FFBE
FFE0
0008
0037
FFF6
000E
0025
002E
FFDC
FFCC
FFC8
FFB9
FFBC
FFFC
FFCF
FFEB
0039
FFBA
0023
002A
0005
FFCB
FFEF
004A
0002
FFDE
0020
0017
FFF6
FFC1
0026
FFCF
0036
FFEB
001B
0008
FFE9
0020
FFB8
FFE7
FFEE
0003
0019
0015
FFF2
FFDA
FFFC
004E
0027
000D
FFD8
FFCE
004B
FFDC
FFB3
FFBF
FFC4
FFDD
FFEB
FFD5
FFDE
0007
0038
0034
FFB6
FFB3
FFFF
FFC6
FFBA
FFF0
0038
FFAE
FFD3
0003
FFFC
0017
0020
003A
FFDA
FFF5
0015
003E
0031
FFEC
FFC8
0030
FFD9
FFE6
FFCA
0033
FFBE
FFD3
FFC6
0006
FFB7
FFBB
002D
FFFD
FFD0
FFB9
FFCC
FFE5
0045
0019
0002
0042
001A
001D
FFD3
0044
0011
0007
0042
FFB0
FFCB
FFF7
FFB8
001A
0019
FFDB
FFB9
0033
FFB8
FFF7
FFEE
FFE6
FFD0
FFE7
0041
FFD1
FFE2
FFC3
FFBA
000E
FFF4
0042
FFF1
FFCB
0030
0046
0039
FFC6
FFEC
FFE2
004A
FFB7
002E
FFD4
0026
FFDE
FFF5
FFF2
FFC5
0043
FFC7
0028
FFBB
FFEC
FFEE
0047
0033
FFC2
0021
FFD9
003A
002B
003E
0008
000A
FFE9
0044
003B
FFF7
FFC0
0044
FFCE
FFE6
0025
FFED
0039
FFB5
0001
0040
002F
FFD8
FFD6
FFE3
FFFF
0043
FFD5
0046
0042
FFF8
FFFE
003B
FFEF
FFF1
FFCC
000B
003E
002C
FFB9
0031
000E
FFFC
0019
000D
0039
0034
0047
FFEC
FFB1
FFF5
0048
0047
FFC0
FFCE
0002
FFFE
FFD8
001E
0029
FFE0
FFD1
FFE1
FFD1
FFC0
000A
FFC8
0020
0025
0032
FFD2
FFBF
003E
0031
FFDC
0001
FFCF
0007
0019
0038
FFFF
FFB9
0047
0014
FFDF
0034
0038
FFC5
0003
000D
004D
003F
FFED
0015
0018
000A
FFBA
FFCA
0040
0027
0033
0027
0032
0048
0007
FFEE
0038
FFCA
FFE1
FFC1
0037
0021
FFEB
FFD3
0007
FFBA
0027
FFFF
FFD2
0024
FFCE
FFEA
FFD6
000B
0043
0044
FFC2
FFB6
0008
0007
FFAD
0035
0019
002D
0042
FFC8
FFEC
FFCD
FFDA
FFFD
003C
004C
FFD2
0003
0007
FFE8
0007
0041
FFDD
002F
FFC2
FFC6
FFF0
FFD1
0021
FFE6
FFE7
002A
FFEA
FFF2
0001
0000
0026
0027
FFDE
0028
FFEF
0025
0001
0024
FFCF
0020
FFD6
FFC3
FFD4
FFBF
000B
FFE8
FFC3
FFD1
FFD4
FFF9
FFDA
0026
FFD0
FFE6
FFDC
FFD2
002D
FFF0
FFD8
FFCE
FFD2
0019
FFF7
FFF9
0043
0007
FFC8
0042
002A
FFD1
FFEC
001B
FFE3
FFD3
FFD4
FFB9
0006
0023
FFE1
FFC1
FFDB
FFC1
FFEF
FFE4
FFE3
0041
FFBB
FFBB
FFBB
0018
0025
FFF4
0038
FFE5
FFE9
0044
0004
FFE1
0004
FFC5
004E
003F
0041
0024
0000
001E
0004
002F
FFC6
0000
FFB0
FFEB
FFCE
FFF3
FFBE
0001
FFE1
0016
FFD2
FFC1
FFCB
0005
FFC6
FFB9
FFCC
0015
FFC9
0015
FFD1
0044
FFB7
FFC6
FFFD
FFE1
0005
000E
FFC7
0039
FFB7
003A
0002
0014
000D
003B
0034
001E
0040
FFF3
003A
003E
FFCD
000E
FFC7
FFD1
001F
FFD6
FFBF
000B
FFE7
FFE7
000C
FFFE
001C
0037
FFBE
FFD9
FFB5
FFB8
0012
FFC3
0039
FFDD
0034
FFC0
0003
0047
FFF3
004B
FFD3
001E
0029
FFB3
0028
000B
FFFB
FFC9
FFB5
0032
003E
FFBE
FFF8
0019
FFEE
0006
FFBB
FFF8
0009
FFFE
FFCD
FFD3
0023
FFF1
FFEB
001A
FFC5
FFC3
FFB7
FFE5
002C
0006
0041
0018
FFC8
0007
FFDA
0025
FFB9
FFE4
0026
FFDE
003F
FFC6
0010
0038
0008
FFE8
FFAF
FFF4
FFFB
FFDB
FFFA
FFE6
FFF5
0042
0036
0010
FFC8
0006
FFFB
FFE5
FFF0
FFFA
002E
FFC4
FFCD
FFC6
003C
FFD4
FFF3
FFE0
0034
0026
FFCD
FFCA
002F
0026
0018
FFF9
FFDA
0008
FFC2
0042
FFEE
FFFC
FFC5
FFDB
FFCF
FFFE
000B
004A
FFFB
001F
0028
002F
FFDD
0039
FFEE
FFE5
000B
FFFA
FFD0
002C
FFF8
001A
FFC8
FFE6
0024
FFB4
0037
0025
FFDD
FFC9
0024
FFFD
FFE1
FFEA
002C
0016
FFDE
FFDD
002B
002F
FFBB
003E
0010
0022
001A
FFCD
004A
FFE6
FFE7
FFE2
FFF8
FFF7
FFF1
FFD1
FFBE
0047
0005
FFD9
FFF6
0026
0038
0020
001B
0036
FFD2
0023
FFDF
FFC7
FFE8
FFF2
003F
001E
FFEA
000B
004E
004C
FFCB
FFDF
FFCD
004E
0050
0003
0043
0050
003B
FFD4
000E
0047
FFCD
0003
FFF8
0048
FFD2
004F
FFD2
FFE6
0019
0029
FFF6
FFDC
FFDC
002C
0018
0036
0006
FFF6
FFCA
004C
0024
0017
FFE4
001A
0010
0012
0042
0011
0027
FFC1
FFDF
0033
FFCC
FFEF
000C
0019
0030
FFCC
0051
FFEA
FFC8
001C
FFF5
002E
FFEE
0019
001D
FFE7
FFF7
FFD6
0021
FFF5
0054
FFF1
FFE7
FFC7
002B
004C
003C
0034
0034
004A
0013
0000
0044
FFCA
0027
0017
003C
FFB6
004D
FFB6
FFD1
FFF3
FFE8
0014
0024
0039
002E
0011
000D
0040
004E
FFF3
FFF6
FFF0
0012
0047
0012
FFDC
FFEF
FFCB
0009
FFDF
003E
FFF3
0026
0041
0005
004A
0040
002E
0012
FFFB
0003
000E
FFFE
0032
0055
0031
FFE9
004D
0048
FFF6
0005
0014
FFFE
0010
FFC8
0028
FFE9
FFC4
001C
FFF4
FFF2
003A
0049
004C
FFCA
0051
FFEA
FFFC
0027
FFFC
0009
0001
FFE2
0021
FFF8
0037
FFCA
FFC0
001E
FFCF
FFCC
0043
0037
0028
002B
0043
FFD5
0029
FFF4
FFC9
FFD2
FFC3
FFB8
002D
FFCC
0013
0000
0014
004B
FFE1
FFE9
000D
0036
0002
0035
FFCB
003A
FFF2
0016
0002
0005
000E
FFE8
0033
FFEF
FFD8
FFE2
0013
FFBC
FFD8
002F
FFDB
0044
0023
0032
0029
FFF8
FFDF
0023
0000
FFD9
0050
0047
0001
0020
FFFB
0045
FFE6
004C
FFEE
FFC9
FFCC
0026
FFCE
0028
FFC6
004D
FFC6
0049
FFB7
FFEE
FFFC
001F
000A
0032
0032
FFD2
0004
FFE1
FFF9
000C
003E
000E
0002
0011
0023
002C
FFD1
0013
FFDA
001A
0008
0016
003D
000D
FFC2
0043
0010
FFE1
FFFE
0007
FFE5
0033
0034
FFCC
FFD9
004C
002C
FFF5
FFE4
FFE7
FFFB
FFC7
002D
002F
002E
0040
FFE8
0027
FFDE
0022
003F
FFE7
000A
FFD3
0023
0037
FFF2
FFC2
0021
FFBF
003B
FFF8
FFEC
004B
FFFC
FFB5
001B
000E
FFF7
0015
FFD1
FFD5
FFB9
FFF5
0037
FFD1
FFF5
0038
002D
FFD0
0004
003C
0028
004C
001A
FFFD
004D
0040
FFCF
FFB9
004D
FFDC
003D
FFC1
FFF5
001E
FFEB
0049
0037
002B
FFD4
004D
FFDD
004B
FFD0
FFED
FFF8
002B
0035
003E
0050
004A
0018
FFF1
002F
FFF1
0004
0024
0057
0052
FFD9
0011
0018
FFE9
FFFC
FFEE
0032
0034
FFEC
FFD1
0000
000F
0020
FFE5
FFF0
FFE8
FFF1
FFC7
0046
0055
FFC9
003F
FFDC
FFCA
003A
FFDB
0030
FFE9
004E
FFD4
0037
0053
FFE3
FFFC
FFBC
0047
001A
0026
FFC7
FFC5
FFC9
0039
0036
0013
0001
0005
0049
FFF2
FFEB
0025
0037
FFE5
004B
0046
0044
002D
000C
004B
003A
0030
FFD2
FFD3
FFB9
0038
FFC1
0019
FFBF
0007
0045
FFF0
0041
002C
0030
0038
004E
FFC7
0014
0047
000B
0041
FFD0
003F
FFEB
FFF7
FFF6
FFC2
FFC3
0008
FFEC
0025
0032
0000
0016
FFCD
FFED
000F
0041
0031
FFD2
0035
0030
004D
000C
0053
FFF4
0015
0025
0034
0024
FFF7
0044
0047
FFDC
002A
FFE0
0011
FFC8
0007
000B
FFEC
004B
0025
000D
FFF1
FFD4
0001
FFF4
0021
FFD0
FFEC
0035
FFE2
FFD0
FFFC
FFE6
0010
000F
000C
FFCE
0007
0037
FFBE
0034
0029
002B
FFBC
0040
0003
0005
002E
FFBF
0052
0011
FFC4
000C
FFC2
FFC4
FFBB
FFF1
0004
FFC4
FFC4
0058
0006
003A
0003
FFD9
FFE7
FFD0
000B
0004
002C
FFF4
0054
FFF4
FFEB
001F
0011
FFE5
FFF3
0004
0048
0052
FFFE
FFF2
FFEF
FFC2
0011
FFBE
002A
FFFD
FFF4
FFF7
0032
FFC1
FFFA
0053
FFD3
004A
FFCD
FFFB
002F
0051
004E
FFED
FFC2
001A
003B
0018
0026
001F
FFEC
003E
0019
FFD6
002D
FFF9
FFDC
FFE4
001E
FFF3
004E
FFF5
003A
FFF0
FFE5
FFE4
001B
0046
0006
003E
FFCA
0042
0026
FFDA
0036
0038
FFCC
FFE5
FFD8
0028
0051
0003
0008
0041
FFF4
FFFF
FFC1
003E
002E
FFF5
0013
FFE1
FFC7
FFF7
FFF0
FFF6
FFD3
0041
003D
0045
002C
FFF1
FFD7
FFEE
FFD6
002F
FFC8
FFCE
0013
FFC5
0052
004F
FFE3
FFF0
0008
FFDF
FFEB
001E
FFD3
FFD2
0006
0041
004B
FFDA
FFF5
FFBA
FFE5
0025
FFE5
0040
FFB6
FFCA
000B
002C
0013
FFF9
004E
001F
FFDC
0013
FFEF
0002
0038
000F
FFE7
FFC5
FFE4
FFE6
FFE1
0010
0005
FFC9
002F
004C
FFF4
0039
0022
FFBB
0023
0042
0020
FFE4
0021
FFBF
0034
FFFF
004F
001C
FFB8
0053
FFBB
0032
FFEB
0019
0038
000C
0036
FFDF
FFD9
0023
FFEA
FFE4
004D
FFEE
FFFE
FFF4
001C
0033
002B
FFE1
FFE3
0016
FFFF
FFEC
0049
FFEB
FFCD
0003
FFC0
FFE1
FFEB
FFCE
FFC8
FFFA
0024
FFE3
FFD0
001B
FFBC
FFFE
003A
FFD5
0034
000C
002C
FFCC
FFD3
000A
0002
0006
FFFF
0009
FFDC
FFC4
FFEC
FFD4
FFCE
FFD8
0036
0034
0035
0035
0043
0055
FFCE
0040
0049
FFC1
0044
FFBB
0022
0032
000E
FFCF
002E
FFCE
0012
FFC0
FFCB
0037
FFCB
FFF5
0022
0036
FFBC
0010
FFD5
FFF4
0053
FFDD
FFF1
FFCA
FFCC
FFC0
FFC0
0004
0034
0048
FFDB
FFC4
004A
FFCE
FFEE
FFDD
FFD8
FFDF
FFD4
FFC2
FFB6
0039
0001
0023
FFFB
FFD0
0013
FFF5
0012
FFFA
FFF3
FFC8
001F
FFB8
FFDB
FFD6
FFC4
FFCF
003C
FFEC
0020
0003
FFE8
004C
FFE4
0017
001B
0049
003C
0015
FFC7
0015
0009
FFCE
0024
000E
FFD5
FFF0
FFBF
0033
FFED
0031
0034
000C
FFC0
0017
0033
0007
0009
FFBF
0021
0015
FFE3
FFDF
004B
004C
0047
FFE0
0003
0030
FFF3
FFD7
FFD1
002C
FFD2
FFE6
002D
0046
001F
0007
0007
002D
FFFD
0019
FFE4
0010
0006
FFC6
FFC7
0048
FFE7
FFF2
0018
FFB9
FFFC
FFC2
FFCB
FFE6
0007
FFEA
FFC2
003C
003F
FFE7
FFEF
0019
FFF3
0033
FFFD
FFC5
001F
000F
FFE0
FFE2
FFC9
001F
0007
FFDB
FFE3
FFD1
FFC9
FFE4
FFBD
0023
0019
FFFD
FFB3
FFC4
FFCF
0043
000E
003B
0041
FFB7
002A
004F
FFCF
0027
FFD4
FFF3
FFBB
0020
0019
002D
FFD9
FFB7
FFB9
FFFC
FFE5
FFCE
FFF4
FFB9
0032
0040
0045
002A
FFC9
0008
000E
002B
0018
0000
FFF8
FFD4
0052
FFCE
FFF0
FFC3
003F
FFEE
0018
FFE1
0006
0023
FFD7
FFD7
002D
0028
000B
001A
000A
0004
0030
0053
FFC5
0008
FFDF
0049
FFE7
0044
FFE2
003F
0041
FFEF
0007
0002
003A
FFD7
FFBF
0020
FFEA
004C
FFBC
0001
FFF1
FFCE
0007
FFC3
0032
FFFF
004A
0019
004C
004C
003C
FFDA
0030
FFE3
000A
FFFA
0032
0005
FFE2
0026
FFE3
0024
001B
FFD2
003A
FFE5
0019
002D
FFDA
FFD2
FFF9
0019
FFDC
FFC1
0023
FFBB
FFE1
0047
000C
004B
FFBA
003F
FFE4
FFD7
0049
0008
002E
003A
002A
FFE0
FFD8
002D
FFF4
FFCF
FFFF
0020
0029
FFF9
0021
FFC9
0019
0033
0030
000A
FFEB
004E
000B
0045
002B
000D
0049
FFB9
FFFB
0008
FFE6
0001
FFD9
FFD9
0022
FFE3
FFC0
003F
FFEB
FFE5
FFBB
0043
FFBF
002A
FFE7
FFC9
004D
001F
0037
0004
FFFE
FFBE
FFF4
FFEB
FFD1
001E
0007
FFE2
001B
FFFB
FFE8
FFFA
FFD6
0020
0025
0019
002D
FFF4
003C
FFF4
FFD6
0007
FFED
000D
0036
FFD7
FFDF
000A
FFCD
0028
000F
FFF7
004A
004B
0013
0007
0034
0025
FFB4
FFB7
0004
FFBA
FFDB
FFC0
0051
0001
0025
FFDC
FFDC
FFD1
0005
0040
004E
FFDA
0047
FFF8
FFF3
FFCC
FFEC
0042
0015
FFE1
FFCB
FFEE
FFF6
FFC8
0018
0042
FFF5
0040
FFCA
0042
FFBA
FFE5
0011
FFCB
0036
FFE6
FFD8
0023
0003
FFFE
001D
FFD6
FFE8
002E
FFCF
FFBB
0026
0006
0050
FFD2
0025
FFD3
FFD0
FFFF
000F
FFF1
002A
001E
0015
0004
000D
FFE4
FFCA
002A
001B
0001
002B
0023
0001
0018
0009
0018
001D
FFCE
0007
0043
FFEA
0040
000E
0040
FFB5
004D
FFC8
FFF6
FFBD
002B
002A
FFBB
FFE5
0010
FFD4
FFF4
0025
FFB8
0027
FFDB
FFF8
FFFF
004B
FFEB
FFBB
003B
0036
FFCC
0002
0028
FFD4
FFC7
FFEC
FFFD
0003
0005
FFB3
0035
FFD3
FFC1
001B
0040
FFC0
FFB7
001B
FFD6
FFE8
0040
0022
0011
0014
0052
0043
0027
000B
0034
0019
FFB4
FFBC
FFB7
FFB6
0003
FFE9
FFFB
0039
0018
FFD7
FFB9
0027
FFFE
0033
002C
0043
0042
003D
FFD8
FFED
0016
000F
0020
FFDE
0018
FFF9
002E
004E
0010
FFB2
FFE0
0018
003B
FFE1
004E
FFF2
FFCA
0006
003E
FFC0
FFC3
FFFF
0011
000C
FFE5
0031
FFC9
0051
FFCC
001A
FFEC
0019
FFC6
002D
0040
002B
0015
FFD3
FFBF
FFDC
FFE8
FFF9
001D
004A
0005
FFDF
FFD5
002D
0008
0010
0044
0010
0033
0027
FFE6
FFC5
FFDF
FFF1
0011
FFDD
FFF0
FFEB
0027
FFDA
FFCD
FFB1
FFE3
FFC8
0025
0043
0034
FFCF
FFE9
FFCA
003F
0039
FFD2
FFF6
003E
FFFF
0009
0038
002B
0011
000A
0000
002E
FFCA
FFF3
FFF5
0009
0015
FFE4
FFE6
0011
002E
0017
FFB9
0024
0002
0002
0020
FFD7
0004
0049
0023
0031
0049
FFDA
0026
0032
001C
0013
FFF2
004E
0009
000F
0013
001A
0008
002F
000E
003D
0034
FFD6
FFF9
FFFC
FFCE
0036
FFFB
FFB9
0042
001F
FFCD
FFED
0019
001A
FFD4
FFF1
0050
FFCD
FFC0
FFC4
FFD7
FFFF
0035
FFE6
0001
003D
FFE5
FFED
0035
FFC1
FFF3
FFEC
FFF6
003E
FFCE
FFFE
004D
002E
0048
FFC8
FFF4
0049
FFE7
000C
FFF1
002C
0035
0047
0001
002A
FFE9
0047
FFC3
0010
0040
0041
0030
000B
0029
FFD6
0045
FFEF
FFE2
FFCD
FFE2
FFE2
002A
FFF2
0016
FFCB
002F
FFDC
002E
FFFE
003B
0047
FFD9
0023
FFCF
FFC9
004D
0022
002C
FFF9
0012
0045
0019
0040
0010
FFFF
0028
000E
001D
FFFB
FFEF
FFE1
FFBF
0008
004C
FFFE
0057
0021
0017
FFFA
FFE8
001B
0030
004F
004C
0008
003C
0003
FFC1
FFE1
0034
FFBE
0047
000E
0045
FFE0
0048
0044
0044
FFCE
FFEE
FFDE
0045
0033
0032
FFE0
0012
0044
FFB5
FFD4
0035
FFEE
FFEA
0018
FFCD
FFCB
FFF7
FFFB
FFCF
0044
0018
FFFC
002A
0013
FFB0
001B
FFE7
FFBB
FFD3
002F
0018
FFFE
0023
0029
FFEE
FFC2
0010
0025
FFE8
FFDF
FFFF
001F
FFCB
FFF7
0024
FFF7
0030
FFAD
FFE5
FFCB
FFEE
0037
002C
0016
FFB7
FFDC
0049
FFC9
FFE0
0034
0043
FFD5
FFD0
001B
001D
FFEF
003D
0049
FFFB
FFE8
FFDB
0035
FFC2
FFBD
FFEE
001E
FFE3
FFB4
003F
004E
000B
FFFE
003F
0037
FFC0
002D
FFD5
FFD9
000C
FFCF
FFB8
0001
FFB3
FFDC
0016
0031
FFDA
FFB3
FFB8
0028
FFBC
0013
003B
FFC6
FFD3
0025
FFE8
0035
0010
001D
0047
0008
001F
0037
FFD9
FFF5
0012
FFEC
001D
0036
FFC0
FFBA
001F
000E
FFF4
0049
FFFB
FFD7
0019
FFFB
0018
FFC6
FFBA
FFF9
FFC7
0048
FFBF
0035
0009
FFD1
0026
FFE5
001B
0034
0010
FFDC
0031
0032
FFD3
FFDE
0013
0007
FFB8
FFE5
0031
0040
FFD0
0039
FFEB
FFFD
0039
0032
FFDD
0045
FFC1
0021
003D
001A
FFBC
FFD0
002E
0006
FFBE
FFDD
0019
0016
0035
FFF4
0004
FFE5
0040
FFD9
FFD5
FFC0
FFEA
FFBC
FFE9
FFDF
FFC2
0048
FFD9
0024
FFB3
FFC8
FFB9
FFFC
002F
001A
001B
FFFC
0039
0009
FFEA
FFD3
FFD1
0049
FFD4
003F
0037
0015
0036
FFBA
FFD0
FFE6
003A
FFF8
000D
FFF6
FFCF
FFBF
FFC9
0022
0019
FFC1
FFC4
FFCF
FFF6
FFF5
FFB9
FFE9
FFBE
FFE1
0039
0017
FFB9
0019
0003
0018
0000
FFEB
0005
FFFE
FFFE
0042
0045
0013
FFF4
FFF4
004B
FFF0
0038
0037
002F
FFCD
003C
FFC3
FFE2
FFEA
FFC8
003C
0046
FFDF
FFCF
004E
FFBA
0035
000A
FFED
FFD0
0003
003A
003C
FFFA
0045
FFDA
0010
0006
0000
FFD2
000A
FFE6
0015
FFEC
0036
0031
FFCD
0031
001A
0025
003C
FFD1
FFD9
FFD7
004E
0016
FFD5
FFC8
FFDC
FFD0
FFAD
0003
FFF8
FFB4
002E
FFDC
002D
FFE0
FFFA
0018
0041
FFC3
FFBF
FFC4
001E
FFB8
FFD2
FFE0
FFD8
FFD6
FFD5
0048
0045
FFC5
FFC6
0037
003F
FFB3
FFFB
002E
0024
FFE3
001C
FFCC
FFD0
FFEA
FFC4
0030
FFD5
FFCA
FFF8
0015
FFEA
0049
002F
001C
FFBF
FFCB
0046
FFCD
000F
FFFB
FFB9
0039
FFD2
FFB4
0034
FFD0
FFBF
0005
004A
FFD4
FFD7
FFBD
0032
FFD8
0011
FFCD
FFCA
FFC0
FFDA
0006
FFF3
0045
FFB2
FFF8
0019
003C
FFD5
FFE6
0008
001A
002C
FFD1
0044
FFCE
FFDF
0014
FFC0
FFED
0021
000A
FFBA
002B
002A
FFEC
FFE2
0003
0020
003E
0026
002A
002E
FFE8
0031
FFD7
0031
000A
0009
FFBB
0012
000A
000E
FFC4
003A
FFC1
FFB0
0026
0039
FFC6
0022
0020
FFBB
FFE1
FFCF
000A
0031
0027
FFE8
0020
FFCE
003A
FFB8
0021
0020
FFE7
001C
004F
0029
FFF1
002F
FFD3
002A
FFF2
0024
0007
0033
0040
0031
0008
FFE4
000C
0002
004A
FFFF
FFB8
0030
FFCF
FFE8
002F
FFB6
FFEC
0016
0033
002B
FFE2
FFBB
0001
FFE4
0044
0001
0007
FFCB
0018
0039
003A
002D
FFF1
FFE8
0040
FFF7
000E
0039
FFF1
003D
FFC5
001F
FFC8
0005
002F
0021
0049
FFB1
001F
FFB9
001F
FFC6
FFEC
FFEB
FFBA
0018
FFEE
0033
FFEC
0006
0009
0039
FFBD
0000
FFD2
000F
FFF1
0007
0048
0038
FFDA
FFFD
0045
FFC0
001D
0002
0032
FFFD
FFFF
FFCC
FFF4
0009
FFDF
0031
FFDD
0042
0037
FFF0
0027
0047
FFB6
FFE4
001B
0042
FFC7
001F
FFF4
FFC1
002C
0036
FFBE
FFCF
FFF5
0005
FFE5
0028
FFE9
0046
FFF8
FFDE
FFF2
0000
FFF2
002B
0020
FFD7
FFBB
FFCE
0004
FFD5
FFCE
0032
FFCD
FFE2
000D
0033
FFE6
FFF0
FFE3
FFD3
FFE9
001C
000A
FFB4
002B
FFD9
0006
0004
0023
0041
0030
0005
FFD7
FFB7
0003
FFD0
0048
0032
002D
FFFD
FFD2
FFBF
0001
FFFA
FFD2
0038
FFFD
0015
FFEA
FFD0
FFBE
004C
0001
FFF4
FFE1
FFCF
FFCE
FFCE
FFF2
FFDE
002D
0041
0026
001E
FFC4
FFDE
002A
FFD1
002E
FFD6
FFDB
FFC9
0043
FFD3
0017
FFD8
FFF1
0044
000A
FFE7
FFB4
FFBE
001B
FFC8
FFE8
003C
0038
003B
FFEF
0017
0047
002A
FFFC
FFED
0043
0035
002A
0012
FFC7
000C
0040
FFF0
0048
0029
FFBB
0001
FFF5
0039
FFEA
FFC7
0025
0028
003E
0048
000A
FFCF
FFF6
FFE5
0050
0040
FFD0
FFE0
FFC1
0005
0032
FFC9
001A
0041
FFDD
FFEF
FFC9
FFEC
002D
FFBB
0012
FFF7
0025
0004
001F
FFB7
FFF2
FFC7
FFC5
002D
FFFD
FFD9
001F
FFC4
003D
0002
0036
0022
FFD3
FFE3
0047
003A
FFFE
0009
FFE1
0049
0035
003A
FFFA
0035
FFD6
FFF1
0003
FFC6
FFD7
0035
FFB4
FFCC
FFCC
002A
0023
001D
002E
0049
FFF9
FFE5
FFFD
FFE7
001A
002B
FFF6
0017
FFC7
FFD0
0048
0043
FFB0
FFAC
004A
0049
001D
FFBD
FFD7
FFD5
0032
0025
FFF6
FFE4
FFC1
FFCC
FFC2
FFCA
FFEE
FFDE
FFBC
FFC9
FFD4
FFE5
FFE6
FFE6
000C
0049
0038
003F
0021
FFE6
0001
FFFC
FFF7
FFD4
0017
002B
003D
004B
003F
FFC7
0047
0034
FFD3
0033
0008
FFE5
FFD3
0043
FFE0
FFEB
FFEF
0032
000D
FFED
0026
0045
FFE6
000F
0044
0039
FFC6
FFD6
0022
0002
FFBC
FFEB
0037
0027
000D
0012
000C
0049
001B
FFC5
FFC1
FFD2
001C
004D
0041
004D
FFF7
004D
FFBC
FFC8
FFD0
FFC0
FFBD
0014
0032
FFEE
FFCA
0038
0005
0038
FFE3
0008
0022
0041
0042
FFC3
FFD3
FFEF
FFF8
FFDD
FFE4
0011
FFF2
FFCF
FFDC
0006
0004
FFBC
003B
0021
0027
001C
0027
FFD1
FFF5
0023
0030
0039
0034
FFF9
0026
FFCF
003F
FFC3
004F
000D
001B
FFEE
0030
0038
0005
FFE4
0003
FFD7
FFDB
FFDF
001B
0017
0021
0017
0011
0035
003E
001F
FFF6
0053
0052
001B
FFD2
FFF2
0049
FFF8
0013
FFD1
FFD4
FFC5
FFFD
0023
003C
FFF4
FFFC
FFCB
0026
004E
FFE3
0041
0007
0001
FFDE
000A
0007
0024
FFF3
0025
001D
FFFB
FFE4
0054
0013
FFE6
0001
FFD4
0050
0015
002E
0012
FFDD
003C
0036
0014
FFED
004F
004C
001C
000A
FFEA
FFC0
FFC3
FFD9
FFDB
0037
0009
0048
0011
FFBB
FFE2
FFED
002C
FFC2
001A
FFE3
FFC2
0047
0049
001E
FFD5
0056
0040
FFDC
FFD0
003F
FFE2
FFDB
FFE8
001A
000D
0049
002F
FFBB
FFBE
FFE7
FFD1
0004
002E
FFE7
FFD6
FFCE
000E
FFF2
0025
0042
0043
FFF5
002B
FFD8
0048
003B
0015
FFE2
FFF1
0026
002C
0033
001D
0037
FFF9
FFED
FFDA
FFD2
0021
0008
000E
0033
FFBE
FFEC
0026
004A
FFEF
FFCC
FFDB
0027
FFDE
0049
FFFF
FFCB
002C
FFE9
FFFB
0014
FFC0
0046
0034
0037
FFB7
FFD4
FFE0
FFEE
FFCD
0016
0049
0023
FFF5
FFF3
0033
FFE3
FFD3
0041
003E
FFF6
0025
FFE6
FFE0
003E
FFD4
FFE1
FFFA
FFCC
FFF6
0001
FFE9
FFDA
003D
0031
FFC9
FFE9
0014
FFBF
0030
FFBD
000B
000C
FFBF
FFD4
0027
FFC8
0029
FFBC
0035
0038
FFFD
0006
FFB9
002D
0016
0040
002F
0042
003A
0019
004C
FFC6
FFBE
003B
0040
0022
0003
FFE4
003F
FFEB
0051
003D
001F
0009
FFE8
FFE6
0042
FFDE
FFDA
FFDE
0037
FFBC
0010
001D
FFFC
0031
001A
0048
FFFD
FFC9
0040
FFC0
004C
FFCC
0022
FFD0
FFCC
0054
FFDC
0023
FFDE
0024
FFE9
0003
FFD4
0022
FFE5
FFD1
0022
FFFE
FFEB
FFE0
0023
FFF8
0052
0034
001C
FFF5
FFF4
0025
002B
0026
0052
FFCF
FFC0
FFEF
FFF7
0020
004A
001C
004E
0049
0033
0006
FFCE
0030
FFD2
0042
003A
0037
0005
0039
002D
FFE1
000A
0023
0019
FFC3
FFEE
0048
0032
FFDF
0004
003A
0013
0022
0017
0004
0020
FFE9
FFFA
FFD5
FFBF
0048
FFB7
0011
FFD8
FFFB
0032
FFDA
003F
0004
FFE3
000B
FFD9
000F
FFD1
FFD3
0049
FFD8
FFE2
FFE1
FFEC
FFBE
0007
002D
000E
000D
001B
FFCB
0036
FFD4
FFEC
0041
0046
0033
FFDB
FFD5
003D
0036
FFEA
FFF3
FFC4
0015
FFC6
0051
FFF0
0010
FFD1
FFF3
FFDE
0036
0038
0055
0040
0032
FFBD
0002
FFF3
FFF2
0002
FFEC
003C
004B
0032
FFD2
FFED
FFC0
003D
0047
FFEC
0021
000F
FFF2
0008
FFD8
0043
FFD3
FFFC
FFD1
000B
FFDC
FFF4
FFCC
0044
0018
002A
FFD0
000D
FFF4
004C
001B
FFEA
001C
0042
FFF8
FFDB
FFDF
FFCE
001E
FFFB
0027
FFDF
FFF4
FFEC
FFEA
0033
002A
FFBE
0013
0015
FFC7
000D
0030
0011
FFD2
004C
FFCD
FFCD
000B
FFCB
0008
FFF2
FFFD
FFF8
0003
FFDB
003B
0041
FFBF
FFEC
0005
0020
FFB9
FFD8
FFBF
0001
003F
001C
0047
0028
0011
000A
FFB8
FFC6
FFE1
0009
0025
0020
002F
FFF3
FFD5
FFCA
000D
0003
003F
0023
001E
FFDD
FFE7
FFDA
0040
FFD8
FFC8
002F
FFDA
FFF0
004E
0008
0011
0014
FFCB
FFC0
FFDB
FFBF
FFC7
FFE5
FFCD
004D
FFE2
0034
FFD6
0006
004E
0045
FFB8
0015
FFF2
FFCF
000A
FFD8
004B
0029
0002
002A
0032
002E
0033
003A
0023
FFDC
FFD6
001C
0036
000D
0049
0022
004E
FFD3
0010
0013
000E
FFCE
FFD2
FFFF
FFFF
FFF6
FFCE
004E
FFC9
0041
FFE7
FFB8
000D
0046
FFC0
003D
FFF7
0012
FFD8
0019
002F
FFBF
0020
FFFE
FFDE
0033
000C
FFC1
FFDE
0046
0050
FFCF
FFC5
001A
FFBC
FFF2
FFBE
FFCB
FFE9
0011
0024
0043
0038
FFDC
0048
003E
0015
FFE8
0016
000F
0041
FFC1
0048
0008
004D
FFE3
0048
FFD5
0037
FFD9
0012
0026
0005
000D
FFBF
0040
0011
0002
FFCF
0054
FFE7
0004
0041
000A
0011
0032
0040
FFE6
FFDB
FFC5
004D
FFC4
0023
FFEC
FFEA
0003
0039
FFCC
000A
004A
0017
0020
002A
FFFA
FFE6
FFC5
0052
FFFB
0016
FFDE
0024
FFC3
002B
FFDB
FFBE
FFD3
FFCD
0033
004D
003C
FFF2
FFDF
0040
0009
0021
0024
004E
0018
004F
004C
0022
0010
FFFC
000E
FFFF
0032
001B
FFF9
0040
0041
FFBB
0022
FFC4
0043
FFB9
FFF6
FFD0
FFF9
004D
0018
FFD7
FFC4
0019
0033
FFF3
004D
FFC5
0025
0052
0047
FFE4
001C
0025
FFC6
0020
004C
FFF2
0040
FFE5
003E
FFE9
FFBD
0002
0038
FFF7
FFFF
FFCD
000F
FFBD
FFF8
0038
0022
FFBD
0005
FFE8
FFED
FFF5
0049
003E
FFDC
0005
FFC7
FFFA
001F
FFFF
FFE2
FFA4
0018
FFDB
0033
002B
0017
000D
001B
001C
FF9D
0002
FFAA
0032
FFD3
000E
FFFC
FFB5
FFEE
FFEE
0022
FFD7
0019
000F
FFCB
0017
FFBA
FFA4
0004
FFD2
FFB5
FFEB
FFA3
FFD7
000D
FFB7
FFB0
0005
0004
FFDA
FFC3
0030
FFE0
0036
FFB8
FFDE
FFAB
FFB4
002A
001E
0012
FFAF
FFF1
0023
001D
FFD2
FFCB
FFFC
FFB0
FFB4
FFFC
FFCC
FFAB
FFE8
FFED
FFDA
0003
FF9F
FFC7
000A
001E
FFC4
FFEF
FFF1
0006
0005
FFDA
FFBD
FFD6
FFB1
FFCA
FFB0
002E
FFAE
FFA7
FFD0
FFF2
FFF1
FFE6
FFE5
FFCB
0029
FFEA
FFD6
0033
001E
FFC2
001F
FFD7
0008
FFC5
FFC2
FFF0
FFE6
0005
0005
0002
FFEC
0021
0025
FFF6
002B
FFD8
000A
000E
FFAA
0013
0004
FFF5
000E
FFFE
FFB0
FFA1
FFC2
FFDA
001C
FFFA
002B
FFE4
FFEB
FFAA
FFC7
FFDD
FFFA
FFC5
FFAE
FFE5
002F
FFE2
0035
FFB2
0032
FFB6
FF9E
FFB9
FFBF
0034
FFCC
FFA3
FFE2
FFDA
0011
0006
FFE1
FFC3
0021
FFE2
002D
0029
FFD2
FFF9
FFFF
0006
FFEB
FFAF
0039
001D
FFE6
FFD3
FF9D
FFA2
FFA3
FFE3
0028
FFD7
FFF8
FFDC
0014
FFFE
FFC2
FFF6
FFE2
FFD8
FFFE
FFE8
FFC2
0019
FFB0
0023
FFC3
FFFA
FFE1
0029
0006
FFE7
FFE7
FFC3
0025
FFA6
FFB9
FFC8
FFA4
FFA5
FFB8
FFAF
FFB3
003E
FFFD
FFF2
FFED
FFAF
FFF9
FFE5
FFC6
FFA9
0012
FFEE
FFD1
0036
0036
0044
FFEF
0017
0009
FFD7
FF97
FFE7
FFCF
FFD4
0022
FFED
002B
0035
0026
0033
0022
FFF4
FFB1
000C
FFB4
0018
FFE8
FFB2
FFFE
FFF3
FFC7
0035
0014
0015
0040
FFE4
FFE1
FFBF
FFF7
FFE9
000D
000C
FFCA
FFBF
FF9A
0004
0028
002D
002D
FFC9
0021
FFDF
FFEC
FFBF
002F
FFB0
0032
FFD9
0007
FFCA
FFE7
0002
FFB2
0033
0001
FFA0
FFD8
FFA6
FFB4
FFA2
0017
002D
FFFA
FFC5
0012
FFA8
FFA0
FFBE
0037
0003
0016
FFC6
000C
000B
FFBC
0031
0002
0026
0014
FFD1
0017
FFC7
FFF2
0028
FFC2
FFCC
FFE6
0023
FFE3
FFEB
0009
FFA9
FFB6
002E
FFE1
002A
001A
000D
FFCA
FFBC
FFF4
FFE9
000E
0016
0021
FFF5
FFF6
FFCC
0012
0024
FFA6
FFEB
0006
FFD8
0010
001C
FFEE
FFB2
001E
FFEB
0013
FFC5
FFB3
0018
FFDB
0039
FFEC
FFBC
FFDF
0032
FFC0
0029
FFFD
FFB0
0036
FFFF
FFDF
FFCE
FFE0
FFFD
000E
FFC6
0005
FFC3
000C
FFDC
FFE3
FF9F
FFC4
0035
FFB3
FFF3
FFD8
FFF2
0020
000C
FFCB
FFEC
FFFE
0028
FFD8
0034
FFDF
FFE4
FFB4
000F
FFCD
FFFD
000C
FFD2
FFB9
FFA8
FFC3
FFCC
FFE5
0033
0005
FFF0
0013
FFA7
0012
FFE0
FFE5
FFE0
001F
0012
FFDB
FFB4
0024
FFA9
FFEF
FFE9
0028
0012
FFD4
FFF1
FFA9
FFA0
002F
FFCF
FFBC
FFEA
FFA2
FFFE
FFAD
000B
FFDA
FFC0
001A
FFE8
FFCE
FFD8
0042
FFD5
0006
0029
FFAD
0000
FFAD
FFB4
0004
FFA1
FFD8
002E
0026
FFC2
0022
FFB2
0002
0034
FFB6
FFFF
001A
FFCB
0005
000E
FFDF
FF9F
FFD4
FFE0
FFAB
0007
FFAD
FFAB
FFD1
FFD9
0012
000E
FFC5
FFCF
FFBA
FFED
FFD1
FFCE
FFCF
000F
0007
FFE7
001E
FFE3
FFB6
FFEC
FFD3
FFF7
0015
FFD1
0028
FFF9
FFA2
FFF3
FFC4
FFEF
FFF7
0016
FFCE
0024
FFF2
FFEC
0002
0021
000F
FFBA
001C
FFD1
FFAB
FFDD
FFC7
FFAB
0030
0043
FFA5
FFF2
FFF2
0031
FFCD
0000
FFF9
0017
FFAD
003D
0029
FFB9
FFD7
FFDC
FFB2
0026
FFFE
FFA9
0009
0016
FF9B
FFFE
FFCB
000E
FFE8
FFBF
FFD3
000C
FFFD
FFD2
0026
FFB9
FFAC
FFFE
FFE3
FFC0
FFB1
FFE5
0017
002A
FFE5
FFB0
FFD7
FFCF
000D
FF9D
FFEE
0010
FFBD
FFA7
FFBE
FFFD
FFF8
FFE0
003B
0039
FFE3
0034
FFE2
0016
0032
0026
FFE9
0018
0009
FFB6
0033
000C
FFFC
FFB8
0022
FFAF
000A
0035
FFE8
0005
0020
0035
FF9E
FFE3
FFA9
FFD3
FFF3
FFE2
001F
0016
FFE6
FFBC
0017
FFA9
0024
002B
FFC0
FFD0
FFF0
0013
0026
FFEB
002B
FF9F
0013
FFD2
FFAF
FFF8
FFBB
FFCC
FFED
0010
FF9E
FFEC
002A
FFE5
001F
0027
FFDE
FFF0
FFC4
FFA7
FFAB
FFEF
FFD6
FFB8
FFC4
0034
FFE9
000C
FFF4
FFD3
FFA3
FFF8
FFC1
0014
FF9E
FFF7
002A
0002
FFFF
0022
000F
FFC7
FFDD
FFCA
FFFA
FFA9
FFD4
001D
000F
0027
FFE9
001D
0015
000D
0037
001E
FFBF
FFE4
0021
FFBC
0033
FFF7
FFF0
FFD4
FFA6
0022
000B
FFC5
FFE8
FFC0
FFDE
0014
FFA4
FFCD
FFC4
FFDE
000C
FFCA
FFC4
0009
0020
002B
FFF2
FFB7
0024
FFE9
FFF5
FFE6
FFBE
FFA9
FFE4
FFA3
0027
FFB7
FFEC
0011
FFE6
FFF4
FFBB
FFF7
002F
FFB1
FFD0
FFE7
0007
FFBE
FFBA
002C
FFC3
FFAB
0029
0008
FFCB
FFF7
0028
003B
FF9E
002F
FFA6
FFB2
FFC8
FFCB
FFCB
FFC6
FFA2
FFA8
FFEF
FFD4
001F
FFF7
0019
FFC5
001F
001E
FFEE
001A
FFB4
FFEB
FFAF
0024
0002
0026
FFC1
FF9F
0006
FFFA
FFB4
FFB8
FFE2
0035
0012
0029
FFEB
FFBC
000A
0009
FFAB
FFFF
FFCC
000C
FFD4
0027
FFED
FFD3
002F
FFE3
000A
0021
FFF7
FFFA
0025
FFD0
004C
FFDA
0044
0025
0003
FFCB
0033
FFFA
004B
0041
0005
FFF1
0029
FFE1
FFC8
FFE7
FFEE
0038
FFDD
FFCB
FFF5
003A
FFB7
FFC0
FFE2
0031
0041
FFEF
FFE6
FFE8
0030
002B
FFEF
FFEA
0025
FFB2
FFCF
FFCA
FFBD
0019
FFF0
0035
FFCF
0032
0000
FFDF
002A
FFB9
0012
FFDD
FFCC
0000
FFDF
003A
FFEA
0025
FFF0
002E
0005
003B
FFE4
FFFC
FFD5
0031
FFB5
0049
0027
001E
0026
0017
FFDA
001C
FFFC
0040
0008
FFC8
FFDD
FFC0
FFD0
0052
FFE0
003A
002F
0014
000D
000D
FFE4
FFD0
FFB9
0003
FFB1
0045
001F
000A
FFC6
FFD0
FFFB
0021
0014
FFD4
FFC6
004B
0012
000A
0033
FFD0
FFE2
FFF4
0034
FFD4
0016
004E
0006
FFEA
FFDC
002D
FFE6
FFFF
FFE5
FFD0
003D
FFDC
0009
003A
0005
0029
FFD4
0039
0007
000E
0008
003F
0040
FFC1
FFD3
0026
FFF6
FFBE
0044
0002
0031
0006
FFB7
0032
FFD8
FFC1
FFF4
FFC4
FFBE
FFF5
FFC4
0028
FFB6
FFC8
FFC9
FFD2
001F
003A
FFFB
0009
FFDC
FFCE
FFCE
FFEF
0052
FFDF
FFC7
0000
0010
FFD9
FFE2
FFCC
FFE7
FFE3
003B
FFBA
001D
000B
0007
FFDC
FFEA
001F
0040
FFBF
FFE5
0042
0009
002C
003D
0007
003F
004E
0025
FFB4
FFC9
0029
0002
0046
0047
FFDD
0029
0028
0030
FFC0
0035
FFD1
0045
0024
FFC8
FFEB
0042
FFE7
0004
0002
0008
FFEF
0011
0016
FFE3
FFE2
FFC7
FFBF
FFFE
FFF8
FFD8
0011
0036
FFCD
0048
FFEB
004D
FFB8
FFC6
FFBA
0025
000E
FFCB
FFC5
FFDC
FFC0
0044
001B
FFF9
004C
FFD4
0011
0005
000F
FFEB
001B
FFEF
0012
FFE4
0035
FFD7
FFE9
000B
FFD4
FFFE
001F
FFC1
0033
0028
000B
FFEA
0024
FFC9
004C
0005
0024
FFDD
001C
FFE1
0020
003B
001E
003F
FFF3
0007
FFCA
FFD3
001A
FFC2
0049
0030
0000
002B
FFD5
FFF5
FFED
FFDF
FFF0
FFE4
0046
0007
FFE0
FFC9
0035
002B
0019
FFF9
0001
0015
0046
FFC4
FFEA
FFDD
0020
FFD2
0042
FFFC
FFCA
FFFB
FFEE
FFD5
001E
FFF3
004F
0035
0036
000E
FFFA
002C
FFE0
FFC6
0000
0031
0022
0040
FFDB
002D
FFDA
002C
003A
002D
FFCA
FFD4
000A
FFD5
0013
FFC7
0008
0026
FFE5
001F
0008
FFDD
FFDE
004A
FFD4
0013
FFF8
FFCF
0035
FFC8
FFF9
0010
FFC6
FFE5
0017
FFC6
001F
FFC2
FFE0
FFC1
0002
FFC9
002F
0048
003E
FFEA
FFDF
FFE9
003B
FFDF
FFB6
FFE0
004D
FFEA
FFFB
0039
0020
0023
FFE8
0039
FFE8
FFD7
0000
FFD4
0012
FFE1
000B
003E
0033
FFDE
000E
004F
0009
0023
FFD7
FFE4
FFD6
FFE6
FFF5
000E
0035
FFD3
FFBA
0048
FFF8
0027
FFFF
FFDA
FFF7
0048
FFD4
0015
000B
0026
001D
0030
0042
0044
FFE0
FFE3
FFE7
0047
003F
FFCD
FFBF
FFF6
0028
FFD3
002F
FFF6
0027
0023
FFE6
FFDD
004A
002D
FFE8
0036
FFCC
FFFA
FFF4
0006
0042
0045
000A
FFC9
0006
000D
FFE5
FFC2
FFE9
FFF8
004A
FFF0
001D
0034
002E
0046
0008
FFBA
0043
001A
003B
FFFB
FFFD
FFF6
000E
FFF1
FFC0
001E
0010
0010
FFEE
FFF7
FFF0
FFEB
FFCA
0019
003B
0007
0015
FFD5
001B
FFF8
0036
FFF6
FFD5
0026
001F
FFF6
002C
004F
FFE4
FFC3
FFE5
FFB8
0033
FFDC
001F
FFE3
000A
0002
FFDC
0019
FFE4
FFBF
0009
FFE2
FFFA
FFE9
0032
001D
FFF5
004B
FFD2
0036
FFDB
FFF1
FFEA
0004
0005
FFE7
FFE5
FFF8
0042
002B
FFD8
0044
004D
0006
0003
FFC1
003F
0024
000B
0031
FFDB
0024
FFE0
FFD5
FFF6
FFBB
004B
FFDB
0010
0015
0043
0035
FFF2
0010
004F
0038
FFD7
FFDD
0049
FFEC
FFC8
000E
FFCB
FFDD
0007
000C
0026
FFB3
0034
0014
FFF3
003D
FFD5
0002
002B
0042
000C
FFCE
FFED
FFDC
FFEB
FFD8
FFEF
0011
0014
0040
FFFE
000B
FFCB
003B
FFC2
0030
0025
FFC1
FFE0
FFC4
FFE5
003C
FFE8
000F
0047
003F
0019
0050
FFC6
0040
0031
FFEE
0008
FFB7
0014
FFEC
FFEA
004A
FFC7
000A
0036
FFE4
002E
FFBC
FFE0
0005
FFF6
004F
0044
FFD4
0007
FFEF
0024
FFE6
FFEA
0003
003F
FFDA
0006
FFC1
FFD8
0028
FFFA
FFE5
FFC2
FFE6
0035
0006
FFEC
0049
FFC9
FFC4
FFF2
FFF1
FFEE
FFF6
0003
000C
0047
FFD4
FFB5
0028
0001
0032
FFD4
001D
FFD0
0049
002F
0001
0038
FFF1
FFCE
FFE3
0009
000F
0049
FFF9
0022
FFEC
FFD1
0011
FFBB
000D
003A
0032
FFE4
FFD8
004C
FFB9
FFB8
0032
FFFF
003A
FFBB
0024
FFD8
0049
FFF1
FFC3
FFBE
FFFC
000D
0000
003A
0007
FFDC
000B
003B
FFF7
FFC6
FFBE
0022
0000
FFC2
0025
004E
0028
FFC7
003F
0013
FFED
FFBC
0021
FFDD
FFF6
FFC1
0023
FFE7
0039
FFCE
FFB2
0014
003C
FFC2
002F
000E
0046
FFCA
000B
FFDD
003F
0032
FFE0
001A
0039
FFF8
000D
002B
0030
0010
FFBF
FFC2
001A
0024
0041
0033
001A
FFC7
FFBD
0002
FFE6
FFD1
FFD4
FFDF
FFBD
004A
FFF2
0049
0037
FFC7
FFC8
001F
FFC3
0044
004D
0022
001C
0018
FFDE
FFBF
FFFE
000B
FFFD
0018
001C
0038
FFC2
0017
000B
FFD6
FFD0
FFC5
FFDB
FFE1
FFCC
0020
001C
0004
FFD9
0036
FFF2
0043
0005
0044
0035
FFD3
0046
FFEE
FFC4
000C
0024
002D
0005
FFDB
0039
FFBC
FFF8
FFF8
002D
FFD1
FFFB
FFF3
FFED
FFF6
FFBE
003F
FFCA
0047
FFC5
0038
004B
0006
0033
0035
FFFD
003B
003C
FFE8
0002
FFDA
0028
FFED
FFD1
FFEA
0015
FFBA
0024
0023
0037
001D
001B
FFB7
0022
003C
FFF3
000A
001E
0038
FFFC
001B
0024
FFED
FFF7
0053
FFE0
0031
FFB8
0044
FFC0
FFCF
000C
0039
FFDA
FFC2
FFD1
0007
FFFA
0009
0051
000B
0027
0007
0005
FFF5
0026
0019
FFEE
001B
0002
0002
0007
003D
FFF4
FFFB
003C
FFBD
0001
FFE5
0015
FFF9
FFC1
FFC1
0000
FFB4
FFB6
0028
0051
FFFD
0044
FFEA
FFEA
0030
FFE5
FFE8
FFEB
FFD7
FFDD
0005
FFB8
FFE3
003D
003C
FFF2
001C
003A
0035
FFF8
FFD5
FFE6
001F
0051
0048
FFCD
FFF5
0037
0014
FFEC
FFC9
FFEC
0039
FFF4
0035
0013
FFFE
0050
0035
FFD9
FFEC
FFE5
FFEF
0008
0030
000B
FFE3
FFF4
FFDE
0026
003C
FFEF
0030
0015
000A
0025
FFEF
0039
FFBD
FFCE
0028
FFDC
0000
003B
0053
FFBD
FFDC
001B
FFC9
FFDB
FFC9
FFD4
FFF4
FFEC
FFE2
0025
FFD0
0012
004B
FFCA
FFCC
0019
0042
000D
0045
0026
003C
FFFA
FFEF
0021
FFCF
0044
0004
000D
001D
FFE4
0023
FFEE
003C
0005
FFE5
FFDC
0000
FFBA
0033
FFF4
FFD3
FFC9
FFD9
0016
FFFB
FFD6
FFE7
001F
0007
000C
0051
FFDF
FFD0
0020
FFC3
FFD7
FFBA
FFD0
FFD7
FFFB
FFE7
0029
003D
0048
FFF2
FFB6
0042
FFB8
FFBD
FFC6
0043
FFC6
0030
0034
FFEF
0041
0054
001E
0044
FFBC
0001
0036
0012
0005
FFEC
FFD7
000C
000A
002A
FFCF
FFB5
000C
FFD8
FFC4
0000
0039
0037
FFFB
FFB7
FFDA
0030
004E
FFB8
0033
0017
FFEE
FFFA
FFC4
FFF7
FFD5
0044
FFBB
002B
0038
002D
0051
002F
0011
FFFF
FFFE
0046
FFC1
002F
FFF1
0044
FFCD
000D
0033
0037
0047
004A
FFC6
0004
0035
FFF5
0016
0002
002F
0027
FFE6
001C
0016
003A
0026
001B
0048
0011
FFC7
0034
FFE7
FFE5
FFBC
0010
0027
004F
004B
FFD8
000C
FFD5
0009
FFD5
0017
004E
003D
0037
0007
003C
FFBE
0041
0004
0023
FFF1
003C
FFED
FFB6
FFB6
FFD7
FFF8
004E
0022
0011
0033
0025
0038
0024
FFF4
FFBC
FFF6
000E
FFFC
FFE1
000F
002D
001E
FFFE
002A
0017
0048
0054
FFD4
0002
FFE2
001A
FFF5
FFE1
FFDD
FFF0
FFFA
FFCE
0037
FFFC
0047
0038
0015
0003
0024
FFF6
FFE9
0014
FFD2
FFEE
0042
0043
FFC1
0009
001B
0021
FFE2
0054
FFC7
0021
FFF6
0003
FFBD
FFF5
FFFF
000C
0033
0028
FFBB
001C
FFFC
FFD9
FFDF
FFE2
003F
FFC7
0018
FFED
0041
FFCA
0001
0024
FFFC
FFF1
0045
0053
FFCE
0032
0008
000F
004B
FFE1
FFF4
FFC8
FFCD
003F
0004
0013
FFEF
FFD9
FFD4
FFBA
0008
000C
FFBE
FFD8
FFD5
FFDB
FFC2
001A
FFDA
0024
0049
0027
0014
FFE8
0012
000B
003B
0001
FFCA
FFCE
000C
0047
000D
0049
FFC5
FFDA
FFC8
FFF5
FFC3
FFD3
000E
FFCA
FFCC
0045
FFD0
0020
FFBC
0011
FFEC
0016
0005
FFB8
004A
0044
001E
0023
0018
FFC3
0043
FFE4
FFF3
FFE0
FFF0
000E
002D
0043
FFD8
0036
0010
FFEA
FFE2
002A
FFED
FFF4
0010
FFE9
0035
FFE9
0026
000E
FFEF
FFD5
FFF5
FFC2
FFD5
FFC7
FFEA
0043
FFDC
004B
004D
003B
0023
0049
001D
0031
0044
000A
0050
FFC9
FFC6
0042
003B
FFC9
002A
003F
FFF1
002A
0045
FFEC
FFEF
FFBE
0034
0032
0016
004E
001E
0031
000C
FFD2
0003
004A
0024
003C
FFE8
FFF1
FFB9
FFC1
0040
0018
0047
FFF9
0010
0015
0005
0050
FFD3
000C
003A
0042
FFCF
0043
FFB7
FFF3
004C
0010
000F
FFCA
0033
FFC9
FFD9
FFD6
0025
000C
0030
FFFC
0047
FFD7
FFFE
FFE3
FFFB
0016
FFC0
FFDF
FFD2
002A
000E
0019
002D
0020
0019
0005
002E
0021
0008
FFC1
FFC6
0035
0001
FFCD
000A
FFD7
0007
FFC6
0038
FFCA
FFE9
FFFF
001E
FFE5
FFF1
0028
004B
FFF5
0008
0005
000E
001C
FFE1
FFF4
0048
0001
FFCA
0010
004B
FFE5
FFDA
FFFC
FFF3
FFD8
FFFF
001E
0006
0033
0021
0048
003C
000D
FFDD
FFC2
FFB8
001A
FFC1
001A
002C
FFC1
0012
FFDC
FFB9
FFD2
FFEA
FFC2
0038
000C
FFD9
0019
FFDB
0043
003F
FFDC
FFF5
FFFD
0035
0049
003B
0039
FFE0
FFF1
004D
0004
002F
004A
FFF4
FFC4
0029
0048
FFEC
FFB6
0016
FFF8
003E
003D
0029
0032
FFD9
004B
FFCC
FFE6
0003
003D
0043
0006
FFF8
FFC6
FFCC
0005
0015
004A
0024
0039
FFDF
0029
FFE9
FFE9
0014
FFEE
FFBF
FFE0
FFFB
FFD6
0033
002C
0038
FFFC
FFE0
FFD4
FFEC
FFDE
0042
FFFD
FFF5
FFDB
0026
0029
FFE5
0020
002F
FFF2
FFD6
0010
FFCB
003C
FFD8
0005
FFDE
0000
0036
002F
0026
FFC9
003E
0002
FFE0
FFE8
0027
000A
FFD6
FFF6
0042
FFC1
001B
0003
FFC5
0024
001A
0010
0032
0029
FFD8
0031
FFEA
FFE5
FFC6
0005
0040
FFE9
0018
FFAF
0009
002A
FFC2
0039
0036
0040
0021
FFED
0011
FFC7
FFAE
FFC7
0018
FFFC
0024
FFAE
FFD3
FFED
FFE1
FFD8
FFD4
FFC0
FFC4
FFC8
0022
FFB5
0040
001A
0027
FFFE
FFFC
FFE8
FFEE
FFD6
FFB5
FFB9
0018
FFC0
0033
FFE9
FFBD
FFEB
FFCB
FFAB
FFF0
FFFA
FFCF
FFD1
0008
0016
FFF5
0010
FFE1
0019
FFD9
0011
FFB7
FFCA
FFD7
002A
002F
FFB3
000B
FFEA
003F
0017
0034
FFC1
FFC5
0017
FFE5
0021
FFA8
FFF6
FFBA
FFE7
FFCD
FFC7
FFDD
FFE7
001A
FFD7
FFFF
0010
FFFD
0030
FFA7
FFF4
FFFB
0006
0030
FFDB
FFB0
000A
0008
002B
FFE8
FFEC
FFA9
FFE0
0029
FFB0
FFEB
FFA6
0000
0017
001B
FFF3
FFA6
0039
000F
0018
002A
FFD1
FFD1
FFE5
FFC1
FFEF
FFAE
0008
FFBC
000B
FFC4
001A
FFDB
0035
FFD2
FFBA
0027
FFD9
002F
0013
0035
FFAB
0023
FFA8
FFBA
0026
0011
0001
001A
0001
FFF8
0007
FFC2
0011
FFAF
0020
0002
000B
0003
0012
FFC4
0007
0003
FFD9
001E
FFCF
FFAA
FFF4
0021
FFE4
000D
0037
FFD6
FFB5
FFFE
FFCD
FFB7
FFA7
0022
003B
FFF9
0039
001D
0031
0006
002C
FFF7
0023
FFBD
FFBA
002E
001D
0006
FFB5
000F
0022
0003
0012
0021
0004
FFDD
FFBB
FFFE
FFB1
FFE5
0026
FFAD
0037
FFEC
FFD3
000F
0041
0009
FFBA
FFA7
0000
0004
FFF1
FFD0
FFE6
001C
0013
FFA7
FFE8
FFC1
FFB0
FFBD
FFE0
0010
FFD5
FFEE
002B
FFC8
FFFA
0003
000F
FFC9
FFC7
001C
FFCB
FFB3
FFFA
0004
FFF8
FFB6
FFFC
FFEA
FFCB
001B
0036
FFF9
FFB8
0005
FFF8
FFC2
003B
0014
0013
0010
0017
FFB0
FFDD
FFC3
002F
0015
FFE4
FFE7
FFE1
FFFD
FFB4
0013
FFB6
FFFE
FFA8
FFED
FFAC
FFB0
0025
0029
002B
FFEB
FFEF
0038
0009
FFCB
FFA6
FFD7
0023
FFE4
0026
FFE0
FFC0
FFD1
0010
FFAE
0021
0034
FFB2
0010
FFD8
FFE8
000F
FFB0
0009
FFB0
FFD2
FFC1
FFF8
0025
FFEA
FFE0
FFA5
FFAD
FFF2
0038
FFB7
0033
FFAC
0016
FFAE
0005
FFDD
FFE3
FFFD
FFB2
FFC0
0008
FFD1
FFB9
FFAB
FFBD
FFD7
FFE6
FFEA
FFB9
FFC2
FFAB
0013
003F
FFD0
0020
001A
0036
0026
0024
0039
FFB3
0002
FFC8
0030
FFFE
FFE3
FFF0
FFE1
0024
FFC2
0025
FFCC
FFA9
FFC1
FFB0
0008
FFD9
FFA5
FFD9
0005
FFE1
FFF9
0007
FFE9
FFF7
FFEF
FFC2
FFEE
FFAA
FFB7
FFBA
0033
FFC1
FFD3
0033
0019
0044
FFC1
000F
FFB6
FFFF
0034
0033
FFE0
FFE2
FFB3
FFAA
0038
FFC8
FFF3
000D
000D
FFC0
0033
0013
000C
FFFF
FFE0
0028
0015
FFA4
000F
FFD3
FFB4
0019
FFB6
FFAA
FFAE
FFE5
FFBC
FFDD
0036
FFCE
0022
FFF0
FFC5
FFD6
000B
FFF8
0001
FFAA
0016
FFF4
FFEB
FFED
FFE3
FFD5
0035
000E
0029
0007
FFDA
FFB3
001E
FFFE
FFC4
FFE0
FFCF
FFDA
FFA8
FFF9
FFF4
0002
FFB6
0018
FFB5
FFF2
FFD5
FFAA
0005
0001
0038
FFAC
FFCB
FFA7
FFC3
FFE0
FFED
FFC5
0025
002B
FFDB
FFB6
FFDC
FFA0
FFC7
FFBF
0000
002C
0002
003B
FFDE
0001
FFD1
FFAC
FFE8
FFDF
FFD5
FFEA
FFFB
0019
002A
FFAF
FFD7
0028
FFF7
FFB0
FFCC
0020
FFB3
001C
FFAA
0004
0019
0033
0011
FFE5
003A
0018
0038
0033
FFD5
0014
0005
FFEA
FFEC
FFAC
FFDB
002B
002A
FFC4
FFF3
0000
003A
FFCC
FFE7
FFBE
0031
FFB9
0012
FFE8
FFE7
0008
000B
FFEF
FFFE
001A
0026
FFFD
FFF2
FFB9
0040
FFD9
0004
FFAA
003E
FFAE
0026
0012
FFCF
FFE3
FFFE
0014
0012
FFEE
001D
FFA5
0014
0003
FFA5
0029
FFDE
0006
FFB6
FFE6
0012
FFCB
001A
0020
FFAD
002E
FFDD
FFBE
FFF5
001E
FFF1
001E
FFAF
FFAB
FFCA
FFFB
FFB9
FFF4
FFCC
FFC5
FFA6
001A
FFFD
FFBC
FFEF
0017
0003
FFAA
001C
FFE4
FFF6
FFFF
FFF2
0018
0029
FFFE
002A
001D
003C
001A
FFBD
FFA7
FFB8
FFBC
0038
FFC3
FFA7
002C
FFBF
FFE2
0029
FFAB
FFCC
0010
FFD0
0020
FFBA
FFE9
0029
FFFF
001C
FFCE
002E
FFBC
0003
0024
FFB5
FFFD
FFEB
0040
FFDB
002C
0017
0043
0033
0020
FFAB
002E
0006
0022
FFC6
FFC2
FFBF
FFDC
FFED
FFF3
FFDA
FFBF
0026
000F
0003
FFF9
FFDB
0031
0004
FFF3
FFFB
FFDA
FFDF
FFBC
0036
003A
FFE6
0028
FFA9
FFDD
000D
FFF9
FFE5
FFA9
FFF9
FFCA
FFCE
0009
FFD2
FFD3
0014
001B
0036
FFCD
FFAF
FFD0
FFB9
0037
FFF5
FFC1
FFB7
FFBB
003E
FFDA
0016
FFAF
0033
FFD1
FFCA
FFAA
FFD2
0022
0036
FFFA
FFD5
FFD5
FFAF
0035
FFC2
0035
0013
0036
0024
0007
003F
002F
FFED
0016
FFF9
0034
000F
FFCA
FFA9
FFB9
FFF3
0006
FFC4
0034
FFD8
FFA3
FFC2
003D
0002
FFEF
002D
FFCE
0000
0004
FFC9
FFF2
FFB3
002F
FFF1
FFFF
FFEF
0023
FFDC
FFD4
FFE9
FFE0
FFB9
FFEB
FFB8
FFE7
FFFF
FFC5
FFCC
0000
FFB1
FFB7
FFF8
FFC7
000A
0026
FFAC
003C
001B
FFCC
FFC6
FFEF
FFD8
002D
FFD0
0001
FFB7
FFD9
FFD6
FFDC
FFBB
FFA8
FFCC
FFA4
FFAF
FFCA
0028
FFCD
FFE6
FFBD
FFC4
FFE8
0034
FFBA
0003
FFEA
0018
FFD6
FFF2
FFBC
FFAF
FFBF
FFB8
FFB0
FFF5
0025
FFB3
0000
0013
FFB1
0017
FFAA
FFD7
0010
FFD8
002B
000C
0000
FFEA
FFA9
FFDA
FFC6
FFD9
000B
FFCA
FFC5
0035
FFDD
000B
FFDA
FFFA
FFF7
FFD0
FFF3
FFAE
FFC1
FFD0
003E
FFEE
FFC3
FFA0
FFB8
FFB4
FFA7
FFD9
FFE6
FFD1
FFEA
FFAE
FFB8
0036
FFB6
FFBB
FFEE
FFCC
FFB0
001B
0025
0020
FFCB
0003
FFC5
FFDF
FFA6
FFF2
FFEE
FFCA
FFD3
0024
0010
FFE4
FFD5
0021
FFFB
FFB9
FFCA
002C
0023
FFA7
0007
FFB7
0006
FFD9
FFD7
FFC2
FFFF
002D
FFB7
FFD7
002F
FFF8
000B
0031
0014
FFF2
FFBB
FFAF
000C
001A
0026
FFD4
FFC8
FFA2
FFF2
0036
FFF1
FF9C
FFEF
000E
FFD2
FFF5
FFD7
FFEC
FFE8
002E
FFB0
FFA8
0018
FFF4
FFB8
FFB4
001E
FFFA
FFF8
FFAF
002B
FFBA
FFA1
FFE8
0023
FFE1
0033
0016
0010
000A
FFB2
000D
001A
FFB6
FFE1
FFFE
FFF1
FFEF
FFCA
003C
0005
0035
0005
FFC3
FFC5
FFDF
FFBD
0018
FFF3
FFDF
FFA8
FFBD
FFA6
0014
FFDA
FFAA
FFCE
FFC5
FFB7
002B
FFA9
0013
FFC5
FFBA
0007
0004
FFAA
FFA3
FFB7
FFA8
FFDE
0017
FFB4
FFA9
0033
FFAE
0035
FFAD
FFB0
0035
FFE6
0003
FFCE
0024
FFA3
FFE4
002A
0013
FFA0
0023
FFC5
002D
FFCA
0023
FFCE
FFEF
001D
001D
FFBC
0035
002F
FFF5
FFBB
FFB0
FFB8
FFBD
002A
FFF9
FFC5
FFD6
FFAE
0012
FFC8
FFEF
FFDF
FFA3
0008
FFAE
FFE8
FFE2
001C
FFB2
FFFA
0018
FFBF
FFE9
FFB1
FFB7
FFCE
FFBD
FFA1
FFD4
FFC7
0011
001C
000E
001A
FFF5
FFE7
001A
FFF7
0038
FFE4
0030
FFA8
FFE9
FFB2
0004
FFD6
FFD8
0016
0002
FFF3
000D
FFC9
FFCE
FFE3
002A
FFFC
0003
FFA8
FFCD
FFE0
FFBF
001F
FF9D
FFF3
FFD6
FFED
0009
0017
FFC8
FFFA
000E
0026
FFCC
FFB7
0021
FFBF
001A
001D
FFA8
FFC4
FFD0
0012
000D
001D
0022
FFEE
0029
FFAB
FFEE
000D
FFDC
001F
FFE5
FFFF
FFDA
FFEC
FFA4
000B
0028
FFD3
FFCC
FFCB
000F
FFC3
FFE9
FFBB
002F
0020
FFBF
FFBD
FFD1
0023
FFE9
FFB1
FFF5
FFB3
0023
FFF6
FFA1
0005
FFAA
FFDC
FFE0
FFA5
FFD8
000E
FFD6
001A
FFCA
002B
FFC3
FFDF
002D
0007
000D
FFD6
0023
FFD9
FFBC
FFDE
FFAD
FFEF
FFA1
FFE5
FFBF
FFD7
FFC5
FFF1
0006
0030
FFBF
FFB5
FFE6
0024
0006
FFF6
FFDC
000C
002E
0032
FFB9
001C
FFD5
FFE0
0003
FFF7
FFCC
FFA6
001D
FFE5
0029
0015
0037
FFD4
FFEE
FFEC
FFDB
FFE8
FFA2
FFAC
0034
FFCB
003F
0029
FFC4
FFBD
FFD5
0020
0012
FFD0
FFFD
FFB6
FFED
FFF2
0018
FFA5
FFA4
FFF5
0032
0008
FFF0
FFFE
0028
001C
000A
FFB0
0002
FFF6
003F
FFD2
003A
0006
FFF7
001D
0025
FFDB
FFA3
0032
FFC3
002C
FFC0
FFCA
FFA8
0011
FFA8
FFA9
FFAA
0011
FFA7
FFEB
FFA9
FFAC
FFDB
FFD2
0029
FFED
FFB7
FFBD
FFBF
FFC3
0036
0008
0008
002E
0029
FFF5
000E
0016
FFB3
FFBA
000D
FFF3
FFA6
FFBC
0005
0012
0011
FFB5
FFF3
002C
FFED
FFDD
FFD2
FFFA
002A
0009
FFE9
FFEE
FFD6
0021
FFF5
FFC6
FFC4
FFBF
FFB8
FFD8
FFBC
FFFA
0019
FFD1
002B
FFAF
0031
FFF1
FFEB
001D
0030
0000
FFBD
000F
FFE9
FFB0
FFDD
FFA4
FFEA
FFB4
002F
FFDF
0012
FFDD
FFD1
FFB3
FFE5
002E
FFD9
002D
FFE8
FFC0
0026
FFDC
FFCB
FFE9
FFF3
FFDC
FFF0
FFC4
FFFF
FFCB
FFCE
002A
0016
FFB6
FFB4
FFD8
FFAE
0007
FFCC
FFD9
FFF1
FFC8
0011
0012
FFB5
FFE7
FFEE
FFB1
FFC5
0003
0036
FFF9
FFE0
FFE5
FFE1
0031
0004
FFCF
001E
FFE1
0009
FFC2
000F
001A
FFD7
FFBC
FFF4
FFB1
FFC1
FFAF
FFB6
FFD9
0002
FFA1
FFDC
FFF9
0010
FFD2
FFB7
FFCB
FFBE
FFC7
0020
FFCF
000D
FFB9
001E
FFF1
FFDB
FFF6
0020
001A
001A
FFB3
FFF1
0010
0025
0019
002D
FFA8
0025
FFCA
000A
001B
FFE4
FFE8
FFB9
FFAE
FFFA
FFD9
FFDC
FFCF
FFD7
FFFF
FFC5
000A
FFE2
FFB9
0000
0017
002E
000E
FFF4
002A
0007
0016
FFFB
FFEB
002B
FFE0
002F
FFA6
FFD5
000A
0037
0014
FFD5
FFD8
002B
FFF2
FFB9
0023
FFA9
FFE3
0005
0015
FFC4
001F
FFD8
FFB1
FFF3
FFDA
FFAC
0031
0001
FFF7
FFF5
0034
FFF0
FFA4
FFE0
FFFE
000E
0031
FFA3
FFC6
FFB6
FFDD
FFCB
FFEE
FFE2
0001
FFF1
FFFF
002A
FFCD
FFDE
FFCE
FFE0
FFE8
0031
FFAE
FFF4
FFD8
FFB2
FFAA
0037
0029
FFC6
0008
FFF2
FFC5
FFF5
FFD5
FFE9
FFB0
001C
001C
FFEC
FFEE
FFB6
FFE0
FFE4
FFD6
FFB4
002C
000C
0000
FFA9
FFF7
000F
FFEC
000F
FFA4
FFC8
FFF1
0002
FFEA
FFA0
0025
0041
0004
FFFB
0027
FFFD
000E
0011
0026
FFDB
0026
FFEA
FFF6
FFBE
FFA6
FFAC
FFB0
FFD8
001C
FFF4
0007
FFC9
0006
0006
001B
FFCC
002A
FFC7
0032
0020
FFE5
FFB4
0011
FFC2
FFD3
FFD2
0039
0014
001F
FFE5
FFD0
001B
FFAB
FFB2
0034
FFC6
001F
FFAC
002E
0035
000F
FFDF
0029
0036
0002
001E
FFC0
FFE1
0005
FFF3
001D
FFDE
FFCE
0018
FFDB
FFF6
FFF9
FFE0
0044
FFCB
0032
002E
FFDB
FFEC
0009
0021
FFEE
FFB5
0026
004F
FFF3
FFDD
0003
FFD5
FFB8
004C
FFF0
FFFD
FFCB
FFB9
FFF5
0033
0042
FFE4
FFFD
FFFD
FFD2
0049
004B
0009
FFC5
FFD2
FFE8
001D
0013
FFE3
FFDA
001B
FFEB
0009
FFC5
0039
FFBE
0043
0033
001E
0007
0031
FFB6
FFB2
000D
FFD7
FFE5
FFC6
FFB9
FFE7
FFE8
FFF5
FFF7
FFD3
FFC0
0001
FFD8
FFF7
0004
FFE5
003A
FFC4
002F
FFCC
003A
0031
0018
000E
0031
0018
0047
0016
001D
002D
FFF2
0020
0028
FFF2
FFB8
0046
0018
000C
0017
0037
FFC5
FFC0
FFC7
002B
FFC7
000D
FFBD
FFF9
004C
0014
000D
0013
003F
0024
0033
FFF8
002C
FFFF
FFCD
FFBB
0014
FFF1
0047
0040
000D
FFD1
0003
FFBC
0016
FFC1
002E
FFED
FFDD
FFB7
FFDB
FFD4
FFB9
0020
FFFD
0033
FFE1
0024
003A
004B
FFDA
FFFC
0043
FFD4
FFCB
FFD9
FFC6
0018
000E
FFEA
0040
FFC9
FFEE
FFD6
FFCC
0032
FFDA
003F
FFEF
FFDA
FFE1
002B
FFE3
0049
0035
004B
FFC1
0033
FFD4
FFE3
FFCA
000E
000D
0038
000C
0001
0047
FFBB
FFBA
FFFF
003C
FFC8
FFB5
0025
FFC5
0026
FFE2
0020
FFB6
FFCB
FFE1
FFBC
FFBA
FFF4
0050
000B
FFD2
FFC7
002D
0011
003D
000F
FFD7
0009
FFD5
FFF0
0040
0010
FFD4
FFB0
0016
FFC3
003E
FFDB
FFE8
0005
FFBF
FFFE
0001
FFE4
001D
002B
FFE2
FFDB
0019
0001
002F
0015
FFB8
0037
0048
0019
FFEA
FFF4
002F
FFF0
0042
FFBE
002A
FFE4
0042
0037
003F
0017
FFB9
0003
FFBD
FFE2
0012
002B
FFD8
FFC7
FFF0
0036
001E
FFD6
FFC5
0022
003F
0047
FFD0
002B
0003
000F
FFFD
FFD3
003D
003E
FFE0
0009
0003
0020
0045
FFB2
002A
0037
FFC8
FFBD
003F
002A
0039
FFFD
003C
FFCA
FFD7
FFF4
FFF5
000D
FFE9
FFCD
0001
0023
001A
FFB3
001D
FFF1
FFFF
FFEE
001E
FFDE
FFBB
FFC2
002E
FFE2
FFE7
0037
001C
FFD1
FFCD
0046
0027
FFC6
FFE8
FFE5
0027
FFD3
FFEC
FFDF
0047
0015
0012
FFED
FFB4
FFFB
0003
FFF2
FFF8
0039
003F
FFC9
000F
FFE0
FFD4
FFF5
0042
FFDA
FFED
0043
0045
FFCD
000B
FFD6
002E
0044
FFD4
FFF8
0024
FFB8
FFF6
0008
FFC8
FFDC
FFF7
FFE1
0037
0031
003C
001D
FFE6
002B
0016
0031
FFF6
003D
FFE7
FFF1
FFC0
001D
FFBA
0039
004F
FFCA
FFC4
000E
0049
003B
FFFD
FFF7
FFBC
002B
0047
FFFC
0044
FFB8
FFC3
002F
FFF3
0030
004B
FFCF
FFF6
001A
004C
FFD5
0009
0035
002B
0022
0007
0008
0014
001E
0051
0050
0031
0026
0008
0003
FFF0
FFC5
FFF2
0028
002D
0021
FFD9
FFD3
FFE6
0025
004A
000E
FFF5
FFF6
000B
FFE3
0030
004A
0017
003E
FFC7
0027
0044
0027
FFCC
FFBC
002C
000E
FFBF
FFF2
FFF7
0030
004A
FFCE
FFB2
FFCD
FFF2
FFBE
FFDD
FFB2
FFEF
0015
FFBA
0032
FFD6
FFCE
0024
002F
004E
FFBC
002D
0018
FFD0
FFD9
FFCB
FFC6
FFC8
0028
FFC4
0006
002D
FFDF
FFCB
FFE4
FFE1
FFD7
0011
0022
004A
004A
0002
FFE1
0021
0036
FFF6
0008
FFBD
004E
FFCF
004A
0026
FFF3
FFD0
FFDE
FFDF
0040
0002
0031
FFFD
FFC8
FFE2
0008
0004
FFF1
0010
FFC7
0029
0023
000E
FFF2
FFCC
FFDF
0028
FFC0
000C
FFDD
FFF0
0031
FFF6
FFF3
FFB2
FFF8
FFFE
FFD4
0015
0016
003F
002C
0019
0041
0047
003B
004C
FFF7
FFEE
002A
001C
FFD1
FFCE
FFF8
FFF5
FFE6
FFF1
001E
FFD9
FFFC
FFD7
0013
FFF4
FFF7
FFF0
FFD5
FFD8
FFEC
FFF0
FFBA
FFEE
FFF2
FFDC
FFDA
0016
0034
FFF9
0001
FFD4
FFC2
003A
0033
FFFD
000E
FFEA
FFCB
0021
0043
0008
002C
FFDA
0030
0021
FFF7
FFE0
FFEE
FFEE
FFD5
0001
0006
001C
000C
003C
FFFA
0013
FFF2
0015
FFC2
004E
0004
FFC7
FFCF
004B
FFF0
FFBD
0002
FFE6
0046
0036
0043
FFE5
0007
FFC5
FFC2
FFBD
0012
FFD0
FFF4
0030
FFC8
0034
0017
0002
FFC7
FFEC
0005
003E
FFCF
FFCD
0037
FFC9
FFEB
FFD7
FFE9
0047
0013
0036
0034
0033
002D
000B
0020
FFCC
0032
FFC5
001B
FFF7
FFD6
FFC6
FFB6
000F
002D
FFC1
FFDF
FFD0
003F
FFF8
FFFC
FFD1
000E
FFD4
0003
0031
FFB3
FFB9
FFCD
FFF9
0046
FFC0
FFF0
FFE3
0034
0027
0039
001E
0028
0021
002A
0034
FFFD
0033
FFE9
FFEA
FFC7
FFFE
FFCC
001C
0006
001C
0020
0015
0022
FFE7
FFE8
0013
FFC8
0009
FFF4
FFD0
FFB6
002C
000D
0045
0021
0044
002C
0042
001F
0027
FFFA
0020
FFE5
0006
FFFA
004C
FFFE
FFCC
FFCA
FFEE
0004
0012
FFFB
0031
FFBC
0030
0018
001C
002F
FFBD
FFD9
FFB4
0002
FFE3
FFDB
0032
FFDA
FFD8
FFB6
FFC8
FFEE
0030
001D
FFD6
FFC5
FFD3
0010
0006
FFE5
FFE5
0038
0032
003C
FFFE
FFB5
FFDD
FFC0
FFB2
004F
004A
FFCF
001D
003A
0009
FFBB
FFE6
0023
0022
FFDA
FFEE
004B
0038
0041
0005
FFEA
FFCA
FFDD
FFDD
FFB3
FFD2
FFEC
0042
0026
FFC9
0015
FFC9
FFEB
FFE2
FFCA
FFCD
FFBA
001A
FFD0
FFFB
FFDC
0038
FFEE
001B
FFE2
FFF9
FFC2
FFDB
0014
FFCE
FFCC
0005
0026
FFBF
0011
0035
0026
FFD6
FFD0
0009
FFE7
0024
FFD5
FFC2
0012
0024
FFFD
0027
0047
004B
0017
FFC1
0012
FFEB
002A
FFC7
0003
0025
FFE5
0040
0036
0046
0048
003F
0047
000E
0015
FFC5
FFBE
0030
FFED
FFF1
FFBA
0043
0046
0025
0033
0035
0001
FFF8
FFBA
FFC1
0001
FFD1
FFC8
FFFC
001D
FFE1
FFBE
FFC0
003F
FFED
001E
FFE6
0026
002A
FFFC
0008
002B
001E
0016
0038
0010
002C
002A
FFD3
003A
0018
002F
0041
000E
FFE1
0049
0035
FFF1
0044
002F
0043
FFBB
0001
FFC1
FFE3
000B
004A
003B
002B
0043
FFE8
FFEE
0042
001A
FFDE
FFFF
0020
FFE1
001A
004E
0047
004C
FFDA
004B
0036
0006
0017
0006
FFEC
001B
FFC5
FFCF
FFD8
FFF3
FFEF
0035
FFF4
FFBF
FFE1
FFD4
FFD5
0049
FFFE
0034
0046
0013
FFEF
FFD5
0023
0005
001C
FFEA
002B
FFE0
FFD1
0011
FFB1
FFEB
004D
004F
0031
FFF1
000A
0038
FFEA
001F
004D
FFB8
FFC9
004D
004B
FFE2
FFE0
FFCD
0017
FFC0
0036
0025
0032
0005
004A
0045
0001
FFB3
FFE9
FFC0
FFB5
001B
FFD7
002E
004A
0025
003B
0028
0002
002F
003A
004C
FFD9
004B
0056
FFD2
001A
000C
0033
0041
FFC4
001A
0003
0000
FFE0
002C
FFFF
0040
0006
FFD4
000A
001B
0013
0046
0019
0049
0009
0035
000A
004F
FFCB
004A
0047
004D
0016
FFDE
FFF3
000C
FFC8
0035
FFFA
0030
FFBB
FFD1
FFE8
004D
FFD9
FFBF
FFBB
0053
0008
FFDC
FFEF
0026
0039
0042
0018
FFD7
001D
FFDE
0032
FFDA
FFD5
0038
0029
FFEE
0023
FFEA
FFFF
FFE0
0034
FFEF
0009
0043
FFF0
FFB2
FFF0
003E
FFBF
004E
0013
FFFF
002E
FFDB
0000
002F
FFE1
FFEA
FFE4
FFC7
0027
FFC7
0013
FFD4
0042
0009
0008
FFD8
0049
FFB8
FFE5
FFCB
0011
0006
FFCE
0019
FFCB
0037
004A
000E
FFE4
0020
FFF8
003D
003A
FFCD
FFF5
FFD4
FFD2
FFDF
0040
0026
0050
FFE7
FFD8
FFC8
FFBA
FFDC
FFCF
FFDC
0047
FFFA
FFBC
FFD9
0035
FFDD
0002
0017
FFCC
FFE4
FFE3
003A
0010
0002
FFF1
0039
FFC1
001F
0006
FFBD
FFE9
0043
FFD8
000D
FFE2
002C
FFE5
FFDD
0055
0001
FFD4
0015
FFC1
FFD7
002A
FFE3
0005
001D
FFE9
000E
0028
0049
002C
0027
0010
001B
0016
004C
003D
0010
0041
0004
0014
0030
001F
FFBB
FFC5
0012
002E
