0007
0002
FFFF
0007
0004
0005
0003
0002
0002
FFFE
0003
0000
0004
000D
0003
0004
0004
0005
0000
0000
0002
0006
0007
0004
0003
0003
0003
0003
0002
0005
0007
0001
0004
0002
FFFA
0008
0005
0004
FFFF
0002
0003
0003
0009
0007
FFFE
0008
0002
0009
0002
0007
FFFF
0005
000C
0003
0001
FFFF
0002
000A
0007
0008
0004
FFFF
0005
000D
0006
0007
0007
0001
0005
0002
0002
0005
0008
0005
0007
0004
0002
0006
0002
0005
0005
0007
0005
0002
0005
0004
FFFF
0000
FFFF
0003
0009
0003
0004
FFFE
0004
0007
0005
000A
0008
0006
0001
0006
0006
0005
0007
0005
0002
0001
0002
0000
0002
0005
0008
0004
0007
0002
0004
0002
0003
0004
0001
0003
0001
0006
0009
0006
0005
0005
0006
0008
0007
0001
0005
0007
0005
0001
0003
0003
FFFE
0001
FFFD
0008
0001
0004
0004
0001
0003
0006
0006
0006
0001
0009
0009
0007
0007
0004
0009
0002
FFFD
0004
0002
0004
0006
0003
0003
0006
0007
0008
0004
0005
0001
FFFF
0003
0006
0007
0007
0005
0004
FFFF
0001
0007
0004
FFFF
0001
0000
0006
0006
0005
0005
0003
0004
0006
0005
0008
0005
0004
FFFE
0002
FFFF
0006
0006
0004
0001
0006
0005
0004
FFFE
0000
0002
0006
0003
0008
0007
0001
0006
0007
0007
0002
000A
0005
0007
0009
0005
0001
FFFE
FFFF
FFFE
0005
0005
FFFF
0007
0008
0009
0001
FFFC
FFFE
0003
0005
0007
0008
0005
0005
0005
0007
0005
0002
0001
FFFE
FFFE
0004
0009
0005
0004
0002
0001
0003
0004
0002
FFFC
0001
0009
0001
0000
FFFF
FFFE
0001
0007
FFFE
0006
0007
0008
0006
0007
0009
0002
0005
0001
0003
0008
FFFF
0003
0003
0003
0004
FFFE
0004
FFFF
0004
0002
0003
0002
0002
FFFF
0005
0004
0004
0000
0001
0006
0003
0007
0004
0003
0005
0003
0004
0002
0009
0001
FFFE
0000
FFFF
0003
0004
0008
0006
0009
0004
0006
0005
0004
0001
0005
0009
0002
0005
0002
0005
0005
0002
0006
FFFE
FFFF
0005
000A
0001
0006
0002
0004
FFFE
0001
0004
0004
FFFE
0006
0008
0005
0009
0005
0005
0005
0003
0004
0002
0004
0002
0001
0008
0002
0004
0002
0002
FFFF
000E
0001
0001
0005
0004
0004
0009
0003
0005
0004
0009
0001
0002
0008
000B
0005
0007
0005
0006
0007
0002
0007
0005
0007
000B
0007
0000
0002
0005
0003
0001
FFFC
0006
0003
0004
0005
0008
0005
0003
0002
0007
0006
0004
0006
0004
0006
0002
0008
FFFF
0000
0004
0003
0003
0001
0006
0006
0001
FFFE
0004
0005
0005
0002
0001
0004
0006
0001
0003
0006
0008
0000
0006
0009
0004
0005
0000
0002
0007
0009
0006
FFFE
0006
0001
0003
0005
0005
FFFE
0007
0006
0001
0003
0003
FFFF
0006
000A
0003
0003
0001
0003
0007
0000
0007
FFFF
0002
0003
0002
0001
0005
0009
0004
0005
0005
0004
0006
0003
0002
FFFF
0001
0002
0008
0004
FFFF
0007
0009
0005
0002
0005
0007
0004
0004
0005
0007
0006
0003
FFFE
0001
0006
0006
0002
0004
0002
0005
0002
0000
FFFF
FFFD
0002
0000
000B
0006
0001
0001
0002
0003
0000
FFFE
0003
0003
0006
0006
0007
0003
0001
0006
0009
0005
0004
0005
0002
0002
FFFB
0001
0007
FFF9
0002
0005
0006
0004
0005
0005
FFFF
0001
0000
0001
0007
0005
0008
0008
0007
0005
0004
0001
0003
0006
0002
000A
0003
0002
FFFF
0006
0004
FFFA
0005
0002
0004
0001
0008
0006
FFFC
FFFE
FFFD
0003
0004
0003
0004
0004
0008
0004
0002
0001
0007
0002
0004
0008
0001
0001
0003
0003
0007
0005
0003
0004
0005
0005
0005
0000
FFFE
FFFE
0000
0005
0005
0004
0007
0007
0006
0007
0007
0005
0007
0003
0003
0002
0003
0001
0005
0004
FFFE
0002
0005
0003
0004
0003
0003
0002
0006
0007
000A
0009
0003
0008
0006
0007
0009
FFFF
000B
0007
0006
0006
FFFF
FFFE
0008
0007
0001
0004
FFFF
0002
0005
0002
0005
FFFF
0001
0005
0007
0002
0006
0007
0004
0007
0004
0008
0007
0007
0006
0001
0000
0002
0002
0004
0008
FFFF
0000
0003
0005
0004
0001
0002
FFFF
0004
0001
0003
0001
0003
0002
0000
0005
0008
0003
0005
0005
0003
000A
0007
0005
0008
0004
0008
0009
0006
0007
0001
0009
FFFF
0006
0000
0001
0004
0000
0006
FFFF
0002
0004
0001
0001
0003
0007
0000
0005
0003
0006
0004
0002
0006
0006
0005
0006
0004
0008
0005
0008
FFFF
FFFD
0007
FFFF
0005
0007
0007
FFFD
0003
0002
0007
0003
0009
0004
0005
0003
000A
0007
0003
0000
0004
0002
0008
0001
FFFF
0005
FFFE
FFFE
0002
0002
0001
0000
0005
0003
FFFC
0006
0003
0002
0001
0001
0007
0003
0004
0002
0002
0006
0003
0000
FFFF
0002
0006
0000
0006
