005B
0042
0024
00A4
0077
0053
0066
009A
0060
0080
008E
004A
004C
0083
0083
0098
00A2
00B6
0082
003B
009D
0075
008B
0085
00A5
00A4
008A
006A
0088
0097
0048
0045
0025
0088
0095
0049
00A4
00A7
0047
00B5
0089
00B7
009E
0090
0077
0063
006B
00A7
0059
0086
0081
0058
0096
005A
007A
0035
0063
009B
0098
0074
0056
0090
00A0
0060
0070
0046
007F
0078
0097
0059
0044
009B
0055
008F
006F
008C
0091
0048
00A8
0066
0083
00A0
007F
009B
0031
00A8
009A
007B
0060
0088
008C
004C
006D
0061
0068
0050
005B
0093
008C
0041
008E
00A1
0098
0044
0091
0084
0093
00A9
0098
00A4
00A9
005C
00AA
002F
0085
005E
006A
008A
0079
0080
0060
009B
008A
006F
00B1
005D
0089
0097
004E
0081
0090
0044
0091
0073
006B
0045
008F
0091
0073
008B
00A1
0090
007E
0090
0070
0099
0055
009D
008E
00A4
002A
005D
0087
0028
009B
00A4
0072
001F
007C
0081
0086
004E
0089
007C
0062
0081
0066
006C
0092
0018
008A
0093
00A6
0075
0084
00A9
001F
00AC
0081
007C
004B
0078
004D
0097
002F
0095
00AA
0085
009B
005C
00AE
0086
0062
00A7
0086
004C
009D
0095
009D
0089
0088
00B4
003F
00AE
0059
008F
00A9
009C
008B
00B7
0097
006E
0062
007D
00AC
0073
0035
0093
0090
0091
0074
0051
0099
00A1
0076
0085
0076
0094
0081
009F
0018
0083
0049
00A8
00CA
00A7
0082
0094
005F
0069
007F
00A2
0078
008B
0088
0096
0058
00AA
008D
0096
0043
001F
0093
0011
008D
005C
